<unk>	0
<s>	0
</s>	0
不错	-0
!!	-1
。。	-2
质量	-3
很好	-4
没有	-5
东西	-6
33	-7
可以	-8
就是	-9
喜欢	-10
非常	-11
一个	-12
京东	-13
..	-14
he	-15
不是	-16
这个	-17
ll	-18
买的	-19
ip	-20
不好	-21
hell	-22
hellip	-23
满意	-24
收到	-25
!!!!	-26
什么	-27
一般	-28
感觉	-29
有点	-30
快递	-31
。。。。	-32
还是	-33
客服	-34
物流	-35
一次	-36
3333	-37
包装	-38
uo	-39
quo	-40
买了	-41
怎么	-42
▁质量	-43
dquo	-44
;&	-45
一样	-46
垃圾	-47
价格	-48
▁还	-49
衣服	-50
知道	-51
服务	-52
自己	-53
好好	-54
,,	-55
也不	-56
发货	-57
好的	-58
差评	-59
很喜欢	-60
问题	-61
颜色	-62
。\	-63
??	-64
卖家	-65
而且	-66
起来	-67
但是	-68
还可以	-69
差差	-70
图片	-71
舒服	-72
▁东西	-73
一点	-74
态度	-75
太差	-76
做工	-77
效果	-78
比较	-79
不知道	-80
速度	-81
味道	-82
....	-83
值得	-84
▁很	-85
时候	-86
用了	-87
这样	-88
不能	-89
33333333	-90
便宜	-91
购买	-92
以后	-93
00	-94
退货	-95
真的	-96
给我	-97
朋友	-98
漂亮	-99
根本	-100
都不	-101
时间	-102
商家	-103
不错的	-104
不过	-105
了一	-106
这么	-107
孩子	-108
ldquo	-109
rdquo	-110
都是	-111
内容	-112
购物	-113
鞋子	-114
产品	-115
现在	-116
一直	-117
还行	-118
!!!	-119
还不错	-120
好评	-121
的是	-122
~~	-123
使用	-124
▁这	-125
我们	-126
!!!!!!!!	-127
▁不	-128
希望	-129
合适	-130
已经	-131
那么	-132
失望	-133
大家	-134
商品	-135
也很	-136
方便	-137
特别	-138
还没	-139
好看	-140
不要	-141
的东西	-142
还有	-143
送货	-144
结果	-145
里面	-146
▁不错	-147
宝贝	-148
本书	-149
正品	-150
来的	-151
▁我	-152
用的	-153
挺好的	-154
下次	-155
穿着	-156
联系	-157
很多	-158
应该	-159
给力	-160
太慢	-161
不值	-162
▁衣服	-163
▁很好	-164
电话	-165
第一次	-166
评价	-167
第二	-168
20	-169
。。。。。。。。	-170
很不错	-171
很满意	-172
很快	-173
也是	-174
款式	-175
的一次	-176
不会	-177
你们	-178
发票	-179
真心	-180
大小	-181
的时候	-182
as	-183
。。。	-184
▁太	-185
觉得	-186
发现	-187
完全	-188
非常满意	-189
人的	-190
其他	-191
到了	-192
因为	-193
真是	-194
不一样	-195
收到了	-196
的一	-197
还好	-198
回来	-199
想象	-200
适合	-201
坏了	-202
天就	-203
das	-204
推荐	-205
在京东	-206
只能	-207
不到	-208
宝宝	-209
dash	-210
mdash	-211
一下	-212
店家	-213
实用	-214
不了	-215
收到货	-216
▁物流	-217
的书	-218
▁不好	-219
两个	-220
这个价	-221
都没有	-222
中的	-223
▁一般	-224
3333333333333333	-225
他们	-226
非常好	-227
质量很好	-228
▁书	-229
直接	-230
太差了	-231
建议	-232
还不	-233
服务态度	-234
打开	-235
10	-236
开始	-237
的人	-238
中国	-239
挺好	-240
差差差差	-241
▁宝贝	-242
大了	-243
超级	-244
▁好	-245
11	-246
看着	-247
小了	-248
还会	-249
无语	-250
如果	-251
这是	-252
学习	-253
看起来	-254
好好好好	-255
我的	-256
很舒服	-257
安装	-258
实物	-259
居然	-260
为什么	-261
上的	-262
容易	-263
很差	-264
所以	-265
读书	-266
手机	-267
售后	-268
好了	-269
只是	-270
裤子	-271
很大	-272
实惠	-273
上当	-274
看到	-275
实在	-276
就不	-277
▁买	-278
怎么样	-279
出来	-280
,,,,	-281
▁还可以	-282
描述	-283
▁鞋子	-284
设计	-285
让我	-286
的好	-287
▁这个	-288
哈哈	-289
▁垃圾	-290
有一	-291
麻烦	-292
**	-293
不太	-294
需要	-295
面料	-296
送的	-297
严重	-298
之前	-299
也没	-300
不满意	-301
这样的	-302
几天	-303
有些	-304
本来	-305
说是	-306
活动	-307
都没	-308
????	-309
质量不错	-310
这种	-311
到货	-312
很漂亮	-313
手感	-314
▁没有	-315
穿上	-316
过来	-317
这次	-318
公司	-319
▁感觉	-320
的一次购物	-321
看看	-322
坏的	-323
换货	-324
地方	-325
赠品	-326
不上	-327
色的	-328
一分	-329
也没有	-330
那个	-331
下单	-332
还要	-333
声音	-334
)\	-335
网上	-336
知识	-337
色差	-338
........	-339
今天	-340
太慢了	-341
▁没	-342
塑料	-343
掉了	-344
不行	-345
历史	-346
穿了	-347
性价	-348
▁快递	-349
可能	-350
好多	-351
只有	-352
也很好	-353
外观	-354
一看	-355
不多	-356
清晰	-357
▁还不错	-358
虽然	-359
之后	-360
▁非常	-361
性价比	-362
是不是	-363
最后	-364
明显	-365
正版	-366
▁还行	-367
和图片	-368
非常满意非常满意	-369
品牌	-370
以为	-371
错了	-372
介绍	-373
生活	-374
▁包装	-375
后悔	-376
好用	-377
呵呵	-378
第三	-379
简单	-380
个月	-381
▁给	-382
基本	-383
说明	-384
以前	-385
CD	-386
简直	-387
还没有	-388
竟然	-389
第一	-390
是正品	-391
可是	-392
让人	-393
也不错	-394
总体	-395
上去	-396
精致	-397
▁\	-398
假货	-399
退了	-400
粗糙	-401
来说	-402
懒得	-403
换了	-404
要求	-405
面的	-406
拿到	-407
说了	-408
大的	-409
天才	-410
网购	-411
~~~~	-412
订单	-413
别人	-414
牌子	-415
!\	-416
12	-417
算了	-418
15	-419
这家	-420
部分	-421
买东西	-422
喜欢的	-423
▁刚	-424
无法	-425
要的	-426
星期	-427
是我	-428
显示	-429
照片	-430
影响	-431
几次	-432
确实	-433
解决	-434
说的	-435
实际	-436
看了	-437
一起	-438
然后	-439
打电话	-440
处理	-441
工作	-442
样子	-443
电池	-444
不值这个价	-445
京东的	-446
不符	-447
运费	-448
要是	-449
千万	-450
▁不是	-451
再也不	-452
▁质量很好	-453
多了	-454
一个月	-455
太大	-456
绝对	-457
很有	-458
发货速度	-459
不同	-460
不想	-461
意思	-462
▁还没	-463
▁颜色	-464
这本书	-465
!!!!!!!!!!!!!!!!	-466
尺码	-467
杯子	-468
的货	-469
小时	-470
一般般	-471
很好看	-472
申请	-473
值得购买	-474
包包	-475
儿子	-476
研究	-477
实体	-478
掉色	-479
谢谢	-480
自己的	-481
送到	-482
～～	-483
▁买了	-484
电脑	-485
继续	-486
有问题	-487
是一	-488
阅读	-489
差不多	-490
有点小	-491
世界	-492
再来	-493
故事	-494
清楚	-495
消费	-496
贵了	-497
▁差评	-498
的感觉	-499
大小合适	-500
有的	-501
也就	-502
对于	-503
很不	-504
的质量	-505
了一下	-506
实体店	-507
13	-508
尺寸	-509
上面	-510
价钱	-511
去了	-512
专业	-513
收货	-514
选择	-515
很好很好	-516
▁做工	-517
技术	-518
假的	-519
没什么	-520
块钱	-521
支持	-522
作者	-523
▁东西不错	-524
19	-525
▁用	-526
不知	-527
充电	-528
、、	-529
其实	-530
就没	-531
▁质量不错	-532
啊啊	-533
▁什么	-534
▁一般般	-535
▁挺好的	-536
不要买	-537
第二次	-538
--	-539
社会	-540
经典	-541
骗子	-542
了一个	-543
不说	-544
盒子	-545
▁货	-546
下来	-547
买来	-548
功能	-549
教育	-550
▁用了	-551
任何	-552
出版	-553
精细	-554
相信	-555
这些	-556
差差差差差差差差	-557
后来	-558
1.	-559
不够	-560
个人	-561
明明	-562
▁有	-563
回复	-564
的小	-565
老婆	-566
消费者	-567
▁一	-568
出现	-569
的一样	-570
质量好	-571
一些	-572
人员	-573
失败	-574
情况	-575
▁商品	-576
16	-577
所值	-578
没法	-579
玩意	-580
价廉	-581
配送	-582
音质	-583
为了	-584
不给	-585
整体	-586
不是很	-587
几个	-588
刚好	-589
客户	-590
注意	-591
▁挺	-592
书的	-593
女儿	-594
就坏了	-595
垃圾垃圾	-596
联系客服	-597
一定	-598
好像	-599
如何	-600
小孩	-601
的很	-602
100	-603
▁价格	-604
礼物	-605
▁味道	-606
买回来	-607
过了	-608
不敢	-609
各种	-610
相当	-611
系统	-612
评论	-613
不好用	-614
14	-615
▁送	-616
印刷	-617
这款	-618
方法	-619
我就	-620
空间	-621
。&	-622
发了	-623
不怎么样	-624
妈妈	-625
负责	-626
里面的	-627
慢慢	-628
穿起来	-629
跟图片	-630
▁帮	-631
▁京东	-632
下的	-633
告诉	-634
了解	-635
差的	-636
必须	-637
信息	-638
划算	-639
别的	-640
死了	-641
舒适	-642
都有	-643
信赖	-644
当时	-645
快的	-646
等了	-647
材质	-648
样式	-649
理解	-650
;,	-651
;\	-652
an	-653
原因	-654
发错	-655
文学	-656
薄了	-657
不对	-658
同事	-659
地摊	-660
家的	-661
才能	-662
浪费	-663
赞一个	-664
非常喜欢	-665
再买	-666
作品	-667
不像	-668
保温	-669
凑合	-670
发展	-671
破了	-672
不是很好	-673
这个价格	-674
乐园	-675
发的	-676
学生	-677
都不好	-678
。。。。。。。。。。。。。。。。	-679
▁说	-680
准备	-681
文化	-682
结实	-683
音乐	-684
一本	-685
买到	-686
回去	-687
想到	-688
或者	-689
不怎么	-690
太大了	-691
不錯	-692
丰富	-693
人生	-694
欲乐园	-695
还不如	-696
东东	-697
总之	-698
新的	-699
老板	-700
),	-701
作用	-702
年的	-703
我是	-704
两天	-705
仔细	-706
反应	-707
柔软	-708
气味	-709
物美	-710
破损	-711
纸张	-712
18	-713
两次	-714
优惠	-715
基础	-716
太小	-717
我想	-718
过的	-719
通过	-720
...	-721
上当了	-722
想象中的	-723
时尚	-724
精美	-725
上了	-726
差劲	-727
给个	-728
200	-729
不舒服	-730
太小了	-731
估计	-732
作为	-733
写的	-734
别买	-735
期待	-736
生产	-737
用着	-738
袜子	-739
除了	-740
的问题	-741
光顾	-742
放在	-743
▁发货	-744
in	-745
一天	-746
家里	-747
意义	-748
才到	-749
方面	-750
还算	-751
▁收到	-752
也很快	-753
很一般	-754
很给力	-755
非常满意非常满意非常满意非常满意	-756
▁和	-757
标准	-758
▁裤子	-759
看起来不错	-760
你的	-761
十分	-762
可爱	-763
这里	-764
无语了	-765
第三方	-766
寂寂	-767
收藏	-768
空山	-769
空山寂寂	-770
老公	-771
起球	-772
签收	-773
2.	-774
买家	-775
办法	-776
差距	-777
帮助	-778
超市	-779
重要	-780
▁一直	-781
▁内容	-782
▁送货	-783
一分货	-784
到现在	-785
半个月	-786
段时间	-787
的味道	-788
一致	-789
看不	-790
▁第一次	-791
多少	-792
太不	-793
异味	-794
晚上	-795
那样	-796
醉了	-797
很实用	-798
习惯	-799
体验	-800
很好用	-801
都不想	-802
不错不错	-803
30	-804
▁比	-805
其中	-806
档次	-807
读者	-808
邮费	-809
主要	-810
也好	-811
他的	-812
反正	-813
后面	-814
怀疑	-815
操作	-816
没用	-817
的要	-818
系列	-819
考虑	-820
那么好	-821
偏小	-822
全是	-823
另外	-824
开了	-825
很高	-826
烂了	-827
的话	-828
很方便	-829
这个刁	-830
客服态度	-831
、《	-832
图书	-833
干净	-834
开心	-835
扔了	-836
重新	-837
一点都不	-838
这个刁哟	-839
▁质量一般	-840
不咋	-841
差别	-842
也不好	-843
以及	-844
放心	-845
质量一般	-846
厚实	-847
合身	-848
同时	-849
品质	-850
我要	-851
盗版	-852
管理	-853
自营	-854
那种	-855
郁闷	-856
???	-857
不能用	-858
还是不错的	-859
50	-860
人了	-861
变形	-862
。。。。。	-863
考试	-864
详细	-865
500	-866
地摊货	-867
失望了	-868
应该是	-869
是什么	-870
▁还行吧	-871
物美价廉	-872
断了	-873
送了	-874
一样的	-875
很失望	-876
的地方	-877
不理	-878
合理	-879
回事	-880
终于	-881
还没用	-882
下次还会	-883
布料	-884
心情	-885
掉毛	-886
这一	-887
鞋底	-888
▁有点	-889
根本就	-890
恶心	-891
料子	-892
欺骗	-893
电影	-894
肯定	-895
顾客	-896
太多	-897
思想	-898
成了	-899
提供	-900
正常	-901
线头	-902
英语	-903
▁还好	-904
下次还	-905
实在是	-906
用起来	-907
就是有点	-908
40	-909
厂家	-910
原来	-911
▁真心	-912
客服说	-913
▁不满意	-914
▁不错的	-915
了点	-916
做的	-917
光盘	-918
确认	-919
稍微	-920
▁产品	-921
就好了	-922
▁宝贝收到了	-923
er	-924
一种	-925
参考	-926
子的	-927
***	-928
给差评	-929
购买的	-930
▁很不错	-931
还可以吧	-932
其它	-933
暖和	-934
洗了	-935
,,,	-936
▁款式	-937
在网上	-938
是坏的	-939
第二天就	-940
一件	-941
不起	-942
划痕	-943
大学	-944
提高	-945
正好	-946
物有	-947
玩具	-948
目前	-949
箱子	-950
好好好	-951
不如	-952
是否	-953
那些	-954
垃圾了	-955
快递员	-956
非常的	-957
学者	-958
拆开	-959
网络	-960
▁卖家	-961
还行吧	-962
包括	-963
北京	-964
外面	-965
好大	-966
市场	-967
投诉	-968
瑕疵	-969
经济	-970
过程	-971
1:	-972
不得	-973
完了	-974
文字	-975
来了	-976
花了	-977
解释	-978
进去	-979
不用	-980
保护	-981
总是	-982
有个	-983
说什么	-984
60	-985
oo	-986
也挺	-987
关键	-988
接受	-989
正在	-990
能够	-991
进行	-992
很好的	-993
给我发	-994
这么多	-995
价值	-996
及时	-997
▁真的	-998
一本书	-999
17	-1000
▁看	-1001
买过	-1002
哪里	-1003
左右	-1004
棉的	-1005
美国	-1006
▁就是	-1007
包装很	-1008
物有所值	-1009
!!!!!	-1010
AA	-1011
保暖	-1012
可惜	-1013
耳机	-1014
黑色	-1015
有一个	-1016
特别好	-1017
那么多	-1018
一点都不好	-1019
????????	-1020
封面	-1021
拉链	-1022
机器	-1023
能用	-1024
螺丝	-1025
就这样	-1026
朋友买的	-1027
一星	-1028
国家	-1029
坑了	-1030
如此	-1031
我在	-1032
难道	-1033
▁买的	-1034
▁实物	-1035
一分钱	-1036
想象的	-1037
这个牌子	-1038
3.	-1039
中间	-1040
区别	-1041
师傅	-1042
普通	-1043
经常	-1044
连接	-1045
》、《	-1046
几天就	-1047
on	-1048
付款	-1049
到手	-1050
厉害	-1051
的心	-1052
自动	-1053
越来	-1054
心的	-1055
手表	-1056
方式	-1057
毕竟	-1058
没人	-1059
相差	-1060
不喜欢	-1061
越来越	-1062
速度快	-1063
值得推荐	-1064
35	-1065
全部	-1066
日期	-1067
盖子	-1068
想象中	-1069
。。。。。。	-1070
沟通	-1071
颗星	-1072
▁《	-1073
▁小	-1074
不少	-1075
很难	-1076
教材	-1077
次品	-1078
没想到	-1079
▁跟	-1080
不足	-1081
也有	-1082
保证	-1083
像是	-1084
透气	-1085
不太好	-1086
我也是	-1087
分钟	-1088
发生	-1089
只要	-1090
大气	-1091
家人	-1092
物品	-1093
真实	-1094
能力	-1095
的购物	-1096
一个星期	-1097
▁是	-1098
三个	-1099
书籍	-1100
皮质	-1101
退款	-1102
▁看着	-1103
不建议	-1104
与图片	-1105
出版社	-1106
好看的	-1107
退货了	-1108
买个	-1109
很久	-1110
成为	-1111
拥有	-1112
材料	-1113
理想	-1114
都说	-1115
太差劲	-1116
才收到	-1117
拿到手	-1118
*,	-1119
也能	-1120
健康	-1121
本人	-1122
每次	-1123
诚信	-1124
▁包包	-1125
一般的	-1126
清晰的	-1127
第二天	-1128
am	-1129
··	-1130
事情	-1131
出的	-1132
性的	-1133
找到	-1134
的不	-1135
穿的	-1136
还说	-1137
出来的	-1138
只能说	-1139
价格实惠	-1140
:&	-1141
RR	-1142
ha	-1143
不在	-1144
哲学	-1145
好货	-1146
安全	-1147
所谓	-1148
码数	-1149
让你	-1150
价格也	-1151
发错了	-1152
质量差	-1153
效果不错	-1154
都不想给	-1155
上门	-1156
口感	-1157
并且	-1158
很薄	-1159
昨天	-1160
本身	-1161
艺术	-1162
说话	-1163
值得信赖	-1164
做工精细	-1165
DV	-1166
▁大	-1167
▁差	-1168
上海	-1169
担心	-1170
白色	-1171
自然	-1172
以为是	-1173
quot	-1174
价格便宜	-1175
性价比高	-1176
一分钱一分货	-1177
出了	-1178
多的	-1179
慎重	-1180
看的	-1181
首先	-1182
的一本	-1183
说明书	-1184
▁很喜欢	-1185
质量太差	-1186
?\	-1187
地址	-1188
屏幕	-1189
眼睛	-1190
还能	-1191
配件	-1192
DVD	-1193
我买的	-1194
,2	-1195
了吧	-1196
先生	-1197
半天	-1198
夏天	-1199
就有	-1200
漏水	-1201
红色	-1202
里的	-1203
降价	-1204
主要是	-1205
ar	-1206
下午	-1207
分析	-1208
同样	-1209
学术	-1210
完成	-1211
怎样	-1212
我都	-1213
用过	-1214
骗了	-1215
说好的	-1216
书中	-1217
儿童	-1218
小说	-1219
教学	-1220
耐心	-1221
遇到	-1222
(1:	-1223
差差差	-1224
质量也	-1225
质量不好	-1226
质量问题	-1227
80	-1228
小心	-1229
工艺	-1230
是个	-1231
行政	-1232
▁很漂亮	-1233
▁质量太差	-1234
好好好好好好好好	-1235
不可	-1236
买书	-1237
出去	-1238
实话	-1239
小的	-1240
感受	-1241
生意	-1242
茶叶	-1243
获得	-1244
装的	-1245
货了	-1246
送给	-1247
外包装	-1248
很合适	-1249
我自己	-1250
收到的	-1251
▁这本书	-1252
京东客服	-1253
就是物流	-1254
不知道是不是	-1255
不断	-1256
定的	-1257
果断	-1258
次了	-1259
纸质	-1260
经历	-1261
错误	-1262
天才到	-1263
够清晰的	-1264
效果很好	-1265
这个价钱	-1266
cc	-1267
不住	-1268
人家	-1269
很棒	-1270
要买	-1271
许多	-1272
长了	-1273
发过来	-1274
朋友的	-1275
物流也	-1276
真的是	-1277
挺不错的	-1278
的一次网购	-1279
穿着很舒服	-1280
够清晰的还好	-1281
▁鞋	-1282
一边	-1283
二十	-1284
传奇	-1285
偏大	-1286
充满	-1287
坑人	-1288
少了	-1289
就更	-1290
工具	-1291
整个	-1292
最差	-1293
极差	-1294
现代	-1295
搞活动	-1296
有点大	-1297
▁太差了	-1298
很不错的	-1299
描述的一样	-1300
,,,,,,,,	-1301
够清晰的还好够清晰的还好	-1302
不大	-1303
人类	-1304
将就	-1305
快乐	-1306
忽悠	-1307
检查	-1308
电视	-1309
给你	-1310
认为	-1311
读物	-1312
▁可以	-1313
▁挺好	-1314
就可以	-1315
没有任何	-1316
物流很快	-1317
很好很好很好很好	-1318
................	-1319
差差差差差差差差差差差差差差差差	-1320
下去	-1321
商城	-1322
多久	-1323
多次	-1324
尤其	-1325
就像	-1326
愉快	-1327
成功	-1328
科学	-1329
amp	-1330
▁总体	-1331
▁速度	-1332
看上去	-1333
送人的	-1334
问客服	-1335
▁质量好	-1336
懒得退了	-1337
》,	-1338
所有	-1339
旧的	-1340
理论	-1341
老师	-1342
耐用	-1343
这家店	-1344
▁非常好	-1345
一段时间	-1346
es	-1347
关系	-1348
咨询	-1349
容量	-1350
就会	-1351
父母	-1352
过去	-1353
风格	-1354
▁孩子	-1355
不方便	-1356
我觉得	-1357
br	-1358
。,	-1359
了好	-1360
五星	-1361
传统	-1362
倒是	-1363
到底	-1364
到的	-1365
回家	-1366
弹性	-1367
我说	-1368
理由	-1369
皮肤	-1370
看见	-1371
精神	-1372
美观	-1373
表现	-1374
香味	-1375
▁外观	-1376
太薄了	-1377
有点慢	-1378
骗人的	-1379
0000	-1380
以后还会	-1381
没有色差	-1382
▁就	-1383
全彩	-1384
全面	-1385
再次	-1386
吃的	-1387
好书	-1388
存在	-1389
帽子	-1390
甚至	-1391
细致	-1392
超值	-1393
退换	-1394
the	-1395
买了两	-1396
很不好	-1397
我们的	-1398
描述的	-1399
都很好	-1400
▁为什么	-1401
▁收到货	-1402
~~~~~~~~	-1403
5.	-1404
三天	-1405
关注	-1406
卖的	-1407
图案	-1408
很正	-1409
教师	-1410
由于	-1411
维修	-1412
翻译	-1413
补发	-1414
表面	-1415
送人	-1416
发货快	-1417
负责任	-1418
过来的	-1419
非常差	-1420
怎么回事	-1421
简直就是	-1422
▁质量不好	-1423
很好很不错	-1424
用吧	-1425
真皮	-1426
身上	-1427
▁面料	-1428
其他的	-1429
实用的	-1430
的就是	-1431
▁还没有	-1432
▁还可以吧	-1433
22	-1434
;。	-1435
不管	-1436
了我	-1437
几十	-1438
很小	-1439
版本	-1440
袋子	-1441
运动	-1442
难看	-1443
▁比较	-1444
不适合	-1445
退换货	-1446
买的时候	-1447
下了	-1448
也许	-1449
书店	-1450
人们	-1451
带着	-1452
政治	-1453
码的	-1454
语言	-1455
责任	-1456
车子	-1457
通知	-1458
上档次	-1459
不好看	-1460
来评价	-1461
特别是	-1462
还没看	-1463
不知道是	-1464
太垃圾了	-1465
不仅	-1466
发来	-1467
唯一	-1468
得到	-1469
感谢	-1470
我还	-1471
有了	-1472
质感	-1473
hao	-1474
就算了	-1475
想退货	-1476
哈哈哈哈	-1477
感觉不错	-1478
还是可以	-1479
非常不错	-1480
欲乐园欲乐园	-1481
一双	-1482
伤心	-1483
具有	-1484
吉祥	-1485
平时	-1486
恭维	-1487
歌曲	-1488
每天	-1489
老是	-1490
蜗牛	-1491
见过	-1492
▁买来	-1493
下的单	-1494
了很多	-1495
很精致	-1496
才知道	-1497
没办法	-1498
满意的	-1499
的时间	-1500
▁还没用	-1501
卖家服务	-1502
大家不要	-1503
▁东西很好	-1504
▁发货速度	-1505
买谁	-1506
你家	-1507
信号	-1508
几乎	-1509
十一	-1510
因此	-1511
多月	-1512
强烈	-1513
生气	-1514
看来	-1515
网站	-1516
而是	-1517
试试	-1518
貨快	-1519
能不能	-1520
▁不好用	-1521
4.	-1522
一会	-1523
下單	-1524
从来	-1525
來了	-1526
兴趣	-1527
咖啡	-1528
工程	-1529
电子	-1530
电源	-1531
真正	-1532
眼镜	-1533
碎了	-1534
算是	-1535
送来	-1536
都能	-1537
▁根本	-1538
▁超级	-1539
刚刚好	-1540
的产品	-1541
购买了	-1542
东西不错	-1543
具体	-1544
各位	-1545
外语	-1546
如意	-1547
完美	-1548
年前	-1549
必备	-1550
打了	-1551
马上	-1552
也可以	-1553
没收到	-1554
的内容	-1555
的态度	-1556
都不错	-1557
太差劲了	-1558
穿着舒服	-1559
下單第二天就	-1560
下單第二天就來了	-1561
下面	-1562
之间	-1563
二手	-1564
人物	-1565
凤凰	-1566
力量	-1567
却是	-1568
在这	-1569
大方	-1570
广告	-1571
得很	-1572
慢的	-1573
成长	-1574
文章	-1575
明白	-1576
果然	-1577
热情	-1578
的了	-1579
科书	-1580
谨慎	-1581
还在	-1582
销售	-1583
一点点	-1584
太麻烦	-1585
就掉了	-1586
效果好	-1587
送貨快	-1588
1111	-1589
我很喜欢	-1590
挺喜欢的	-1591
!!!!!!!!!!!!	-1592
6.	-1593
之一	-1594
以上	-1595
冬天	-1596
制作	-1597
型号	-1598
太硬	-1599
属于	-1600
扣子	-1601
更好	-1602
每个	-1603
游戏	-1604
生日	-1605
的大	-1606
皮带	-1607
练习	-1608
買的	-1609
随便	-1610
骗人	-1611
也不是	-1612
谁买谁	-1613
京东自营	-1614
在京东买东西	-1615
一条	-1616
不然	-1617
不爽	-1618
交易	-1619
前面	-1620
天天	-1621
宣传	-1622
当然	-1623
我家	-1624
是给	-1625
覺得	-1626
讲解	-1627
这本	-1628
配套	-1629
鼠标	-1630
▁怎么	-1631
▁本来	-1632
不给力	-1633
挺快的	-1634
挺舒服	-1635
教科书	-1636
是一个	-1637
让我们	-1638
下次还来	-1639
不是正品	-1640
千万别买	-1641
以后再也不	-1642
服务态度很好	-1643
).	-1644
▁对	-1645
似的	-1646
店里	-1647
我也	-1648
烂的	-1649
的说	-1650
细节	-1651
良心	-1652
蓝色	-1653
▁宝宝	-1654
黑色的	-1655
不敢恭维	-1656
啊啊啊啊	-1657
差评差评	-1658
7.	-1659
写得	-1660
变成	-1661
吃了	-1662
完整	-1663
很轻	-1664
数据	-1665
破的	-1666
起毛	-1667
边的	-1668
都要	-1669
▁已经	-1670
初学者	-1671
可爱的	-1672
的要死	-1673
凤凰传奇	-1674
吉祥如意	-1675
▁物流太慢	-1676
不值这个价钱	-1677
us	-1678
▁真	-1679
不出	-1680
令人	-1681
关于	-1682
打脚	-1683
无论	-1684
玻璃	-1685
用来	-1686
经过	-1687
还得	-1688
就没有	-1689
幫朋友	-1690
找客服	-1691
没好货	-1692
蛮好的	-1693
通快递	-1694
不怎么好	-1695
在京东上	-1696
覺得不錯	-1697
▁不怎么样	-1698
幫朋友買的	-1699
好好好好好好好	-1700
企业	-1701
会有	-1702
位置	-1703
取消	-1704
口味	-1705
头发	-1706
奶粉	-1707
心理	-1708
惊喜	-1709
打算	-1710
折腾	-1711
生命	-1712
痕迹	-1713
笔记	-1714
贵的	-1715
都很	-1716
铜版	-1717
不会再	-1718
包装盒	-1719
可能是	-1720
才买的	-1721
有点贵	-1722
没问题	-1723
太失望了	-1724
根本没有	-1725
速度很快	-1726
覺得不錯幫朋友買的	-1727
▁最	-1728
》(	-1729
不贵	-1730
不高	-1731
于是	-1732
以来	-1733
修身	-1734
全国	-1735
刚刚	-1736
天了	-1737
心得	-1738
心里	-1739
我了	-1740
打印	-1741
水平	-1742
相关	-1743
适用	-1744
锈钢	-1745
两天就	-1746
超所值	-1747
▁买回来	-1748
快递公司	-1749
,&	-1750
一周	-1751
上有	-1752
商场	-1753
套装	-1754
形式	-1755
旅游	-1756
然而	-1757
爱情	-1758
自由	-1759
色彩	-1760
著名	-1761
货物	-1762
运输	-1763
连个	-1764
键盘	-1765
不合适	-1766
买的是	-1767
告诉我	-1768
收到后	-1769
▁不知道	-1770
▁太小了	-1771
售后服务	-1772
物超所值	-1773
质量很差	-1774
铜版外语	-1775
铜版外语教科书	-1776
hh	-1777
一股	-1778
不懂	-1779
专辑	-1780
入门	-1781
太好	-1782
太薄	-1783
建筑	-1784
想买	-1785
标签	-1786
法律	-1787
身体	-1788
透明	-1789
▁服务	-1790
▁杯子	-1791
一次就	-1792
发很好	-1793
的服务	-1794
的衣服	-1795
还不给	-1796
2013	-1797
▁很好用	-1798
好大的一本	-1799
我也是醉了	-1800
质量还可以	-1801
24	-1802
26	-1803
一套	-1804
写了	-1805
噪音	-1806
好久	-1807
好几	-1808
完好	-1809
店主	-1810
店铺	-1811
彻底	-1812
想说	-1813
收获	-1814
改进	-1815
是在	-1816
表示	-1817
袖子	-1818
过期	-1819
面有	-1820
一定要	-1821
会不会	-1822
在一起	-1823
开发票	-1824
重要的	-1825
▁第二次	-1826
、、、、	-1827
京东商城	-1828
在京东买	-1829
没有什么	-1830
欺骗消费者	-1831
发很好好好好好好好好	-1832
:\	-1833
or	-1834
一句	-1835
世纪	-1836
创作	-1837
加热	-1838
合作	-1839
同学	-1840
学校	-1841
想像	-1842
相符	-1843
经验	-1844
记录	-1845
那里	-1846
▁这款	-1847
不咋地	-1848
小孩子	-1849
物流慢	-1850
都可以	-1851
▁质量差	-1852
这个价位	-1853
完全不一样	-1854
!!!!!!	-1855
!&	-1856
信任	-1857
内衣	-1858
决定	-1859
到位	-1860
开胶	-1861
易懂	-1862
暂时	-1863
版的	-1864
环境	-1865
画面	-1866
花钱	-1867
试了	-1868
调整	-1869
超慢	-1870
超过	-1871
邮寄	-1872
不容易	-1873
尤其是	-1874
希望能	-1875
有什么	-1876
用不了	-1877
～～～～	-1878
▁很不错的	-1879
质量也很好	-1880
质量太差了	-1881
垃圾垃圾垃圾垃圾	-1882
全彩铜版外语教科书	-1883
上午	-1884
专柜	-1885
号码	-1886
如既	-1887
手套	-1888
提醒	-1889
极了	-1890
现实	-1891
珠子	-1892
答案	-1893
认真	-1894
走了	-1895
一个字	-1896
一直在	-1897
太多了	-1898
很实惠	-1899
一点也不	-1900
手感不错	-1901
便宜没好货	-1902
70	-1903
90	-1904
ti	-1905
▁&	-1906
一切	-1907
一大	-1908
不准	-1909
书是	-1910
写作	-1911
对比	-1912
常识	-1913
很慢	-1914
携带	-1915
时代	-1916
特点	-1917
积分	-1918
货到	-1919
革命	-1920
and	-1921
▁图片	-1922
▁这次	-1923
包装的	-1924
如既往	-1925
快递也	-1926
服务好	-1927
要不是	-1928
长时间	-1929
▁不怎么	-1930
就更好了	-1931
读书可以	-1932
28	-1933
?!	-1934
一款	-1935
人民	-1936
刺鼻	-1937
反映	-1938
底部	-1939
按照	-1940
损坏	-1941
是最	-1942
永远	-1943
瓶子	-1944
赞赞	-1945
软件	-1946
防水	-1947
顺丰	-1948
不推荐	-1949
也不会	-1950
回来的	-1951
就是个	-1952
很容易	-1953
漂亮的	-1954
物流快	-1955
送货快	-1956
----	-1957
发货很快	-1958
就是快递	-1959
我很满意	-1960
质量也不错	-1961
▁老	-1962
不平	-1963
固定	-1964
开的	-1965
拍的	-1966
改变	-1967
数学	-1968
智慧	-1969
棒棒	-1970
版型	-1971
磨损	-1972
被子	-1973
装上	-1974
记忆	-1975
说好	-1976
跟我	-1977
金属	-1978
靠谱	-1979
~~~	-1980
▁好看	-1981
一颗星	-1982
就不能	-1983
的人生	-1984
纯棉的	-1985
还送了	-1986
申请退货	-1987
联系不上	-1988
应该是正品	-1989
......	-1990
▁在	-1991
▁穿	-1992
一半	-1993
上次	-1994
专家	-1995
个字	-1996
也太	-1997
凑单	-1998
十多	-1999
它们	-2000
导致	-2001
愿意	-2002
投资	-2003
方向	-2004
日本	-2005
早上	-2006
杂志	-2007
枕头	-2008
温度	-2009
礼品	-2010
而已	-2011
薄的	-2012
都会	-2013
▁穿着	-2014
不影响	-2015
千万别	-2016
小了点	-2017
才发现	-2018
根本不	-2019
白色的	-2020
的商品	-2021
▁收到了	-2022
很不满意	-2023
▁一点都不好	-2024
▁质量太差了	-2025
。。。。。。。	-2026
。《	-2027
作家	-2028
只好	-2029
城市	-2030
密封	-2031
小巧	-2032
就能	-2033
带上	-2034
旧书	-2035
深入	-2036
线了	-2037
职业	-2038
至少	-2039
过年	-2040
过敏	-2041
钢化	-2042
▁商家	-2043
▁穿了	-2044
▁虽然	-2045
也不知道	-2046
包装很好	-2047
建议大家	-2048
没有图片	-2049
(1:35	-2050
好大的一本全彩铜版外语教科书	-2051
25	-2052
29	-2053
亲们	-2054
到家	-2055
努力	-2056
勉强	-2057
恶劣	-2058
感到	-2059
接触	-2060
摸着	-2061
气死	-2062
稳定	-2063
等待	-2064
精彩	-2065
胶水	-2066
裂了	-2067
这点	-2068
钱包	-2069
▁使用	-2070
上当受	-2071
上面的	-2072
什么的	-2073
正版的	-2074
的快递	-2075
过程中	-2076
squo	-2077
值得拥有	-2078
卖家态度	-2079
打脚打脚	-2080
有点小贵	-2081
没有收到	-2082
不是一般的	-2083
性价比很高	-2084
ho	-2085
一块	-2086
不算	-2087
价位	-2088
再说	-2089
单位	-2090
启发	-2091
哥哥	-2092
太贵	-2093
开机	-2094
很重	-2095
时期	-2096
最终	-2097
此书	-2098
的事	-2099
给了	-2100
美的	-2101
认识	-2102
▁客服	-2103
不锈钢	-2104
太贵了	-2105
很划算	-2106
推荐的	-2107
有很多	-2108
的评价	-2109
被骗了	-2110
还没穿	-2111
这么久	-2112
确认收货	-2113
▁挺不错的	-2114
▁物流很快	-2115
不建议购买	-2116
,。	-2117
lo	-2118
vv	-2119
▁与	-2120
一只	-2121
丢了	-2122
信誉	-2123
办公	-2124
原装	-2125
古典	-2126
叫我	-2127
四个	-2128
地图	-2129
无良	-2130
最好	-2131
有人	-2132
极其	-2133
毫无	-2134
磨脚	-2135
至今	-2136
著作	-2137
要我	-2138
请问	-2139
路上	-2140
道理	-2141
都在	-2142
领域	-2143
高了	-2144
一般吧	-2145
双十一	-2146
的朋友	-2147
自己去	-2148
根本不是	-2149
CE	-2150
hi	-2151
一年	-2152
代表	-2153
体现	-2154
国际	-2155
培训	-2156
很软	-2157
我和	-2158
按键	-2159
既然	-2160
更换	-2161
案例	-2162
的吗	-2163
离开	-2164
角度	-2165
遥控	-2166
邮政	-2167
▁整体	-2168
▁正品	-2169
不错哦	-2170
出来了	-2171
孩子的	-2172
拿出来	-2173
是假的	-2174
▁很好的	-2175
一如既往	-2176
不知道怎么	-2177
)。	-2178
en	-2179
不下	-2180
他家	-2181
他说	-2182
又不	-2183
后的	-2184
回答	-2185
国内	-2186
大师	-2187
大概	-2188
妈的	-2189
寄来	-2190
差异	-2191
很少	-2192
性能	-2193
指导	-2194
接口	-2195
比我	-2196
没看	-2197
电商	-2198
皮的	-2199
科技	-2200
答应	-2201
耽误	-2202
鲁迅	-2203
300	-2204
▁音质	-2205
了一天	-2206
签收了	-2207
还是有	-2208
这不是	-2209
这就是	-2210
AAAA	-2211
▁说好的	-2212
挺好看的	-2213
和图片一样	-2214
的时候买的	-2215
▁质量还可以	-2216
23	-2217
NI	-2218
ad	-2219
it	-2220
▁从	-2221
书本	-2222
倒霉	-2223
做出	-2224
变得	-2225
在线	-2226
坚持	-2227
增加	-2228
好吃	-2229
就好	-2230
很硬	-2231
思维	-2232
想想	-2233
成的	-2234
提前	-2235
早就	-2236
是有	-2237
毛巾	-2238
裙子	-2239
视频	-2240
话说	-2241
ing	-2242
▁喜欢	-2243
▁这是	-2244
关键是	-2245
塑料袋	-2246
好东西	-2247
就断了	-2248
给孩子	-2249
里面有	-2250
▁很满意	-2251
中国历史	-2252
以后不会	-2253
就不说了	-2254
手感很好	-2255
没有发票	-2256
▁质量很差	-2257
感觉还不错	-2258
服务态度好	-2259
,3	-2260
,\	-2261
9.	-2262
一张	-2263
一步	-2264
严实	-2265
中华	-2266
五分	-2267
包裹	-2268
厚的	-2269
帮我	-2270
打不	-2271
无奈	-2272
显得	-2273
用户	-2274
考研	-2275
至于	-2276
葡萄	-2277
褪色	-2278
试用	-2279
鄙视	-2280
问了	-2281
▁尺码	-2282
做工很	-2283
只有一	-2284
基本上	-2285
寄过来	-2286
小朋友	-2287
的颜色	-2288
笔记本	-2289
而且还	-2290
速度慢	-2291
生产日期	-2292
要求退货	-2293
非常的棒	-2294
孩子很喜欢	-2295
质量非常好	-2296
上身	-2297
不再	-2298
主题	-2299
保障	-2300
入手	-2301
在于	-2302
就要	-2303
差点	-2304
我只	-2305
搭理	-2306
收了	-2307
最大	-2308
月份	-2309
没啥	-2310
洗完	-2311
清洗	-2312
独特	-2313
现象	-2314
真相	-2315
程序	-2316
行为	-2317
试穿	-2318
资料	-2319
走路	-2320
都好	-2321
重量	-2322
难闻	-2323
齐全	-2324
▁完全	-2325
发错货	-2326
找不到	-2327
是假货	-2328
盗版的	-2329
第一个	-2330
给好评	-2331
超级慢	-2332
RRRR	-2333
▁一般吧	-2334
应该不错	-2335
打开一看	-2336
解决问题	-2337
质量还行	-2338
!!!!!!!	-2339
//	-2340
cm	-2341
▁包	-2342
一百	-2343
两条	-2344
似乎	-2345
元的	-2346
内存	-2347
内部	-2348
准确	-2349
和我	-2350
地区	-2351
大量	-2352
好小	-2353
家庭	-2354
就这	-2355
带的	-2356
开关	-2357
开发	-2358
很是	-2359
拿来	-2360
掌握	-2361
施工	-2362
更加	-2363
来看	-2364
漫画	-2365
等等	-2366
糟糕	-2367
结合	-2368
缺点	-2369
英文	-2370
行了	-2371
装饰	-2372
选的	-2373
鞋垫	-2374
▁用着	-2375
▁送的	-2376
个小时	-2377
好几天	-2378
就一个	-2379
很合身	-2380
摸起来	-2381
这么贵	-2382
别人买的	-2383
同事买的	-2384
懒得换了	-2385
有点失望	-2386
比较满意	-2387
这次购物	-2388
▁帮朋友买的	-2389
66	-2390
▁发	-2391
休闲	-2392
原本	-2393
型的	-2394
年代	-2395
打折	-2396
掉漆	-2397
最近	-2398
根据	-2399
满分	-2400
电了	-2401
的确	-2402
真假	-2403
短了	-2404
组织	-2405
说我	-2406
调节	-2407
轻松	-2408
进入	-2409
▁今天	-2410
▁还是	-2411
你们的	-2412
卖家的	-2413
后面的	-2414
和照片	-2415
在这里	-2416
对不起	-2417
有需要	-2418
正合适	-2419
的一款	-2420
真的很	-2421
穿不了	-2422
这样了	-2423
NICE	-2424
▁太薄了	-2425
买东西了	-2426
写得很好	-2427
比实体店	-2428
重要的是	-2429
非常的棒超级	-2430
失败的一次购物	-2431
dd	-2432
li	-2433
ou	-2434
主义	-2435
保持	-2436
又是	-2437
后才	-2438
太远	-2439
忘记	-2440
想的	-2441
挺快	-2442
提示	-2443
效率	-2444
教授	-2445
最多	-2446
期间	-2447
机械	-2448
检测	-2449
没得	-2450
没货	-2451
羽绒	-2452
老人	-2453
费劲	-2454
赠送	-2455
追求	-2456
退回	-2457
难以	-2458
面对	-2459
两个月	-2460
件衣服	-2461
后悔了	-2462
好不好	-2463
想要的	-2464
的价格	-2465
这个钱	-2466
钢化膜	-2467
▁很一般	-2468
一个月了	-2469
之前买的	-2470
都不一样	-2471
千万不要买	-2472
▁东西收到了	-2473
很好很不错非常的棒超级	-2474
te	-2475
▁都	-2476
不买	-2477
专门	-2478
中文	-2479
二次	-2480
亏了	-2481
依然	-2482
假了	-2483
发表	-2484
周到	-2485
外壳	-2486
小哥	-2487
就当	-2488
快捷	-2489
我去	-2490
摘要	-2491
更多	-2492
有用	-2493
服了	-2494
爸爸	-2495
状态	-2496
生锈	-2497
答复	-2498
而言	-2499
英国	-2500
订的	-2501
长度	-2502
香水	-2503
▁一点	-2504
▁假货	-2505
▁大小	-2506
▁店家	-2507
▁效果	-2508
不值得	-2509
也不能	-2510
买了个	-2511
受不了	-2512
变形了	-2513
孩子们	-2514
拿回来	-2515
的故事	-2516
给宝宝	-2517
颜色也	-2518
2015	-2519
什么时候	-2520
什么玩意	-2521
信赖京东	-2522
希望京东	-2523
还没有用	-2524
送货上门	-2525
▁东西一般	-2526
)》	-2527
▁1	-2528
不动	-2529
人理	-2530
保湿	-2531
印象	-2532
号的	-2533
大一	-2534
太重	-2535
好吧	-2536
戴上	-2537
承诺	-2538
护理	-2539
提交	-2540
法国	-2541
的最	-2542
确定	-2543
碰到	-2544
突然	-2545
简陋	-2546
综合	-2547
自我	-2548
貌似	-2549
镜片	-2550
门口	-2551
需求	-2552
页面	-2553
鲜艳	-2554
▁好用	-2555
一直用	-2556
不同的	-2557
刚收到	-2558
包装好	-2559
垃圾的	-2560
有没有	-2561
每一个	-2562
生活的	-2563
退回去	-2564
不像正版	-2565
做工粗糙	-2566
挺舒服的	-2567
,*	-2568
27	-2569
gt	-2570
上下	-2571
为啥	-2572
也快	-2573
产业	-2574
产生	-2575
创意	-2576
动的	-2577
变化	-2578
吐槽	-2579
囤货	-2580
垫子	-2581
家具	-2582
形容	-2583
想要	-2584
戴着	-2585
手册	-2586
支架	-2587
更是	-2588
概念	-2589
歪的	-2590
民族	-2591
消息	-2592
热水	-2593
爱好	-2594
特价	-2595
特意	-2596
玩了	-2597
短信	-2598
磨花	-2599
礼拜	-2600
符合	-2601
类的	-2602
老妈	-2603
西方	-2604
饼干	-2605
400	-2606
▁儿子	-2607
▁样子	-2608
▁赠品	-2609
做生意	-2610
刚开始	-2611
喜欢看	-2612
多读书	-2613
太坑了	-2614
就是碟	-2615
就降价	-2616
很柔软	-2617
掉下来	-2618
是怎么	-2619
的历史	-2620
自己看	-2621
还没到	-2622
以前买的	-2623
感觉有点	-2624
生日礼物	-2625
▁大小合适	-2626
质量还不错	-2627
)【	-2628
le	-2629
▁超	-2630
一层	-2631
一读	-2632
不满	-2633
亮度	-2634
优秀	-2635
充分	-2636
全书	-2637
口袋	-2638
合脚	-2639
否则	-2640
女人	-2641
女孩	-2642
实践	-2643
差了	-2644
幸福	-2645
应用	-2646
很脏	-2647
快速	-2648
意见	-2649
支付	-2650
教训	-2651
数字	-2652
旅行	-2653
没穿	-2654
泡沫	-2655
灰尘	-2656
用处	-2657
瞬间	-2658
给的	-2659
网页	-2660
规范	-2661
说说	-2662
遗憾	-2663
长的	-2664
限制	-2665
▁不咋	-2666
▁尺寸	-2667
了一些	-2668
他们的	-2669
以后用	-2670
号下单	-2671
后发现	-2672
太次了	-2673
就知道	-2674
快递的	-2675
明明是	-2676
是一种	-2677
朋友们	-2678
浪费钱	-2679
简直是	-2680
还是很	-2681
这是我	-2682
2014	-2683
▁很好看	-2684
买了一个	-2685
买的东西	-2686
值得收藏	-2687
做工精致	-2688
再也不会	-2689
发错货了	-2690
客服联系	-2691
就是坏的	-2692
真心不错	-2693
给个好评	-2694
试了一下	-2695
面有磨花	-2696
▁宝贝收到	-2697
还是可以的	-2698
就是碟面有磨花	-2699
03	-2700
ac	-2701
of	-2702
了两	-2703
化妆	-2704
匹配	-2705
单号	-2706
古代	-2707
商务	-2708
囤着	-2709
多说	-2710
太阳	-2711
就算	-2712
常见	-2713
找了	-2714
指甲	-2715
搭配	-2716
整整	-2717
有关	-2718
机会	-2719
来买	-2720
满足	-2721
生存	-2722
看完	-2723
第四	-2724
缺陷	-2725
老爸	-2726
范围	-2727
见到	-2728
设备	-2729
重点	-2730
钱的	-2731
食品	-2732
高的	-2733
高端	-2734
▁没用	-2735
▁特别	-2736
▁真是	-2737
一天就	-2738
一开始	-2739
不出来	-2740
不进去	-2741
买这个	-2742
充电器	-2743
塑料的	-2744
完全是	-2745
我已经	-2746
朋友说	-2747
本来想	-2748
赠送的	-2749
▁说实话	-2750
包装很惨	-2751
才收到货	-2752
样式不错	-2753
物流速度	-2754
在京东购物	-2755
想象中的好	-2756
朋友很喜欢	-2757
看起来不像正版	-2758
很满意的一次购物	-2759
就是碟面有磨花还可以吧	-2760
?&	-2761
ok	-2762
不掉	-2763
不紧	-2764
业务	-2765
之作	-2766
体系	-2767
做好	-2768
分量	-2769
到处	-2770
十几	-2771
即使	-2772
厚度	-2773
及其	-2774
同一	-2775
回应	-2776
圆通	-2777
天下	-2778
学会	-2779
带子	-2780
我买	-2781
手上	-2782
播放	-2783
晚了	-2784
有效	-2785
有趣	-2786
深刻	-2787
漏气	-2788
目的	-2789
等到	-2790
等着	-2791
给人	-2792
者的	-2793
蓝牙	-2794
表达	-2795
规定	-2796
课程	-2797
质地	-2798
距离	-2799
适中	-2800
钻石	-2801
难吃	-2802
验货	-2803
▁不值	-2804
▁到货	-2805
▁首先	-2806
》((	-2807
不好吃	-2808
也比较	-2809
价格还	-2810
和实物	-2811
图片上	-2812
在身上	-2813
垃圾桶	-2814
很厚实	-2815
感觉是	-2816
所谓的	-2817
挺喜欢	-2818
明显的	-2819
有色差	-2820
的包装	-2821
的鞋子	-2822
被坑了	-2823
送到了	-2824
也很给力	-2825
书的内容	-2826
的一本书	-2827
非常给力	-2828
颜色很正	-2829
搞活动的时候买的	-2830
,5	-2831
21	-2832
2、	-2833
8.	-2834
;、	-2835
OK	-2836
▁哎	-2837
三十	-2838
享受	-2839
以下	-2840
公里	-2841
刺激	-2842
前后	-2843
加上	-2844
劣质	-2845
包的	-2846
厘米	-2847
发到	-2848
各个	-2849
听说	-2850
够了	-2851
大人	-2852
往往	-2853
总的	-2854
技能	-2855
改善	-2856
来回	-2857
模糊	-2858
男人	-2859
相比	-2860
积极	-2861
腔调	-2862
计算	-2863
设置	-2864
达到	-2865
还送	-2866
追加	-2867
高兴	-2868
▁很差	-2869
▁袜子	-2870
一般了	-2871
不清楚	-2872
光顾的	-2873
就是不	-2874
已收到	-2875
很结实	-2876
很适合	-2877
我还是	-2878
社会的	-2879
那么贵	-2880
100%	-2881
东西很好	-2882
什么东西	-2883
保温效果	-2884
在网上买	-2885
打开包装	-2886
无良商家	-2887
服务很好	-2888
没有异味	-2889
送货速度	-2890
▁宝贝不错	-2891
不是很满意	-2892
就是不知道	-2893
穿上很舒服	-2894
▁东西还可以	-2895
很好很好很好很好很好很好很好很好	-2896
36	-2897
37	-2898
SB	-2899
不及	-2900
主板	-2901
优点	-2902
住了	-2903
兄弟	-2904
写着	-2905
分享	-2906
十二	-2907
半年	-2908
博士	-2909
啦啦	-2910
就在	-2911
帮忙	-2912
录音	-2913
意识	-2914
我又	-2915
无数	-2916
机子	-2917
架子	-2918
查询	-2919
毛毛	-2920
流行	-2921
测试	-2922
的吧	-2923
码子	-2924
程度	-2925
美术	-2926
考点	-2927
脸上	-2928
被人	-2929
讲的	-2930
面前	-2931
,19	-2932
▁声音	-2933
▁手机	-2934
▁送给	-2935
一个人	-2936
不一致	-2937
人生的	-2938
发给我	-2939
寄回去	-2940
怎么办	-2941
是可以	-2942
有一点	-2943
有时候	-2944
看不懂	-2945
给力了	-2946
下次再来	-2947
就是价格	-2948
希望自己	-2949
申请换货	-2950
.....	-2951
▁衣服不错	-2952
质量挺好的	-2953
0.	-2954
45	-2955
:0	-2956
bu	-2957
》《	-2958
上衣	-2959
专卖	-2960
中心	-2961
也会	-2962
信用	-2963
偏方	-2964
关机	-2965
冲着	-2966
力的	-2967
四川	-2968
图像	-2969
复习	-2970
复杂	-2971
外形	-2972
多年	-2973
大爱	-2974
年轻	-2975
强大	-2976
形象	-2977
德国	-2978
我看	-2979
战争	-2980
换个	-2981
新颖	-2982
没给	-2983
流畅	-2984
淡淡	-2985
珍藏	-2986
用用	-2987
的那	-2988
的都	-2989
皮子	-2990
筷子	-2991
蛋糕	-2992
贴合	-2993
360	-2994
▁便宜	-2995
▁好吃	-2996
▁安装	-2997
东西了	-2998
京东了	-2999
太垃圾	-3000
居然是	-3001
开胶了	-3002
快递费	-3003
我也不	-3004
所有的	-3005
拿到货	-3006
最大的	-3007
有帮助	-3008
有瑕疵	-3009
比超市	-3010
没法用	-3011
的事情	-3012
的声音	-3013
的心灵	-3014
的那个	-3015
送过来	-3016
2016	-3017
▁刚收到	-3018
不负责任	-3019
也能做出	-3020
快递速度	-3021
来的时候	-3022
没什么用	-3023
看着不错	-3024
还不知道	-3025
可爱的东东	-3026
囤着以后用	-3027
实体店买的	-3028
物流也很快	-3029
物流太慢了	-3030
也能做出这么	-3031
00000000	-3032
希望自己也能做出这么	-3033
希望自己也能做出这么可爱的东东	-3034
ic	-3035
jj	-3036
仓库	-3037
会员	-3038
值的	-3039
全球	-3040
制造	-3041
参加	-3042
句话	-3043
可怜	-3044
差价	-3045
式的	-3046
很赞	-3047
必要	-3048
情感	-3049
成本	-3050
承担	-3051
承认	-3052
掉的	-3053
控制	-3054
提升	-3055
插图	-3056
收录	-3057
机箱	-3058
气愤	-3059
没事	-3060
爷爷	-3061
相对	-3062
真题	-3063
纯棉	-3064
结构	-3065
能源	-3066
脏的	-3067
表带	-3068
贴心	-3069
迅速	-3070
针对	-3071
黑的	-3072
与实物	-3073
中国人	-3074
买大了	-3075
买错了	-3076
介绍的	-3077
值得买	-3078
原来的	-3079
大小也	-3080
实用性	-3081
愉快的	-3082
是因为	-3083
有点薄	-3084
有破损	-3085
残次品	-3086
的一个	-3087
老偏方	-3088
还不能	-3089
cccc	-3090
····	-3091
▁书不错	-3092
▁看起来	-3093
也很舒服	-3094
很有启发	-3095
态度很好	-3096
总体来说	-3097
想象的好	-3098
教育意义	-3099
还有就是	-3100
这个品牌	-3101
都不知道	-3102
▁垃圾东西	-3103
▁非常满意	-3104
京东的服务	-3105
不值这个价格	-3106
''	-3107
,1	-3108
99	-3109
at	-3110
nT	-3111
re	-3112
▁手	-3113
▁此	-3114
▁装	-3115
一瓶	-3116
下跪	-3117
中央	-3118
也要	-3119
付了	-3120
保质	-3121
免费	-3122
其次	-3123
加油	-3124
反复	-3125
呃呃	-3126
告知	-3127
外表	-3128
太太	-3129
她的	-3130
好点	-3131
字体	-3132
拍照	-3133
拒收	-3134
据说	-3135
摄像	-3136
有待	-3137
涉及	-3138
灵活	-3139
相同	-3140
看过	-3141
简洁	-3142
绳子	-3143
美丽	-3144
花色	-3145
要不	-3146
赶紧	-3147
还挺	-3148
这套	-3149
银行	-3150
食物	-3151
▁以前	-3152
介绍了	-3153
他的书	-3154
保质期	-3155
再来的	-3156
发的是	-3157
垃圾货	-3158
就这么	-3159
并没有	-3160
怎么用	-3161
感觉像	-3162
是一本	-3163
比较好	-3164
用过的	-3165
的设计	-3166
竟然是	-3167
这东西	-3168
都不会	-3169
都不能	-3170
▁跟图片	-3171
▁还好吧	-3172
▁这是我	-3173
上当受骗	-3174
只有一个	-3175
宝宝很喜欢	-3176
这个牌子的	-3177
愉快的一次购物	-3178
????????????????	-3179
▁两	-3180
▁才	-3181
七八	-3182
不亮	-3183
不开	-3184
不成	-3185
中午	-3186
买完	-3187
京豆	-3188
保修	-3189
光临	-3190
几年	-3191
出门	-3192
创新	-3193
够大	-3194
孕妇	-3195
广大	-3196
底座	-3197
情绪	-3198
有种	-3199
条件	-3200
洗过	-3201
生动	-3202
用完	-3203
直到	-3204
精选	-3205
细心	-3206
脱胶	-3207
腰带	-3208
苹果	-3209
观察	-3210
轻轻	-3211
边缘	-3212
过得	-3213
这部	-3214
都被	-3215
随着	-3216
韵达	-3217
领导	-3218
高度	-3219
黑心	-3220
黑暗	-3221
▁1.	-3222
▁呵呵	-3223
▁经典	-3224
不小心	-3225
不开心	-3226
不得了	-3227
不是我	-3228
不符合	-3229
出问题	-3230
哈哈哈	-3231
大品牌	-3232
好极了	-3233
如果是	-3234
很大气	-3235
是真的	-3236
有划痕	-3237
本来是	-3238
现在的	-3239
的经典	-3240
给客服	-3241
过去了	-3242
值得一看	-3243
太麻烦了	-3244
孩子喜欢	-3245
才来评价	-3246
物流太慢	-3247
还会再来	-3248
▁不是很好	-3249
▁不错不错	-3250
▁太垃圾了	-3251
卖家服务态度	-3252
%,	-3253
)(	-3254
,《	-3255
32	-3256
XL	-3257
mm	-3258
一一	-3259
一生	-3260
三次	-3261
不清	-3262
不见	-3263
为何	-3264
之中	-3265
之处	-3266
了下	-3267
今年	-3268
优雅	-3269
别家	-3270
去的	-3271
后跟	-3272
吸引	-3273
商标	-3274
在家	-3275
在我	-3276
地上	-3277
塑封	-3278
太长	-3279
好慢	-3280
它的	-3281
实现	-3282
小学	-3283
山寨	-3284
思考	-3285
总结	-3286
懒的	-3287
手里	-3288
才给	-3289
把它	-3290
智能	-3291
更新	-3292
毛病	-3293
没了	-3294
治疗	-3295
点赞	-3296
用心	-3297
电路	-3298
碎的	-3299
穿吧	-3300
第五	-3301
细腻	-3302
编辑	-3303
耳朵	-3304
营养	-3305
行车	-3306
观点	-3307
规则	-3308
误导	-3309
通俗	-3310
造型	-3311
金的	-3312
鉴定	-3313
镜头	-3314
静音	-3315
黄色	-3316
黑了	-3317
▁东东	-3318
▁除了	-3319
一下就	-3320
一个星	-3321
不买了	-3322
个多月	-3323
仔细看	-3324
估计是	-3325
写的是	-3326
另一个	-3327
可以用	-3328
好几次	-3329
嫌麻烦	-3330
对京东	-3331
很暖和	-3332
情况下	-3333
我买了	-3334
有收获	-3335
的作品	-3336
的基础	-3337
的方式	-3338
的速度	-3339
破玩意	-3340
绝对的	-3341
都不是	-3342
非常快	-3343
▁没什么	-3344
一个多月	-3345
五星好评	-3346
京东购物	-3347
号下的单	-3348
挺好用的	-3349
物流也快	-3350
物流给力	-3351
穿着舒适	-3352
网络文学	-3353
说什么了	-3354
▁一般般吧	-3355
不值这个钱	-3356
大家不要买	-3357
感觉还可以	-3358
我很满意啊	-3359
教育意义啊	-3360
根本就不是	-3361
比想象中的	-3362
haohao	-3363
很有启发教育意义啊	-3364
!!!!!!!!!!	-3365
al	-3366
nC	-3367
to	-3368
一共	-3369
一段	-3370
一部	-3371
出库	-3372
制度	-3373
大于	-3374
太过	-3375
学院	-3376
对我	-3377
尽快	-3378
常用	-3379
当天	-3380
得了	-3381
得起	-3382
忘了	-3383
把手	-3384
政府	-3385
显瘦	-3386
注释	-3387
漏了	-3388
白的	-3389
硬盘	-3390
移动	-3391
米奇	-3392
装帧	-3393
说有	-3394
资格	-3395
超快	-3396
跑步	-3397
轮子	-3398
还慢	-3399
这书	-3400
难受	-3401
鞋带	-3402
项目	-3403
▁买给	-3404
▁对于	-3405
公司的	-3406
发来的	-3407
号买的	-3408
大了点	-3409
大作用	-3410
就买了	-3411
很便宜	-3412
很舒适	-3413
我现在	-3414
的方法	-3415
结果是	-3416
还有点	-3417
都非常	-3418
oooo	-3419
▁书很好	-3420
不好意思	-3421
也就算了	-3422
也很不错	-3423
好不容易	-3424
如果不是	-3425
总的来说	-3426
气死我了	-3427
直接扔了	-3428
质量可以	-3429
还没收到	-3430
这是什么	-3431
,,,,,	-3432
▁东西还行	-3433
▁鞋子不错	-3434
和图片上的	-3435
失败的购物	-3436
是我喜欢的	-3437
好好好好好好好好好用	-3438
-6	-3439
is	-3440
▁三	-3441
▁本	-3442
一份	-3443
一家	-3444
一根	-3445
两件	-3446
久了	-3447
了个	-3448
作业	-3449
健身	-3450
内裤	-3451
几百	-3452
口的	-3453
可见	-3454
四五	-3455
国产	-3456
在买	-3457
太坑	-3458
奇怪	-3459
就说	-3460
我这	-3461
拒绝	-3462
按摩	-3463
撒旦	-3464
故障	-3465
无聊	-3466
明天	-3467
是好	-3468
有时	-3469
来得	-3470
桥梁	-3471
模式	-3472
欣赏	-3473
洗衣	-3474
烂烂	-3475
理念	-3476
着急	-3477
线的	-3478
缺少	-3479
询问	-3480
软的	-3481
进步	-3482
那边	-3483
阳光	-3484
风扇	-3485
(7.	-3486
▁不太	-3487
▁书是	-3488
一直没	-3489
与描述	-3490
专卖店	-3491
也不给	-3492
以后会	-3493
使用了	-3494
原装的	-3495
可以说	-3496
太硬了	-3497
很快就	-3498
很时尚	-3499
快递慢	-3500
才送到	-3501
普通的	-3502
正版书	-3503
的卖家	-3504
的商家	-3505
要的是	-3506
▁不好吃	-3507
▁我买的	-3508
一看就是	-3509
价廉价廉	-3510
千万不要	-3511
完全一致	-3512
很不舒服	-3513
推荐购买	-3514
收到的货	-3515
真的不错	-3516
货到付款	-3517
质量不行	-3518
还要自己	-3519
▁物美价廉	-3520
价钱一分货	-3521
发货速度快	-3522
第三方卖家	-3523
▁东西还不错	-3524
没有任何意义	-3525
不错不错不错不错	-3526
ap	-3527
ve	-3528
zz	-3529
▁嗯	-3530
▁新	-3531
一堆	-3532
一颗	-3533
上网	-3534
丛书	-3535
个小	-3536
交流	-3537
从而	-3538
你是	-3539
光泽	-3540
分别	-3541
厨房	-3542
叙述	-3543
命运	-3544
坚决	-3545
大多	-3546
奇葩	-3547
奖励	-3548
好在	-3549
妹妹	-3550
婆婆	-3551
对方	-3552
就买	-3553
并不	-3554
我会	-3555
我没	-3556
才穿	-3557
技巧	-3558
排版	-3559
放了	-3560
明了	-3561
有多	-3562
比如	-3563
水了	-3564
法语	-3565
滋润	-3566
熟悉	-3567
物质	-3568
特色	-3569
用手	-3570
相机	-3571
看图	-3572
纯粹	-3573
组装	-3574
经营	-3575
肚子	-3576
脏了	-3577
脱落	-3578
行业	-3579
褶皱	-3580
规划	-3581
货的	-3582
辛苦	-3583
连续	-3584
造成	-3585
配合	-3586
随机	-3587
高大	-3588
,10	-3589
hus	-3590
▁满意	-3591
▁电池	-3592
▁确实	-3593
▁适合	-3594
也就是	-3595
几天了	-3596
别人的	-3597
发的货	-3598
因为是	-3599
块钱的	-3600
字限制	-3601
就发现	-3602
很大的	-3603
我喜欢	-3604
才发货	-3605
有点儿	-3606
没有送	-3607
没法穿	-3608
没的说	-3609
的样子	-3610
设计的	-3611
质量和	-3612
这质量	-3613
退不了	-3614
遥控器	-3615
都不敢	-3616
▁是正品	-3617
个人感觉	-3618
使用方便	-3619
做工很好	-3620
图片上的	-3621
就是感觉	-3622
就这样吧	-3623
挺漂亮的	-3624
收到货后	-3625
看看绝对	-3626
这个东西	-3627
鄙视京东	-3628
(100%	-3629
▁非常不错	-3630
服务态度差	-3631
看看绝对有收获	-3632
``	-3633
上班	-3634
不让	-3635
不送	-3636
主动	-3637
之外	-3638
从事	-3639
体会	-3640
促销	-3641
做了	-3642
动物	-3643
卫生	-3644
同意	-3645
名著	-3646
好啊	-3647
寄回	-3648
寸的	-3649
少女	-3650
很厚	-3651
我用	-3652
扎实	-3653
拍摄	-3654
教程	-3655
新鲜	-3656
最新	-3657
有图	-3658
杂音	-3659
比这	-3660
洗发	-3661
流程	-3662
清新	-3663
清洁	-3664
点点	-3665
犹豫	-3666
的我	-3667
着用	-3668
种类	-3669
自身	-3670
费用	-3671
路边	-3672
轻便	-3673
辅导	-3674
边上	-3675
适应	-3676
都快	-3677
韩国	-3678
高等	-3679
▁假的	-3680
▁太差	-3681
▁手感	-3682
▁打开	-3683
▁看了	-3684
▁老婆	-3685
▁里面	-3686
不错了	-3687
与卖家	-3688
也喜欢	-3689
也好看	-3690
太好了	-3691
太烂了	-3692
太长了	-3693
对得起	-3694
就那样	-3695
很不爽	-3696
很清晰	-3697
无色差	-3698
是中国	-3699
有意思	-3700
的孩子	-3701
的效果	-3702
看完了	-3703
真心的	-3704
说的是	-3705
起球了	-3706
超级差	-3707
还是要	-3708
送货员	-3709
那么大	-3710
一起买的	-3711
也很好看	-3712
她很喜欢	-3713
根本就不	-3714
的东西了	-3715
还是比较	-3716
rsquo	-3717
▁非常不满意	-3718
.......	-3719
,4	-3720
98	-3721
ra	-3722
▁水	-3723
一声	-3724
下手	-3725
不退	-3726
两本	-3727
光滑	-3728
刮痕	-3729
加强	-3730
压根	-3731
去买	-3732
去年	-3733
吊牌	-3734
启迪	-3735
品种	-3736
喝了	-3737
图上	-3738
复制	-3739
天无	-3740
太难	-3741
她说	-3742
安排	-3743
官方	-3744
小贵	-3745
就一	-3746
干嘛	-3747
开水	-3748
弟弟	-3749
慢了	-3750
或许	-3751
排班	-3752
放着	-3753
新谷	-3754
月子	-3755
标志	-3756
标注	-3757
气了	-3758
气人	-3759
水的	-3760
深度	-3761
牛皮	-3762
积累	-3763
简介	-3764
绿色	-3765
老子	-3766
老鸭	-3767
色泽	-3768
装修	-3769
解析	-3770
计划	-3771
训练	-3772
试过	-3773
说法	-3774
过滤	-3775
还卖	-3776
配的	-3777
锻炼	-3778
防伪	-3779
防滑	-3780
领子	-3781
题目	-3782
验证	-3783
▁一次	-3784
▁印刷	-3785
▁车子	-3786
▁骗子	-3787
也非常	-3788
作者的	-3789
几个月	-3790
号才到	-3791
合适的	-3792
呵呵了	-3793
大家别	-3794
好多了	-3795
就不要	-3796
开始用	-3797
很不满	-3798
懒得退	-3799
显示器	-3800
有味道	-3801
服务差	-3802
来得及	-3803
根本没	-3804
没有用	-3805
看到的	-3806
真正的	-3807
第二个	-3808
给大家	-3809
这么大	-3810
退货的	-3811
送人了	-3812
都不给	-3813
▁太大了	-3814
也是醉了	-3815
买了两个	-3816
价格也不	-3817
做工不错	-3818
外观漂亮	-3819
就是没有	-3820
快递小哥	-3821
慢慢慢慢	-3822
我要的是	-3823
朋友推荐	-3824
特别喜欢	-3825
非常不好	-3826
在京东买了	-3827
物流很给力	-3828
穿着不舒服	-3829
▁衣服收到了	-3830
第一次给差评	-3831
11111111	-3832
1\	-3833
ag	-3834
nP	-3835
no	-3836
▁你	-3837
▁要	-3838
一位	-3839
一包	-3840
一流	-3841
三星	-3842
上楼	-3843
不稳	-3844
不良	-3845
习题	-3846
充实	-3847
克力	-3848
动了	-3849
反馈	-3850
发个	-3851
发热	-3852
嘿嘿	-3853
地的	-3854
大众	-3855
头的	-3856
好处	-3857
媳妇	-3858
建立	-3859
我不	-3860
损失	-3861
插上	-3862
数量	-3863
敷衍	-3864
旗舰	-3865
无线	-3866
是用	-3867
最佳	-3868
有两	-3869
标题	-3870
检验	-3871
欧洲	-3872
正是	-3873
汽车	-3874
点了	-3875
熟读	-3876
爱的	-3877
用书	-3878
的名	-3879
的快	-3880
的新	-3881
的水	-3882
的钱	-3883
看似	-3884
睡觉	-3885
礼盒	-3886
简明	-3887
纠结	-3888
细细	-3889
背景	-3890
良的	-3891
草草	-3892
补偿	-3893
解答	-3894
讨论	-3895
课外	-3896
赶上	-3897
身边	-3898
逻辑	-3899
重的	-3900
面膜	-3901
预期	-3902
arr	-3903
▁好书	-3904
▁好评	-3905
▁帽子	-3906
▁明明	-3907
▁昨天	-3908
▁活动	-3909
▁穿上	-3910
▁自己	-3911
▁茶叶	-3912
一下子	-3913
一星期	-3914
不合理	-3915
也不行	-3916
便宜的	-3917
其他都	-3918
发货了	-3919
只不过	-3920
唐老鸭	-3921
大家都	-3922
小时候	-3923
就到了	-3924
并不是	-3925
我就不	-3926
方面的	-3927
最失败	-3928
有一种	-3929
模一样	-3930
没见过	-3931
没话说	-3932
注意了	-3933
的发展	-3934
的基本	-3935
盗版书	-3936
蓝色的	-3937
解决了	-3938
还凑合	-3939
还好吧	-3940
都坏了	-3941
▁和图片	-3942
下次不会	-3943
也很漂亮	-3944
便宜好多	-3945
公司买的	-3946
客服服务	-3947
根本就是	-3948
没有问题	-3949
用了一次	-3950
谢谢卖家	-3951
这个问题	-3952
▁什么玩意	-3953
▁价格便宜	-3954
▁价格实惠	-3955
什么都没有	-3956
愉快的购物	-3957
老公很喜欢	-3958
▁东西很不错	-3959
▁物流太慢了	-3960
(0	-3961
.\	-3962
39	-3963
42	-3964
88	-3965
;;	-3966
aa	-3967
ay	-3968
~!	-3969
不但	-3970
不怕	-3971
两双	-3972
仍然	-3973
仓位	-3974
使人	-3975
做得	-3976
催了	-3977
养生	-3978
写字	-3979
刷子	-3980
勺子	-3981
发出	-3982
困难	-3983
在用	-3984
培养	-3985
将近	-3986
就别	-3987
就用	-3988
就给	-3989
展现	-3990
巴巴	-3991
平台	-3992
年了	-3993
开裂	-3994
得要	-3995
快点	-3996
性感	-3997
情节	-3998
扫描	-3999
把我	-4000
拿去	-4001
指定	-4002
插头	-4003
摄影	-4004
明的	-4005
是不	-4006
有所	-4007
正确	-4008
毛线	-4009
气质	-4010
玩的	-4011
真品	-4012
神奇	-4013
穿过	-4014
精华	-4015
糊涂	-4016
肠胃	-4017
蛮好	-4018
表盘	-4019
裂缝	-4020
装了	-4021
认了	-4022
记得	-4023
讲述	-4024
购的	-4025
贴身	-4026
锋利	-4027
青年	-4028
顺手	-4029
高档	-4030
12.	-4031
130	-4032
;,&	-4033
USB	-4034
tim	-4035
▁不想	-4036
▁之前	-4037
▁料子	-4038
▁第一	-4039
不断地	-4040
买小了	-4041
和卖家	-4042
在这家	-4043
外面的	-4044
太让人	-4045
小礼物	-4046
就不是	-4047
就破了	-4048
巧克力	-4049
怎么会	-4050
挺大的	-4051
挺好看	-4052
是不错	-4053
比较大	-4054
淡淡的	-4055
理不理	-4056
的生活	-4057
看了下	-4058
真不错	-4059
真皮的	-4060
要买的	-4061
要发票	-4062
试用了	-4063
超喜欢	-4064
这个是	-4065
这衣服	-4066
非常棒	-4067
hhhh	-4068
▁差差差	-4069
▁看上去	-4070
下次还买	-4071
不太一样	-4072
不太满意	-4073
中的垃圾	-4074
也很喜欢	-4075
包装不错	-4076
天才收到	-4077
就是一个	-4078
工作人员	-4079
希望以后	-4080
比较喜欢	-4081
没有一点	-4082
真不知道	-4083
联系卖家	-4084
还是不错	-4085
送的东西	-4086
▁宝贝很好	-4087
儿子很喜欢	-4088
女儿很喜欢	-4089
最差的一次	-4090
老婆很喜欢	-4091
▁质量很不错	-4092
一分价钱一分货	-4093
3、	-4094
65	-4095
be	-4096
nn	-4097
sp	-4098
▁锅	-4099
一遍	-4100
人为	-4101
传说	-4102
保健	-4103
值了	-4104
公路	-4105
公道	-4106
冰箱	-4107
分了	-4108
刹车	-4109
十天	-4110
单薄	-4111
原理	-4112
发行	-4113
只会	-4114
呈现	-4115
味的	-4116
和张	-4117
哪个	-4118
回忆	-4119
在此	-4120
太软	-4121
导航	-4122
小区	-4123
就掉	-4124
屁股	-4125
布鲁	-4126
店的	-4127
廉价	-4128
弹力	-4129
强调	-4130
当代	-4131
彩色	-4132
心灵	-4133
戒指	-4134
战略	-4135
把货	-4136
折扣	-4137
按钮	-4138
探索	-4139
接着	-4140
春节	-4141
未来	-4142
来自	-4143
款的	-4144
牢固	-4145
留着	-4146
留言	-4147
目录	-4148
看书	-4149
看吧	-4150
看得	-4151
真差	-4152
硬的	-4153
米的	-4154
类型	-4155
组合	-4156
绿林	-4157
美中	-4158
花的	-4159
蝴蝶	-4160
证书	-4161
词汇	-4162
贴膜	-4163
超好	-4164
较大	-4165
边角	-4166
过于	-4167
这段	-4168
里边	-4169
重复	-4170
链子	-4171
随意	-4172
音像	-4173
饱满	-4174
鱼竿	-4175
▁书的	-4176
▁凑单	-4177
▁大家	-4178
▁布料	-4179
▁手表	-4180
▁物品	-4181
▁盒子	-4182
▁箱子	-4183
▁纸张	-4184
▁老板	-4185
不说了	-4186
不透气	-4187
不靠谱	-4188
也不想	-4189
买的书	-4190
产品的	-4191
便宜了	-4192
做工好	-4193
办公室	-4194
发货慢	-4195
只想说	-4196
女朋友	-4197
就开始	-4198
很值得	-4199
很多人	-4200
无所谓	-4201
最好的	-4202
有差距	-4203
有效果	-4204
有点像	-4205
比这个	-4206
没发现	-4207
没得说	-4208
生产的	-4209
用不上	-4210
的音乐	-4211
网上的	-4212
还说是	-4213
这价格	-4214
▁一直用	-4215
▁太慢了	-4216
▁有点小	-4217
▁用起来	-4218
▁还没看	-4219
不好不好	-4220
从来没有	-4221
其他还好	-4222
包装完好	-4223
可以让你	-4224
态度不好	-4225
感觉很好	-4226
我想要的	-4227
服务太差	-4228
爱理不理	-4229
第一次买	-4230
给我发货	-4231
质量也好	-4232
还算可以	-4233
这本书的	-4234
都没收到	-4235
非常好用	-4236
▁总体来说	-4237
▁还没有用	-4238
与图片不符	-4239
了一个星期	-4240
太不给力了	-4241
快递很给力	-4242
都写得很好	-4243
非常不满意	-4244
▁衣服还可以	-4245
穿起来很舒服	-4246
不知道是不是正品	-4247
)&	-4248
41	-4249
JD	-4250
gh	-4251
nb	-4252
om	-4253
上一	-4254
上传	-4255
下雨	-4256
不合	-4257
也算	-4258
价实	-4259
倒闭	-4260
全新	-4261
公主	-4262
农民	-4263
分辨	-4264
创造	-4265
十五	-4266
发霉	-4267
受到	-4268
古人	-4269
台湾	-4270
吉他	-4271
吸水	-4272
四天	-4273
图文	-4274
在来	-4275
地球	-4276
太次	-4277
太高	-4278
好汉	-4279
幼儿	-4280
开口	-4281
当初	-4282
形成	-4283
意料	-4284
感情	-4285
手工	-4286
手的	-4287
拆了	-4288
持续	-4289
故意	-4290
散文	-4291
方案	-4292
无力	-4293
松了	-4294
没错	-4295
添加	-4296
清香	-4297
烂货	-4298
狗屁	-4299
电磁	-4300
绘画	-4301
能否	-4302
自主	-4303
自提	-4304
菩提	-4305
裤脚	-4306
证明	-4307
购书	-4308
超赞	-4309
身高	-4310
车上	-4311
那是	-4312
配置	-4313
钥匙	-4314
钱买	-4315
零件	-4316
青春	-4317
音量	-4318
飞机	-4319
马虎	-4320
黄金	-4321
黑店	-4322
黛丝	-4323
120	-4324
▁严重	-4325
▁基本	-4326
▁小孩	-4327
▁材质	-4328
▁样式	-4329
▁正在	-4330
一打开	-4331
上京东	-4332
不咋的	-4333
不实用	-4334
中国的	-4335
也舒服	-4336
了一大	-4337
但是我	-4338
凑合着	-4339
大部分	-4340
好喜欢	-4341
好好的	-4342
客服也	-4343
差很多	-4344
很差劲	-4345
感觉很	-4346
挺不错	-4347
查不到	-4348
比较快	-4349
没那么	-4350
的书籍	-4351
真价实	-4352
红色的	-4353
评价的	-4354
说实话	-4355
货到了	-4356
还让我	-4357
▁好东西	-4358
▁物流慢	-4359
京东快递	-4360
做工细致	-4361
客服沟通	-4362
差距太大	-4363
挺满意的	-4364
果断差评	-4365
用了几天	-4366
真的很好	-4367
确实不错	-4368
穿在身上	-4369
给个差评	-4370
绿林好汉	-4371
美中不足	-4372
都很喜欢	-4373
非常失望	-4374
高端大气	-4375
lsquo	-4376
times	-4377
▁非常好的	-4378
不到一个月	-4379
不影响使用	-4380
第二次买了	-4381
质量很不错	-4382
▁第二次买了	-4383
一星都不想给	-4384
,,,,,,,	-4385
!?	-4386
1、	-4387
lt	-4388
ly	-4389
▁线	-4390
▁车	-4391
下载	-4392
也行	-4393
二维	-4394
件套	-4395
作霖	-4396
你说	-4397
借鉴	-4398
兰波	-4399
减肥	-4400
出乎	-4401
出差	-4402
动作	-4403
医学	-4404
又说	-4405
反而	-4406
商业	-4407
地道	-4408
域名	-4409
大哥	-4410
太少	-4411
女性	-4412
始终	-4413
姐姐	-4414
学到	-4415
对了	-4416
少年	-4417
干了	-4418
广泛	-4419
废话	-4420
当地	-4421
当我	-4422
往下	-4423
很亮	-4424
想问	-4425
我对	-4426
战斗	-4427
扔掉	-4428
拍了	-4429
拿着	-4430
接到	-4431
收的	-4432
改革	-4433
文献	-4434
曾经	-4435
权威	-4436
梭利	-4437
正规	-4438
比例	-4439
气的	-4440
油烟	-4441
注明	-4442
海绵	-4443
涵盖	-4444
深思	-4445
灰色	-4446
父亲	-4447
状况	-4448
生的	-4449
用后	-4450
用料	-4451
电器	-4452
疾病	-4453
的起	-4454
皮了	-4455
粘锅	-4456
级的	-4457
给予	-4458
脖子	-4459
航空	-4460
蒙特	-4461
蚊帐	-4462
补水	-4463
裂痕	-4464
要好	-4465
要用	-4466
视觉	-4467
货品	-4468
跟本	-4469
运用	-4470
还贵	-4471
追评	-4472
难度	-4473
非要	-4474
面板	-4475
音响	-4476
项链	-4477
风景	-4478
高仿	-4479
chi	-4480
ood	-4481
▁不行	-4482
▁口感	-4483
▁正版	-4484
▁色差	-4485
一个多	-4486
一句话	-4487
上去的	-4488
不可以	-4489
不起来	-4490
两个字	-4491
之间的	-4492
也挺好	-4493
买一个	-4494
买的好	-4495
二维码	-4496
京东上	-4497
元以上	-4498
其中的	-4499
出现了	-4500
卖家说	-4501
历史学	-4502
只能用	-4503
和张学	-4504
如果你	-4505
小学生	-4506
岁儿童	-4507
工具书	-4508
张作霖	-4509
怎么看	-4510
摄像头	-4511
早知道	-4512
时间长	-4513
最差的	-4514
有一股	-4515
棒棒哒	-4516
没人理	-4517
的知识	-4518
看不清	-4519
看到了	-4520
第三次	-4521
联系了	-4522
自行车	-4523
舒服的	-4524
计算机	-4525
评价了	-4526
进一步	-4527
～～～	-4528
:0-6	-4529
▁很实用	-4530
▁性价比	-4531
一般般吧	-4532
不值那个	-4533
也不一样	-4534
发过来的	-4535
商品评价	-4536
圆通快递	-4537
客服也不	-4538
就是包装	-4539
就是味道	-4540
快递给力	-4541
怎么这么	-4542
携带方便	-4543
支持京东	-4544
梭利教育	-4545
没收到货	-4546
物流信息	-4547
给我发的	-4548
都很满意	-4549
颜色好看	-4550
做工很精致	-4551
和张学良的	-4552
谁买谁后悔	-4553
▁质量非常好	-4554
下次还会再来	-4555
和描述的一样	-4556
绿林好汉故事	-4557
蒙特梭利教育	-4558
▁一分钱一分货	-4559
描述的完全一致	-4560
AAAAAAAA	-4561
张作霖和张学良的	-4562
打脚打脚打脚打脚	-4563
。。。。。。。。。	-4564
张作霖和张学良的绿林好汉故事	-4565
(9	-4566
)、	-4567
38	-4568
49	-4569
75	-4570
ir	-4571
ms	-4572
oz	-4573
▁2	-4574
▁前	-4575
▁该	-4576
。2	-4577
一口	-4578
一小	-4579
不一	-4580
不带	-4581
专用	-4582
两星	-4583
两边	-4584
中通	-4585
也差	-4586
买大	-4587
买这	-4588
事件	-4589
事实	-4590
伙伴	-4591
体的	-4592
借口	-4593
到我	-4594
到极	-4595
加固	-4596
包邮	-4597
化了	-4598
单词	-4599
危险	-4600
压力	-4601
周年	-4602
啦咯	-4603
备注	-4604
外套	-4605
多多	-4606
太短	-4607
婴儿	-4608
寻找	-4609
就看	-4610
就跟	-4611
废了	-4612
强的	-4613
形态	-4614
很香	-4615
房间	-4616
手指	-4617
批评	-4618
抹布	-4619
挑战	-4620
推卸	-4621
摆设	-4622
放大	-4623
日常	-4624
明确	-4625
最高	-4626
架了	-4627
桌子	-4628
模拟	-4629
橡胶	-4630
毛领	-4631
洗面	-4632
海洋	-4633
深的	-4634
滚滚	-4635
激光	-4636
热爱	-4637
特么	-4638
独立	-4639
王朝	-4640
百搭	-4641
的呢	-4642
真好	-4643
离谱	-4644
立刻	-4645
第六	-4646
精品	-4647
素质	-4648
编写	-4649
考古	-4650
背带	-4651
背着	-4652
背面	-4653
能穿	-4654
臭味	-4655
被骗	-4656
装好	-4657
足足	-4658
身份	-4659
返修	-4660
还差	-4661
还来	-4662
这件	-4663
途中	-4664
道路	-4665
颗粒	-4666
颠覆	-4667
11.	-4668
160	-4669
you	-4670
▁很棒	-4671
▁我的	-4672
▁谢谢	-4673
。19	-4674
不可能	-4675
不好了	-4676
不好的	-4677
不对版	-4678
不能再	-4679
严重的	-4680
也一般	-4681
也没人	-4682
二手的	-4683
以前的	-4684
使用的	-4685
变成了	-4686
在哪里	-4687
处理的	-4688
太假了	-4689
实惠的	-4690
实际上	-4691
很垃圾	-4692
很开心	-4693
很粗糙	-4694
态度好	-4695
成这样	-4696
扔掉了	-4697
旗舰店	-4698
有机会	-4699
有点差	-4700
洗面奶	-4701
的不错	-4702
看不到	-4703
简单的	-4704
给我寄	-4705
试了下	-4706
过一次	-4707
还是挺	-4708
都不要	-4709
▁一个字	-4710
一个小时	-4711
一个礼拜	-4712
不要买了	-4713
买回来就	-4714
价格合理	-4715
做工一般	-4716
包装也很	-4717
味道很好	-4718
孩子买的	-4719
完全没有	-4720
客服电话	-4721
希望大家	-4722
想象中好	-4723
给我发了	-4724
还不错的	-4725
▁不怎么好	-4726
▁味道不错	-4727
▁感觉不错	-4728
不会再买了	-4729
以后还会买	-4730
最重要的是	-4731
这样的商家	-4732
非常喜欢的	-4733
▁帮同事买的	-4734
RRRRRRRR	-4735
样式不错样式不错	-4736
岁儿童蒙特梭利教育	-4737
。。。。。。。。。。。	-4738
垃圾垃圾垃圾垃圾垃圾垃圾垃圾垃圾	-4739
EM	-4740
ow	-4741
¥2	-4742
▁啥	-4743
▁打	-4744
▁灯	-4745
不停	-4746
不去	-4747
个赞	-4748
人士	-4749
从此	-4750
众多	-4751
但我	-4752
出厂	-4753
刚到	-4754
利用	-4755
前的	-4756
加厚	-4757
动手	-4758
协商	-4759
味儿	-4760
嘎嘎	-4761
四十	-4762
地点	-4763
多种	-4764
大点	-4765
天气	-4766
奉劝	-4767
好坏	-4768
字母	-4769
审核	-4770
寄到	-4771
小一	-4772
尔的	-4773
就断	-4774
尽管	-4775
幽默	-4776
广东	-4777
座椅	-4778
形状	-4779
很旧	-4780
恢复	-4781
想退	-4782
懂得	-4783
我把	-4784
才可	-4785
把握	-4786
拆封	-4787
拿在	-4788
指南	-4789
提出	-4790
搞的	-4791
放到	-4792
散热	-4793
整理	-4794
斯特	-4795
有几	-4796
有着	-4797
期望	-4798
机关	-4799
束缚	-4800
楚辞	-4801
欺诈	-4802
气泡	-4803
水晶	-4804
沒有	-4805
没到	-4806
消毒	-4807
游泳	-4808
灵敏	-4809
牛奶	-4810
特征	-4811
王子	-4812
玫瑰	-4813
瑜伽	-4814
男士	-4815
痛苦	-4816
看下	-4817
看出	-4818
米妮	-4819
给他	-4820
网店	-4821
美在	-4822
聪明	-4823
胶带	-4824
自有	-4825
舞蹈	-4826
视角	-4827
讨厌	-4828
词典	-4829
还未	-4830
进口	-4831
道德	-4832
部件	-4833
长期	-4834
首选	-4835
黑白	-4836
(0%	-4837
10.	-4838
ver	-4839
▁下单	-4840
▁其实	-4841
▁我是	-4842
▁设计	-4843
▁货物	-4844
▁这套	-4845
一个小	-4846
下次再	-4847
不及待	-4848
不愿意	-4849
不明白	-4850
个电话	-4851
了一次	-4852
二手货	-4853
什么都	-4854
使用中	-4855
十几天	-4856
发展的	-4857
和商家	-4858
因为我	-4859
好像是	-4860
好读物	-4861
学习的	-4862
完成了	-4863
客服的	-4864
对不上	-4865
就直接	-4866
开线了	-4867
很好吃	-4868
恶心了	-4869
感兴趣	-4870
打开了	-4871
文化的	-4872
新谷弘	-4873
是破的	-4874
更多的	-4875
死掉了	-4876
比图片	-4877
特别慢	-4878
的原因	-4879
的好处	-4880
的物流	-4881
看不出	-4882
精致的	-4883
肯定是	-4884
过得去	-4885
还以为	-4886
还是买	-4887
还比较	-4888
送来的	-4889
非常不	-4890
非常慢	-4891
!!!\	-4892
hush	-4893
vvvv	-4894
▁什么破	-4895
▁送人的	-4896
中国古代	-4897
什么意思	-4898
价格不贵	-4899
你就可以	-4900
启迪孩子	-4901
在实体店	-4902
天下电商	-4903
太一般了	-4904
快递太慢	-4905
快递很快	-4906
机械机械	-4907
款式不错	-4908
还不错吧	-4909
还是坏的	-4910
迫不及待	-4911
都是坏的	-4912
非常漂亮	-4913
面料很好	-4914
?????	-4915
▁质量还行	-4916
做工很精细	-4917
块钱的东西	-4918
第一次差评	-4919
送货也很快	-4920
▁快递太慢了	-4921
▁质量很一般	-4922
▁质量还不错	-4923
中国历史常识	-4924
我只信赖京东	-4925
质量不是很好	-4926
非常差非常差	-4927
启迪孩子的心灵	-4928
女儿非常喜欢的	-4929
最差的一次购物	-4930
女儿非常喜欢的读物	-4931
。。。。。。。。。。	-4932
好读物启迪孩子的心灵	-4933
ed	-4934
ia	-4935
ml	-4936
▁*	-4937
▁做	-4938
▁先	-4939
▁茶	-4940
】【	-4941
一代	-4942
不久	-4943
不回	-4944
个性	-4945
书写	-4946
光的	-4947
内胆	-4948
内衬	-4949
动力	-4950
包含	-4951
化的	-4952
升级	-4953
又贵	-4954
口子	-4955
名字	-4956
后盖	-4957
含量	-4958
吸盘	-4959
咋样	-4960
唯识	-4961
唱片	-4962
嗯嗯	-4963
塑胶	-4964
增长	-4965
多大	-4966
多读	-4967
太厚	-4968
她们	-4969
委员	-4970
孕期	-4971
孤独	-4972
对待	-4973
就到	-4974
就行	-4975
展示	-4976
干的	-4977
平常	-4978
当今	-4979
很帅	-4980
忍了	-4981
快了	-4982
悲剧	-4983
感悟	-4984
成熟	-4985
我一	-4986
戴了	-4987
折痕	-4988
换的	-4989
数码	-4990
明年	-4991
机构	-4992
机油	-4993
杠杠	-4994
松动	-4995
枯燥	-4996
欢迎	-4997
正面	-4998
母亲	-4999
演奏	-5000
点击	-5001
环保	-5002
百多	-5003
穿起	-5004
立即	-5005
立马	-5006
粉色	-5007
纠纷	-5008
线条	-5009
给她	-5010
统一	-5011
缺乏	-5012
羊毛	-5013
能在	-5014
能装	-5015
要有	-5016
视野	-5017
评分	-5018
诉讼	-5019
说呢	-5020
质的	-5021
贴纸	-5022
踏板	-5023
这价	-5024
送达	-5025
选了	-5026
透了	-5027
钢铁	-5028
难得	-5029
面积	-5030
高速	-5031
1.5	-5032
;、&	-5033
▁太小	-5034
▁皮质	-5035
▁购买	-5036
▁配送	-5037
、、、	-5038
三个月	-5039
不习惯	-5040
丰富的	-5041
也方便	-5042
书中的	-5043
什么破	-5044
以后再	-5045
各方面	-5046
同样的	-5047
在上面	-5048
夏天穿	-5049
字心得	-5050
就是没	-5051
已经是	-5052
很严重	-5053
很可爱	-5054
懒得换	-5055
我要的	-5056
打开看	-5057
折腾了	-5058
接电话	-5059
时期的	-5060
是正版	-5061
是没有	-5062
有两个	-5063
有点硬	-5064
没反应	-5065
特别的	-5066
的心理	-5067
的痕迹	-5068
看清楚	-5069
真的好	-5070
给一星	-5071
给我们	-5072
裂开了	-5073
详细的	-5074
谁知道	-5075
调整啦	-5076
质量又	-5077
质量都	-5078
这家的	-5079
都觉得	-5080
问题是	-5081
nbsp	-5082
rarr	-5083
▁京东的	-5084
▁这衣服	-5085
一次购物	-5086
一般一般	-5087
上身效果	-5088
下次再买	-5089
不建议买	-5090
不要购买	-5091
为什么不	-5092
但是质量	-5093
内容也很	-5094
内容包括	-5095
包装精美	-5096
半个月了	-5097
发表大于	-5098
取消订单	-5099
号才收到	-5100
后悔买了	-5101
味道不错	-5102
呵呵呵呵	-5103
天无理由	-5104
就是这样	-5105
就没电了	-5106
就这样了	-5107
应该可以	-5108
很多东西	-5109
感觉不是	-5110
才可获得	-5111
收到货了	-5112
最后还是	-5113
没几天就	-5114
申通快递	-5115
相信京东	-5116
相差太大	-5117
积分规则	-5118
继续购买	-5119
这么好的	-5120
通俗易懂	-5121
非常好的	-5122
▁买的时候	-5123
▁做工粗糙	-5124
▁客服态度	-5125
▁挺好用的	-5126
▁挺好看的	-5127
▁物流速度	-5128
一点也不好	-5129
也不怎么样	-5130
元以上商品	-5131
再也不买了	-5132
大小也合适	-5133
建议不要买	-5134
快递也很快	-5135
是不是正品	-5136
是我想要的	-5137
根本就没有	-5138
没有想象的	-5139
谁买谁上当	-5140
还会再来的	-5141
,,,,,,	-5142
▁帮别人买的	-5143
▁给朋友买的	-5144
▁质量挺好的	-5145
字心得的评价	-5146
才可获得奖励	-5147
第一次在京东	-5148
音像商品评价	-5149
一颗星都不想给	-5150
积分规则调整啦	-5151
元以上商品发表大于	-5152
字心得的评价才可获得奖励	-5153
音像商品评价积分规则调整啦	-5154
,8	-5155
44	-5156
;!	-5157
_&	-5158
jd	-5159
ta	-5160
▁无	-5161
▁每	-5162
▁纸	-5163
。(	-5164
一片	-5165
不讲	-5166
两只	-5167
两年	-5168
两张	-5169
两样	-5170
为主	-5171
为人	-5172
了几	-5173
他人	-5174
你就	-5175
侧面	-5176
偏高	-5177
做越	-5178
全集	-5179
出入	-5180
出货	-5181
刻字	-5182
功夫	-5183
单独	-5184
原版	-5185
又慢	-5186
吸收	-5187
员工	-5188
周末	-5189
品味	-5190
国外	-5191
地说	-5192
均匀	-5193
坐垫	-5194
坐着	-5195
块的	-5196
天空	-5197
安静	-5198
完善	-5199
实例	-5200
害得	-5201
就变	-5202
就来	-5203
带来	-5204
平静	-5205
幸好	-5206
广州	-5207
床单	-5208
库存	-5209
往事	-5210
很值	-5211
想着	-5212
意外	-5213
我很	-5214
截图	-5215
才是	-5216
打包	-5217
打气	-5218
报销	-5219
收费	-5220
文笔	-5221
旁边	-5222
旋转	-5223
有益	-5224
查看	-5225
楼下	-5226
步骤	-5227
水果	-5228
江苏	-5229
法的	-5230
消失	-5231
灯泡	-5232
灵魂	-5233
烫手	-5234
爸妈	-5235
牛肉	-5236
特殊	-5237
环画	-5238
理了	-5239
生于	-5240
的卡	-5241
目标	-5242
碟片	-5243
第十	-5244
等我	-5245
粗心	-5246
紧了	-5247
纤维	-5248
缩水	-5249
美容	-5250
老家	-5251
聚拢	-5252
节奏	-5253
蚊子	-5254
衣衣	-5255
袖口	-5256
要么	-5257
见识	-5258
诸多	-5259
贴上	-5260
起码	-5261
超出	-5262
跑了	-5263
车里	-5264
过后	-5265
这边	-5266
进的	-5267
重视	-5268
销量	-5269
阶段	-5270
鞋面	-5271
龟速	-5272
180	-5273
▁不知	-5274
▁为了	-5275
▁如果	-5276
▁很薄	-5277
▁拿到	-5278
▁朋友	-5279
▁本书	-5280
▁相当	-5281
▁等了	-5282
▁耳机	-5283
▁这书	-5284
一次性	-5285
下订单	-5286
不发货	-5287
不咋样	-5288
不想说	-5289
不明显	-5290
不理想	-5291
不能穿	-5292
买亏了	-5293
全五分	-5294
几分钟	-5295
包装袋	-5296
和京东	-5297
品牌的	-5298
唯一的	-5299
商家说	-5300
图片的	-5301
大多数	-5302
太重了	-5303
就烂了	-5304
开不了	-5305
很简单	-5306
心理学	-5307
才到货	-5308
挺满意	-5309
方便的	-5310
毕竟是	-5311
没有了	-5312
洗发水	-5313
浪费了	-5314
热水器	-5315
爱好者	-5316
特别差	-5317
珍藏本	-5318
用这个	-5319
第一天	-5320
给京东	-5321
给力的	-5322
给我的	-5323
羽绒服	-5324
认倒霉	-5325
让自己	-5326
越做越	-5327
跟我说	-5328
过期了	-5329
连环画	-5330
道路上	-5331
都不如	-5332
都已经	-5333
黄色的	-5334
2010	-5335
▁没想到	-5336
▁还没穿	-5337
▁送货快	-5338
▁里面的	-5339
不过还是	-5340
严重不符	-5341
也挺好的	-5342
历史真相	-5343
客服人员	-5344
就是颜色	-5345
差别太大	-5346
很喜欢的	-5347
感觉还行	-5348
最不满意	-5349
最后一次	-5350
有一定的	-5351
比想象中	-5352
熟读深思	-5353
要求换货	-5354
非常舒服	-5355
▁东西收到	-5356
▁包装不错	-5357
▁很不满意	-5358
▁很漂亮的	-5359
▁我买的是	-5360
▁衣服质量	-5361
东西还不错	-5362
包装都没有	-5363
天才收到货	-5364
以后再也不会	-5365
读书可以提高	-5366
高端大气上档次	-5367
啊啊啊啊啊啊啊啊	-5368
-0	-5369
3,	-5370
34	-5371
85	-5372
89	-5373
;《	-5374
bb	-5375
ec	-5376
wj	-5377
ww	-5378
yy	-5379
▁女	-5380
▁拍	-5381
一台	-5382
一对	-5383
一番	-5384
三思	-5385
三遍	-5386
上火	-5387
为止	-5388
买给	-5389
了了	-5390
五天	-5391
低音	-5392
保险	-5393
做到	-5394
偶尔	-5395
公共	-5396
共同	-5397
典型	-5398
农村	-5399
冬季	-5400
加绒	-5401
勇敢	-5402
华丽	-5403
原则	-5404
叶子	-5405
后就	-5406
听到	-5407
吸力	-5408
和图	-5409
哈哦	-5410
哪些	-5411
哪儿	-5412
商店	-5413
围巾	-5414
在那	-5415
地位	-5416
多彩	-5417
大利	-5418
大号	-5419
太轻	-5420
好差	-5421
姑娘	-5422
宗教	-5423
定了	-5424
实验	-5425
小点	-5426
层的	-5427
年级	-5428
开箱	-5429
引起	-5430
总共	-5431
情人	-5432
想法	-5433
懂的	-5434
成果	-5435
我给	-5436
手法	-5437
折了	-5438
拖把	-5439
拖鞋	-5440
搞笑	-5441
文摘	-5442
斯卡	-5443
时刻	-5444
明智	-5445
有股	-5446
有货	-5447
木的	-5448
松紧	-5449
样的	-5450
植物	-5451
正宗	-5452
歪了	-5453
死人	-5454
泡了	-5455
渣渣	-5456
满减	-5457
珍珠	-5458
用力	-5459
电量	-5460
的热	-5461
的看	-5462
直得	-5463
科普	-5464
穿穿	-5465
纸箱	-5466
罢了	-5467
自从	-5468
良好	-5469
莫名	-5470
虚假	-5471
西藏	-5472
让他	-5473
误差	-5474
说过	-5475
诺斯	-5476
質量	-5477
足够	-5478
车费	-5479
输入	-5480
迷你	-5481
退钱	-5482
那就	-5483
部门	-5484
错的	-5485
镜子	-5486
问问	-5487
音色	-5488
顺利	-5489
魅力	-5490
EMS	-5491
ang	-5492
oze	-5493
zwj	-5494
▁发票	-5495
▁妈妈	-5496
▁无语	-5497
▁用的	-5498
▁绝对	-5499
▁被子	-5500
▁裙子	-5501
▁说是	-5502
一直都	-5503
不干净	-5504
不支持	-5505
不错啊	-5506
之前的	-5507
买书了	-5508
买了三	-5509
你们家	-5510
凑合吧	-5511
发了一	-5512
可以放	-5513
回来了	-5514
基本的	-5515
塌糊涂	-5516
太远了	-5517
失望的	-5518
好几个	-5519
完全不	-5520
容易掉	-5521
就是在	-5522
很合脚	-5523
想像中	-5524
打印机	-5525
把我的	-5526
数据线	-5527
无论是	-5528
有一定	-5529
有点紧	-5530
本好书	-5531
比别家	-5532
比蜗牛	-5533
比较慢	-5534
气死了	-5535
没看到	-5536
洗衣机	-5537
的作用	-5538
的思想	-5539
的那种	-5540
的重要	-5541
看看吧	-5542
而且是	-5543
联系我	-5544
装上去	-5545
请大家	-5546
起来了	-5547
跟卖家	-5548
还真是	-5549
都掉了	-5550
////	-5551
2011	-5552
bull	-5553
okok	-5554
▁不错哦	-5555
▁只能说	-5556
▁好好好	-5557
▁拿到手	-5558
一点效果	-5559
上次买的	-5560
不是一个	-5561
也是一种	-5562
但是没有	-5563
作家文摘	-5564
值这个价	-5565
假的掉色	-5566
哥哥哥哥	-5567
喜欢这个	-5568
多读几次	-5569
就不行了	-5570
就是发货	-5571
希望卖家	-5572
很上档次	-5573
感觉不值	-5574
换了一次	-5575
收到的是	-5576
效果一般	-5577
根本就没	-5578
款式好看	-5579
真是无语	-5580
质量真心	-5581
还是有点	-5582
这次买的	-5583
送货很快	-5584
▁不错的书	-5585
▁太差劲了	-5586
▁收到货了	-5587
▁非常喜欢	-5588
周年珍藏本	-5589
大小正合适	-5590
笔记本电脑	-5591
第一次遇到	-5592
跟图片一样	-5593
送货速度快	-5594
适合初学者	-5595
和图片不一样	-5596
这本书还不错	-5597
根本不值这个价	-5598
!!!!!!!!!!!!!!!	-5599
(1	-5600
,7	-5601
4、	-5602
78	-5603
MM	-5604
PP	-5605
SS	-5606
XX	-5607
au	-5608
ld	-5609
nA	-5610
ri	-5611
un	-5612
▁,	-5613
▁全	-5614
▁又	-5615
▁双	-5616
▁想	-5617
▁花	-5618
一体	-5619
一旦	-5620
一级	-5621
不不	-5622
五金	-5623
人性	-5624
休息	-5625
伸缩	-5626
但愿	-5627
低碳	-5628
侄女	-5629
供货	-5630
修改	-5631
偏差	-5632
克斯	-5633
兴隆	-5634
军事	-5635
凉快	-5636
分为	-5637
创业	-5638
别扭	-5639
协调	-5640
原价	-5641
原厂	-5642
史上	-5643
后轮	-5644
嘻嘻	-5645
回头	-5646
多天	-5647
失去	-5648
夹子	-5649
套餐	-5650
好些	-5651
字数	-5652
学的	-5653
害的	-5654
家用	-5655
寄了	-5656
对照	-5657
尊重	-5658
就想	-5659
就被	-5660
巴乌	-5661
带了	-5662
常常	-5663
平衡	-5664
开阔	-5665
很长	-5666
怀孕	-5667
我问	-5668
打孔	-5669
折叠	-5670
指纹	-5671
文件	-5672
文艺	-5673
文集	-5674
无损	-5675
时不	-5676
更有	-5677
月的	-5678
有小	-5679
杯盖	-5680
枕套	-5681
柔和	-5682
没送	-5683
注重	-5684
浓的	-5685
点的	-5686
犹如	-5687
用品	-5688
申通	-5689
电缆	-5690
痘痘	-5691
白安	-5692
神速	-5693
等于	-5694
紧密	-5695
缝隙	-5696
美好	-5697
而不	-5698
联想	-5699
蜂蜜	-5700
装着	-5701
说给	-5702
课堂	-5703
贴的	-5704
赶快	-5705
还省	-5706
还被	-5707
送一	-5708
速写	-5709
部位	-5710
重启	-5711
金牌	-5712
钓鱼	-5713
陶冶	-5714
随时	-5715
非得	-5716
鞋的	-5717
鞋码	-5718
音箱	-5719
首次	-5720
,12	-5721
150	-5722
▁一个	-5723
▁公司	-5724
▁好好	-5725
▁实在	-5726
▁居然	-5727
▁希望	-5728
▁手套	-5729
一会儿	-5730
一定会	-5731
上没有	-5732
下面的	-5733
不理人	-5734
不能买	-5735
与实际	-5736
也没用	-5737
了一周	-5738
了空间	-5739
会说话	-5740
但还是	-5741
使我们	-5742
其他人	-5743
分辨率	-5744
别买了	-5745
到底是	-5746
到货了	-5747
到货后	-5748
历史的	-5749
又买了	-5750
只能给	-5751
可能会	-5752
吃起来	-5753
和描述	-5754
商家的	-5755
差的要	-5756
已签收	-5757
布鲁托	-5758
建议买	-5759
很干净	-5760
很生气	-5761
很贴心	-5762
很难看	-5763
得到了	-5764
态度差	-5765
我不是	-5766
掉颜色	-5767
提供了	-5768
有一些	-5769
有些小	-5770
有保证	-5771
有图有	-5772
有用的	-5773
棒棒的	-5774
比较小	-5775
没时间	-5776
浪费我	-5777
特有的	-5778
用完了	-5779
的一些	-5780
的好用	-5781
的礼物	-5782
真垃圾	-5783
穿上去	-5784
米妮的	-5785
考古编	-5786
自由的	-5787
菩提树	-5788
赞赞赞	-5789
跟客服	-5790
这么差	-5791
透气性	-5792
那么差	-5793
高大上	-5794
▁发货快	-5795
▁垃圾货	-5796
▁蛮好的	-5797
一直在用	-5798
一直没有	-5799
也不怎么	-5800
也挺快的	-5801
书的质量	-5802
买了两件	-5803
买的一样	-5804
产品质量	-5805
什么原因	-5806
价廉物美	-5807
价格合适	-5808
低碳经济	-5809
内容丰富	-5810
包装仔细	-5811
去实体店	-5812
建议购买	-5813
快乐作业	-5814
教育哲学	-5815
无法使用	-5816
是纯棉的	-5817
生意兴隆	-5818
用的时候	-5819
看着还行	-5820
老婆买的	-5821
而且还有	-5822
衣服质量	-5823
让我失望	-5824
谨慎购买	-5825
质量真的	-5826
还可以的	-5827
还是没有	-5828
这么多年	-5829
这样的书	-5830
非常便宜	-5831
鲁迅爷爷	-5832
▁一点都不	-5833
▁书的内容	-5834
▁买了两个	-5835
▁第一次买	-5836
▁质量真心	-5837
▁还不错的	-5838
上当受骗了	-5839
上当的感觉	-5840
不知道效果	-5841
了一段时间	-5842
包装也很好	-5843
太不负责任	-5844
的质量很好	-5845
说的那么好	-5846
还是很好的	-5847
阅读了一下	-5848
haochi	-5849
▁实物与图片	-5850
▁非常不错的	-5851
不知道怎么样	-5852
不知道是什么	-5853
内容也很丰富	-5854
一本书多读几次	-5855
--------	-5856
、、、、、、、、	-5857
假的掉色假的掉色	-5858
历史真相作家文摘	-5859
,,,,,,,,,,,,,,,,	-5860
~~~~~~~~~~~~~~~~	-5861
,?	-5862
2,	-5863
31	-5864
48	-5865
==	-5866
AD	-5867
PU	-5868
hy	-5869
nF	-5870
os	-5871
xx	-5872
||	-5873
▁5	-5874
▁8	-5875
▁刀	-5876
▁多	-5877
▁头	-5878
七天	-5879
上市	-5880
上来	-5881
不该	-5882
专题	-5883
两套	-5884
中最	-5885
之下	-5886
书名	-5887
事业	-5888
亲身	-5889
人在	-5890
从中	-5891
以外	-5892
份量	-5893
仿佛	-5894
优质	-5895
伟大	-5896
你会	-5897
信仰	-5898
信心	-5899
元钱	-5900
充气	-5901
兴奋	-5902
内的	-5903
几本	-5904
刚买	-5905
功率	-5906
加工	-5907
动人	-5908
化学	-5909
半瓶	-5910
卡了	-5911
去拿	-5912
又有	-5913
又要	-5914
双鞋	-5915
反抗	-5916
发音	-5917
取件	-5918
可靠	-5919
后期	-5920
呜呜	-5921
和谐	-5922
增强	-5923
多么	-5924
够用	-5925
太平	-5926
如有	-5927
娃娃	-5928
实的	-5929
审美	-5930
客厅	-5931
客观	-5932
害我	-5933
对象	-5934
小米	-5935
就坏	-5936
展开	-5937
平板	-5938
年后	-5939
年度	-5940
并非	-5941
建设	-5942
很强	-5943
很烂	-5944
性和	-5945
性格	-5946
怪的	-5947
情趣	-5948
手柄	-5949
打字	-5950
技法	-5951
护士	-5952
挑剔	-5953
接近	-5954
提琴	-5955
搞得	-5956
擦亮	-5957
收件	-5958
收入	-5959
政策	-5960
新书	-5961
新款	-5962
新生	-5963
无人	-5964
日子	-5965
时光	-5966
显卡	-5967
晕死	-5968
样品	-5969
核桃	-5970
格式	-5971
毕业	-5972
毫不	-5973
水壶	-5974
没发	-5975
涨价	-5976
清单	-5977
火机	-5978
灯光	-5979
热的	-5980
瓶盖	-5981
男女	-5982
界的	-5983
留下	-5984
百分	-5985
的有	-5986
真货	-5987
硬度	-5988
磕碰	-5989
空气	-5990
空的	-5991
空调	-5992
立体	-5993
管用	-5994
粘贴	-5995
精心	-5996
红的	-5997
结婚	-5998
绘本	-5999
罗斯	-6000
老鼠	-6001
背后	-6002
英雄	-6003
被套	-6004
被我	-6005
装订	-6006
要了	-6007
观众	-6008
规律	-6009
解读	-6010
详解	-6011
财富	-6012
跟着	-6013
轻微	-6014
运行	-6015
运送	-6016
迟迟	-6017
退的	-6018
链接	-6019
驱动	-6020
骂人	-6021
高中	-6022
13.	-6023
170	-6024
;_&	-6025
all	-6026
one	-6027
▁专业	-6028
▁充电	-6029
▁因为	-6030
▁妈的	-6031
▁拉链	-6032
▁现在	-6033
▁皮带	-6034
▁盖子	-6035
▁看到	-6036
▁觉得	-6037
▁这本	-6038
一个大	-6039
下单后	-6040
不咋滴	-6041
不回复	-6042
不在线	-6043
不结实	-6044
不负责	-6045
世界上	-6046
两天了	-6047
之类的	-6048
也没给	-6049
买之前	-6050
了不少	-6051
了好久	-6052
他家的	-6053
价格贵	-6054
伤心了	-6055
你自己	-6056
包装太	-6057
十分钟	-6058
原来是	-6059
发现有	-6060
同一个	-6061
囤货中	-6062
在也不	-6063
太粗糙	-6064
好失望	-6065
就不会	-6066
就是太	-6067
就有点	-6068
巴巴的	-6069
店家的	-6070
很修身	-6071
很哈哦	-6072
很详细	-6073
忘记了	-6074
怀疑是	-6075
怎么能	-6076
想买的	-6077
感觉到	-6078
慢了点	-6079
我以为	-6080
我感觉	-6081
我看的	-6082
戴起来	-6083
手机壳	-6084
日下单	-6085
是旧的	-6086
有异味	-6087
有点短	-6088
有点脏	-6089
本书的	-6090
每个人	-6091
比以前	-6092
比较差	-6093
没发票	-6094
没给我	-6095
清晰度	-6096
牌子的	-6097
特别大	-6098
生锈了	-6099
的好书	-6100
的学习	-6101
知识点	-6102
确实是	-6103
给自己	-6104
脱胶了	-6105
说三遍	-6106
说没有	-6107
轻轻一	-6108
还是蛮	-6109
还送货	-6110
这两个	-6111
透明的	-6112
都破了	-6113
都这样	-6114
颜色正	-6115
1000	-6116
▁上当了	-6117
▁不咋地	-6118
▁不太好	-6119
▁刚开始	-6120
▁很好吃	-6121
▁我觉得	-6122
▁收到的	-6123
▁物流快	-6124
▁真的是	-6125
▁非常差	-6126
下的订单	-6127
不锈钢的	-6128
个人觉得	-6129
也很方便	-6130
书中自有	-6131
价格优惠	-6132
便宜多了	-6133
和图片上	-6134
在京东花	-6135
垃圾东西	-6136
大家购买	-6137
太不负责	-6138
安装方便	-6139
实用的书	-6140
希望商家	-6141
很值得看	-6142
扔垃圾桶	-6143
掉下来了	-6144
推卸责任	-6145
时间长了	-6146
款式新颖	-6147
简单大方	-6148
继续关注	-6149
而且快递	-6150
评价晚了	-6151
这么多钱	-6152
这种情况	-6153
那么好看	-6154
音质不错	-6155
颜色也很	-6156
颜色漂亮	-6157
▁书的质量	-6158
▁商品不错	-6159
▁我只想说	-6160
▁看着不错	-6161
▁衣服还行	-6162
▁质量不行	-6163
▁这个价格	-6164
▁送朋友的	-6165
不推荐购买	-6166
买便宜好多	-6167
发货也很快	-6168
收到的时候	-6169
是怎么回事	-6170
真是无语了	-6171
读书是一种	-6172
质量一般般	-6173
▁孩子很喜欢	-6174
▁鞋子收到了	-6175
不知道为什么	-6176
发货速度很快	-6177
服务态度不好	-6178
用了一段时间	-6179
▁宝贝质量很好	-6180
买便宜好多还省	-6181
建议大家不要买	-6182
服务态度也很好	-6183
cccccccc	-6184
卖家服务态度很好	-6185
与卖家描述的完全一致	-6186
haochihaochi	-6187
2\	-6188
?,	-6189
de	-6190
gf	-6191
ie	-6192
vb	-6193
▁唉	-6194
▁外	-6195
▁洗	-6196
▁海	-6197
▁皮	-6198
▁等	-6199
一支	-6200
万卷	-6201
上后	-6202
上就	-6203
下水	-6204
不严	-6205
不来	-6206
丝袜	-6207
两周	-6208
中医	-6209
临床	-6210
为证	-6211
主人	-6212
主流	-6213
也可	-6214
买吧	-6215
了对	-6216
五个	-6217
五六	-6218
以此	-6219
会计	-6220
但又	-6221
体重	-6222
使你	-6223
依据	-6224
依旧	-6225
促进	-6226
俱佳	-6227
偏贵	-6228
先后	-6229
兮兮	-6230
关门	-6231
内心	-6232
册子	-6233
减少	-6234
出水	-6235
分散	-6236
到哪	-6237
到达	-6238
加入	-6239
卖了	-6240
厚重	-6241
参数	-6242
又小	-6243
取得	-6244
可气	-6245
各类	-6246
吊坠	-6247
后再	-6248
听力	-6249
听啊	-6250
呸呸	-6251
和小	-6252
喝水	-6253
喝的	-6254
国货	-6255
大大	-6256
天鹅	-6257
太久	-6258
头皮	-6259
奶瓶	-6260
好吗	-6261
如今	-6262
妙的	-6263
娱乐	-6264
完后	-6265
宽松	-6266
密码	-6267
富有	-6268
导师	-6269
封口	-6270
封皮	-6271
尚可	-6272
就把	-6273
就降	-6274
工业	-6275
布的	-6276
布雷	-6277
开车	-6278
弄的	-6279
张小	-6280
很松	-6281
忠实	-6282
急用	-6283
恰恰	-6284
成都	-6285
或是	-6286
指针	-6287
振宇	-6288
挺大	-6289
推脱	-6290
搜索	-6291
摩擦	-6292
收纳	-6293
收音	-6294
断的	-6295
新手	-6296
无疑	-6297
旧货	-6298
时的	-6299
是要	-6300
更差	-6301
有心	-6302
服装	-6303
来讲	-6304
正式	-6305
比起	-6306
永恒	-6307
油漆	-6308
油腻	-6309
波西	-6310
浅显	-6311
浓郁	-6312
浮躁	-6313
清爽	-6314
满满	-6315
物件	-6316
特地	-6317
生物	-6318
用得	-6319
畅销	-6320
白条	-6321
白白	-6322
的主	-6323
的字	-6324
的差	-6325
的没	-6326
的的	-6327
的老	-6328
的行	-6329
的这	-6330
眼前	-6331
称为	-6332
突破	-6333
窗帘	-6334
章节	-6335
粘的	-6336
紫砂	-6337
纸盒	-6338
美食	-6339
耐磨	-6340
苦难	-6341
蓝光	-6342
街上	-6343
裂纹	-6344
角色	-6345
计较	-6346
识别	-6347
译文	-6348
诗词	-6349
购入	-6350
超差	-6351
跟图	-6352
轨迹	-6353
轻巧	-6354
较差	-6355
返回	-6356
这类	-6357
进来	-6358
远了	-6359
选购	-6360
道的	-6361
都放	-6362
面塑	-6363
预测	-6364
领口	-6365
高尚	-6366
鼓励	-6367
age	-6368
ice	-6369
▁价钱	-6370
▁好像	-6371
▁实际	-6372
▁气味	-6373
▁还算	-6374
▁鞋底	-6375
一点儿	-6376
上还有	-6377
不对板	-6378
不掉色	-6379
不是太	-6380
不清晰	-6381
不耐用	-6382
不要再	-6383
不过是	-6384
不退了	-6385
与研究	-6386
为我们	-6387
书内容	-6388
了一句	-6389
以来最	-6390
优惠券	-6391
便宜点	-6392
值得一	-6393
做工也	-6394
先不说	-6395
兮兮的	-6396
出版的	-6397
包装也	-6398
十个字	-6399
发信息	-6400
发生的	-6401
后来就	-6402
喜欢了	-6403
坑人的	-6404
声音大	-6405
多少钱	-6406
大一点	-6407
大骗子	-6408
太不值	-6409
太少了	-6410
好多次	-6411
客服很	-6412
容量大	-6413
小东西	-6414
就已经	-6415
就行了	-6416
工程师	-6417
很后悔	-6418
很明显	-6419
很高兴	-6420
忍不住	-6421
意大利	-6422
感觉好	-6423
我没有	-6424
我认为	-6425
手机上	-6426
打不通	-6427
挺漂亮	-6428
换一个	-6429
收不到	-6430
收到时	-6431
是歪的	-6432
有很大	-6433
有磨损	-6434
正常的	-6435
比其他	-6436
没多久	-6437
涵盖了	-6438
申请了	-6439
留下了	-6440
的世界	-6441
的京东	-6442
的力量	-6443
的影响	-6444
的文字	-6445
的施工	-6446
的网购	-6447
的还是	-6448
给个赞	-6449
给你们	-6450
给朋友	-6451
而不是	-6452
装不上	-6453
记录仪	-6454
试穿了	-6455
赞一下	-6456
过期的	-6457
还不好	-6458
还不是	-6459
都不值	-6460
都烂了	-6461
都碎了	-6462
阅读的	-6463
***,	-6464
jjjj	-6465
▁快递员	-6466
▁穿起来	-6467
不想多说	-6468
习惯好评	-6469
什么问题	-6470
以后还是	-6471
值得一读	-6472
儿子买的	-6473
凑合用吧	-6474
出乎意料	-6475
可以看看	-6476
可以说是	-6477
啦咯啦咯	-6478
大家别买	-6479
大小刚好	-6480
天天快递	-6481
天就到了	-6482
太恶心了	-6483
就是垃圾	-6484
就降价了	-6485
建筑工程	-6486
很有帮助	-6487
态度极差	-6488
想像中的	-6489
感觉一般	-6490
慢的要死	-6491
我还以为	-6492
拿在手里	-6493
掉色严重	-6494
方便快捷	-6495
是不错的	-6496
杯子蛋糕	-6497
父母听啊	-6498
生活中的	-6499
的不一样	-6500
继续支持	-6501
网上购物	-6502
而且没有	-6503
联系商家	-6504
脏兮兮的	-6505
行政诉讼	-6506
还会来的	-6507
还算不错	-6508
那么回事	-6509
钱买正版	-6510
非常好看	-6511
面料不错	-6512
▁不好意思	-6513
▁刚收到货	-6514
▁包装很好	-6515
▁发货很快	-6516
▁外观不错	-6517
▁物有所值	-6518
▁简直就是	-6519
▁衣服很好	-6520
▁货收到了	-6521
▁送货很快	-6522
下次不买了	-6523
下次还会来	-6524
千万别上当	-6525
帮朋友买的	-6526
很好很喜欢	-6527
本来想退货	-6528
歌曲都非常	-6529
的施工工艺	-6530
真的很不错	-6531
▁感觉还不错	-6532
▁物流很给力	-6533
卖家服务很好	-6534
太让人失望了	-6535
实在不敢恭维	-6536
物流也很给力	-6537
第二次购买了	-6538
还是很不错的	-6539
适合父母听啊	-6540
▁垃圾中的垃圾	-6541
▁衣服质量很好	-6542
在京东花盗版的	-6543
没有想象中的好	-6544
钱买正版的东西	-6545
歌曲都非常适合父母听啊	-6546
比实体店买便宜好多还省	-6547
。。。。。。。。。。。。。	-6548
在京东花盗版的钱买正版的东西	-6549
好好好好好好好好好好好好好好好好	-6550
!,	-6551
,6	-6552
1,	-6553
3\	-6554
io	-6555
ke	-6556
nB	-6557
ps	-6558
▁亲	-6559
▁听	-6560
▁已	-6561
▁快	-6562
▁画	-6563
▁能	-6564
》\	-6565
一场	-6566
一篇	-6567
不变	-6568
不忍	-6569
不止	-6570
不肯	-6571
不论	-6572
东北	-6573
东方	-6574
两种	-6575
书页	-6576
亮点	-6577
人去	-6578
从头	-6579
你了	-6580
例子	-6581
做事	-6582
全家	-6583
关闭	-6584
再三	-6585
再现	-6586
再看	-6587
凉了	-6588
出发	-6589
利益	-6590
制品	-6591
力度	-6592
力求	-6593
加了	-6594
动静	-6595
医生	-6596
十八	-6597
印花	-6598
原始	-6599
参与	-6600
又给	-6601
又薄	-6602
发型	-6603
取货	-6604
号才	-6605
吃着	-6606
同类	-6607
名称	-6608
周围	-6609
呼吸	-6610
圣经	-6611
在哪	-6612
地板	-6613
坑啊	-6614
垫付	-6615
境界	-6616
大约	-6617
太深	-6618
失误	-6619
女友	-6620
女神	-6621
好奇	-6622
如同	-6623
姐妹	-6624
导读	-6625
小包	-6626
就成	-6627
就等	-6628
崩溃	-6629
干脆	-6630
庄子	-6631
底下	-6632
建造	-6633
当中	-6634
很远	-6635
微信	-6636
想起	-6637
意的	-6638
感动	-6639
房子	-6640
手提	-6641
打磨	-6642
报告	-6643
接听	-6644
接头	-6645
整齐	-6646
文明	-6647
旋律	-6648
无关	-6649
无限	-6650
早已	-6651
早点	-6652
是大	-6653
显然	-6654
普遍	-6655
有限	-6656
杆子	-6657
来到	-6658
此外	-6659
比在	-6660
气候	-6661
气球	-6662
水货	-6663
没退	-6664
法规	-6665
派送	-6666
温和	-6667
漏发	-6668
灰常	-6669
点心	-6670
牙膏	-6671
现状	-6672
的发	-6673
的啊	-6674
的手	-6675
看在	-6676
看清	-6677
真想	-6678
着手	-6679
矛盾	-6680
破烂	-6681
硕士	-6682
神秘	-6683
神经	-6684
秒杀	-6685
究竟	-6686
站在	-6687
竞争	-6688
笔芯	-6689
类似	-6690
纪念	-6691
纯正	-6692
纽扣	-6693
结束	-6694
羽毛	-6695
考察	-6696
股票	-6697
能让	-6698
脉络	-6699
补充	-6700
认知	-6701
证券	-6702
试卷	-6703
试读	-6704
语法	-6705
说不	-6706
说要	-6707
负分	-6708
贷款	-6709
资产	-6710
赚钱	-6711
赞美	-6712
走时	-6713
趣味	-6714
轮胎	-6715
返现	-6716
这也	-6717
那款	-6718
酸奶	-6719
采用	-6720
银的	-6721
锅盖	-6722
门卫	-6723
阳市	-6724
降低	-6725
院校	-6726
面包	-6727
音频	-6728
顺畅	-6729
饮食	-6730
鸡肋	-6731
)。\	-6732
,20	-6733
199	-6734
her	-6735
low	-6736
ter	-6737
▁1、	-6738
▁你们	-6739
▁内衣	-6740
▁刚买	-6741
▁女儿	-6742
▁本人	-6743
▁珠子	-6744
▁眼镜	-6745
▁给我	-6746
上半年	-6747
不会有	-6748
不便宜	-6749
不像是	-6750
不划算	-6751
不相符	-6752
不管是	-6753
不给我	-6754
不给退	-6755
不要了	-6756
不这么	-6757
人很好	-6758
什么是	-6759
他们家	-6760
使用后	-6761
充电宝	-6762
内存卡	-6763
内容很	-6764
到今天	-6765
前面的	-6766
卖假货	-6767
厚实的	-6768
参考书	-6769
又不是	-6770
发一个	-6771
发了个	-6772
可以的	-6773
和中国	-6774
和网上	-6775
图文并	-6776
在家里	-6777
多年的	-6778
大公司	-6779
太严重	-6780
太短了	-6781
实物与	-6782
容易脏	-6783
就像是	-6784
差太多	-6785
带来的	-6786
很久了	-6787
情人节	-6788
我也没	-6789
我真的	-6790
手感好	-6791
打开后	-6792
把东西	-6793
散架了	-6794
是好的	-6795
有差别	-6796
有这么	-6797
本以为	-6798
机器人	-6799
比商场	-6800
比想象	-6801
比较薄	-6802
深入浅	-6803
生活中	-6804
电磁炉	-6805
的一切	-6806
的客服	-6807
的工作	-6808
的支持	-6809
的角度	-6810
穿上了	-6811
给别人	-6812
给我送	-6813
老公说	-6814
脏东西	-6815
衣服了	-6816
要不要	-6817
觉得很	-6818
试了试	-6819
购买时	-6820
贵了点	-6821
还不让	-6822
这玩意	-6823
这鞋子	-6824
进行了	-6825
选择了	-6826
都不行	-6827
面料好	-6828
2000	-6829
▁双十一	-6830
▁发货慢	-6831
▁实物与	-6832
▁很不好	-6833
一次性的	-6834
不太喜欢	-6835
不是太好	-6836
不是特别	-6837
不错的哦	-6838
中通快递	-6839
买了很多	-6840
京东配送	-6841
但是感觉	-6842
便宜很多	-6843
几十块钱	-6844
包装非常	-6845
可以理解	-6846
商品质量	-6847
好几次了	-6848
妈妈买的	-6849
小孩喜欢	-6850
就是这个	-6851
就知道了	-6852
居然没有	-6853
怎么评价	-6854
我买的是	-6855
我喜欢的	-6856
我家小孩	-6857
拆开包装	-6858
拿出来卖	-6859
无力吐槽	-6860
是这样的	-6861
有点大了	-6862
材质不错	-6863
款式漂亮	-6864
没有味道	-6865
相当不错	-6866
看起来很	-6867
穿了一次	-6868
简单易懂	-6869
而且还是	-6870
而且都是	-6871
联系不到	-6872
见过这么	-6873
质量俱佳	-6874
购物体验	-6875
还是非常	-6876
还没使用	-6877
还那么贵	-6878
这么大的	-6879
非常合适	-6880
inthe	-6881
▁什么东西	-6882
▁快递速度	-6883
▁总体不错	-6884
▁质量还好	-6885
▁还不错吧	-6886
▁这是什么	-6887
不是很喜欢	-6888
发票也没有	-6889
客服的态度	-6890
就是有点薄	-6891
性价比不高	-6892
教学与研究	-6893
星都不想给	-6894
有图有真相	-6895
根本不一样	-6896
物流有点慢	-6897
确认收货了	-6898
质量很一般	-6899
还是挺好的	-6900
还没有收到	-6901
还没来得及	-6902
▁感觉还可以	-6903
▁质量一般般	-6904
不是一般的差	-6905
不是我想要的	-6906
希望大家不要	-6907
快递也很给力	-6908
价格也非常便宜	-6909
想象中的那么好	-6910
质量俱佳值得推荐	-6911
。。。。。。。。。。。。。。	-6912
0000000000000000	-6913
1-	-6914
8,	-6915
:《	-6916
GO	-6917
MP	-6918
PS	-6919
Wi	-6920
ab	-6921
iP	-6922
if	-6923
kg	-6924
▁3	-6925
▁会	-6926
▁字	-6927
▁蛮	-6928
▁那	-6929
▁马	-6930
》。	-6931
一副	-6932
一碰	-6933
一页	-6934
上脚	-6935
不信	-6936
不愧	-6937
不经	-6938
不通	-6939
不释	-6940
不长	-6941
严格	-6942
个头	-6943
个洞	-6944
乐曲	-6945
书了	-6946
了吗	-6947
了的	-6948
互动	-6949
代价	-6950
会用	-6951
但这	-6952
你这	-6953
偷工	-6954
像素	-6955
允许	-6956
全棉	-6957
兼容	-6958
再到	-6959
减料	-6960
几句	-6961
分离	-6962
别字	-6963
别说	-6964
刮花	-6965
十字	-6966
十足	-6967
单子	-6968
卤菜	-6969
历程	-6970
发给	-6971
叮当	-6972
可恶	-6973
右脚	-6974
吃完	-6975
合格	-6976
后续	-6977
君子	-6978
含义	-6979
吻合	-6980
喜剧	-6981
回味	-6982
团队	-6983
国民	-6984
国藩	-6985
地理	-6986
基金	-6987
填充	-6988
士德	-6989
处于	-6990
多余	-6991
夜光	-6992
大致	-6993
大陆	-6994
太低	-6995
奶奶	-6996
实施	-6997
家居	-6998
家长	-6999
就脱	-7000
尽量	-7001
年来	-7002
幸亏	-7003
影片	-7004
很细	-7005
性强	-7006
总算	-7007
患者	-7008
感叹	-7009
慢点	-7010
成绩	-7011
所未	-7012
手续	-7013
才有	-7014
打的	-7015
扯淡	-7016
抱歉	-7017
持久	-7018
挂钩	-7019
换成	-7020
插电	-7021
收集	-7022
断裂	-7023
日语	-7024
明星	-7025
星吧	-7026
是的	-7027
有型	-7028
机身	-7029
权力	-7030
李宁	-7031
棒了	-7032
民国	-7033
水洗	-7034
污渍	-7035
泳帽	-7036
洋气	-7037
洪启	-7038
浙江	-7039
浪漫	-7040
演出	-7041
演绎	-7042
火火	-7043
物理	-7044
狗肉	-7045
理性	-7046
甚远	-7047
生态	-7048
用啊	-7049
疑问	-7050
的中	-7051
的头	-7052
的慢	-7053
的线	-7054
皇帝	-7055
相互	-7056
省事	-7057
看中	-7058
真诚	-7059
知名	-7060
称赞	-7061
空白	-7062
穿越	-7063
精准	-7064
精良	-7065
缺口	-7066
羊头	-7067
翻翻	-7068
考验	-7069
而又	-7070
而我	-7071
而来	-7072
耐穿	-7073
聊天	-7074
股市	-7075
肩带	-7076
腐败	-7077
自取	-7078
色了	-7079
蕾丝	-7080
虽说	-7081
血管	-7082
被压	-7083
被坑	-7084
诗歌	-7085
贫血	-7086
费力	-7087
赔偿	-7088
较好	-7089
过关	-7090
运气	-7091
还免	-7092
还少	-7093
还想	-7094
还真	-7095
这条	-7096
这货	-7097
退还	-7098
送礼	-7099
透彻	-7100
通话	-7101
都给	-7102
钢琴	-7103
问我	-7104
除非	-7105
面上	-7106
预想	-7107
风力	-7108
餐具	-7109
验收	-7110
高压	-7111
高级	-7112
默默	-7113
-03	-7114
15:	-7115
ass	-7116
▁屏幕	-7117
▁有一	-7118
▁漂亮	-7119
▁照片	-7120
▁版型	-7121
▁用过	-7122
▁直接	-7123
▁货品	-7124
▁这家	-7125
一点都	-7126
下单到	-7127
不到了	-7128
不得不	-7129
不能退	-7130
不配套	-7131
专业的	-7132
之所以	-7133
也许是	-7134
买不到	-7135
了几天	-7136
全新的	-7137
其它的	-7138
几十块	-7139
出运费	-7140
十多天	-7141
半小时	-7142
发生了	-7143
发票呢	-7144
发货的	-7145
可是我	-7146
告诉你	-7147
味道很	-7148
四川省	-7149
在超市	-7150
地了解	-7151
大大的	-7152
大量的	-7153
天时间	-7154
太厉害	-7155
太软了	-7156
太高了	-7157
好说的	-7158
妈妈的	-7159
安装的	-7160
对自己	-7161
就是一	-7162
就是有	-7163
就这个	-7164
差多了	-7165
常见的	-7166
张小娴	-7167
很麻烦	-7168
忽悠人	-7169
怎么穿	-7170
怪怪的	-7171
我一直	-7172
我不想	-7173
才用了	-7174
找售后	-7175
提供的	-7176
收录了	-7177
时代的	-7178
明智的	-7179
是自己	-7180
暖和的	-7181
曾国藩	-7182
最主要	-7183
有点长	-7184
有点高	-7185
有赠品	-7186
未收到	-7187
杠杠的	-7188
来说说	-7189
比较多	-7190
没声音	-7191
没效果	-7192
没有给	-7193
没用过	-7194
父母的	-7195
独特的	-7196
的位置	-7197
的最佳	-7198
的歌曲	-7199
的研究	-7200
的风格	-7201
看图片	-7202
知识和	-7203
磨破了	-7204
线头多	-7205
继续买	-7206
绿色的	-7207
美好的	-7208
而我们	-7209
耐心的	-7210
花钱买	-7211
莫名其	-7212
衣服的	-7213
读书的	-7214
读书能	-7215
责任心	-7216
起毛球	-7217
跟我在	-7218
软软的	-7219
还需要	-7220
这么小	-7221
这么慢	-7222
送一个	-7223
适用于	-7224
通过对	-7225
都没用	-7226
配送的	-7227
颜色和	-7228
-03-	-7229
▁不好看	-7230
▁买的是	-7231
▁买错了	-7232
▁太贵了	-7233
▁很差劲	-7234
▁这东西	-7235
一模一样	-7236
不足之处	-7237
两个星期	-7238
也不是很	-7239
也没人理	-7240
什么情况	-7241
他的书了	-7242
偷工减料	-7243
再也不买	-7244
卖家发货	-7245
发现自己	-7246
可以退货	-7247
大小正好	-7248
天才到货	-7249
太坑人了	-7250
宝宝喜欢	-7251
家具制造	-7252
差评是给	-7253
店里买的	-7254
很是喜欢	-7255
很有档次	-7256
总体不错	-7257
懒得退货	-7258
换了一个	-7259
效果不好	-7260
是正版的	-7261
有点味道	-7262
有的地方	-7263
比想象的	-7264
物流超慢	-7265
王朝下跪	-7266
申请售后	-7267
直得一读	-7268
看了一下	-7269
科技产业	-7270
第一时间	-7271
经济实惠	-7272
结果还是	-7273
美观大方	-7274
自动关机	-7275
跟图片上	-7276
这种东西	-7277
退回去了	-7278
都不要买	-7279
都不说了	-7280
都很不错	-7281
▁不是正品	-7282
▁使用方便	-7283
▁包装精美	-7284
▁发货太慢	-7285
▁怎么说呢	-7286
▁性价比高	-7287
▁我要的是	-7288
▁收到货后	-7289
▁款式不错	-7290
▁比想象中	-7291
▁没收到货	-7292
▁这次买的	-7293
▁送货速度	-7294
▁非常好用	-7295
不是很理想	-7296
不是纯棉的	-7297
价格也不贵	-7298
包装的很好	-7299
卖家的服务	-7300
就是买大了	-7301
就是有点小	-7302
已经收到了	-7303
快递也给力	-7304
快递太慢了	-7305
性价比不错	-7306
最大的好处	-7307
有质量问题	-7308
比超市便宜	-7309
看着还不错	-7310
还没收到货	-7311
还送货上楼	-7312
这样的卖家	-7313
颜色不一样	-7314
颜色很好看	-7315
▁不是很满意	-7316
▁给孩子买的	-7317
▁还没有使用	-7318
一如既往的好	-7319
下次还会光顾	-7320
建议不要购买	-7321
摸起来很舒服	-7322
最失败的一次	-7323
▁发货速度很快	-7324
▁用了一段时间	-7325
朋友推荐我看的	-7326
oooooooo	-7327
书的内容直得一读	-7328
价廉价廉价廉价廉	-7329
书内容质量俱佳值得推荐	-7330
比实体店买便宜好多还省车费	-7331
43	-7332
55	-7333
6\	-7334
77	-7335
;(	-7336
ch	-7337
go	-7338
~\	-7339
▁0	-7340
▁中	-7341
▁只	-7342
▁号	-7343
▁天	-7344
▁表	-7345
▁连	-7346
。|	-7347
一回	-7348
一把	-7349
一眼	-7350
上图	-7351
上课	-7352
不全	-7353
不厌	-7354
不厚	-7355
不爱	-7356
不进	-7357
丢失	-7358
两下	-7359
两瓶	-7360
主任	-7361
主编	-7362
之路	-7363
乌龟	-7364
乐趣	-7365
也说	-7366
云南	-7367
亞也	-7368
人都	-7369
仅仅	-7370
他在	-7371
件了	-7372
优势	-7373
你好	-7374
使劲	-7375
侄子	-7376
例如	-7377
便于	-7378
保留	-7379
光线	-7380
克服	-7381
入了	-7382
公园	-7383
具备	-7384
再用	-7385
准时	-7386
刀头	-7387
刀片	-7388
刚用	-7389
利于	-7390
剧情	-7391
剪刀	-7392
协会	-7393
卡片	-7394
即可	-7395
即将	-7396
却说	-7397
原创	-7398
原著	-7399
原车	-7400
去找	-7401
又没	-7402
双面	-7403
叔叔	-7404
叫人	-7405
可怕	-7406
右边	-7407
同步	-7408
后又	-7409
品尝	-7410
唱歌	-7411
善良	-7412
喇叭	-7413
因素	-7414
圣诞	-7415
城的	-7416
多个	-7417
大纲	-7418
太旧	-7419
太粗	-7420
太细	-7421
太肥	-7422
夸张	-7423
如图	-7424
媒体	-7425
它了	-7426
定位	-7427
审判	-7428
室内	-7429
宽度	-7430
对手	-7431
尝试	-7432
就很	-7433
就起	-7434
尴尬	-7435
山东	-7436
巨大	-7437
带有	-7438
平均	-7439
幻想	-7440
店大	-7441
建築	-7442
异常	-7443
弯的	-7444
当你	-7445
当年	-7446
很贵	-7447
很酷	-7448
得好	-7449
心中	-7450
必读	-7451
忽然	-7452
思路	-7453
恼火	-7454
惊讶	-7455
慎买	-7456
慰藉	-7457
我有	-7458
战胜	-7459
所在	-7460
扁了	-7461
手链	-7462
护肤	-7463
报纸	-7464
拍下	-7465
指引	-7466
掉线	-7467
插在	-7468
摆着	-7469
放弃	-7470
敏感	-7471
散了	-7472
斯顿	-7473
方的	-7474
无耻	-7475
既有	-7476
易学	-7477
星星	-7478
春秋	-7479
昨晚	-7480
是从	-7481
是很	-7482
晒单	-7483
晓得	-7484
最为	-7485
机的	-7486
杨红	-7487
松的	-7488
某些	-7489
标识	-7490
歌手	-7491
死机	-7492
民间	-7493
没的	-7494
渐渐	-7495
源于	-7496
满了	-7497
激励	-7498
焊接	-7499
然并	-7500
片子	-7501
特效	-7502
犹太	-7503
王永	-7504
环节	-7505
由此	-7506
电线	-7507
疯狂	-7508
的哦	-7509
的美	-7510
的花	-7511
监测	-7512
着的	-7513
睫毛	-7514
破洞	-7515
硬件	-7516
科研	-7517
突出	-7518
笑了	-7519
糊弄	-7520
绘制	-7521
缺失	-7522
缺货	-7523
美味	-7524
美甲	-7525
老树	-7526
考证	-7527
而无	-7528
胡适	-7529
胶味	-7530
脑残	-7531
自已	-7532
自知	-7533
茶壶	-7534
荧光	-7535
葫芦	-7536
行动	-7537
裤腿	-7538
观感	-7539
规格	-7540
解说	-7541
记住	-7542
设施	-7543
访问	-7544
词语	-7545
话可	-7546
详尽	-7547
贴在	-7548
身心	-7549
辅助	-7550
还敢	-7551
这份	-7552
这张	-7553
这才	-7554
这钱	-7555
逊与	-7556
通常	-7557
造就	-7558
遇见	-7559
遭遇	-7560
避免	-7561
都压	-7562
都用	-7563
都看	-7564
钱了	-7565
错字	-7566
长短	-7567
问他	-7568
闹心	-7569
阐述	-7570
露出	-7571
题型	-7572
题材	-7573
风险	-7574
魔法	-7575
,15	-7576
---	-7577
14.	-7578
3.5	-7579
;。\	-7580
The	-7581
▁书本	-7582
▁只能	-7583
▁品质	-7584
▁售后	-7585
▁订单	-7586
▁这种	-7587
▁都是	-7588
一下吧	-7589
一点用	-7590
不仅仅	-7591
不会买	-7592
不行了	-7593
不行啊	-7594
也一样	-7595
也不理	-7596
也还行	-7597
了一圈	-7598
了几次	-7599
了半天	-7600
了还是	-7601
付款了	-7602
以后还	-7603
价格高	-7604
会再来	-7605
做工不	-7606
充满了	-7607
光顾了	-7608
其实是	-7609
分好评	-7610
半天才	-7611
发货也	-7612
可以装	-7613
味道好	-7614
和发展	-7615
哪去了	-7616
基金的	-7617
塑料味	-7618
备用的	-7619
大一码	-7620
大革命	-7621
好一点	-7622
学生的	-7623
客户的	-7624
宣传的	-7625
将就着	-7626
就是好	-7627
就碎了	-7628
差好多	-7629
差评的	-7630
店里的	-7631
当时的	-7632
很及时	-7633
很帅气	-7634
很强大	-7635
很精美	-7636
急着用	-7637
怪自己	-7638
想不到	-7639
我怎么	-7640
或者是	-7641
投资者	-7642
摸上去	-7643
收音机	-7644
放不下	-7645
时买的	-7646
是一部	-7647
是为了	-7648
是好事	-7649
是非常	-7650
有点重	-7651
有许多	-7652
未来的	-7653
来买了	-7654
来形容	-7655
杨红樱	-7656
此商品	-7657
没几天	-7658
没货了	-7659
洗不掉	-7660
浮士德	-7661
物流的	-7662
电源线	-7663
的一致	-7664
的可以	-7665
的同时	-7666
的品质	-7667
的第一	-7668
的要命	-7669
的都是	-7670
相对于	-7671
真实的	-7672
真是太	-7673
穿一次	-7674
第三节	-7675
第二节	-7676
粘不住	-7677
网上买	-7678
翻译的	-7679
老婆的	-7680
能买到	-7681
脚后跟	-7682
自己找	-7683
薄薄的	-7684
补发的	-7685
补邮费	-7686
要注意	-7687
要退货	-7688
让他们	-7689
让别人	-7690
路边摊	-7691
过几天	-7692
这一点	-7693
这段话	-7694
连接处	-7695
退差价	-7696
都一样	-7697
都说好	-7698
错别字	-7699
陈布雷	-7700
降价了	-7701
颠覆性	-7702
马虎虎	-7703
''''	-7704
dddd	-7705
▁大品牌	-7706
▁很失望	-7707
▁快递慢	-7708
▁没收到	-7709
下次还要	-7710
不太好用	-7711
不是很大	-7712
为什么要	-7713
也就那样	-7714
二次销售	-7715
京东送货	-7716
他很喜欢	-7717
其中一个	-7718
写的的书	-7719
几个小时	-7720
出现问题	-7721
到处都是	-7722
半个小时	-7723
发了一个	-7724
可气的是	-7725
呃呃呃呃	-7726
哪里去了	-7727
喜欢喜欢	-7728
太差太差	-7729
好几天了	-7730
安装师傅	-7731
就是为了	-7732
店家服务	-7733
很不开心	-7734
必须差评	-7735
快递单号	-7736
态度恶劣	-7737
感觉就是	-7738
我们应该	-7739
振宇英语	-7740
描述一样	-7741
整体来说	-7742
每次都是	-7743
洗了一次	-7744
洗的时候	-7745
物流很慢	-7746
用了一下	-7747
的情况下	-7748
相差太远	-7749
绝对不是	-7750
继续光顾	-7751
课外知识	-7752
质量也不	-7753
还以为是	-7754
还好还好	-7755
还有一个	-7756
这个颜色	-7757
送朋友的	-7758
里面都是	-7759
钻石会员	-7760
难看死了	-7761
颜色不错	-7762
骗子骗子	-7763
黑心商家	-7764
▁发错货了	-7765
▁快递很快	-7766
▁手感不错	-7767
▁服务态度	-7768
▁根本不是	-7769
▁物流给力	-7770
▁这个价位	-7771
▁鞋子很好	-7772
不值得购买	-7773
不是很舒服	-7774
不错的选择	-7775
价格也便宜	-7776
在京东买的	-7777
大小刚刚好	-7778
就是小了点	-7779
快一个月了	-7780
我也不知道	-7781
根本不能用	-7782
物流也给力	-7783
谁买谁知道	-7784
质量也不好	-7785
质量有问题	-7786
跟客服联系	-7787
除了他的书	-7788
▁一点也不好	-7789
一点都不好看	-7790
低碳经济研究	-7791
没有想象的好	-7792
一点效果都没有	-7793
卖家服务态度好	-7794
在京东买东西了	-7795
快递送货也很快	-7796
哈哈哈哈哈哈哈哈	-7797
～～～～～～～～	-7798
7\	-7799
IT	-7800
LE	-7801
LO	-7802
ML	-7803
cd	-7804
fa	-7805
id	-7806
oT	-7807
tm	-7808
▁6	-7809
▁9	-7810
▁毛	-7811
▁球	-7812
▁破	-7813
▁量	-7814
▁黑	-7815
一圈	-7816
一盒	-7817
一箱	-7818
三大	-7819
上升	-7820
下降	-7821
不堪	-7822
不强	-7823
不正	-7824
不着	-7825
丢在	-7826
严谨	-7827
个别	-7828
中评	-7829
乃至	-7830
之咒	-7831
乐器	-7832
书评	-7833
买一	-7834
争取	-7835
互相	-7836
交通	-7837
产的	-7838
亮了	-7839
亲切	-7840
人与	-7841
代理	-7842
伤害	-7843
体积	-7844
作文	-7845
佩服	-7846
保养	-7847
修复	-7848
元素	-7849
光驱	-7850
其铎	-7851
内侧	-7852
凑活	-7853
分开	-7854
分类	-7855
分配	-7856
划伤	-7857
初学	-7858
判断	-7859
别再	-7860
到时	-7861
到是	-7862
到脚	-7863
剖析	-7864
办事	-7865
动画	-7866
劳动	-7867
勇气	-7868
区域	-7869
单元	-7870
卧槽	-7871
卸妆	-7872
压迫	-7873
发挥	-7874
发黄	-7875
古老	-7876
另一	-7877
只给	-7878
号了	-7879
司法	-7880
合一	-7881
听了	-7882
吸汗	-7883
品相	-7884
哎哎	-7885
哑铃	-7886
哦哦	-7887
商量	-7888
回到	-7889
回力	-7890
图画	-7891
均码	-7892
壳子	-7893
外国	-7894
多用	-7895
大爷	-7896
天地	-7897
天穿	-7898
套书	-7899
女生	-7900
子了	-7901
学了	-7902
安徽	-7903
实务	-7904
家伙	-7905
小姐	-7906
小桥	-7907
差到	-7908
师范	-7909
带领	-7910
床垫	-7911
度的	-7912
开本	-7913
开线	-7914
引导	-7915
弹簧	-7916
录像	-7917
很次	-7918
得上	-7919
循环	-7920
快件	-7921
想吐	-7922
成分	-7923
手段	-7924
才来	-7925
才行	-7926
打底	-7927
打架	-7928
打造	-7929
指挥	-7930
指望	-7931
挤压	-7932
挺有	-7933
换来	-7934
推出	-7935
措施	-7936
描绘	-7937
插座	-7938
插画	-7939
摔了	-7940
支撑	-7941
敏捷	-7942
数的	-7943
方洲	-7944
无意	-7945
无比	-7946
是小	-7947
晓玲	-7948
晓阳	-7949
曲子	-7950
期货	-7951
本想	-7952
本领	-7953
杯口	-7954
极度	-7955
极慢	-7956
标示	-7957
树叶	-7958
棕色	-7959
模特	-7960
次的	-7961
武汉	-7962
死的	-7963
比赛	-7964
毛刺	-7965
民主	-7966
汇通	-7967
汉语	-7968
洗澡	-7969
测量	-7970
消极	-7971
深圳	-7972
混乱	-7973
清华	-7974
渊洁	-7975
灌灌	-7976
烦恼	-7977
照明	-7978
玄皇	-7979
生理	-7980
电气	-7981
登山	-7982
的球	-7983
的笔	-7984
的鞋	-7985
皮鞋	-7986
秘密	-7987
穿得	-7988
第七	-7989
等的	-7990
纸巾	-7991
绘图	-7992
统治	-7993
继承	-7994
维护	-7995
网友	-7996
翻开	-7997
耳钉	-7998
脚垫	-7999
脚感	-8000
,	-8001
的	-8002
▁	-8003
不	-8004
。	-8005
了	-8006
是	-8007
好	-8008
一	-8009
!	-8010
很	-8011
有	-8012
还	-8013
就	-8014
买	-8015
没	-8016
我	-8017
这	-8018
个	-8019
用	-8020
错	-8021
到	-8022
也	-8023
差	-8024
n	-8025
来	-8026
东	-8027
货	-8028
质	-8029
太	-8030
子	-8031
大	-8032
都	-8033
l	-8034
上	-8035
看	-8036
量	-8037
\	-8038
以	-8039
服	-8040
在	-8041
么	-8042
家	-8043
;	-8044
人	-8045
说	-8046
3	-8047
发	-8048
.	-8049
可	-8050
点	-8051
&	-8052
要	-8053
书	-8054
次	-8055
给	-8056
快	-8057
后	-8058
、	-8059
小	-8060
物	-8061
多	-8062
能	-8063
价	-8064
西	-8065
样	-8066
1	-8067
得	-8068
意	-8069
品	-8070
本	-8071
0	-8072
下	-8073
时	-8074
?	-8075
实	-8076
天	-8077
过	-8078
和	-8079
h	-8080
e	-8081
收	-8082
装	-8083
真	-8084
常	-8085
感	-8086
i	-8087
面	-8088
包	-8089
色	-8090
送	-8091
会	-8092
喜	-8093
中	-8094
评	-8095
道	-8096
欢	-8097
非	-8098
穿	-8099
度	-8100
o	-8101
满	-8102
比	-8103
想	-8104
京	-8105
着	-8106
p	-8107
为	-8108
心	-8109
觉	-8110
d	-8111
2	-8112
般	-8113
挺	-8114
果	-8115
出	-8116
开	-8117
自	-8118
行	-8119
购	-8120
你	-8121
合	-8122
值	-8123
客	-8124
吧	-8125
手	-8126
知	-8127
电	-8128
那	-8129
们	-8130
学	-8131
但	-8132
什	-8133
起	-8134
对	-8135
流	-8136
u	-8137
正	-8138
方	-8139
别	-8140
慢	-8141
图	-8142
里	-8143
退	-8144
第	-8145
现	-8146
递	-8147
去	-8148
生	-8149
只	-8150
而	-8151
他	-8152
商	-8153
才	-8154
啊	-8155
做	-8156
然	-8157
问	-8158
味	-8159
无	-8160
便	-8161
格	-8162
分	-8163
理	-8164
q	-8165
工	-8166
衣	-8167
再	-8168
全	-8169
回	-8170
最	-8171
两	-8172
怎	-8173
作	-8174
宝	-8175
之	-8176
打	-8177
片	-8178
地	-8179
卖	-8180
直	-8181
经	-8182
几	-8183
圾	-8184
望	-8185
垃	-8186
明	-8187
a	-8188
题	-8189
适	-8190
务	-8191
单	-8192
鞋	-8193
机	-8194
5	-8195
年	-8196
前	-8197
如	-8198
钱	-8199
r	-8200
)	-8201
力	-8202
其	-8203
(	-8204
体	-8205
店	-8206
内	-8207
重	-8208
容	-8209
间	-8210
高	-8211
当	-8212
己	-8213
外	-8214
完	-8215
款	-8216
换	-8217
老	-8218
水	-8219
特	-8220
法	-8221
读	-8222
与	-8223
话	-8224
~	-8225
且	-8226
:	-8227
国	-8228
让	-8229
气	-8230
又	-8231
成	-8232
于	-8233
料	-8234
超	-8235
舒	-8236
较	-8237
月	-8238
动	-8239
掉	-8240
三	-8241
性	-8242
*	-8243
事	-8244
速	-8245
跟	-8246
所	-8247
颜	-8248
版	-8249
态	-8250
些	-8251
效	-8252
s	-8253
已	-8254
像	-8255
种	-8256
产	-8257
音	-8258
亮	-8259
文	-8260
等	-8261
美	-8262
二	-8263
者	-8264
4	-8265
信	-8266
系	-8267
接	-8268
费	-8269
应	-8270
失	-8271
使	-8272
新	-8273
贵	-8274
同	-8275
相	-8276
结	-8277
坏	-8278
根	-8279
号	-8280
式	-8281
孩	-8282
刚	-8283
算	-8284
网	-8285
精	-8286
十	-8287
带	-8288
6	-8289
定	-8290
头	-8291
解	-8292
期	-8293
友	-8294
长	-8295
候	-8296
语	-8297
m	-8298
身	-8299
放	-8300
线	-8301
从	-8302
清	-8303
儿	-8304
被	-8305
情	-8306
少	-8307
件	-8308
宜	-8309
》	-8310
《	-8311
字	-8312
通	-8313
细	-8314
星	-8315
更	-8316
保	-8317
码	-8318
9	-8319
部	-8320
8	-8321
漂	-8322
朋	-8323
吃	-8324
把	-8325
光	-8326
总	-8327
呢	-8328
试	-8329
因	-8330
口	-8331
教	-8332
写	-8333
该	-8334
活	-8335
拿	-8336
难	-8337
安	-8338
皮	-8339
薄	-8340
原	-8341
公	-8342
日	-8343
表	-8344
配	-8345
花	-8346
t	-8347
简	-8348
显	-8349
加	-8350
主	-8351
希	-8352
提	-8353
毛	-8354
处	-8355
进	-8356
关	-8357
破	-8358
7	-8359
假	-8360
套	-8361
吗	-8362
习	-8363
联	-8364
爱	-8365
边	-8366
象	-8367
够	-8368
牌	-8369
玩	-8370
业	-8371
骗	-8372
车	-8373
贝	-8374
洗	-8375
D	-8376
白	-8377
推	-8378
计	-8379
位	-8380
整	-8381
哈	-8382
易	-8383
级	-8384
考	-8385
女	-8386
及	-8387
空	-8388
建	-8389
死	-8390
乐	-8391
黑	-8392
致	-8393
脚	-8394
观	-8395
底	-8396
反	-8397
赞	-8398
变	-8399
思	-8400
受	-8401
票	-8402
确	-8403
裤	-8404
见	-8405
找	-8406
专	-8407
～	-8408
数	-8409
连	-8410
哦	-8411
条	-8412
-	-8413
此	-8414
半	-8415
运	-8416
化	-8417
纸	-8418
声	-8419
识	-8420
充	-8421
选	-8422
张	-8423
标	-8424
五	-8425
惠	-8426
市	-8427
平	-8428
员	-8429
代	-8430
帮	-8431
C	-8432
万	-8433
入	-8434
谢	-8435
具	-8436
先	-8437
块	-8438
设	-8439
论	-8440
基	-8441
卡	-8442
名	-8443
强	-8444
烂	-8445
请	-8446
厚	-8447
它	-8448
妈	-8449
准	-8450
四	-8451
复	-8452
门	-8453
史	-8454
干	-8455
影	-8456
今	-8457
形	-8458
断	-8459
器	-8460
议	-8461
坑	-8462
认	-8463
售	-8464
任	-8465
述	-8466
呵	-8467
始	-8468
久	-8469
每	-8470
何	-8471
风	-8472
历	-8473
盒	-8474
软	-8475
拉	-8476
极	-8477
师	-8478
节	-8479
严	-8480
修	-8481
注	-8482
c	-8483
偏	-8484
求	-8485
程	-8486
荐	-8487
调	-8488
并	-8489
术	-8490
管	-8491
传	-8492
寄	-8493
热	-8494
硬	-8495
听	-8496
居	-8497
板	-8498
照	-8499
各	-8500
需	-8501
元	-8502
双	-8503
订	-8504
赠	-8505
印	-8506
型	-8507
轻	-8508
尺	-8509
眼	-8510
啦	-8511
却	-8512
她	-8513
描	-8514
示	-8515
烦	-8516
路	-8517
球	-8518
麻	-8519
消	-8520
材	-8521
划	-8522
制	-8523
红	-8524
贴	-8525
香	-8526
必	-8527
g	-8528
备	-8529
布	-8530
竟	-8531
胶	-8532
记	-8533
讲	-8534
粗	-8535
周	-8536
画	-8537
将	-8538
金	-8539
盖	-8540
棒	-8541
指	-8542
深	-8543
盘	-8544
礼	-8545
塑	-8546
b	-8547
劲	-8548
目	-8549
杯	-8550
走	-8551
A	-8552
响	-8553
功	-8554
由	-8555
类	-8556
支	-8557
视	-8558
折	-8559
海	-8560
越	-8561
世	-8562
持	-8563
邮	-8564
待	-8565
决	-8566
封	-8567
旧	-8568
科	-8569
司	-8570
米	-8571
袋	-8572
箱	-8573
哪	-8574
神	-8575
千	-8576
或	-8577
按	-8578
笔	-8579
验	-8580
技	-8581
损	-8582
优	-8583
至	-8584
漏	-8585
山	-8586
续	-8587
油	-8588
低	-8589
符	-8590
典	-8591
改	-8592
拍	-8593
温	-8594
补	-8595
介	-8596
维	-8597
刷	-8598
绝	-8599
取	-8600
百	-8601
虽	-8602
谁	-8603
奇	-8604
告	-8605
短	-8606
顾	-8607
利	-8608
统	-8609
场	-8610
斯	-8611
界	-8612
社	-8613
故	-8614
脏	-8615
彩	-8616
磨	-8617
马	-8618
查	-8619
导	-8620
证	-8621
丝	-8622
向	-8623
·	-8624
古	-8625
懒	-8626
茶	-8627
段	-8628
足	-8629
克	-8630
暖	-8631
研	-8632
诉	-8633
寂	-8634
晚	-8635
歌	-8636
瓶	-8637
办	-8638
义	-8639
往	-8640
远	-8641
M	-8642
付	-8643
存	-8644
搞	-8645
敢	-8646
痕	-8647
言	-8648
际	-8649
早	-8650
松	-8651
政	-8652
喝	-8653
扣	-8654
脑	-8655
领	-8656
晰	-8657
答	-8658
透	-8659
紧	-8660
耐	-8661
防	-8662
达	-8663
呀	-8664
啥	-8665
悔	-8666
键	-8667
P	-8668
展	-8669
糙	-8670
民	-8671
火	-8672
页	-8673
良	-8674
亲	-8675
护	-8676
角	-8677
首	-8678
缺	-8679
申	-8680
拆	-8681
绍	-8682
英	-8683
压	-8684
交	-8685
微	-8686
凑	-8687
垫	-8688
棉	-8689
y	-8690
懂	-8691
广	-8692
插	-8693
近	-8694
华	-8695
倒	-8696
异	-8697
S	-8698
寸	-8699
尔	-8700
究	-8701
区	-8702
蛮	-8703
随	-8704
L	-8705
息	-8706
步	-8707
责	-8708
害	-8709
户	-8710
藏	-8711
裂	-8712
命	-8713
奶	-8714
戴	-8715
牛	-8716
台	-8717
章	-8718
规	-8719
v	-8720
扔	-8721
背	-8722
w	-8723
另	-8724
编	-8725
脱	-8726
吸	-8727
恶	-8728
膜	-8729
案	-8730
咋	-8731
股	-8732
层	-8733
终	-8734
镜	-8735
婆	-8736
f	-8737
楚	-8738
签	-8739
误	-8740
似	-8741
住	-8742
叫	-8743
德	-8744
E	-8745
北	-8746
蓝	-8747
O	-8748
粉	-8749
艺	-8750
翻	-8751
除	-8752
营	-8753
负	-8754
未	-8755
T	-8756
伤	-8757
曲	-8758
弄	-8759
造	-8760
纯	-8761
钢	-8762
许	-8763
阅	-8764
池	-8765
游	-8766
继	-8767
转	-8768
创	-8769
兴	-8770
链	-8771
集	-8772
城	-8773
士	-8774
录	-8775
灯	-8776
资	-8777
战	-8778
败	-8779
B	-8780
泡	-8781
稍	-8782
初	-8783
园	-8784
投	-8785
I	-8786
况	-8787
架	-8788
耳	-8789
留	-8790
立	-8791
黄	-8792
男	-8793
据	-8794
粘	-8795
模	-8796
著	-8797
六	-8798
育	-8799
丰	-8800
供	-8801
词	-8802
离	-8803
灵	-8804
R	-8805
报	-8806
柔	-8807
富	-8808
廉	-8809
列	-8810
释	-8811
颗	-8812
择	-8813
普	-8814
源	-8815
碎	-8816
k	-8817
否	-8818
王	-8819
N	-8820
档	-8821
浪	-8822
疑	-8823
顺	-8824
句	-8825
怀	-8826
欲	-8827
%	-8828
省	-8829
共	-8830
尚	-8831
参	-8832
杂	-8833
助	-8834
份	-8835
七	-8836
赖	-8837
八	-8838
午	-8839
卷	-8840
慎	-8841
袜	-8842
锅	-8843
刻	-8844
哥	-8845
积	-8846
排	-8847
详	-8848
距	-8849
靠	-8850
右	-8851
称	-8852
钟	-8853
巧	-8854
独	-8855
飞	-8856
食	-8857
G	-8858
哎	-8859
密	-8860
散	-8861
净	-8862
厂	-8863
滑	-8864
销	-8865
降	-8866
置	-8867
乎	-8868
测	-8869
怕	-8870
检	-8871
哟	-8872
屏	-8873
健	-8874
跑	-8875
尽	-8876
木	-8877
环	-8878
获	-8879
切	-8880
则	-8881
落	-8882
叶	-8883
操	-8884
须	-8885
丢	-8886
闻	-8887
摸	-8888
既	-8889
淡	-8890
属	-8891
左	-8892
摊	-8893
树	-8894
略	-8895
j	-8896
课	-8897
巴	-8898
怪	-8899
擦	-8900
治	-8901
练	-8902
例	-8903
籍	-8904
趣	-8905
刀	-8906
承	-8907
挂	-8908
智	-8909
/	-8910
V	-8911
即	-8912
追	-8913
仔	-8914
南	-8915
弹	-8916
爽	-8917
肯	-8918
欺	-8919
母	-8920
灰	-8921
养	-8922
仅	-8923
爸	-8924
静	-8925
刺	-8926
启	-8927
引	-8928
询	-8929
诗	-8930
阳	-8931
搭	-8932
洞	-8933
闷	-8934
郁	-8935
册	-8936
铁	-8937
估	-8938
圆	-8939
錯	-8940
壳	-8941
担	-8942
病	-8943
鱼	-8944
F	-8945
缝	-8946
鲜	-8947
急	-8948
绒	-8949
冲	-8950
固	-8951
岁	-8952
遇	-8953
x	-8954
肉	-8955
阿	-8956
青	-8957
碟	-8958
预	-8959
X	-8960
演	-8961
班	-8962
诚	-8963
座	-8964
康	-8965
校	-8966
站	-8967
范	-8968
醉	-8969
念	-8970
盗	-8971
础	-8972
苦	-8973
z	-8974
坐	-8975
脸	-8976
减	-8977
控	-8978
素	-8979
童	-8980
组	-8981
译	-8982
迹	-8983
乱	-8984
嘛	-8985
律	-8986
析	-8987
激	-8988
石	-8989
虑	-8990
K	-8991
毕	-8992
珠	-8993
菜	-8994
H	-8995
惯	-8996
睡	-8997
唯	-8998
旅	-8999
状	-9000
吉	-9001
增	-9002
络	-9003
罗	-9004
肤	-9005
训	-9006
冷	-9007
拖	-9008
惜	-9009
辑	-9010
帽	-9011
院	-9012
围	-9013
狗	-9014
螺	-9015
轮	-9016
针	-9017
U	-9018
免	-9019
志	-9020
林	-9021
笑	-9022
夏	-9023
房	-9024
血	-9025
银	-9026
齐	-9027
冬	-9028
库	-9029
括	-9030
妹	-9031
托	-9032
济	-9033
父	-9034
碰	-9035
铺	-9036
九	-9037
刁	-9038
境	-9039
愿	-9040
概	-9041
汉	-9042
臭	-9043
暗	-9044
牙	-9045
率	-9046
皱	-9047
惊	-9048
袖	-9049
遍	-9050
众	-9051
剧	-9052
孔	-9053
波	-9054
洁	-9055
熟	-9056
约	-9057
土	-9058
忽	-9059
绿	-9060
升	-9061
景	-9062
床	-9063
愉	-9064
职	-9065
锈	-9066
亏	-9067
军	-9068
昨	-9069
柜	-9070
福	-9071
篇	-9072
腰	-9073
雨	-9074
弟	-9075
权	-9076
沟	-9077
谓	-9078
返	-9079
零	-9080
瑕	-9081
刮	-9082
室	-9083
幕	-9084
敏	-9085
豆	-9086
项	-9087
博	-9088
忙	-9089
限	-9090
+	-9091
【	-9092
丽	-9093
序	-9094
您	-9095
春	-9096
曾	-9097
浓	-9098
唉	-9099
善	-9100
奖	-9101
巾	-9102
兰	-9103
坚	-9104
拥	-9105
甚	-9106
依	-9107
构	-9108
漆	-9109
稳	-9110
赶	-9111
革	-9112
顶	-9113
湿	-9114
草	-9115
壶	-9116
令	-9117
永	-9118
疵	-9119
端	-9120
争	-9121
哲	-9122
培	-9123
忘	-9124
蛋	-9125
W	-9126
傅	-9127
厉	-9128
枕	-9129
J	-9130
亚	-9131
'	-9132
劣	-9133
楼	-9134
益	-9135
鲁	-9136
云	-9137
停	-9138
宽	-9139
尼	-9140
施	-9141
毫	-9142
烟	-9143
雅	-9144
冰	-9145
突	-9146
临	-9147
仿	-9148
塞	-9149
忍	-9150
族	-9151
迷	-9152
江	-9153
索	-9154
输	-9155
饰	-9156
圈	-9157
域	-9158
歪	-9159
浅	-9160
烈	-9161
烧	-9162
龙	-9163
催	-9164
唱	-9165
址	-9166
幸	-9167
珍	-9168
糊	-9169
纪	-9170
触	-9171
止	-9172
肥	-9173
谱	-9174
佳	-9175
宣	-9176
摘	-9177
酒	-9178
附	-9179
凉	-9180
剪	-9181
扫	-9182
摆	-9183
滴	-9184
药	-9185
官	-9186
漫	-9187
爷	-9188
甲	-9189
瘦	-9190
鉴	-9191
均	-9192
戏	-9193
批	-9194
休	-9195
來	-9196
含	-9197
悠	-9198
痛	-9199
累	-9200
隔	-9201
夹	-9202
摄	-9203
鼠	-9204
播	-9205
核	-9206
绘	-9207
霉	-9208
余	-9209
奥	-9210
废	-9211
莫	-9212
虚	-9213
闲	-9214
障	-9215
露	-9216
饭	-9217
侧	-9218
团	-9219
拼	-9220
掌	-9221
医	-9222
州	-9223
欧	-9224
睛	-9225
糕	-9226
迅	-9227
囤	-9228
纳	-9229
钻	-9230
孕	-9231
握	-9232
鼻	-9233
吐	-9234
夜	-9235
尘	-9236
尤	-9237
忆	-9238
桶	-9239
残	-9240
沉	-9241
湖	-9242
谨	-9243
買	-9244
途	-9245
佛	-9246
击	-9247
屁	-9248
晕	-9249
杆	-9250
派	-9251
畅	-9252
秋	-9253
享	-9254
挑	-9255
桥	-9256
苏	-9257
频	-9258
仓	-9259
卫	-9260
夫	-9261
妇	-9262
姐	-9263
拒	-9264
撒	-9265
醒	-9266
局	-9267
晒	-9268
祥	-9269
腾	-9270
誉	-9271
貨	-9272
凤	-9273
摔	-9274
航	-9275
诺	-9276
队	-9277
额	-9278
咯	-9279
堂	-9280
墨	-9281
巨	-9282
采	-9283
堆	-9284
拜	-9285
暂	-9286
润	-9287
舞	-9288
餐	-9289
农	-9290
唐	-9291
彻	-9292
李	-9293
审	-9294
捷	-9295
铜	-9296
锁	-9297
Y	-9298
俗	-9299
勒	-9300
协	-9301
甜	-9302
腿	-9303
咨	-9304
妆	-9305
纹	-9306
羊	-9307
芯	-9308
迟	-9309
恭	-9310
沙	-9311
涂	-9312
液	-9313
群	-9314
酸	-9315
魔	-9316
咖	-9317
圣	-9318
浮	-9319
秀	-9320
羽	-9321
】	-9322
借	-9323
嘴	-9324
噪	-9325
扎	-9326
洋	-9327
渣	-9328
糟	-9329
鬼	-9330
券	-9331
朝	-9332
染	-9333
秘	-9334
缩	-9335
载	-9336
险	-9337
骑	-9338
副	-9339
缘	-9340
撕	-9341
斤	-9342
污	-9343
煮	-9344
蜗	-9345
貌	-9346
闪	-9347
丑	-9348
仍	-9349
單	-9350
嗯	-9351
嫌	-9352
抽	-9353
某	-9354
毒	-9355
鸡	-9356
慧	-9357
洲	-9358
碗	-9359
谈	-9360
赛	-9361
迫	-9362
遗	-9363
促	-9364
刊	-9365
啡	-9366
摩	-9367
映	-9368
绳	-9369
迪	-9370
陈	-9371
_	-9372
企	-9373
威	-9374
混	-9375
糖	-9376
街	-9377
凰	-9378
杀	-9379
槽	-9380
河	-9381
爆	-9382
若	-9383
蒙	-9384
默	-9385
奏	-9386
斗	-9387
武	-9388
玉	-9389
璃	-9390
腻	-9391
覺	-9392
¥	-9393
乌	-9394
励	-9395
寻	-9396
泽	-9397
犹	-9398
琴	-9399
聚	-9400
虎	-9401
讨	-9402
伴	-9403
授	-9404
携	-9405
汇	-9406
汤	-9407
烫	-9408
筑	-9409
跳	-9410
韵	-9411
卸	-9412
潮	-9413
炉	-9414
登	-9415
野	-9416
雷	-9417
察	-9418
截	-9419
玻	-9420
肩	-9421
财	-9422
鼓	-9423
匹	-9424
吊	-9425
吹	-9426
喷	-9427
幫	-9428
哒	-9429
川	-9430
探	-9431
踏	-9432
鸭	-9433
占	-9434
县	-9435
季	-9436
帝	-9437
悲	-9438
旦	-9439
末	-9440
遥	-9441
鸟	-9442
Z	-9443
涉	-9444
筒	-9445
纠	-9446
织	-9447
胃	-9448
饼	-9449
宗	-9450
帅	-9451
弃	-9452
惨	-9453
抹	-9454
摇	-9455
杰	-9456
滤	-9457
胡	-9458
谷	-9459
赏	-9460
冒	-9461
努	-9462
牢	-9463
疼	-9464
脆	-9465
仪	-9466
劝	-9467
尝	-9468
暴	-9469
桌	-9470
聊	-9471
蚊	-9472
阶	-9473
韩	-9474
顿	-9475
伪	-9476
伯	-9477
勉	-9478
厌	-9479
悟	-9480
抱	-9481
晓	-9482
束	-9483
框	-9484
泥	-9485
胎	-9486
融	-9487
裙	-9488
裹	-9489
丛	-9490
予	-9491
势	-9492
挡	-9493
渐	-9494
综	-9495
胜	-9496
赚	-9497
辅	-9498
辛	-9499
闭	-9500
麦	-9501
婚	-9502
欣	-9503
沒	-9504
滋	-9505
繁	-9506
陷	-9507
震	-9508
互	-9509
叔	-9510
妙	-9511
晃	-9512
移	-9513
骂	-9514
剩	-9515
奈	-9516
尖	-9517
幅	-9518
归	-9519
梁	-9520
泳	-9521
陶	-9522
Q	-9523
乳	-9524
抗	-9525
皇	-9526
诸	-9527
庭	-9528
秒	-9529
窗	-9530
耽	-9531
艳	-9532
衬	-9533
举	-9534
村	-9535
磁	-9536
绵	-9537
罩	-9538
肚	-9539
丁	-9540
串	-9541
斑	-9542
旋	-9543
汽	-9544
猫	-9545
疗	-9546
稀	-9547
紫	-9548
罐	-9549
舍	-9550
辣	-9551
伙	-9552
伞	-9553
卤	-9554
延	-9555
征	-9556
戒	-9557
挤	-9558
汗	-9559
滚	-9560
祝	-9561
策	-9562
褪	-9563
困	-9564
墙	-9565
宁	-9566
尿	-9567
扯	-9568
梦	-9569
械	-9570
献	-9571
竿	-9572
胸	-9573
腔	-9574
葡	-9575
逼	-9576
陋	-9577
饮	-9578
偷	-9579
傻	-9580
勇	-9581
愤	-9582
痘	-9583
粒	-9584
萄	-9585
鄙	-9586
颖	-9587
判	-9588
扭	-9589
朵	-9590
杠	-9591
焦	-9592
蜜	-9593
践	-9594
钓	-9595
闹	-9596
偿	-9597
委	-9598
娃	-9599
拧	-9600
晶	-9601
泛	-9602
砂	-9603
肠	-9604
萨	-9605
钉	-9606
锋	-9607
|	-9608
岛	-9609
庆	-9610
弯	-9611
沫	-9612
犯	-9613
痒	-9614
祖	-9615
绪	-9616
荣	-9617
馆	-9618
伊	-9619
凹	-9620
剂	-9621
呼	-9622
娘	-9623
扇	-9624
替	-9625
沾	-9626
烤	-9627
纤	-9628
覆	-9629
陆	-9630
兄	-9631
劳	-9632
厘	-9633
哭	-9634
帐	-9635
幻	-9636
恩	-9637
恰	-9638
招	-9639
旁	-9640
洒	-9641
胖	-9642
辨	-9643
酷	-9644
嘿	-9645
堪	-9646
屋	-9647
杨	-9648
侄	-9649
倍	-9650
壁	-9651
孙	-9652
瞬	-9653
税	-9654
裁	-9655
褶	-9656
驱	-9657
伟	-9658
呃	-9659
塔	-9660
宋	-9661
悉	-9662
朱	-9663
炼	-9664
缓	-9665
耗	-9666
膏	-9667
辞	-9668
雾	-9669
俩	-9670
偶	-9671
危	-9672
宇	-9673
寒	-9674
席	-9675
府	-9676
弱	-9677
恨	-9678
憾	-9679
拔	-9680
旗	-9681
瓷	-9682
盆	-9683
纷	-9684
跪	-9685
镇	-9686
霜	-9687
骨	-9688
伦	-9689
兮	-9690
咬	-9691
忠	-9692
恋	-9693
恐	-9694
挥	-9695
撑	-9696
涨	-9697
爹	-9698
玫	-9699
瞎	-9700
筷	-9701
跌	-9702
勺	-9703
叙	-9704
奉	-9705
奋	-9706
孤	-9707
尾	-9708
屎	-9709
幼	-9710
庄	-9711
氏	-9712
添	-9713
疯	-9714
监	-9715
碳	-9716
阴	-9717
雪	-9718
仙	-9719
剑	-9720
婴	-9721
执	-9722
搜	-9723
撞	-9724
梅	-9725
椅	-9726
番	-9727
船	-9728
警	-9729
龟	-9730
^	-9731
伸	-9732
侠	-9733
党	-9734
凡	-9735
凭	-9736
厨	-9737
呈	-9738
央	-9739
射	-9740
帧	-9741
柄	-9742
横	-9743
涵	-9744
绣	-9745
罢	-9746
蝶	-9747
赔	-9748
`	-9749
坠	-9750
填	-9751
守	-9752
怜	-9753
扬	-9754
洪	-9755
炒	-9756
禁	-9757
脉	-9758
账	-9759
遭	-9760
兼	-9761
凝	-9762
厅	-9763
君	-9764
坛	-9765
峰	-9766
循	-9767
恼	-9768
洛	-9769
瓦	-9770
眉	-9771
粹	-9772
钩	-9773
铃	-9774
隐	-9775
饱	-9776
=	-9777
「	-9778
乡	-9779
吴	-9780
囊	-9781
夸	-9782
宫	-9783
幽	-9784
弗	-9785
狂	-9786
田	-9787
盛	-9788
磕	-9789
竹	-9790
腐	-9791
贯	-9792
酱	-9793
⊙	-9794
俱	-9795
凸	-9796
叠	-9797
塌	-9798
妥	-9799
尊	-9800
忧	-9801
扁	-9802
抓	-9803
敬	-9804
梭	-9805
毁	-9806
汁	-9807
燥	-9808
聪	-9809
衡	-9810
颇	-9811
飘	-9812
黛	-9813
#	-9814
乏	-9815
佩	-9816
凯	-9817
刘	-9818
叹	-9819
嘎	-9820
寨	-9821
弘	-9822
扩	-9823
振	-9824
杜	-9825
枯	-9826
桃	-9827
猪	-9828
竞	-9829
苹	-9830
莱	-9831
避	-9832
隙	-9833
」	-9834
奔	-9835
宏	-9836
恒	-9837
抛	-9838
拟	-9839
曼	-9840
枣	-9841
梳	-9842
森	-9843
氧	-9844
涩	-9845
潜	-9846
狼	-9847
疏	-9848
荡	-9849
萌	-9850
遮	-9851
還	-9852
郑	-9853
俄	-9854
刹	-9855
嘻	-9856
患	-9857
敷	-9858
湾	-9859
症	-9860
笛	-9861
绕	-9862
踩	-9863
轨	-9864
迎	-9865
阐	-9866
颠	-9867
储	-9868
凌	-9869
割	-9870
吓	-9871
姑	-9872
姿	-9873
橡	-9874
玄	-9875
碍	-9876
纱	-9877
纽	-9878
肿	-9879
胆	-9880
豪	-9881
贪	-9882
阔	-9883
妮	-9884
抵	-9885
搬	-9886
攻	-9887
疾	-9888
稿	-9889
肌	-9890
舰	-9891
莲	-9892
葩	-9893
衍	-9894
豫	-9895
躁	-9896
雄	-9897
馈	-9898
魅	-9899
删	-9900
姆	-9901
崩	-9902
慰	-9903
斜	-9904
殊	-9905
渊	-9906
渍	-9907
灌	-9908
熊	-9909
纲	-9910
脖	-9911
虫	-9912
逐	-9913
锻	-9914
阻	-9915
霖	-9916
丹	-9917
乃	-9918
亦	-9919
噢	-9920
悦	-9921
惑	-9922
愧	-9923
撰	-9924
救	-9925
植	-9926
沿	-9927
泪	-9928
灭	-9929
煲	-9930
玲	-9931
私	-9932
菩	-9933
访	-9934
轴	-9935
這	-9936
钮	-9937
阵	-9938
霸	-9939
鹅	-9940
倾	-9941
媳	-9942
届	-9943
怒	-9944
抢	-9945
枪	-9946
炸	-9947
瓜	-9948
窝	-9949
蒸	-9950
衫	-9951
诈	-9952
诞	-9953
逗	-9954
逻	-9955
隆	-9956
呐	-9957
呜	-9958
宾	-9959
屑	-9960
币	-9961
拢	-9962
枝	-9963
欠	-9964
毯	-9965
泰	-9966
爬	-9967
瑰	-9968
眠	-9969
砸	-9970
硕	-9971
翼	-9972
辈	-9973
逊	-9974
驾	-9975
鸣	-9976
]	-9977
仁	-9978
仰	-9979
兵	-9980
匙	-9981
吵	-9982
吻	-9983
咒	-9984
咸	-9985
媒	-9986
径	-9987
津	-9988
浦	-9989
浴	-9990
淘	-9991
渗	-9992
燃	-9993
秦	-9994
窄	-9995
绩	-9996
罚	-9997
耍	-9998
蝴	-9999
谐	-10000
贫	-10001
颂	-10002
冻	-10003
匀	-10004
叉	-10005
呆	-10006
嘉	-10007
恢	-10008
抬	-10009
揭	-10010
會	-10011
朴	-10012
淋	-10013
焊	-10014
狠	-10015
穷	-10016
篮	-10017
缆	-10018
腹	-10019
艾	-10020
菲	-10021
览	-10022
诱	-10023
質	-10024
逸	-10025
钥	-10026
骤	-10027
乘	-10028
伽	-10029
咱	-10030
哑	-10031
姓	-10032
寿	-10033
徽	-10034
悬	-10035
拨	-10036
晾	-10037
梯	-10038
棋	-10039
樱	-10040
港	-10041
猩	-10042
玛	-10043
甘	-10044
翘	-10045
耀	-10046
艰	-10047
莎	-10048
蜂	-10049
雕	-10050
魂	-10051
黏	-10052
冶	-10053
剔	-10054
卧	-10055
坨	-10056
埃	-10057
嫩	-10058
宿	-10059
敌	-10060
晨	-10061
浑	-10062
烘	-10063
皆	-10064
砖	-10065
缚	-10066
罪	-10067
贷	-10068
辩	-10069
邦	-10070
[	-10071
垮	-10072
堵	-10073
夺	-10074
弦	-10075
扰	-10076
昌	-10077
昏	-10078
瑜	-10079
蒂	-10080
谋	-10081
跃	-10082
蹈	-10083
轧	-10084
逛	-10085
亡	-10086
叮	-10087
呸	-10088
帘	-10089
徒	-10090
忒	-10091
扑	-10092
拳	-10093
捕	-10094
掏	-10095
朗	-10096
柴	-10097
栽	-10098
桂	-10099
棕	-10100
歉	-10101
溢	-10102
盐	-10103
筋	-10104
粥	-10105
绑	-10106
芝	-10107
荒	-10108
讯	-10109
讼	-10110
迈	-10111
违	-10112
逃	-10113
闺	-10114
陪	-10115
傲	-10116
兜	-10117
冯	-10118
哇	-10119
喔	-10120
氛	-10121
浙	-10122
牧	-10123
瘾	-10124
簧	-10125
腥	-10126
苍	-10127
贡	-10128
踢	-10129
靓	-10130
@	-10131
個	-10132
允	-10133
勤	-10134
吱	-10135
坦	-10136
壮	-10137
夕	-10138
娱	-10139
娴	-10140
帖	-10141
愈	-10142
旨	-10143
曹	-10144
泉	-10145
澄	-10146
炫	-10147
盼	-10148
耶	-10149
蕾	-10150
蝉	-10151
踪	-10152
躺	-10153
邻	-10154
龄	-10155
仇	-10156
剖	-10157
勾	-10158
喂	-10159
帆	-10160
拾	-10161
晋	-10162
涤	-10163
牵	-10164
盲	-10165
耻	-10166
肋	-10167
芬	-10168
趁	-10169
亿	-10170
伐	-10171
倡	-10172
刃	-10173
刑	-10174
卢	-10175
吞	-10176
喇	-10177
堡	-10178
宙	-10179
屈	-10180
弥	-10181
抄	-10182
攀	-10183
昧	-10184
書	-10185
東	-10186
柳	-10187
浸	-10188
溃	-10189
溶	-10190
炎	-10191
猛	-10192
盾	-10193
碑	-10194
绎	-10195
缠	-10196
膀	-10197
膝	-10198
茂	-10199
藉	-10200
蟹	-10201
谅	-10202
骚	-10203
亞	-10204
伏	-10205
兹	-10206
咳	-10207
喻	-10208
嚼	-10209
崇	-10210
彼	-10211
扼	-10212
捉	-10213
捡	-10214
措	-10215
搁	-10216
旺	-10217
柯	-10218
渔	-10219
澳	-10220
炖	-10221
熏	-10222
甩	-10223
盈	-10224
督	-10225
睬	-10226
矩	-10227
簿	-10228
翔	-10229
芦	-10230
芳	-10231
赋	-10232
迁	-10233
逢	-10234
邓	-10235
铎	-10236
黎	-10237
丫	-10238
乔	-10239
井	-10240
冠	-10241
召	-10242
叭	-10243
哀	-10244
啃	-10245
奢	-10246
姻	-10247
學	-10248
屯	-10249
巅	-10250
彝	-10251
抠	-10252
敲	-10253
榨	-10254
涯	-10255
澡	-10256
為	-10257
烹	-10258
狮	-10259
瑞	-10260
瘪	-10261
矛	-10262
矿	-10263
笨	-10264
纵	-10265
肖	-10266
脾	-10267
腕	-10268
臣	-10269
舌	-10270
苗	-10271
茫	-10272
莓	-10273
藩	-10274
蜡	-10275
衰	-10276
轩	-10277
铅	-10278
锡	-10279
镯	-10280
驰	-10281
齿	-10282
丈	-10283
丶	-10284
乙	-10285
伍	-10286
侵	-10287
兔	-10288
卵	-10289
呛	-10290
喊	-10291
國	-10292
圳	-10293
妨	-10294
嫁	-10295
嵌	-10296
徐	-10297
慕	-10298
戈	-10299
戚	-10300
披	-10301
拱	-10302
捏	-10303
掰	-10304
杏	-10305
柱	-10306
桑	-10307
橙	-10308
沈	-10309
滥	-10310
漠	-10311
灼	-10312
皂	-10313
盔	-10314
翁	-10315
莉	-10316
赫	-10317
趾	-10318
辟	-10319
遵	-10320
铝	-10321
锐	-10322
镀	-10323
靴	-10324
驻	-10325
魏	-10326
〈	-10327
〉	-10328
尬	-10329
尴	-10330
屡	-10331
岩	-10332
巢	-10333
恍	-10334
愁	-10335
捧	-10336
枉	-10337
柏	-10338
汪	-10339
泼	-10340
洱	-10341
淫	-10342
溜	-10343
灾	-10344
猎	-10345
猜	-10346
猿	-10347
甥	-10348
盟	-10349
睫	-10350
睹	-10351
築	-10352
翠	-10353
臂	-10354
荧	-10355
菌	-10356
葫	-10357
裸	-10358
讶	-10359
谛	-10360
谣	-10361
贤	-10362
贺	-10363
趋	-10364
迦	-10365
邹	-10366
铲	-10367
闸	-10368
霍	-10369
侯	-10370
兽	-10371
冤	-10372
卑	-10373
吕	-10374
呦	-10375
哼	-10376
唤	-10377
喽	-10378
嗷	-10379
圖	-10380
坡	-10381
姬	-10382
娜	-10383
岗	-10384
岸	-10385
惧	-10386
慈	-10387
慨	-10388
拓	-10389
斋	-10390
棵	-10391
歹	-10392
殿	-10393
浆	-10394
浏	-10395
涌	-10396
淀	-10397
渴	-10398
炮	-10399
煤	-10400
燕	-10401
猴	-10402
疆	-10403
疲	-10404
硅	-10405
粮	-10406
肃	-10407
脂	-10408
腊	-10409
蛙	-10410
蟑	-10411
跨	-10412
辉	-10413
辜	-10414
醇	-10415
铭	-10416
骄	-10417
“	-10418
”	-10419
仲	-10420
佐	-10421
侣	-10422
兆	-10423
內	-10424
凶	-10425
卜	-10426
吭	-10427
呱	-10428
唇	-10429
嗨	-10430
嘟	-10431
奴	-10432
宰	-10433
寓	-10434
尸	-10435
巷	-10436
庞	-10437
弓	-10438
扶	-10439
拌	-10440
拣	-10441
栏	-10442
榜	-10443
檀	-10444
淑	-10445
滩	-10446
碧	-10447
祸	-10448
穴	-10449
給	-10450
纫	-10451
纺	-10452
缪	-10453
芒	-10454
葛	-10455
螂	-10456
說	-10457
诠	-10458
谎	-10459
谬	-10460
辆	-10461
開	-10462
阁	-10463
颈	-10464
馨	-10465
驼	-10466
髓	-10467
鸿	-10468
點	-10469
乖	-10470
們	-10471
兑	-10472
勃	-10473
匪	-10474
卓	-10475
卦	-10476
吟	-10477
咪	-10478
咽	-10479
坊	-10480
垂	-10481
奎	-10482
妻	-10483
姜	-10484
姨	-10485
帕	-10486
庇	-10487
後	-10488
怖	-10489
惩	-10490
扮	-10491
抖	-10492
拇	-10493
拘	-10494
搅	-10495
梢	-10496
棍	-10497
棚	-10498
椒	-10499
沐	-10500
泊	-10501
泵	-10502
湘	-10503
灶	-10504
琳	-10505
發	-10506
矣	-10507
矮	-10508
翅	-10509
聆	-10510
胞	-10511
脊	-10512
腋	-10513
芽	-10514
萎	-10515
葬	-10516
蓄	-10517
藤	-10518
裆	-10519
贼	-10520
赌	-10521
辱	-10522
醛	-10523
钳	-10524
韧	-10525
麽	-10526
	-10527
★	-10528
俺	-10529
削	-10530
咚	-10531
啸	-10532
嗓	-10533
嗦	-10534
宅	-10535
寞	-10536
岳	-10537
巡	-10538
庸	-10539
恤	-10540
惚	-10541
愚	-10542
慌	-10543
挣	-10544
掘	-10545
掩	-10546
撼	-10547
時	-10548
栓	-10549
楷	-10550
沁	-10551
泣	-10552
涅	-10553
無	-10554
煎	-10555
犬	-10556
狐	-10557
現	-10558
琢	-10559
瓣	-10560
甫	-10561
畏	-10562
疙	-10563
痴	-10564
瘩	-10565
皎	-10566
禅	-10567
窟	-10568
竖	-10569
筐	-10570
箫	-10571
篷	-10572
絮	-10573
羞	-10574
翰	-10575
蒋	-10576
蓬	-10577
蕴	-10578
襟	-10579
贾	-10580
蹭	-10581
逆	-10582
锤	-10583
锦	-10584
镶	-10585
阀	-10586
陌	-10587
馍	-10588
麼	-10589
鼎	-10590
	-10591
─	-10592
▽	-10593
仑	-10594
倚	-10595
倦	-10596
僵	-10597
剌	-10598
動	-10599
嗡	-10600
嘲	-10601
囚	-10602
垢	-10603
埋	-10604
壤	-10605
妖	-10606
姥	-10607
娇	-10608
嫂	-10609
寥	-10610
庐	-10611
廷	-10612
彭	-10613
忌	-10614
怡	-10615
怨	-10616
愣	-10617
憋	-10618
抑	-10619
挨	-10620
揪	-10621
擅	-10622
敦	-10623
曰	-10624
椰	-10625
毅	-10626
泄	-10627
浩	-10628
溪	-10629
滿	-10630
炭	-10631
烙	-10632
爪	-10633
琐	-10634
琪	-10635
瑟	-10636
疮	-10637
癫	-10638
睁	-10639
硌	-10640
窥	-10641
筹	-10642
箭	-10643
罕	-10644
聘	-10645
肝	-10646
荷	-10647
蔽	-10648
蝠	-10649
裝	-10650
誓	-10651
讽	-10652
诶	-10653
诿	-10654
贸	-10655
赢	-10656
趟	-10657
轰	-10658
辐	-10659
逝	-10660
郎	-10661
钞	-10662
間	-10663
雁	-10664
驴	-10665
鹏	-10666
丙	-10667
丧	-10668
俊	-10669
俞	-10670
俯	-10671
债	-10672
凳	-10673
別	-10674
剥	-10675
厕	-10676
咔	-10677
喉	-10678
坎	-10679
夷	-10680
奠	-10681
妲	-10682
孝	-10683
屉	-10684
峡	-10685
崛	-10686
庙	-10687
悄	-10688
扳	-10689
抚	-10690
拭	-10691
捂	-10692
搓	-10693
搽	-10694
撇	-10695
昂	-10696
晴	-10697
暇	-10698
曜	-10699
朔	-10700
柠	-10701
梗	-10702
樣	-10703
歇	-10704
殖	-10705
氓	-10706
汰	-10707
沃	-10708
沦	-10709
沸	-10710
渠	-10711
滨	-10712
漾	-10713
瀑	-10714
焰	-10715
熨	-10716
牟	-10717
疹	-10718
痹	-10719
祛	-10720
租	-10721
窍	-10722
筝	-10723
纶	-10724
缸	-10725
羅	-10726
羡	-10727
肪	-10728
肺	-10729
胀	-10730
與	-10731
菊	-10732
萝	-10733
蝙	-10734
衔	-10735
袭	-10736
裕	-10737
觅	-10738
谴	-10739
躲	-10740
轱	-10741
辖	-10742
辘	-10743
辰	-10744
迭	-10745
過	-10746
遣	-10747
郭	-10748
雀	-10749
顽	-10750
饿	-10751
鲍	-10752
╯	-10753
╰	-10754
丸	-10755
侈	-10756
僻	-10757
剁	-10758
剃	-10759
劵	-10760
勋	-10761
吾	-10762
呕	-10763
哗	-10764
啧	-10765
墓	-10766
契	-10767
姊	-10768
娅	-10769
媲	-10770
宴	-10771
對	-10772
岂	-10773
岔	-10774
崎	-10775
弧	-10776
役	-10777
懈	-10778
戍	-10779
扒	-10780
抨	-10781
拎	-10782
掺	-10783
揣	-10784
摹	-10785
敞	-10786
斥	-10787
昔	-10788
晗	-10789
晦	-10790
暑	-10791
杖	-10792
枚	-10793
枢	-10794
栋	-10795
梨	-10796
槿	-10797
檐	-10798
檬	-10799
歡	-10800
歧	-10801
沛	-10802
淇	-10803
溥	-10804
滞	-10805
瀚	-10806
焖	-10807
焚	-10808
爭	-10809
爵	-10810
狱	-10811
珊	-10812
疤	-10813
硒	-10814
祭	-10815
篯	-10816
織	-10817
纣	-10818
绷	-10819
署	-10820
胁	-10821
莹	-10822
萍	-10823
葱	-10824
蒜	-10825
蔬	-10826
薯	-10827
薰	-10828
蝇	-10829
衷	-10830
詹	-10831
诀	-10832
诫	-10833
谜	-10834
谦	-10835
豁	-10836
豚	-10837
貴	-10838
蹦	-10839
躯	-10840
遑	-10841
遨	-10842
邪	-10843
酥	-10844
铆	-10845
陀	-10846
韦	-10847
颤	-10848
饪	-10849
驳	-10850
驶	-10851
骆	-10852
骏	-10853
鳄	-10854
鸦	-10855
◆	-10856
☆	-10857
丘	-10858
亢	-10859
亭	-10860
仕	-10861
倘	-10862
傍	-10863
冈	-10864
劫	-10865
勘	-10866
叽	-10867
呗	-10868
哉	-10869
唔	-10870
啪	-10871
啰	-10872
嘱	-10873
噤	-10874
嚣	-10875
坞	-10876
坯	-10877
妄	-10878
娶	-10879
媚	-10880
宠	-10881
實	-10882
履	-10883
岐	-10884
崽	-10885
廊	-10886
廓	-10887
御	-10888
惹	-10889
應	-10890
押	-10891
拐	-10892
拷	-10893
挖	-10894
挫	-10895
捆	-10896
掠	-10897
摁	-10898
摧	-10899
撤	-10900
於	-10901
昆	-10902
晖	-10903
曙	-10904
札	-10905
杭	-10906
桩	-10907
氨	-10908
汲	-10909
涮	-10910
潭	-10911
澜	-10912
熄	-10913
狡	-10914
狭	-10915
珑	-10916
盯	-10917
睿	-10918
砍	-10919
禄	-10920
稚	-10921
窿	-10922
笼	-10923
細	-10924
經	-10925
缀	-10926
荃	-10927
菇	-10928
萧	-10929
董	-10930
蛇	-10931
觀	-10932
謝	-10933
讀	-10934
诊	-10935
诡	-10936
谊	-10937
谭	-10938
贬	-10939
贱	-10940
赴	-10941
赵	-10942
迥	-10943
邀	-10944
酪	-10945
酿	-10946
釉	-10947
鑫	-10948
長	-10949
闯	-10950
	-10951
	-10952
亥	-10953
侥	-10954
兩	-10955
勿	-10956
匈	-10957
匠	-10958
卉	-10959
叛	-10960
叱	-10961
吖	-10962
吝	-10963
咤	-10964
哄	-10965
哩	-10966
唧	-10967
喀	-10968
嗜	-10969
嘞	-10970
噱	-10971
坷	-10972
壞	-10973
宛	-10974
寝	-10975
寺	-10976
巩	-10977
帶	-10978
惟	-10979
惬	-10980
扉	-10981
抒	-10982
拽	-10983
挚	-10984
挪	-10985
挻	-10986
掀	-10987
掂	-10988
援	-10989
攝	-10990
椎	-10991
槟	-10992
檫	-10993
沥	-10994
泗	-10995
浊	-10996
淆	-10997
潢	-10998
灣	-10999
灿	-11000
炙	-11001
烯	-11002
焉	-11003
煌	-11004
熬	-11005
犀	-11006
犊	-11007
璀	-11008
璨	-11009
瓢	-11010
畫	-11011
疚	-11012
疫	-11013
矫	-11014
硝	-11015
碌	-11016
碱	-11017
祯	-11018
禽	-11019
禾	-11020
秃	-11021
秩	-11022
稠	-11023
稽	-11024
籁	-11025
糯	-11026
結	-11027
網	-11028
绞	-11029
绰	-11030
羲	-11031
肴	-11032
腑	-11033
腮	-11034
膳	-11035
臃	-11036
茅	-11037
荟	-11038
蓉	-11039
蔓	-11040
薇	-11041
虹	-11042
蚁	-11043
蚕	-11044
螃	-11045
褥	-11046
讓	-11047
诵	-11048
豉	-11049
豹	-11050
賣	-11051
購	-11052
贞	-11053
赤	-11054
踝	-11055
遂	-11056
酵	-11057
钝	-11058
铛	-11059
雇	-11060
雖	-11061
電	-11062
霞	-11063
鞘	-11064
颁	-11065
馥	-11066
體	-11067
魄	-11068
鲸	-11069
麟	-11070
	-11071
	-11072
≦	-11073
≧	-11074
╭	-11075
╮	-11076
ノ	-11077
乒	-11078
乓	-11079
仆	-11080
佷	-11081
侬	-11082
侮	-11083
俨	-11084
俪	-11085
倔	-11086
凋	-11087
函	-11088
匆	-11089
匿	-11090
厄	-11091
厦	-11092
叩	-11093
叼	-11094
咧	-11095
哨	-11096
啤	-11097
喃	-11098
喧	-11099
嗒	-11100
嘈	-11101
垒	-11102
堰	-11103
奸	-11104
妍	-11105
媛	-11106
宕	-11107
峻	-11108
崔	-11109
崴	-11110
彦	-11111
彪	-11112
彷	-11113
徨	-11114
惶	-11115
憬	-11116
捐	-11117
捣	-11118
掸	-11119
揽	-11120
搏	-11121
撮	-11122
攒	-11123
旬	-11124
曝	-11125
曦	-11126
朦	-11127
朽	-11128
枫	-11129
椭	-11130
楂	-11131
業	-11132
榄	-11133
橄	-11134
橘	-11135
機	-11136
毙	-11137
沓	-11138
沧	-11139
泸	-11140
浒	-11141
淚	-11142
淹	-11143
渺	-11144
溅	-11145
溯	-11146
澈	-11147
炜	-11148
炳	-11149
焙	-11150
熔	-11151
獲	-11152
琅	-11153
璧	-11154
甄	-11155
癌	-11156
盅	-11157
瞒	-11158
瞧	-11159
砧	-11160
磅	-11161
祀	-11162
稣	-11163
穆	-11164
窃	-11165
窘	-11166
笋	-11167
笠	-11168
筛	-11169
簡	-11170
粑	-11171
糅	-11172
絕	-11173
緯	-11174
绚	-11175
绸	-11176
缕	-11177
義	-11178
習	-11179
翡	-11180
腦	-11181
膠	-11182
舅	-11183
芙	-11184
芭	-11185
茸	-11186
莽	-11187
菱	-11188
薏	-11189
薛	-11190
薪	-11191
蚀	-11192
蚂	-11193
術	-11194
袁	-11195
裡	-11196
訴	-11197
話	-11198
诅	-11199
資	-11200
賴	-11201
赐	-11202
踌	-11203
蹄	-11204
躇	-11205
辄	-11206
遠	-11207
郊	-11208
酯	-11209
醋	-11210
钙	-11211
铮	-11212
阙	-11213
靡	-11214
顏	-11215
饥	-11216
饲	-11217
馅	-11218
馬	-11219
鹿	-11220
麗	-11221
	-11222
"	-11223
●	-11224
〇	-11225
〔	-11226
〕	-11227
伺	-11228
佑	-11229
侍	-11230
侦	-11231
俏	-11232
價	-11233
儒	-11234
冥	-11235
咀	-11236
咏	-11237
哧	-11238
哺	-11239
喱	-11240
嗅	-11241
噬	-11242
嚷	-11243
囧	-11244
坍	-11245
堑	-11246
報	-11247
妒	-11248
妳	-11249
姚	-11250
婉	-11251
孑	-11252
孟	-11253
孬	-11254
寫	-11255
屌	-11256
崖	-11257
巫	-11258
帷	-11259
廖	-11260
強	-11261
彬	-11262
從	-11263
忐	-11264
忑	-11265
怅	-11266
恺	-11267
悚	-11268
惋	-11269
態	-11270
憧	-11271
懊	-11272
戳	-11273
扛	-11274
抉	-11275
拙	-11276
拯	-11277
挎	-11278
捞	-11279
擒	-11280
數	-11281
斩	-11282
斷	-11283
旷	-11284
暧	-11285
暮	-11286
杉	-11287
杳	-11288
栈	-11289
栩	-11290
桔	-11291
棺	-11292
楠	-11293
極	-11294
榷	-11295
槛	-11296
橱	-11297
氯	-11298
汹	-11299
沌	-11300
沱	-11301
洼	-11302
洽	-11303
浇	-11304
涡	-11305
淳	-11306
渡	-11307
溺	-11308
漓	-11309
煞	-11310
煨	-11311
熙	-11312
犸	-11313
狄	-11314
獎	-11315
珀	-11316
琉	-11317
瑄	-11318
瑚	-11319
產	-11320
畦	-11321
眨	-11322
眯	-11323
瞄	-11324
瞳	-11325
矢	-11326
砌	-11327
砺	-11328
磐	-11329
礁	-11330
祺	-11331
秽	-11332
稔	-11333
種	-11334
稻	-11335
筆	-11336
籽	-11337
糗	-11338
絲	-11339
線	-11340
縮	-11341
纬	-11342
缤	-11343
缭	-11344
缴	-11345
聯	-11346
肆	-11347
肘	-11348
胧	-11349
脍	-11350
脓	-11351
臻	-11352
舛	-11353
舜	-11354
芋	-11355
芸	-11356
苟	-11357
荞	-11358
莞	-11359
萃	-11360
葚	-11361
蒲	-11362
蔺	-11363
蔻	-11364
蕙	-11365
薦	-11366
藝	-11367
蘸	-11368
蛉	-11369
蜓	-11370
蜕	-11371
蜻	-11372
蝥	-11373
蟀	-11374
蟋	-11375
衹	-11376
袍	-11377
裔	-11378
裳	-11379
褐	-11380
記	-11381
誰	-11382
诙	-11383
诛	-11384
谍	-11385
谙	-11386
贈	-11387
跋	-11388
蹊	-11389
蹲	-11390
辙	-11391
逾	-11392
遐	-11393
遢	-11394
邋	-11395
铸	-11396
關	-11397
霾	-11398
項	-11399
饵	-11400
饶	-11401
馒	-11402
驿	-11403
鳞	-11404
鸢	-11405
	-11406
°	-11407
ˉ	-11408
▂	-11409
○	-11410
丟	-11411
乍	-11412
乾	-11413
亂	-11414
佣	-11415
侃	-11416
俭	-11417
傳	-11418
僚	-11419
億	-11420
冀	-11421
凄	-11422
凿	-11423
刨	-11424
剎	-11425
剛	-11426
匡	-11427
卻	-11428
卿	-11429
叁	-11430
叻	-11431
吨	-11432
吼	-11433
咎	-11434
哕	-11435
哮	-11436
啬	-11437
啼	-11438
喘	-11439
喙	-11440
嗣	-11441
嗲	-11442
嗽	-11443
嘘	-11444
噶	-11445
嚓	-11446
囗	-11447
堕	-11448
夾	-11449
奘	-11450
妊	-11451
娠	-11452
娩	-11453
婧	-11454
孰	-11455
寡	-11456
屠	-11457
屿	-11458
岀	-11459
岷	-11460
帙	-11461
幄	-11462
庶	-11463
弊	-11464
弩	-11465
彗	-11466
徊	-11467
徘	-11468
悍	-11469
惆	-11470
惭	-11471
惰	-11472
愛	-11473
憩	-11474
戰	-11475
拴	-11476
挽	-11477
揉	-11478
搪	-11479
摒	-11480
撬	-11481
擎	-11482
斌	-11483
斓	-11484
斧	-11485
旻	-11486
柒	-11487
桨	-11488
梓	-11489
梵	-11490
楞	-11491
構	-11492
樵	-11493
殆	-11494
毂	-11495
氣	-11496
汕	-11497
淅	-11498
淌	-11499
淬	-11500
測	-11501
湮	-11502
準	-11503
溫	-11504
滹	-11505
漱	-11506
烁	-11507
熹	-11508
牡	-11509
玷	-11510
瑶	-11511
異	-11512
痪	-11513
瘤	-11514
瘫	-11515
皴	-11516
睐	-11517
瞥	-11518
瞪	-11519
瞰	-11520
砾	-11521
礴	-11522
祈	-11523
禹	-11524
秉	-11525
稱	-11526
窑	-11527
窜	-11528
竭	-11529
笙	-11530
箍	-11531
箴	-11532
篡	-11533
簇	-11534
紋	-11535
級	-11536
緊	-11537
緙	-11538
編	-11539
總	-11540
繼	-11541
绛	-11542
缮	-11543
羹	-11544
聋	-11545
肛	-11546
肾	-11547
脐	-11548
膊	-11549
膨	-11550
臀	-11551
臆	-11552
舆	-11553
舟	-11554
舱	-11555
艹	-11556
苛	-11557
茄	-11558
茉	-11559
茎	-11560
茗	-11561
茬	-11562
荔	-11563
萤	-11564
萬	-11565
葵	-11566
蓓	-11567
蔚	-11568
蔼	-11569
藕	-11570
藻	-11571
蘑	-11572
虔	-11573
處	-11574
號	-11575
蜀	-11576
蠡	-11577
蠢	-11578
袤	-11579
裴	-11580
訂	-11581
計	-11582
訊	-11583
評	-11584
變	-11585
讪	-11586
贩	-11587
贮	-11588
赘	-11589
蹂	-11590
蹋	-11591
蹬	-11592
躏	-11593
轉	-11594
辗	-11595
辽	-11596
迂	-11597
迄	-11598
迤	-11599
遊	-11600
達	-11601
邑	-11602
酝	-11603
钛	-11604
铂	-11605
铬	-11606
锚	-11607
锣	-11608
锥	-11609
锯	-11610
镖	-11611
阱	-11612
陕	-11613
陵	-11614
隘	-11615
隶	-11616
隻	-11617
雙	-11618
霄	-11619
鞭	-11620
韭	-11621
題	-11622
顯	-11623
颅	-11624
颌	-11625
飙	-11626
飾	-11627
饺	-11628
馋	-11629
驭	-11630
骇	-11631
骥	-11632
骧	-11633
鲫	-11634
鳍	-11635
黯	-11636
	-11637
	-11638
	-11639
̄	-11640
з	-11641
—	-11642
―	-11643
┻	-11644
〖	-11645
〗	-11646
亘	-11647
亨	-11648
仨	-11649
伎	-11650
伶	-11651
佗	-11652
佚	-11653
佬	-11654
佰	-11655
佼	-11656
俾	-11657
倪	-11658
僧	-11659
兀	-11660
冇	-11661
務	-11662
募	-11663
勵	-11664
匍	-11665
匐	-11666
匕	-11667
協	-11668
卞	-11669
卟	-11670
厔	-11671
厢	-11672
厲	-11673
吁	-11674
呲	-11675
咄	-11676
咆	-11677
咩	-11678
哆	-11679
哏	-11680
唆	-11681
唛	-11682
唠	-11683
唬	-11684
問	-11685
啵	-11686
啾	-11687
喳	-11688
嗝	-11689
嘭	-11690
嘹	-11691
噎	-11692
噗	-11693
嚴	-11694
圍	-11695
坂	-11696
垠	-11697
埠	-11698
堅	-11699
場	-11700
墅	-11701
墊	-11702
墩	-11703
壹	-11704
夠	-11705
夢	-11706
奚	-11707
奧	-11708
妃	-11709
妓	-11710
妩	-11711
姗	-11712
娓	-11713
婷	-11714
婿	-11715
嫉	-11716
宦	-11717
宮	-11718
宵	-11719
寅	-11720
尋	-11721
導	-11722
層	-11723
岖	-11724
岚	-11725
岭	-11726
巍	-11727
幌	-11728
幾	-11729
庵	-11730
廠	-11731
弈	-11732
弛	-11733
彈	-11734
怏	-11735
怦	-11736
怫	-11737
恃	-11738
悌	-11739
惡	-11740
惫	-11741
惴	-11742
惺	-11743
慷	-11744
憎	-11745
憨	-11746
懵	-11747
戲	-11748
抿	-11749
拂	-11750
拗	-11751
拦	-11752
挟	-11753
挠	-11754
捎	-11755
揖	-11756
換	-11757
摞	-11758
撷	-11759
撸	-11760
擁	-11761
擢	-11762
攸	-11763
斐	-11764
斟	-11765
旭	-11766
旱	-11767
昕	-11768
昭	-11769
晩	-11770
桐	-11771
條	-11772
棱	-11773
榮	-11774
榴	-11775
榻	-11776
槐	-11777
樸	-11778
歷	-11779
殒	-11780
毗	-11781
汀	-11782
汩	-11783
沪	-11784
沮	-11785
沼	-11786
泱	-11787
浃	-11788
涓	-11789
涕	-11790
涛	-11791
淨	-11792
淮	-11793
湛	-11794
滓	-11795
漩	-11796
漳	-11797
潆	-11798
潇	-11799
潘	-11800
潦	-11801
濃	-11802
炕	-11803
炬	-11804
炽	-11805
烛	-11806
焕	-11807
煩	-11808
熠	-11809
熱	-11810
燦	-11811
爛	-11812
爲	-11813
牍	-11814
牒	-11815
牲	-11816
牺	-11817
狀	-11818
狩	-11819
狸	-11820
猖	-11821
玑	-11822
玺	-11823
珅	-11824
珥	-11825
琨	-11826
瑙	-11827
璋	-11828
環	-11829
甸	-11830
畢	-11831
痰	-11832
痱	-11833
瘟	-11834
癡	-11835
皓	-11836
皙	-11837
盡	-11838
盤	-11839
盹	-11840
眈	-11841
眩	-11842
眷	-11843
睇	-11844
睦	-11845
瞅	-11846
瞌	-11847
矜	-11848
砥	-11849
確	-11850
碼	-11851
礙	-11852
祉	-11853
祙	-11854
祷	-11855
禀	-11856
稗	-11857
稼	-11858
窦	-11859
竽	-11860
筠	-11861
筱	-11862
箔	-11863
箩	-11864
節	-11865
篓	-11866
簽	-11867
粪	-11868
粽	-11869
紗	-11870
組	-11871
絢	-11872
統	-11873
繪	-11874
繫	-11875
纂	-11876
續	-11877
绅	-11878
绐	-11879
绯	-11880
绽	-11881
缉	-11882
缔	-11883
缨	-11884
罔	-11885
翱	-11886
耸	-11887
聽	-11888
胰	-11889
胳	-11890
脫	-11891
脯	-11892
腱	-11893
腳	-11894
腺	-11895
臧	-11896
舀	-11897
艘	-11898
艷	-11899
芥	-11900
苑	-11901
苔	-11902
苯	-11903
荆	-11904
菠	-11905
華	-11906
葆	-11907
葉	-11908
葶	-11909
蒡	-11910
蓦	-11911
蔗	-11912
蔡	-11913
蔫	-11914
蔷	-11915
蕤	-11916
虐	-11917
虞	-11918
虢	-11919
蚌	-11920
蚧	-11921
蛾	-11922
衩	-11923
裏	-11924
裘	-11925
補	-11926
裨	-11927
襪	-11928
覃	-11929
親	-11930
覽	-11931
許	-11932
訾	-11933
認	-11934
説	-11935
識	-11936
譬	-11937
護	-11938
讴	-11939
讹	-11940
诂	-11941
诼	-11942
谑	-11943
谟	-11944
豔	-11945
貅	-11946
貔	-11947
費	-11948
贻	-11949
赎	-11950
赦	-11951
赳	-11952
趴	-11953
跷	-11954
跻	-11955
踞	-11956
踽	-11957
蹉	-11958
躬	-11959
軀	-11960
輕	-11961
輪	-11962
逞	-11963
遏	-11964
遞	-11965
適	-11966
邃	-11967
邊	-11968
邗	-11969
邱	-11970
郵	-11971
酌	-11972
酚	-11973
酬	-11974
錄	-11975
鐵	-11976
钦	-11977
钧	-11978
钨	-11979
铠	-11980
铱	-11981
锂	-11982
锉	-11983
锌	-11984
锢	-11985
锺	-11986
镂	-11987
镊	-11988
镙	-11989
镳	-11990
閱	-11991
阜	-11992
隧	-11993
隨	-11994
隽	-11995
雍	-11996
