#version: 0.2
ï ¼
ä ¸
ï¼ Į
ç ļ
çļ Ħ
ä º
ã Ģ
æ ľ
ä¸ į
ä ¹
ãĢ Ĥ
è ¿
å ¤
æ ĺ
äº Ĩ
å ı
ä »
å ¥
å ¾
æĺ ¯
å ®
ä¸ Ģ
è ´
å¥ ½
è ¯
å °
ï¼ ģ
å Ī
å¾ Ī
å Ĳ
ç Ķ
æľ ī
ç »
æ Ī
å ·
é Ģ
å ħ
è¿ ĺ
å Ń
ä ½
å ľ
æ ²
é ĩ
ĥ ½
æ Ŀ
å° ±
ç ī
ç ľ
æ ī
æĪ ĳ
æ² ¡
ä¹ °
è¿ Ļ
æ ¬
é Ķ
ä¸ ª
å į
å ¿
çĶ ¨
æ Ĺ
æ ł
éĶ Ļ
åĪ °
æ Ħ
å Ľ
å ¸
æ ĸ
ä¹ Ł
å Ĭ
ä¸į éĶĻ
å ĵ
å º
å· ®
æĿ ¥
é Ŀ
æ Ģ
ï¼ģ ï¼ģ
è´ §
è Ģ
ä¸ ľ
å¤ §
ä» ¥
å ¼
è §
åľ ¨
åŃ Ĳ
é ĥ½
è ®
è´ ¨
å¤ ª
å ĩ
ä¸ Ĭ
å Ĩ
äº º
çľ ĭ
ãĢĤ ãĢĤ
éĩ ı
è ¡
æľ į
ä ¼
å® ¶
ä¹ Ī
æ Ķ
å ĳ
å Į
ä¹ ¦
è¯ ´
å ķ
åı ĳ
è´¨ éĩı
åı ¯
ãĢ ģ
ç Ĥ
ç Ľ
è ¦
æ ĥ
è £
è¦ ģ
å İ
æ ¯
çĤ ¹
æ ķ
è µ
é Ĺ
å Ĵ
åĲ İ
å ¯
æ Ń
å° ı
ç» Ļ
æ¬ ¡
å ¹
æĦ ı
å¿ «
çī ©
åĵ ģ
æ Į
å¾Ī å¥½
æľ ¬
æ²¡ æľī
è ĥ½
å¤ ļ
è Ī
æĹ ¶
æł ·
æ ŀ
è ĩ
è£ ħ
å¾ Ĺ
åĴ Į
åĮ ħ
è ¥
è¥ ¿
ç ©
é ¢
ä» ·
å Ģ
ç º
æ İ
è ī
ç İ
ä¸ ĭ
å® ŀ
å ĸ
è¿ ĩ
å¤ ©
æ µ
å ½
é ģ
å ģ
ä¸ľ è¥¿
ä¸ Ń
å°± æĺ¯
3 3
æ ĭ
æ ³
åı¯ ä»¥
è ¾
æ °
æĶ ¶
æ »
å¸ ¸
çľ Ł
éĿ ¢
æĦ Ł
ä¼ ļ
ç Ŀ
ä¸ º
èī ²
æ Ĭ
ç ¬
éĢ ģ
æ¯ Ķ
åĸ ľ
è¯ Ħ
ä ¿
éģ ĵ
ç Ł
éĿ ŀ
æ¬ ¢
å Ŀ
å¿ ĥ
åº ¦
æĥ ³
ä ¾
é Ĥ
çĿ Ģ
ç §
åĸľ æ¬¢
åŃ ¦
ç© ¿
ï¼ Ł
æ» ¡
åĩ º
äº ¬
å ¦
ç ®
èĩ ª
å¼ Ģ
ä¸Ģ ä¸ª
ãĢ Ģ
è§ ī
éĿŀ å¸¸
è ¶
æĮ º
ç Ĳ
u o
q uo
äº¬ ä¸ľ
h e
é Ĵ
èĪ ¬
æ ħ
ä» ¬
ä¸į æĺ¯
l l
æŀ ľ
åķ Ĩ
è¿Ļ ä¸ª
åĮħ è£ħ
è¡ Į
è ·
å¯ ¹
. .
ä¹° çļĦ
çĶ Ł
d quo
i p
ä½ ł
æ ´
ä» ĸ
å ŀ
he ll
hell ip
åĲ Ī
ç» ı
çŁ ¥
ä¸į å¥½
éĤ £
çĶ µ
èĢ Į
æī ĭ
åĢ ¼
è ½
å ī
è´ Ń
ä½ Ĩ
å ±
èµ ·
å® ¢
æĸ ¹
éĩ Į
çİ °
åĲ §
æ į
ç Ħ
æ»¡ æĦı
ä½ ľ
æĶ¶ åĪ°
ä» Ģ
åĪ «
æŃ £
ç ł
ä»Ģ ä¹Ī
æµ ģ
ç Ń
ï¼ģï¼ģ ï¼ģï¼ģ
ä¹ ĭ
ç ²
åİ »
è °
åı ª
åĪ Ĩ
çĦ ¶
ç¬ ¬
åĽ ¾
ä¸Ģ èĪ¬
æħ ¢
æī į
æĦŁ è§ī
éĢ Ģ
æ ¸
æĹ ł
éĢ Ĵ
çĲ Ĩ
ç ĥ
åķ Ĭ
éĹ ®
æľī çĤ¹
åģ ļ
å¿« éĢĴ
ç ³
åħ ¨
æľ Ģ
ãĢĤãĢĤ ãĢĤãĢĤ
å¹ ´
æł ¼
ä¾ ¿
è Ħ
åľ °
è¿ĺ æĺ¯
çī ĩ
åĳ ³
å· ¥
å®¢ æľį
åĽ ŀ
åĨ į
æ ı
ä¸ ¤
æ Ļ
ä¸Ģ æ¬¡
å® Ŀ
æĢ İ
é Ļ
çī© æµģ
è¡ £
33 33
è ¢
æī ĵ
; &
çĽ ´
ç ½
æĺ İ
åį ĸ
åĬ Ľ
å¦ Ĥ
æ ¼
è Ĭ
åī į
ç «
æ Ľ
åħ ¶
é¢ ĺ
ä¸Ģ æł·
æĢİ ä¹Ī
åĩ ł
è¯ »
ç ¾
æ³ ķ
åĽ ½
ä¹° äºĨ
åĨ ħ
å® ¹
æľ Ľ
Ġ è´¨éĩı
åĬ ¡
æĪ Ĳ
éĩ į
å· ±
è¿ĺ åı¯ä»¥
åľ ¾
äº İ
æľ º
åŀ ĥ
ç Ī
ä½ ĵ
åį ķ
éĢ Ĥ
åŀĥ åľ¾
é «
ä¸ İ
æ ±
é ļ
å½ ĵ
æĸ ĩ
é ŀ
é« ĺ
éĹ ´
éĴ ±
éŀ ĭ
ãĢĤ \
è¾ ĥ
çī ¹
èĩª å·±
ä»· æł¼
ãĢ ĭ
ãĢ Ĭ
é ķ
å¤ ĸ
è Ĥ
å® Į
ç§ į
åº Ĺ
èĢ ħ
é ¡
èĢ ģ
æ° ´
çŁ¥ éģĵ
äº ĭ
è¡£ æľį
æį ¢
ï¼ ļ
æī Ģ
åĬ ¨
è¯ Ŀ
ä¸ ī
æľį åĬ¡
é Ł
è® ©
ç ¡
çī Ī
æĢ §
æ¬ ¾
åı Ī
é ª
ä¸ Ķ
é ĺ
æĸ Ļ
æ° Ķ
ç ¥
è¶ ħ
ç Ļ
å¥½ å¥½
é ĥ
ç¾ İ
æĮº å¥½
çŃ ī
äº §
ç ¤
æľ Ī
äº Į
äº Ľ
åĲ Į
å £
å· ²
å ĥ
ä¹Ł ä¸į
è ĥ
èĪ Ĵ
éĹ® é¢ĺ
æ¯Ķ è¾ĥ
ï¼ ī
æİ ī
æĢ ģ
è´ µ
ï¼Į ï¼Į
ï¼ Ī
åıĳ è´§
å Ł
ä¿ ¡
è· Ł
éŁ ³
å Ķ
åĥ ı
éĢ Ł
ç ¨
å¾Ī åĸľæ¬¢
ç³ »
l dquo
r dquo
å·® è¯Ħ
æĸ °
é¢ ľ
æķ Ī
åŃ ©
åº Ķ
çĽ ¸
åį ģ
ä½ ¿
å¤ª å·®
åķĨ åĵģ
ç» ĵ
è º
æİ ¥
é¢ľ èī²
è§ £
åĿ ı
äº ®
è¯ Ń
èĢĮ ä¸Ķ
ä½Ĩ æĺ¯
è ģ
å¼ ı
èµ· æĿ¥
å¤ ±
ä» İ
Ġ è¿ĺ
æł ¹
å® ļ
åįĸ å®¶
ç ķ
é ħ
è ĸ
è´ ¹
ç ģ
ç² ¾
ç ¼
æ³ ¨
éķ ¿
é »
è¯ ·
éĥ ¨
æ ¶
ç ±
å·® å·®
åı ·
åŃ Ĺ
èº «
ç½ ĳ
èĸ Ħ
æľ Ł
æĥ ħ
äºĨ ä¸Ģ
é £
æ ģ
åĽ¾ çīĩ
èĪĴ æľį
ç» Ĩ
Ġ ä¸ľè¥¿
å¸ ¦
å¤ ´
ç® Ĺ
æĢģ åº¦
åĪ ļ
é Ľ
åı ĭ
æ¸ ħ
æķ Ļ
è¢ «
åĢ Ļ
æķĪ æŀľ
å »
åģļ å·¥
å Ħ
æ Ł
è¿Ļ æł·
éĢ ļ
æĶ ¾
åħ ¸
æ £
åĦ ¿
è ±
ä¸į çŁ¥éģĵ
æ ĳ
æĽ ´
å° ĳ
åĽ ł
æĹ¶ åĢĻ
ä¸Ģ çĤ¹
åħ ¬
çº ¿
éĢŁ åº¦
ä»¥ åĲİ
ä» ¶
åĨ Ļ
æĬ Ĭ
æ ·
åĳ³ éģĵ
åĢ¼ å¾Ĺ
0 0
é ¦
ä¸ »
åŃ© åŃĲ
ä¿ Ŀ
Ġ å¾Ī
å §
ä¸į èĥ½
.. ..
é ĵ
æ ¡
æ´ »
å® ľ
åħ ī
åĬ ł
é ľ
æĺ Ł
çļĦ æĺ¯
æĢ »
æľ ĭ
è¡ ¨
åĳ ¢
æ Ĥ
è į
çł ģ
æľĭ åıĭ
3333 3333
èĬ ±
éļ ¾
è´Ń ä¹°
ä¾¿ å®ľ
è¯ ¥
è¯ ķ
åĲ ĥ
é Ĩ
åı £
åĨħ å®¹
åİ Ł
æ¼ Ĥ
æĹ ¥
å¤ Ħ
ç»Ļ æĪĳ
éĢĢ è´§
æĹ¶ éĹ´
è¿ Ľ
å® ī
äº§ åĵģ
éĥ½ ä¸į
åħ ³
æł¹ æľ¬
æ¼Ĥ äº®
ä¸į è¿ĩ
æĪĳ ä»¬
ä½ į
æı Ĳ
ç® Ģ
ä¹ ł
éĥ½ æĺ¯
æĭ ¿
çļ ®
åķĨ å®¶
è¿Ļ ä¹Ī
ä¸įéĶĻ çļĦ
çĶ¨ äºĨ
è ĭ
ç ´
çİ° åľ¨
æĺ ¾
è Ļ
è´Ń çī©
éħ į
ç»ı åħ¸
ä» £
è± ¡
å¸ Į
èĢ ĥ
ä¸ ļ
ä¸Ģ çĽ´
çł ´
çĪ ±
éŀĭ åŃĲ
å·² ç»ı
çľŁ çļĦ
ä¹Ł å¾Ī
åı Ĭ
ç Ĺ
å¥ Ĺ
è¿ĺ è¡Į
æ¯ Ľ
ãĢĢ ãĢĢ
èģ Ķ
å¥½ è¯Ħ
è¿ĺ ä¸įéĶĻ
åģ ĩ
ä½¿ çĶ¨
ç ¢
æ³¨ æĦı
è¾ ¹
~ ~
æķ ´
çĻ ½
å¤ Ł
æİ ¨
å¸Į æľĽ
å¤§ å®¶
éĤ£ ä¹Ī
ä¹ Ĳ
åĲ Ĺ
ï¼ģï¼ģ ï¼ģ
åı ²
æķ °
åı ĺ
è§ Ĥ
è¿ĺ æľī
Ġ ä¸į
è´ Ŀ
çī¹ åĪ«
æĢ Ŀ
çİ ©
æŃ ¤
åĲĪ éĢĤ
Ġ è¿Ļ
è¶ Ĭ
å¾Ī å¤ļ
æľ¬ ä¹¦
è® ¡
è½ ¦
çī Į
ç© º
ï¼ģï¼ģï¼ģï¼ģ ï¼ģï¼ģï¼ģï¼ģ
å¥ ³
çļĦ ä¸ľè¥¿
åı Ĺ
å¤± æľĽ
åĮ ĸ
å» º
æĺ ĵ
åĵ Ī
çº §
éª Ĺ
æĸ¹ ä¾¿
æ´ Ĺ
ä¸į è¦ģ
è¿ĺ æ²¡
åı į
åº ķ
çº ¸
è¯ Ĩ
æŃ »
èĩ ´
æ Ĳ
æĿ¥ çļĦ
é» ĳ
è§ ģ
ç ĸ
å Ļ
å¼ ł
å½ ±
ä¸ ĵ
è Ĳ
ç»ĵ æŀľ
æ ļ
å ¡
ï¼ Ľ
æī ¾
è® º
éĢģ è´§
çĶ¨ çļĦ
éĩĮ éĿ¢
æ ĩ
ç¡ ®
åĽ Ľ
åĲ į
åºĶ è¯¥
Ġ ä¸įéĶĻ
a s
å®Ŀ è´Ŀ
æŃ£ åĵģ
ç ħ
å® ĥ
åħ ħ
åħ ·
äº Ķ
åħ ¥
èĦ ļ
æĮºå¥½ çļĦ
æĿ ¡
ï¼Ł ï¼Ł
èģĶ ç³»
å¸ Ī
åŁ º
å¹ ³
ä¸ĭ æ¬¡
ç©¿ çĿĢ
åħ Ī
èµ ŀ
Ġ æĪĳ
è¿ Ĳ
ç¥ ¨
åį Ĭ
å½ ¢
ç»Ļ åĬĽ
äºº çļĦ
ä¸ ĸ
è¿ ŀ
å¤ª æħ¢
å£ °
è ħ
éĢ ī
å¹ ¶
éĨ ĩ
ä¸į åĢ¼
ï ½
ä¸ ĩ
è£ ¤
Ġ è¡£æľį
å¥½ çļĦ
ï½ ŀ
d as
åĵ ¦
è¯Ħ ä»·
ç¬¬ äºĮ
ç¨ ĭ
Ġ å¾Īå¥½
å¼ º
æľ ¯
åİ Ĩ
çĶµ è¯Ŀ
ç¬¬ ä¸Ģæ¬¡
ä¹Ł æĺ¯
das h
m dash
å¸ Ĥ
ãĢĤãĢĤ ãĢĤ
2 0
ç»ıåħ¸ éĨĩ
æł ĩ
åĳ ĺ
è Į
ç»ıåħ¸éĨĩ ç»ıåħ¸éĨĩ
ä» »
ç ĭ
å¥½ çľĭ
é£ İ
è® ¾
ä¼ ł
? ?
å¸ ®
éĹ ¨
åĽł ä¸º
è¿ °
æĥ ł
åĿı äºĨ
è¯· æ³¨æĦı
å§ ĭ
çļĦ æĹ¶åĢĻ
ãĢĤãĢĤãĢĤãĢĤ ãĢĤãĢĤãĢĤãĢĤ
å¾Ī ä¸įéĶĻ
è® ¤
ä» Ĭ
é ©
æŀ ģ
ä½ ķ
æĸ Ń
æ¯ ı
è° ¢
å¾Ī å¿«
å¾Ī æ»¡æĦı
ä¸į ä¼ļ
åĬ ²
åİ ļ
åĿ Ĺ
èĬ Ĥ
é º
æ± Ĥ
å¤ į
çĶ »
ä¸į ä¸Ģæł·
æĭ ī
çļĦ ä¸Ģ
åĲ Ħ
åıĳ çİ°
æı ı
åĩ Ĩ
æ ®
ä½ł ä»¬
å®Į åħ¨
åĪ° äºĨ
æ¬¾ å¼ı
çļĦ ä¸Ģæ¬¡
å¦ Ī
åĻ ¨
å¹ ²
åį ¡
è® ®
è· ¯
è§ī å¾Ĺ
åĪ ¶
åį °
çļĦ äºº
åıĳ ç¥¨
çĥ Ĥ
ä¹ ħ
å¤§ å°ı
çľŁ å¿ĥ
ä¸Ń çļĦ
ä»ĸ ä»¬
åĲ ¬
è° ĥ
åĶ ®
ä¸Ń åĽ½
åħ¶ ä»ĸ
å ¢
Ġ å¤ª
åį ´
éľ Ģ
ä¿ ®
æĿ Ĳ
å¿ ħ
æĸ ¯
éĿŀå¸¸ æ»¡æĦı
çĥ Ń
è® °
åĿ ĳ
çľŁ æĺ¯
å° Ĩ
åħ ĥ
æĥ³ è±¡
åĳ µ
ç® ¡
å®Ŀ å®Ŀ
çĽ Ĵ
çħ §
åŀ ĭ
æĶ¶åĪ° äºĨ
å¥ ¹
ä¸ ¥
éĢĤ åĲĪ
è® ¢
åģ ı
èį Ĳ
è ĳ
çļĦ ä¹¦
Â ·
è½ ¯
è¿ĺ å¥½
åĽŀ æĿ¥
ç ¦
æĿ ¿
çľ ¼
æİ¨ èįĲ
è İ
è¯» ä¹¦
å¼Ģ å§ĭ
ä¸į åĪ°
éĩ ĳ
ä» ĭ
åıª èĥ½
å¤© å°±
å± ħ
åŃ¦ ä¹ł
è´ ´
åķĨåĵģ åĮħè£ħ
è½ »
ç¡ ¬
åľ¨ äº¬ä¸ľ
å¯ Ħ
è¯·æ³¨æĦı åķĨåĵģåĮħè£ħ
è Ľ
é ¥
çķ Į
è ¨
è® ²
ä¸¤ ä¸ª
æ· ±
ç¥ ŀ
çĽ ®
åı Į
åĪ Ĵ
è¯·æ³¨æĦıåķĨåĵģåĮħè£ħ è¯·æ³¨æĦıåķĨåĵģåĮħè£ħ
æ Ĵ
ç¤ º
ä¸į äºĨ
çº ¢
å®ŀ çĶ¨
åºĹ å®¶
çĲ ĥ
æĶ¶åĪ° è´§
Ġ çī©æµģ
èµ ł
Ġ ä¸įå¥½
æĮ ĩ
æ ¥
çĶ ±
åĬ Ł
ç ĵ
è§ Ĩ
è¿Ļä¸ª ä»·
æ ¢
ç ¿
å° º
æ¶ Ī
çĽ´ æİ¥
è¿Ļ æĺ¯
å¦Ĥ æŀľ
ç ı
åĪ ©
éĥ½ æ²¡æľī
èµ °
å»º è®®
è´¨éĩı å¾Īå¥½
Ġ ä¸ĢèĪ¬
33333333 33333333
å¤ ĩ
åĳ ¨
éĿŀå¸¸ å¥½
1 0
çĥ ¦
å¾ ħ
ä¸Ģ ä¸ĭ
æĪ ĸ
è¿ĺ ä¸į
åķ ¦
éº »
è¨ Ģ
æµ ·
æīĵ å¼Ģ
Ġ ä¹¦
å¤ªå·® äºĨ
é¦ Ļ
ç £
åľ º
å¸ ĥ
ç« Ł
ç± »
èĩ ³
æľįåĬ¡ æĢģåº¦
1 1
å ĺ
æĪĳ çļĦ
çł Ķ
åı ¸
åĵ į
åı ¤
ä¸Ĭ çļĦ
æ² ¹
ç» Ł
æĶ ¯
è¶ħ çº§
å·®å·® å·®å·®
Ġ å®Ŀè´Ŀ
ç» ´
Ġ å¥½
ç§ ĳ
èĥ ¶
çľĭ çĿĢ
ç² Ĺ
åĨ ³
çĽ ĸ
ç¤ ¾
è¿ĺ ä¼ļ
è¯ ģ
çĽ ĺ
æĬ Ģ
åıª æĺ¯
æĮ ģ
æĹł è¯Ń
ä¸º ä»Ģä¹Ī
å¤§ äºĨ
æĶ ¿
æīĢ ä»¥
å Ĥ
ç¤ ¼
å¡ ĳ
ä¹ĭ åīį
è¿Ļ ç§į
çľĭ èµ·æĿ¥
æ£ Ĵ
æ ĵ
å± ±
å°ı äºĨ
é© ¬
æķ ħ
å¥½å¥½ å¥½å¥½
çĻ ¾
ç» Ń
ç¬ Ķ
æĿ ¯
å¾Ī èĪĴæľį
åıª æľī
å®¹ æĺĵ
è¯ ī
æĬ ĺ
åĩº æĿ¥
å° ģ
å®ī è£ħ
åı ĸ
å±ħ çĦ¶
å¥½ äºĨ
å®ŀ çī©
ä¹ ī
æĶ ¹
åĲ ĳ
åħ ĭ
çľĭ åĪ°
ä¼ ĺ
å¾Ī å·®
åį ĥ
éľĢ è¦ģ
éª Į
èĻ ½
å¾Ī å¤§
ç± ³
æĹ §
æīĭ æľº
æĭ į
æ¸ ©
æ º
åĶ® åĲİ
å ©
ç» į
è£¤ åŃĲ
æĮ ī
è®© æĪĳ
ä»ĭ ç»į
å ĭ
å®ŀ æĥł
è¿ ĳ
åĵ ª
å®ŀ åľ¨
çļĦ å¥½
å°± ä¸į
è®¾ è®¡
å¥ ĩ
ç© ¶
åħ¬ åı¸
å¯ ¼
éĤ ®
åİĨ åı²
æıı è¿°
ä½ İ
ä¸Ĭ å½ĵ
æ® µ
çŁ¥ è¯Ĩ
ç» Ŀ
è¢ ĭ
è Ĩ
Ġ ä¹°
ç Ĭ
è§ Ĵ
ç® ±
æĢİä¹Ī æł·
è¡ ¥
è¾ ¾
å¾ Ģ
çŁ Ń
Ġ è¿ĺåı¯ä»¥
åĬ ŀ
è¿Ļæł· çļĦ
Ġ éŀĭåŃĲ
æľī äºĽ
éĢ ı
ç¬ ¦
æį Ł
åĪ ·
è Ĺ
ä¸į å¤ª
åĵĪ åĵĪ
Ġ è¿Ļä¸ª
åĳ Ĭ
Ġ åŀĥåľ¾
å½ ©
éº» çĥ¦
å° Ķ
é¦ ĸ
æ° ĳ
æ¼ ı
å± ķ
éĽ Ĩ
* *
å ²
è¿ ľ
çĶŁ æ´»
æ´» åĬ¨
ä¸¥ éĩį
æĹ ©
éĿ¢ æĸĻ
éĢģ çļĦ
ãĢĢãĢĢ ãĢĢãĢĢ
ä¹Ł æ²¡
è° ģ
é¢ Ĩ
é¡ ¾
ä¸į æ»¡æĦı
è¶ ³
åĩł å¤©
åŃ ĺ
è¯´ æĺ¯
æľ¬ æĿ¥
ä¸ Ŀ
éĥ½ æ²¡
æľī ä¸Ģ
èĭ ±
è´¨éĩı ä¸įéĶĻ
äº ²
æŁ ¥
ç£ ¨
å¾Ī æ¼Ĥäº®
è¿Ļ æ¬¡
åĪ° è´§
åį İ
ç« ł
æ ¨
èĦ ĳ
åľ° æĸ¹
è¿ĩ æĿ¥
ï¼Įï¼Į ï¼Įï¼Į
æĻ ļ
èĮ ¶
æŃ Į
æīĭ æĦŁ
èĦ ı
åĳ ½
ç©¿ ä¸Ĭ
éĻ ħ
Ġ æ²¡æľī
é ²
ä¹Ł æ²¡æľī
Ġ æĦŁè§ī
çľĭ çľĭ
ä¹ĭ åĲİ
ä» ĺ
å¯ Ĥ
éĤ£ ä¸ª
éĿ¢ çļĦ
çļĦä¸Ģæ¬¡ è´Ńçī©
èĳ Ĺ
èī² çļĦ
èĥ Į
åĿı çļĦ
æĩ Ĵ
æ ¹
ä¸į ä¸Ĭ
å¹ ¿
æį¢ è´§
èĻ½ çĦ¶
å¤§ çļĦ
åı¯ èĥ½
æļ ĸ
è¿ĺ è¦ģ
èµł åĵģ
å ł
ç½ĳ ä¸Ĭ
æģ ¯
äº ¤
å¾ ®
ä¸Ģ åĪĨ
å£° éŁ³
æŃ ¥
æĲ ŀ
éļ ı
ä»Ĭ å¤©
æĿ ¾
ç´ §
åĪ Ľ
ä¸ĭ åįķ
çłĶ ç©¶
å£ «
çĵ ¶
èī º
åĸ Ŀ
çĹ ķ
æķ ¢
1 9
è ĵ
ç¼ º
æŃ£ çīĪ
è§ Ħ
èī² å·®
é ¸
æĻ °
åŁº æľ¬
æī £
æĬ ¤
ç¼ ĸ
æĩ Ĥ
æĺ¯ ä¸Ģ
è½ ¬
çŃ Ķ
æĽ ²
é¡ µ
å¤ªæħ¢ äºĨ
åı °
éĶ ®
èĢ Ĳ
è® ¸
æİī äºĨ
ä¸ĸ çķĮ
ç ª
å¾ ·
ç¬¬ ä¸Ģ
æľĢ åĲİ
çģ «
å¡ĳ æĸĻ
Ġ æ²¡
ä¸į è¡Į
èī ¯
Ġ å¿«éĢĴ
å¥½ å¤ļ
ç©¿ äºĨ
æ¸ħ æĻ°
.... ....
ä»¥ ä¸º
åĳ Ģ
ä½ľ èĢħ
æĢ§ ä»·
éĺ ²
ä¸Ģ çľĭ
ç» Ī
ä¸į å¤ļ
å¼ Ĥ
éĻ ¤
éĥ¨ åĪĨ
ä¹Ł å¾Īå¥½
æĺİ æĺ¾
å¤ĸ è§Ĥ
æĤ Ķ
éĢ ł
åķ ¥
èµ Ħ
åİ ĭ
ç³ Ļ
ç¿ »
åĮ º
Ġè¿ĺ ä¸įéĶĻ
å ¨
æĺ¯ ä¸įæĺ¯
çĶ ³
æľ ª
åĵģ çīĮ
æĢ§ä»· æ¯Ķ
Ġ éĿŀå¸¸
åĮ Ĺ
è®© äºº
ç®Ģ åįķ
ç»ıåħ¸éĨĩç»ıåħ¸éĨĩ ç»ıåħ¸éĨĩç»ıåħ¸éĨĩ
é ¼
ãĢĤ &
å½ ķ
ç¬¬ ä¸ī
æĿ¥ è¯´
åĴĮ åĽ¾çīĩ
Ġè¿ĺ è¡Į
éĿŀå¸¸æ»¡æĦı éĿŀå¸¸æ»¡æĦı
èĹ ı
çģ µ
åĪ Ŀ
åĢ Ĵ
æĭ Ĩ
æı Ĵ
ç« ĭ
éĶĻ äºĨ
è¦ģ æ±Ĥ
åı ¦
ä»¥ åīį
åĩ ĳ
è ²
æĪ ·
ä¸ª æľĪ
ä¼ ¼
è¯´ æĺİ
éĺ ħ
åŀ «
åŁ İ
æ£ ī
æ¥ ļ
Ġ åĮħè£ħ
è¯ ¦
å¥½ çĶ¨
æĪ ´
åĲİ æĤĶ
å¯ ¸
åĳµ åĳµ
åħ ´
æ¡ Ī
æĬ ķ
æģ ¶
ç«Ł çĦ¶
C D
åĲ ¸
Ġ ç»Ļ
çī Ľ
æĢ Ģ
èĩªå·± çļĦ
æķħ äºĭ
åı «
å® ³
è¿ĺ æ²¡æľī
ä½ ı
åı¯ æĺ¯
èĦ ±
å± Ĥ
ç®Ģ çĽ´
èĤ ¡
ç± į
èĵ Ŀ
å¥ ¶
è´ £
æĪ ĺ
æĻ º
ç» §
ä¸Ĭ åİ»
åĶ ±
å½± åĵį
æº Ĳ
åħ Ń
åĩº çīĪ
æĹł æ³ķ
èĽ ®
æĺ¯ æŃ£åĵģ
è£ Ĥ
æ¸ ¸
ç²¾ èĩ´
åģĩ è´§
è¯ ¯
ä¹Ł ä¸įéĶĻ
æĢ» ä½ĵ
æį ®
åĪ« äºº
æĭ¿ åĪ°
èĲ ¥
ç¦ »
èĨ ľ
ç²Ĺ ç³Ļ
1 2
çļĦ å¾Ī
éĢĢ äºĨ
èĤ ²
æį¢ äºĨ
è§£ åĨ³
åı ¥
ä½ľ åĵģ
åĪ Ĺ
æī Ķ
æĩĴ å¾Ĺ
1 5
ç Į
è¯´ äºĨ
ä¸» è¦ģ
å© Ĩ
å¼ Ħ
å¤© æīį
éĴ ¢
éķ ľ
ç¤¾ ä¼ļ
è¯ į
åĽ Ń
ä¼ ¤
çŃ ¾
æĻ ®
æĸĩ åŃ¦
çº ¯
ä¸Ģ èµ·
åĴ ĭ
çĦ¶ åĲİ
éĩį è¦ģ
ç½ĳ è´Ń
ç ¯
ä¸į åĲĮ
æĿ¥ è¶Ĭ
è¯´ çļĦ
çİ ĭ
ç§ ¯
è ı
è´ Ł
~~ ~~
çĭ ¬
æĬ ¥
è®¢ åįķ
ä¾ Ľ
å¯¹ äºİ
ç² ī
è¶Ĭ æĿ¥è¶Ĭ
çīĮ åŃĲ
è´§ çī©
å¯ Į
å®ŀ éĻħ
å·¥ ä½ľ
éĺħ è¯»
åĸľæ¬¢ çļĦ
ç®Ĺ äºĨ
è´ ¥
ä¸ °
å¤ªå·® åĬ²
ç ĳ
åĪ Ļ
è¿Ļ å®¶
æ³ ¡
æĺ¯ æĪĳ
ä¹° ä¸ľè¥¿
åĨ µ
Ġ åĪļ
ï¼ģ \
åħ ±
è¿Ļ æľ¬ä¹¦
å¼Ģ æľ¬
é£ ŀ
åį ·
æ± ł
æ¯Ķè¾ĥ èĸĦ
çķ Ļ
å¤Ħ çĲĨ
æĺ¾ ç¤º
æ² »
ç§ °
æĺŁ æľŁ
çħ§ çīĩ
éĩ Ĭ
ç¡® å®ŀ
æ¨ ¡
äº¬ä¸ľ çļĦ
çģ ¯
ç Ĩ
æľī çļĦ
åĩł æ¬¡
åħ «
é» Ħ
éĵ ¾
åı Ĥ
åĲ ¦
äºĨä¸Ģ ä¸ĭ
æĿ Ĥ
æł· åŃĲ
ç² ĺ
åįĥ ä¸ĩ
åĪ »
åĪ ĩ
èĢ ³
ä¹¦ çļĦ
æŀ ¶
æīĵ çĶµè¯Ŀ
ç¨ į
ä¸ ĥ
ä» ½
åĬ ©
çľĭ äºĨ
æ¸ħ æ¥ļ
åħħ çĶµ
ç»Ŀ å¯¹
æĦı æĢĿ
çĶµ æ±ł
æķĻ èĤ²
ä¸įåĢ¼ è¿Ļä¸ªä»·
å° ļ
çĶ ·
ä¸ĵ ä¸ļ
è¿Ĳ è´¹
ä¸į ç¬¦
éĶ Ģ
å¤ļ äºĨ
æĭ ©
åĨį ä¹Łä¸į
å¼ ķ
é¡ º
çĸ ĳ
èİ ·
è¯·æ³¨æĦıåķĨåĵģåĮħè£ħè¯·æ³¨æĦıåķĨåĵģåĮħè£ħ è¯·æ³¨æĦıåķĨåĵģåĮħè£ħè¯·æ³¨æĦıåķĨåĵģåĮħè£ħ
ç»§ ç»Ń
Ġ ä¸įæĺ¯
å°ı æĹ¶
ä¸Ģä¸ª æľĪ
Ġè´¨éĩı å¾Īå¥½
å¼Ģæľ¬ å°ı
ä¸į æĥ³
å¤ª å¤§
Ġ çĶ¨
ä¸Ģ å®ļ
è¯ ¾
åĲ ¯
è· Ŀ
åıĳè´§ éĢŁåº¦
å» ī
3333333333333333 3333333333333333
Ġ é¢ľèī²
åį Ĺ
çİ ¯
æŁ Ķ
è ŀ
å° ½
Ġè¿ĺ æ²¡
é£ Ł
å°º çłģ
æĿ¯ åŃĲ
è ľ
ä¹ İ
æĸ¹ æ³ķ
æīį èĥ½
æ¬ ²
ãĢģ ãĢĬ
å¾Īå¥½ çľĭ
çĶµ èĦĳ
ä¸ĢèĪ¬ èĪ¬
åĲĮ æĹ¶
ç¢ İ
çļĦ æĦŁè§ī
å¾Ī æľī
åĦ¿ åŃĲ
åĢ¼å¾Ĺ è´Ńä¹°
è°¢ è°¢
çĶ³ è¯·
ä» ħ
å· ¦
æķ £
åĮħ åĮħ
é¢ Ĺ
å· §
åį ³
éĴ Ī
ä¹Ł å°±
å®ŀ ä½ĵ
é¡ »
ï¼ģï¼ģï¼ģï¼ģï¼ģï¼ģï¼ģï¼ģ ï¼ģï¼ģï¼ģï¼ģï¼ģï¼ģï¼ģï¼ģ
è¯ Ĺ
æľī éĹ®é¢ĺ
éĢģ åĪ°
è¶ £
æ± ī
æİī èī²
æ¡ £
æ¶Ī è´¹
1 3
Ġ ä¹°äºĨ
è¿Ļ äºĽ
å·® ä¸įå¤ļ
åħ¶ å®ŀ
ï½ŀ ï½ŀ
çļĦ è´§
è¿ ½
æ ¦
çľ ģ
æĢ ķ
ä¸ĭ æĿ¥
æľīçĤ¹ å°ı
çķ ¥
éĢī æĭ©
?? ??
éĿ Ļ
åĨ Į
æµ ª
åĨį æĿ¥
ç½ ®
Ġ å·®è¯Ħ
ä»» ä½ķ
å¤§å°ı åĲĪéĢĤ
ä¸Ģ äºĽ
åĵ ¥
æİ Ĵ
åİ» äºĨ
- -
é Ń
éĿ ł
å¯ Ĩ
æĬĢ æľ¯
å· ´
å¿ µ
æĶ¯ æĮģ
æĹ ¢
åį Ī
éĴ Ł
ä¸į çŁ¥
ä¸Ĭ éĿ¢
æŀ Ĳ
å®ŀä½ĵ åºĹ
Ġ \
æľ ¨
äºĨ ä¸Ģä¸ª
åħ »
åĩ ı
åİ Ĥ
èµ ĸ
åĲİ æĿ¥
åĩº çİ°
ç¡ Ģ
èĲ ½
å°º å¯¸
; ï¼Į
ä»· éĴ±
æĶ¶ è´§
è´µ äºĨ
çĽ¸ ä¿¡
æī ¿
åıĳ å±ķ
å¾Īå¥½ å¾Īå¥½
æħ İ
å± ŀ
åŁº ç¡Ģ
Ġ åģļå·¥
åı ³
ç» ĥ
æł ¡
ä¸º äºĨ
çĲĨ è§£
å¦Ĥ ä½ķ
æ· ¡
å¾Ī ä¸į
æ²¡ ä»Ģä¹Ī
ä¸ª äºº
è¢ ľ
çº¸ å¼ł
åĿĹ éĴ±
éĶ ħ
åģ ¥
éĺ ³
åĬŁ èĥ½
è¯¦ ç»Ĩ
è´¨éĩı å¥½
åģĩ çļĦ
æµ ĭ
ç³» ç»Ł
Ġä¸ľè¥¿ ä¸įéĶĻ
çĬ ¶
åĵ İ
éĻ į
é ¾
åı ¶
å°± æ²¡
åĩ Ģ
ãĢģ ãĢģ
æ» ĳ
è· ĳ
Ġè´¨éĩı ä¸įéĶĻ
ä¸įè¦ģ ä¹°
Ġ ä»Ģä¹Ī
ä¸į è¯´
å¥½ åĥı
åķĬ åķĬ
Ġä¸ĢèĪ¬ èĪ¬
çļĦ å°ı
ç¬¬äºĮ æ¬¡
æĵ į
æĥħ åĨµ
éªĹ åŃĲ
åĲĦ ç§į
å¿ħ é¡»
çĽĴ åŃĲ
ī äºĨ
äºº çĶŁ
è¯Ħ è®º
ç³ Ĭ
ä¿¡ æģ¯
Ġ æĮºå¥½çļĦ
è¯ ĳ
ä¹° æĿ¥
ä¾ ĭ
2 00
æĢ ª
ç²¾ ç»Ĩ
1 4
1 6
éĹ »
éĢļ è¿ĩ
! !
å± ı
å¤± è´¥
æ£ Ģ
å·®å·®å·®å·® å·®å·®å·®å·®
äºĨ è§£
æł ĳ
ãĢĭ ãĢģãĢĬ
æķ´ ä½ĵ
ä¸ ¢
åĵ Ł
èĢģ å©Ĩ
åį° åĪ·
æ¶Īè´¹ èĢħ
ä¸į å¤Ł
ä¸Ģ æľ¬
åĪ Ģ
æŀ Ĺ
ä¸ĭ çļĦ
åŃ¦ çĶŁ
è¾ ĳ
æĺİ æĺİ
ç´ ł
Ġ æľī
çļĦ ä¸Ģæł·
éĿ Ĵ
äºº åĳĺ
ä»ĸ çļĦ
ä½ľ ä¸º
åĽŀ å¤į
ç½ Ĺ
æĳ ¸
éħį éĢģ
1 00
åĩł ä¸ª
è¯» èĢħ
èĭ ¦
Ġ åķĨåĵģ
å¥³ åĦ¿
1 8
æ²¡ æ³ķ
æĸĩ åĮĸ
æīĢ åĢ¼
çİ© æĦı
ç©º éĹ´
åį ļ
æ¯ į
ä»· å»ī
å½ĵ æĹ¶
éŁ³ ä¹Ĳ
èģ Į
ä¸Ģ ç§į
æŀ Ħ
è¿ĩ äºĨ
è¿ĩ ç¨ĭ
çĪ ¸
éŁ³ è´¨
çĽ¸ å½ĵ
äº ļ
ä¸į ç»Ļ
éĻ ¢
æ¼ Ķ
èĤ ¯
æĳ Ĭ
ç¢ Ł
è ¸
æī ĺ
ä¸įæĺ¯ å¾Ī
çĶµ å½±
å¹´ çļĦ
éĻ Ĳ
å¦Ī å¦Ī
ä» Ķ
å¼ ¹
æµ İ
æ´ ŀ
å®¢ æĪ·
ç« Ļ
åĪļ å¥½
æĵ ¦
ç¯ ĩ
æ ¿
åĪ º
å°± åĿıäºĨ
çľĭ çļĦ
å°ı åŃ©
ç¤¼ çī©
åĬŀ æ³ķ
ï¼ İ
åıĳ äºĨ
æĮ Ĥ
çĪ ½
åŀĥåľ¾ åŀĥåľ¾
èģĶç³» å®¢æľį
èĮ ĥ
Ġ ä»·æł¼
çļĦ è´¨éĩı
ä»¥ åıĬ
æħ¢ æħ¢
Ġ åĳ³éģĵ
æĪĳ å°±
ä¹° åĽŀæĿ¥
åº ·
ä¹¦ ç±į
çŁ ³
å¢ ĥ
ä¸į æķ¢
å¿ Ĺ
åĳĬ è¯ī
é² ľ
çº ª
ä¸įå¥½ çĶ¨
åĶ ¯
çģ °
åİŁ åĽł
æĪĸ èĢħ
å² ģ
Ġ éĢģ
å° ¼
åľ Ĩ
è¿Ļ æ¬¾
è¦ģ çļĦ
çº ¦
Ġ è´§
å® ¤
ãĢĢãĢĢãĢĢãĢĢ ãĢĢãĢĢãĢĢãĢĢ
è´Ł è´£
ä¸° å¯Į
æĢ ¥
çĽ Ĺ
ä¸į æĢİä¹Īæł·
ç» Ħ
æĿ ĥ
åĽ º
éĥ½ æľī
èĥ½ åĬĽ
æĸ° çļĦ
éĩĮéĿ¢ çļĦ
å¢ ŀ
æ¿ Ģ
æ¬ º
å®¶ çļĦ
æİ §
åĿ Ĳ
åĪ« çļĦ
ç« ¥
æ¶ Ĥ
çĹ ħ
æĲ Ń
åĶ± çīĩ
è Ĵ
æĦı ä¹ī
ç©¿ èµ·æĿ¥
è·Ł åĽ¾çīĩ
å Ĺ
é Į
Ġ äº¬ä¸ľ
Ġ å¸®
ä¹ ±
åĨ ²
ä¼ °
éĵ ģ
) \
ç ĺ
Ġ çĶ¨äºĨ
è¯ ¢
åıĳ çļĦ
åĸ Ħ
çĶŁ äº§
æĻ ¯
å¥½ ä¹¦
åĨ °
éĹ ·
å¿« çļĦ
æł· å¼ı
ä»· åĢ¼
æĭ ħ
ä¹Ĳ åĽŃ
éĻ¤ äºĨ
a n
è¯ ļ
å·® çļĦ
éģ ĩ
æĸ¹ éĿ¢
éĺ ¿
éĥ ģ
çŃī äºĨ
èĪĴ éĢĤ
ï¼ī \
æŃ» äºĨ
æĭ ¬
çĪ ¶
åĩĨ å¤ĩ
æĿĲ è´¨
åĪĴ ç®Ĺ
åī §
ä½ľ çĶ¨
ä¿¡ èµĸ
ä¸į å¯¹
ä¹ Ŀ
æĹ ħ
åĨ ·
é¢ Ħ
æĽ ¾
éĮ ¯
å¾ ĭ
åıĳ éĶĻ
æ¯ ķ
èĢģ æĿ¿
åĲĮ äºĭ
åįģ åĪĨ
é ±
é ½
Ġ ä¸Ģ
è¡ Ģ
æĥ³ åĪ°
éĿŀå¸¸ åĸľæ¬¢
åľ° æĳĬ
èĻ ĳ
çł´ äºĨ
èµŀ ä¸Ģä¸ª
æĪĳ æĥ³
ä¹° åĪ°
ç»ı æµİ
ç³» åĪĹ
éĵ ¶
æ¦ Ĥ
æµª è´¹
é± ¼
è¿ ¹
ç» ľ
åĨį ä¹°
è¿ĺåı¯ä»¥ å°±æĺ¯
å£ ³
ç¼ Ŀ
çı Ń
çļĦ å¿ĥ
ä¸į åĥı
åº §
åĽŀ åİ»
èĤ ¥
èĸĦ äºĨ
æĢĿ æĥ³
æĪĳ æĺ¯
æĹ ı
åĨ Ľ
èĩª çĦ¶
ä¸įæĺ¯ å¾Īå¥½
è¿Ļä¸ª ä»·æł¼
åħ¶ ä¸Ń
èĤ ī
ä¿Ŀ æ¸©
åĩĳ åĲĪ
ç» ¿
ç» Ĵ
åĽ ´
éĥ½ ä¸įå¥½
è¿ĩ çļĦ
èĦ ¸
æĮºå¥½ å°±æĺ¯
ãĢĤãĢĤãĢĤãĢĤãĢĤãĢĤãĢĤãĢĤ ãĢĤãĢĤãĢĤãĢĤãĢĤãĢĤãĢĤãĢĤ
è¿ĺä¸į å¦Ĥ
ä»Ķ ç»Ĩ
Ġ è¯´
æĪ ¿
è¿Ļ ä¸Ģ
ä¸Ĭ äºĨ
æĥ ¯
çĿ ¡
æĪĲ äºĨ
ç»ĵ å®ŀ
åĨĻ çļĦ
æĢ» ä¹ĭ
; \
ä¸į æĢİä¹Ī
çĶ ļ
è¿Ļ éĩĮ
å¤ª å¤§äºĨ
éģ į
ï¼ī ï¼Į
ä¸į éĮ¯
åħ į
æľŁ å¾ħ
åıį åºĶ
æĿĲ æĸĻ
çĨ Ł
æ¬² ä¹ĲåĽŃ
ä¸ľ ä¸ľ
ç¬ ĳ
æħ §
åĮħè£ħ å¤ªå·®åĬ²
ä¸¤ å¤©
åĨ ¬
çĽ Ĭ
çī© ç¾İ
i n
åŃ¦ èĢħ
æ°Ķ åĳ³
ç²¾ ç¾İ
çł´ æįŁ
æļ Ĺ
æłĩ åĩĨ
ä¼ĺ æĥł
è´§çī© åĮħè£ħå¤ªå·®åĬ²
æŁĶ è½¯
æĮºå¥½å°±æĺ¯ è´§çī©åĮħè£ħå¤ªå·®åĬ²
çļĦ éĹ®é¢ĺ
æĺ ¥
å¤ª å°ı
æĥ Ĭ
æĥ ľ
åŁ Ł
æĮºå¥½å°±æĺ¯è´§çī©åĮħè£ħå¤ªå·®åĬ² æĮºå¥½å°±æĺ¯è´§çī©åĮħè£ħå¤ªå·®åĬ²
Ġ æĮº
æĦ ¿
è® Ń
æĹ¶ å°ļ
åĪĨ æŀĲ
åĽ¾ ä¹¦
ä¸¤ æ¬¡
ç¾İ åĽ½
æĥ³è±¡ ä¸ŃçļĦ
çı ł
ä¸Ĭå½ĵ äºĨ
èı ľ
åĲ ī
.. .
æĸĩ åŃĹ
æĶ¾ åľ¨
åĺ Ľ
ä¸į èĪĴæľį
å¿ ½
å¿ Ļ
å·® åĬ²
å®¶ éĩĮ
ç»Ļ ä¸ª
æĶ¶ èĹı
éĤ£ æł·
é¡ ¹
è¿Ľ è¡Į
å¸® åĬ©
å¤ ı
çĶ¨ çĿĢ
å¤ª å°ıäºĨ
æ³ ¢
ä½ł çļĦ
åĪ« ä¹°
ä¹ł æĥ¯
ä¹Łå¾Ī å¿«
è¢ľ åŃĲ
ä¼° è®¡
5 0
Ġ åıĳè´§
å¾Ī ä¸ĢèĪ¬
å¾Ī ç»ĻåĬĽ
è¿ĺ ç®Ĺ
æĭ ¥
åħī é¡¾
èĢĥ è¯ķ
æ ½
Ġ æĶ¶åĪ°
åį ĩ
åĵ ²
åº ı
åı¯ çĪ±
æīį åĪ°
éĿŀå¸¸æ»¡æĦıéĿŀå¸¸æ»¡æĦı éĿŀå¸¸æ»¡æĦıéĿŀå¸¸æ»¡æĦı
é½ Ĳ
Ġ åĴĮ
Ġ è£¤åŃĲ
çļĦ è¯Ŀ
ä¼ Ĺ
å¹ ķ
èĥ½ å¤Ł
å¤ļ å°ĳ
çİ ĩ
è° ĵ
ï¼ļ &
è¯Ń è¨Ģ
çľĭèµ·æĿ¥ ä¸įéĶĻ
ä» ¤
åħ °
å·® è·Ŀ
å¤§ åŃ¦
å¿ĥ çļĦ
éĤ£ ç§į
æĪĲ ä¸º
ä½ĵ éªĮ
èĤ ¤
æ¥ ¼
æĹłè¯Ń äºĨ
èīº æľ¯
ç¬¬ä¸ī æĸ¹
3 0
å¤ «
ä¸Ģ èĩ´
å¸ ½
æĭ ĸ
æ° ¸
è½ ®
éĩį æĸ°
èĢģ åħ¬
åŁ ¹
ç¢ °
ç©º å±±
å¸Ĥ åľº
ç¦ ı
å¯Ĥ å¯Ĥ
åı¦ å¤ĸ
ç©ºå±± å¯Ĥå¯Ĥ
åľ Ł
åº ĵ
èµ· çĲĥ
ï¼Łï¼Ł ï¼Ł
çĽĹ çīĪ
è ª
çļĦ åĳ³éģĵ
äº ī
æī ¹
æĪĳ è¦ģ
åĪ° çİ°åľ¨
éĥ½ è¶ĬæĿ¥è¶Ĭ
çľĭ ä¸į
è¶ħ å¸Ĥ
æıĲ é«ĺ
æ®µ æĹ¶éĹ´
æĻļ ä¸Ĭ
çŃ¾ æĶ¶
èŀ º
åĶ±çīĩ éĥ½è¶ĬæĿ¥è¶Ĭ
åĶ±çīĩéĥ½è¶ĬæĿ¥è¶Ĭ è´µ
· çļĦ
Ġ ä¸ĢçĽ´
Ġ éĢģè´§
ä¸Ģ å¤©
ä¹° å®¶
å¦ ¹
è¢ ĸ
åįĬ ä¸ªæľĪ
çĭ Ĺ
ä¸ĢåĪĨ è´§
ç»ıåħ¸éĨĩç»ıåħ¸éĨĩç»ıåħ¸éĨĩç»ıåħ¸éĨĩ ç»ıåħ¸éĨĩç»ıåħ¸éĨĩç»ıåħ¸éĨĩç»ıåħ¸éĨĩ
æĵį ä½ľ
è¿ĺåı¯ä»¥å°±æĺ¯ åĶ±çīĩéĥ½è¶ĬæĿ¥è¶Ĭè´µ
Ġ ç¬¬ä¸Ģæ¬¡
æĦ ī
å¤ª ä¸į
åĮħ æĭ¬
ç¨ Ģ
èĢĥ èĻĳ
è¿ĺåı¯ä»¥å°±æĺ¯åĶ±çīĩéĥ½è¶ĬæĿ¥è¶Ĭè´µ è¿ĺåı¯ä»¥å°±æĺ¯åĶ±çīĩéĥ½è¶ĬæĿ¥è¶Ĭè´µ
Ġ åĨħå®¹
å¾Ī å®ŀçĶ¨
å°ı è¯´
æ± Ł
éĵ º
éĨ īäºĨ
æıĲ ä¾Ľ
åħĪ çĶŁ
ç®¡ çĲĨ
çª ģ
å¼Ĥ åĳ³
æĢĢ çĸĳ
ä¸ ½
å® ½
çī Ļ
ä¸įéĶĻ ä¸įéĶĻ
å¾Īå¥½ çĶ¨
æ´ ģ
éĥ½ä¸į æĥ³
åıį æŃ£
çĽ® åīį
åŃ Ķ
ä¹Ł å¥½
å¼ Ł
èĩ Ń
éĤ£ äºĽ
ç« ¯
éĤ£ä¹Ī å¥½
éĤ® è´¹
èĭ± è¯Ń
åıĤ èĢĥ
æ¡£ æ¬¡
Ġ æ¯Ķ
çļ ±
çļĦ åľ°æĸ¹
åĪ ģ
å¾Ī é«ĺ
æ²¡ çĶ¨
åĲİ éĿ¢
éĽ ¨
åģı å°ı
å «
å¥ ¥
å¥ ĸ
å¾Ī æĸ¹ä¾¿
å·® åĪ«
è¦ģ æĺ¯
åĿ ļ
å¼Ģ äºĨ
è¿Ļä¸ª åĪģ
æ´ ¾
åħ¨ æĺ¯
å®¢æľį æĢģåº¦
åĽ½ å®¶
éĽ ¶
å¹² åĩĢ
ç»Ī äºİ
æĻº æħ§
4 0
äº ĳ
æĺ¯ ä»Ģä¹Ī
åĵģ è´¨
ä¾ Ŀ
quo t
æĸ¹ å¼ı
Ġè´¨éĩı ä¸ĢèĪ¬
çĥĤ äºĨ
æ¹ ĸ
æīĶ äºĨ
è¿Ļä¸ªåĪģ åĵŁ
1 7
ä¸į åĴĭ
åĪ ¸
åĪ° ä½į
ä¹Ł ä¸įå¥½
åº Ĭ
åŃĲ çļĦ
è´¨éĩı ä¸ĢèĪ¬
æŃ ¦
ç½ĳ ç»ľ
æŁ ľ
ç´ ¢
åĤ ħ
5 00
çļĦ è¦ģ
æĺ ¨
æĺ¯ åĲ¦
æķĻ å¸Ī
èĻ ļ
äº ı
ä¸į å¾Ĺ
è¿ Ķ
å¿ ĺ
è§ ¦
å¤ª å¤ļ
äºº äºĨ
æŃ ¢
èĩª èĲ¥
å¼Ģ å¿ĥ
åĲĪ çĲĨ
åĲĪ èº«
çĲĨ æĥ³
çĥ Ī
ãĢĤãĢĤãĢĤãĢĤ ãĢĤ
è¿ĺæĺ¯ ä¸įéĶĻçļĦ
ç¨ ³
ä¿Ŀ æĬ¤
ä¸įèĥ½ çĶ¨
åİļ å®ŀ
åİĤ å®¶
é¾ Ļ
èĤ¯ å®ļ
éĥģ éĹ·
çļĦ äºĭ
å¿ Ĩ
éĢģ äºĨ
æŃ£ å¸¸
ä¸Ģæł· çļĦ
åıĺ å½¢
åºĶè¯¥ æĺ¯
é¡¾ å®¢
è¿ ·
è¯ º
æ² Ł
éĶ Ī
åŃ¦ æľ¯
å¤±æľĽ äºĨ
èħ °
Ġè¿ĺè¡Į åĲ§
çĳ ķ
åľ°æĳĬ è´§
çī©ç¾İ ä»·å»ī
; ãĢĤ
Ġ ä¸ĢçĤ¹
å¾Ī å¤±æľĽ
åıĳ çĶŁ
åĽŀ äºĭ
éħ Ĵ
æĸŃ äºĨ
é¥ °
çļĦ å¤§
ä¸į å¦Ĥ
æķ ı
å¾Īå¥½ çļĦ
æµ ĵ
åĩº äºĨ
åħ¶ å®ĥ
é¡ ¶
æĶ¾ å¿ĥ
æĳ Ħ
è¿ĺæ²¡ çĶ¨
ä¸ĭæ¬¡ è¿ĺä¼ļ
Ġ æľīçĤ¹
æĪ ı
æĪĳ åľ¨
æł ¸
éŀĭ åºķ
æİī æ¯Ľ
åħī çĽĺ
æĢ» æĺ¯
åİŁ æĿ¥
æł¹æľ¬ å°±
å¸ĥ æĸĻ
å®ŀåľ¨ æĺ¯
å® ĺ
çĶ¨ èµ·æĿ¥
éĿ ©
èµ ¶
åħ¨ éĥ¨
æĸĻ åŃĲ
Ġè¿ĺ å¥½
åĮĹ äº¬
æ¬º éªĹ
ç ŀ
ä¸Ģ ä»¶
åĪ ®
åģ ľ
æķĻ æĿĲ
è± Ĩ
çº¿ å¤´
æĤ ¨
ä¸ĭæ¬¡ è¿ĺ
åĵ² åŃ¦
Ġ ä¸įéĶĻçļĦ
Ġ çľŁå¿ĥ
ä½ Ļ
æĸ ½
æŃ£ åľ¨
å®¢æľį è¯´
ãĢĭ ï¼Į
æĢ§ çļĦ
åĶ ī
æİ¥ åıĹ
Ġä¸į æ»¡æĦı
æī¾ åĪ°
ç¡® è®¤
ç¨į å¾®
6 0
e r
Ġ äº§åĵģ
ãĢ Ĳ
ä¸į èµ·
å°± å¥½äºĨ
æ¯ «
å°±æĺ¯ æľīçĤ¹
éĽ ħ
èį ī
Ġå®Ŀè´Ŀ æĶ¶åĪ°äºĨ
æĭ¥ æľī
ä¸Ģ æľ¬ä¹¦
å· ¾
ç»Ļ å·®è¯Ħ
æİ Į
è´Ń ä¹°çļĦ
çİ° ä»£
åģļ çļĦ
éĻ Ħ
å¦Ĥ æŃ¤
è¿ĺåı¯ä»¥ åĲ§
Ġå¾Ī ä¸įéĶĻ
çĹ Ľ
çİ© åħ·
** *
æļĸ åĴĮ
æĺ¯ åĿıçļĦ
æ¬ §
è¾ ĵ
æ¼ «
æ¼ Ĩ
å®Į äºĨ
è§£ éĩĬ
åħ³ éĶ®
ç¬¬äºĮ å¤©å°±
é² ģ
æĻ® éĢļ
Ġ æ¬¾å¼ı
è¿ ª
äºĨ çĤ¹
ç» ĺ
æŃ£ å¥½
çĥ Ł
å¥½å¥½ å¥½
æ´Ĺ äºĨ
åĪĴ çĹķ
æĴ Ń
ç®± åŃĲ
æ¹ ¿
è Ŀ
Ġ æĮºå¥½
ä¸į çĶ¨
å¥½ å¤§
æľī ä¸ª
æľī ä¸Ģä¸ª
çī© æľī
æµ ħ
éĿŀå¸¸ çļĦ
å¿«éĢĴ åĳĺ
åŀĥåľ¾ äºĨ
çķ ħ
è¿ĺè¡Į åĲ§
è®¸ å¤ļ
Ġ åįĸå®¶
å· ¨
å£ ¶
ï¼Įï¼Į ï¼Į
åıĬ æĹ¶
çĸ µ
èĽ ĭ
åĮº åĪ«
æĭĨ å¼Ģ
çĳķ çĸµ
a m
è¯´ ä»Ģä¹Ī
ä¾ Ĩ
å± Ģ
å¤ĸ éĿ¢
èĬ± äºĨ
è¿Ľ åİ»
å¡ ŀ
æĬķ è¯ī
ä¸ ´
ä¸į åĸľæ¬¢
æĿ Ģ
æĿ¥ äºĨ
æŀ ķ
å¦ ĩ
ç»ı å¸¸
åıª è¦ģ
ç²¾ ç¥ŀ
èį ¯
èİ «
åĵª éĩĮ
å·¦ åı³
åĲ «
å¿ į
åľ¨ ç½ĳä¸Ĭ
åĩ »
åİ ī
å¹ ¸
åĩº çļĦ
éĻ Ī
æīĢ æľī
çı į
æģ¶ å¿ĥ
åĩºçīĪ ç¤¾
o o
ä» ¿
åĬ £
åı¯ æĥľ
ä¸Ń éĹ´
çľŁ å®ŀ
è° Ī
æľº åĻ¨
ç»ĻæĪĳ åıĳ
è¿Ļä¹Ī å¤ļ
èĭ ı
ï¼Łï¼Ł ï¼Łï¼Ł
å°ģ éĿ¢
æ ¤
ä¸į åı¯
ä¹° è¿ĩ
çľĭ ä¸Ĭåİ»
èĩª åĬ¨
åĮħè£ħ å¾Ī
åī ª
çĥ §
æķĻ åŃ¦
33333333333333333333333333333333 33333333333333333333333333333333
ç³Ĭ æ¶Ĥ
Ġ å°±æĺ¯
å°± è¿Ļæł·
ä¹Ł æľī
èĥ½ çĶ¨
æı ¡
éļ¾ éģĵ
åħ³ ç³»
é»ĳ èī²
åħ· æľī
æ£ī çļĦ
çī©æľī æīĢåĢ¼
A A
o n
çļĦ ä¸į
æľ Ŀ
å¾Ī éļ¾
éĩ İ
æŃ ª
çľŁ çļĦæĺ¯
æĳ Ĩ
ä¿Ŀ æļĸ
éĤ£ä¹Ī å¤ļ
çī¹åĪ« å¥½
è®¤ ä¸º
èĢ³ æľº
èŀº ä¸Ŀ
è ¤
å¤ ľ
å® £
å° ¤
ä½ ³
åľ Ī
éĥ½ åĿıäºĨ
æľĭåıĭ ä¹°çļĦ
æĭī éĵ¾
åģ¥ åº·
æ¯ķ ç«Ł
Ġ ä¹°çļĦ
Ġ å®ŀçī©
çļĦ åĮħ
ä¸Ģ æĺŁ
éĩ ĩ
æ²¡ äºº
å¤§ å¸Ī
ç§ ĭ
è¿Ļä¸ª çīĮåŃĲ
ï¼ģï¼ģï¼ģï¼ģ ï¼ģ
åĩł å¤©å°±
æĪĲ åĬŁ
æīĢ è°ĵ
ä¸ĢçĤ¹ éĥ½ä¸į
éľ ²
å¸Ī åĤħ
è¿ŀ æİ¥
ä¼ł ç»Ł
åĿĳ äºĨ
é¦ĸ åħĪ
åł Ĥ
ä¸ĢåĪĨ éĴ±
ä¸į å°ĳ
å¥ ı
åĽ ¢
åĿ ĩ
çĽ¸ å·®
æĳ ĺ
ç´ ¯
ç¿» è¯ĳ
é¼ »
è¯·æ³¨æĦıåķĨåĵģåĮħè£ħè¯·æ³¨æĦıåķĨåĵģåĮħè£ħè¯·æ³¨æĦıåķĨåĵģåĮħè£ħè¯·æ³¨æĦıåķĨåĵģåĮħè£ħ è¯·æ³¨æĦıåķĨåĵģåĮħè£ħè¯·æ³¨æĦıåķĨåĵģåĮħè£ħè¯·æ³¨æĦıåķĨåĵģåĮħè£ħè¯·æ³¨æĦıåķĨåĵģåĮħè£ħ
å ´
é ī
å· ŀ
éĢ Ķ
åĪ° æīĭ
æľ¬ èº«
å¿ĥ æĥħ
åĩº æĿ¥çļĦ
çĶµ è§Ĩ
ä¿Ŀ è¯ģ
éĨ Ĵ
ä¸ĸ çºª
å¢ ¨
æĶ¿ æ²»
åĤ ¬
ä»ĺ æ¬¾
çĺ ¦
åİī å®³
3 5
ä¸į çĲĨ
ä¸į æĸŃ
å®¶ äºº
éĹ ²
æľ¬ äºº
åĿ Ģ
çĲ ´
æīĭ è¡¨
è° ±
å®Į æĪĲ
ä¸ī ä¸ª
åįģ ä¸Ģ
éĢŁåº¦ å¿«
åĢ¼å¾Ĺ æİ¨èįĲ
æĤ ł
å¹¶ ä¸Ķ
éī ´
ä¸į åľ¨
ä¸į è¶³
è¿ ħ
åĪ Ĭ
æī «
ä¼ ĳ
ä¹¦ ä¸Ń
åĪĨ éĴŁ
ãĢĤãĢĤãĢĤãĢĤ ãĢĤãĢĤ
éļ Ķ
æĸĩ ç«ł
åĲĮ æł·
æĹ¥ æľŁ
æĥ³è±¡ ä¸Ń
çĽĸ åŃĲ
çĶļ èĩ³
æ²¡ æĥ³åĪ°
ä¹Ł æĮº
å¿« ä¹Ĳ
æ» ´
éļ ľ
åĥı æĺ¯
åĬł æ²¹
è¡¨ çİ°
å®ī åħ¨
é¢Ĺ æĺŁ
æ²Ł éĢļ
æ §
çĶ ²
æ² ī
ä¹Ł èĥ½
äºº ä»¬
æ¬¡ åĵģ
çº ³
éĩĮ çļĦ
è®© ä½ł
æĤ ²
é¥ Ń
ä¸įå¤ª å¥½
èĳĹ ä½ľ
D V
Ġ è·Ł
äº «
æĪĳ ä¹Łæĺ¯
åĪ° çļĦ
ä¸Ĭ æµ·
è¯´ è¯Ŀ
å°ı çļĦ
çī© åĵģ
å¤ļ çļĦ
æĭ ¼
ä¸Ģä¸ª æĺŁæľŁ
çĲĨ è®º
æ¶ ¦
åĽł æŃ¤
æķ´ ä¸ª
åħħ æ»¡
æ¯ı æ¬¡
éĢı æ°Ķ
am p
ãĢĤ ãĢĬ
å¤ ¹
ä½ Ľ
èµ ļ
æľ¬ å¥½ä¹¦
å½ »
æĦŁ åıĹ
æĢİ æł·
çĪ ·
èĢģ å¸Ī
ç¬¬äºĮ å¤©
æĥ³è±¡ çļĦ
æĭ¿åĪ° æīĭ
èİ· å¾Ĺ
Ġ æĺ¯
Ġ çľĭçĿĢ
ä¸į å»ºè®®
ä¹° ä¸ª
åº Ł
å¤§ æ°Ķ
åĮ »
æµ ®
éĢĢ æ¬¾
ç³ ķ
ä¸İ åĽ¾çīĩ
åĦ¿ ç«¥
éĢĢè´§ äºĨ
çļ® è´¨
é£İ æł¼
é¥ ®
DV D
å¾Ī ä¹ħ
å°± æľī
éĥ½ è¯´
äºº ç±»
èĢĮ æĺ¯
è½ ½
æīį æĶ¶åĪ°
éĺ Ł
äºĮ åįģ
æ¸ħæĻ° çļĦ
* ï¼Į
Ġ åĮħåĮħ
å°± ä¼ļ
é¢ ĳ
ä¾ §
ç©¿ çļĦ
åĶ Ĳ
æĳ ©
æ¡ ¶
æ¢ ģ
ä»¥ä¸º æĺ¯
é¼ ł
éŃ Ķ
è¯ļ ä¿¡
çļĦ è´Ńçī©
è¿ĺ è¯´
åº ľ
è´¨éĩı å·®
æĮ ĳ
åĢ Ł
çĿ Ľ
ä»·æł¼ å®ŀæĥł
æķĪæŀľ ä¸įéĶĻ
å§ Ĳ
æ¡ ¥
Â· Â·
åıªèĥ½ è¯´
çĶ± äºİ
ç§ĳ åŃ¦
åŃĺ åľ¨
å¨ ģ
æĺ¨ å¤©
R R
h a
çļĦ åĨħå®¹
ä¸į ä»ħ
å¥½ è´§
å° ĺ
ä¸Ĭ éĹ¨
åıĳ éĶĻäºĨ
æĹ¶ ä»£
ä¿ Ĺ
éĴ »
ä»·æł¼ ä¹Ł
çłģ æķ°
æķ° åŃ¦
ä¹ĭåīį ä¹°çļĦ
éĥ½ä¸įæĥ³ ç»Ļ
å°¤ åħ¶
8 0
ç Ĵ
ï¼Į &
å® ¡
å¾Ī èĸĦ
åĲ Ĳ
ç§ ĺ
ä¹ĭ éĹ´
è° ¨
åģļå·¥ ç²¾ç»Ĩ
åĢ¼å¾Ĺ ä¿¡èµĸ
åı£ æĦŁ
æ® ĭ
çľ¼ çĿĽ
æĭħ å¿ĥ
Ġ å·®
æĺ ł
æĿ İ
éĶĻ è¯¯
å¤ļ æ¬¡
éĢģ ç»Ļ
ç§ Ģ
ç»ı åİĨ
æĻ ķ
è¯» çī©
ä»·æł¼ ä¾¿å®ľ
çĻ »
çĻ½ èī²
çļĦä¸Ģ æľ¬
æĢ§ä»·æ¯Ķ é«ĺ
ä¸ĢåĪĨéĴ± ä¸ĢåĪĨè´§
a r
é ¤
Ġ å¾Īåĸľæ¬¢
ä¸Ģ è¾¹
è¿ĺ èĥ½
åĽ ¤
äºº çī©
è´¨éĩı å¤ªå·®
åĮħ å®¹
åķĨ åŁİ
å± ģ
ä¹ĭ ä¸Ģ
äºĨä¸Ģ çĤ¹
æŁ Ĳ
ä¼ł å¥ĩ
åĭ Ĵ
èĢĲ å¿ĥ
è¯´æĺİ ä¹¦
ä¸»è¦ģ æĺ¯
æħİ éĩį
èª ī
Ġ å°ı
äºĨ åĲ§
æĺ¯ ä¸ª
åŃ ķ
åľ £
æĪĳ ä¹°çļĦ
ä¹° ä¹¦
è¿ĩ åİ»
è¡Į æĶ¿
çĶŁ åĳ½
æ´ ²
åľ° åĿĢ
å·¥ èīº
å®ļ çļĦ
éħį ä»¶
æ¢ ¦
ç§¯ åĪĨ
å±ı å¹ķ
å¤ı å¤©
ä¸į ä½ı
æĪĳ éĥ½
çĶ¨ è¿ĩ
æĸ Ĺ
è´¨éĩı ä¹Ł
èĪ ŀ
ä¸ĭ åįĪ
å®ŀ è¯Ŀ
æĭ Ĵ
æĶ¶åĪ° çļĦ
çī¹åĪ« æĺ¯
åįĬ å¤©
çº¢ èī²
æ¼ı æ°´
éĻį ä»·
Ġ çľŁçļĦ
ä» ĵ
æĺ¯ ä¸Ģä¸ª
æ² Ļ
æĿ Ĩ
å°± åı¯ä»¥
è¯´ å¥½çļĦ
åĩº åİ»
çĶŁ æĦı
ä¸ĢèĪ¬ çļĦ
éĺ ¶
æŁ ĵ
äº§åĵģ åĮħè£ħ
æĪĳä»¬ çļĦ
éªĹ äºĨ
æĺ¯ä¸Ģ ç§į
åħ´ è¶£
å¸ ģ
äºº å®¶
è´¨éĩı ä¸įå¥½
è´¨éĩı éĹ®é¢ĺ
å°ı å¿ĥ
è£ħ çļĦ
é¢ Ŀ
å·¥ åħ·
èħ ¾
å¼º çĥĪ
åĪ¶ ä½ľ
æĴ Ĵ
åł Ĩ
éģĩ åĪ°
e s
ä» į
æĪĳ èĩªå·±
åį «
åĩ ī
å¯ »
ä¸ĭ åİ»
æĭ ľ
Ġè´¨éĩı å¤ªå·®
ç¥ ¥
å·®å·® å·®
ç½ĳ ç«Ļ
æģ Ń
Ġå¾Ī æ¼Ĥäº®
æľĭåıĭ çļĦ
æĴ ķ
åĺ ´
å¥½å¥½å¥½å¥½ å¥½å¥½å¥½å¥½
ç ĩ
å¾Ī åĲĪéĢĤ
æī İ
è´§ äºĨ
åĩ ¤
åĨ ľ
èĪ ª
äº¬ä¸ľ å®¢æľį
æĻ Ĵ
å¤ĸ åĮħè£ħ
ç¼ ©
ä¸įçŁ¥éģĵ æĺ¯ä¸įæĺ¯
æĳ Ķ
è¿Ĳ åĬ¨
èĮ¶ åı¶
è² ¨
æĬķ èµĦ
å¾Ī æ£Ĵ
æĪĳ è§īå¾Ĺ
éģ Ĺ
æŀľ æĸŃ
è· ³
æ´ ĭ
éĻ ©
ç¾ ¤
ç¼ ĺ
æķĪæŀľ å¾Īå¥½
èĭ ¥
å¤Ł æ¸ħæĻ°çļĦ
Ġè¿Ļ æľ¬ä¹¦
çº¸ è´¨
æļ Ĥ
å½¢ å¼ı
èħ ¿
è¿Ļä¸ªä»· éĴ±
çĪ¶ æ¯į
é¤ Ĳ
c c
è ļ
æľ «
éĶ ģ
åıĳ è¿ĩæĿ¥
è¦ģ ä¹°
èµ ı
åĴ ¯
æ²¡æľī ä»»ä½ķ
å¾Ĺ åĪ°
å¿ĥ çĲĨ
æĮº ä¸įéĶĻçļĦ
åħ¨ éĿ¢
åĨį æ¬¡
çī©æµģ ä¹Ł
ç¾ Ĭ
æĪĲ éķ¿
çīĪ æľ¬
å°ĳ äºĨ
ç©¿çĿĢ å¾ĪèĪĴæľį
çļĦä¸Ģæ¬¡ ç½ĳè´Ń
è¿ĺå¥½ å¤Łæ¸ħæĻ°çļĦ
åĪĽ ä½ľ
å¿½ æĤł
æĦī å¿«
2 2
Ġ å¤§
Ġ éŀĭ
å¾Ī ä¸įéĶĻçļĦ
çĶ ľ
å°± åĥı
å°± æĽ´
åį ı
çľĭ æĿ¥
çľĭ è§ģ
æ¬¡ äºĨ
å®ŀ çĶ¨çļĦ
çŃ ĸ
æľīçĤ¹ å¤§
æľĢ å·®
çī©æµģ å¾Īå¿«
æĺİ çĻ½
å½ĵ çĦ¶
èĥ ¸
éķ¿ äºĨ
éĵ ľ
åħ³ äºİ
æŀģ å·®
åģı å¤§
æııè¿° çļĦä¸Ģæł·
æĲŀ æ´»åĬ¨
???? ????
èĴ Ļ
è¿ĺå¥½å¤Łæ¸ħæĻ°çļĦ è¿ĺå¥½å¤Łæ¸ħæĻ°çļĦ
Ġ åı¯ä»¥
Ġ å¤ªå·®äºĨ
ä¸į å¤§
è¿ Ł
äºĨ å¥½
ä¸Ģ æĿ¡
åĪ ¤
åĪ° åºķ
è® ¨
åĴ ĸ
ç»Ļ ä½ł
çº ¹
å°±æĺ¯ çī©æµģ
çľŁ æŃ£
ä¾ ł
åī ¯
éª ĳ
åĿĳ äºº
å°Ĩ å°±
........ ........
å¾Īå¥½å¾Īå¥½ å¾Īå¥½å¾Īå¥½
æ£Ģ æŁ¥
å·®å·®å·®å·®å·®å·®å·®å·® å·®å·®å·®å·®å·®å·®å·®å·®
é ¬
Ġ éĢŁåº¦
Ġ æĢ»ä½ĵ
ä¸į ç®¡
ä¹Ł è®¸
éĥ½ å¾Īå¥½
å¤ļ ä¹ħ
éĢģ äººçļĦ
éĩĮ ç³Ĭæ¶Ĥ
çĲĨ çĶ±
éĹ® å®¢æľį
ç¾ ½
Ġè´¨éĩı å¥½
å®Į ç¾İ
å®Į æķ´
çĽ¸ åħ³
åŃ©åŃĲ çļĦ
åħ³ æ³¨
æĹ§ çļĦ
è² Į
æĩĴå¾Ĺ éĢĢäºĨ
å¤©æīį åĪ°
è¿Ļå®¶ åºĹ
çİ¯ å¢ĥ
ä»¤ äºº
ç¨Ģ éĩĮç³Ĭæ¶Ĥ
å ª
Ġ éĿŀå¸¸å¥½
ä¸ ĳ
æĺ¯ åľ¨
ç» ĩ
æĪĳ è¯´
è¿Ļ æľ¬
ä¹¦ åºĹ
åĪ« ç¨ĢéĩĮç³Ĭæ¶Ĥ
ç³ Ł
åĽŀ å®¶
åįĸ çļĦ
åĩł ä¹İ
è¶ħ åĢ¼
é» ĺ
èº« ä¸Ĭ
ç»Ĩ èĩ´
å¸¦ çĿĢ
ä»¥åĲİ è¯·æ³¨æĦı
è¡¨ éĿ¢
æ¯ı ä¸ª
èĢĲ çĶ¨
ãĢĢãĢĢãĢĢãĢĢãĢĢãĢĢãĢĢãĢĢ ãĢĢãĢĢãĢĢãĢĢãĢĢãĢĢãĢĢãĢĢ
çļĦåĮħ äºĨ
äº§åĵģåĮħè£ħ åĪ«ç¨ĢéĩĮç³Ĭæ¶Ĥ
ä»¥åĲİè¯·æ³¨æĦı äº§åĵģåĮħè£ħåĪ«ç¨ĢéĩĮç³Ĭæ¶Ĥ
ä»¥åĲİè¯·æ³¨æĦıäº§åĵģåĮħè£ħåĪ«ç¨ĢéĩĮç³Ĭæ¶Ĥ çļĦåĮħäºĨ
, ,
¨ è¯¢
Ġ çľĭ
çļĦ æĢģåº¦
çļĦ æĹ¶éĹ´
ä¸į æĸ¹ä¾¿
æľī äºĨ
æ² ³
åĴ ¨è¯¢
å¯ Ł
æİ ¢
æ³ ½
å¦ Ĩ
æ¸ Ĳ
èĬ ¯
å®¹ éĩı
ç¾İ è§Ĥ
éħ ¸
ä»£ è¡¨
åħ· ä½ĵ
çĥŃ æĥħ
æ¸¸ æĪı
å¸½ åŃĲ
éĥ½åĿıäºĨ ä»¥åĲİè¯·æ³¨æĦıäº§åĵģåĮħè£ħåĪ«ç¨ĢéĩĮç³Ĭæ¶ĤçļĦåĮħäºĨ
b r
n b
n ç¬¬
s p
Ġ å¤ĸè§Ĥ
å¤ª èĸĦäºĨ
æ¯ Ĵ
éĹ ª
æ²¡æľī èī²å·®
æİ Ī
çİ ī
ä¿ ĥ
ï¼Ł \
å¦ Ļ
çĶµ åŃĲ
çĦ¶ èĢĮ
æľīçĤ¹ æħ¢
åħ¨ å½©
æ± ¡
ä¸ī å¤©
æ¶ ²
ä»¥åĲİ è¿ĺä¼ļ
æ· ·
00 00
çļ® èĤ¤
éªĹ äººçļĦ
äºĶ æĺŁ
åį´ æĺ¯
é¦Ļ åĳ³
é¸ ¡
åĢĴ æĺ¯
éĶĢ åĶ®
å¼¹ æĢ§
åĶ¯ ä¸Ģ
éĥ½åĿıäºĨä»¥åĲİè¯·æ³¨æĦıäº§åĵģåĮħè£ħåĪ«ç¨ĢéĩĮç³Ĭæ¶ĤçļĦåĮħäºĨ éĥ½åĿıäºĨä»¥åĲİè¯·æ³¨æĦıäº§åĵģåĮħè£ħåĪ«ç¨ĢéĩĮç³Ĭæ¶ĤçļĦåĮħäºĨ
t he
Ġ å°±
Ġ åŃ©åŃĲ
Ġ æĶ¶åĪ°è´§
çļĦ ä¹Łå¾Ī
ãĢĤ ï¼Į
äºĨ å¾Īå¤ļ
å¾Ī ä¸įå¥½
åĬ ª
åľ¨ è¿Ļ
è¿ĩ æĿ¥çļĦ
æĬ ½
åĽ¾ æ¡Ī
éĢĢ æį¢
ä¹°äºĨ ä¸¤
çĻ Į
åĨĻ ä½ľ
åĲĥ çļĦ
åĻ ª
æ¯ı å¤©
çĶ» éĿ¢
æııè¿° çļĦ
çĬ ¹
~~~~ ~~~~
é¬ ¼
Ġ ä¸ºä»Ģä¹Ī
Ĺ çīĽ
ãĢ ĳ
è¿ «
å¾Ī æŃ£
æĪĳ è¿ĺ
å¾Īå¥½ å¾Īä¸įéĶĻ
ä¸ĭ äºĨ
éĢģ äºº
éĿŀå¸¸ å·®
ç»ı è¿ĩ
æį ·
æ¸ £
æĢİä¹Ī åĽŀäºĭ
Ġè´¨éĩı ä¸įå¥½
åıĳè´§ å¿«
èĬ± æł·
åħ¶ä»ĸ çļĦ
ç»´ ä¿®
æĶ¿ åºľ
è¡¥ åıĳ
ç®ĢçĽ´ å°±æĺ¯
ç»ĥ ä¹ł
è´Łè´£ ä»»
å« Į
Ġ éĿ¢æĸĻ
çļĦ å°±æĺ¯
ä¹ Į
çĶ¨ åĲ§
ä¹Ł åı¯ä»¥
ä»¥ æĿ¥
äºº æ°ĳ
ä¼ ´
åķ ¡
ç»Ļ äºĨ
åĸ ®
çľŁ çļ®
åĬĽ éĩı
Ġè¿ĺ æ²¡æľī
å®ĥ ä»¬
èħ »
Ġè¿ĺåı¯ä»¥ åĲ§
æŃĮ æĽ²
ä¸Ģå®ļ è¦ģ
å±ŀ äºİ
éĻĲ åĪ¶
ç ¹
ä¸į éĢĤåĲĪ
å¾ ģ
æĺ¯ æľ¬å¥½ä¹¦
å® Ĺ
ä¸Ģ åıĮ
å¾Ī å°ı
ä¼ ģ
åıĳ æĿ¥
æīį çŁ¥éģĵ
éĢĢ æį¢è´§
åĩł åįģ
æ± ĩ
ç®Ĺ æĺ¯
è¿ĺæ²¡ çľĭ
ç§ĳ ä¹¦
è¢ĭ åŃĲ
èĳĹ åĲį
è´£ ä»»
åĴĸ åķ¡
n æ¬²ä¹ĲåĽŃ
çļĦ äºĨ
æĸ ¤
åĬ ¿
æĿ¥ è¯Ħä»·
éĥ½ èĥ½
è´¨ æĦŁ
å¤ª åŀĥåľ¾äºĨ
ä¸Ĭ æ¡£æ¬¡
è¡ Ĺ
èµ Ľ
æĦŁ è°¢
ä¹°çļĦ æĹ¶åĢĻ
ä¸įå¥½ çľĭ
çİ° å®ŀ
æĹł è®º
èĥ ľ
ç»ĵ æŀĦ
éĢļ çŁ¥
ä¸įçŁ¥éģĵ æĺ¯
åħ¬ è·¯
åıĺ æĪĲ
è½¦ åŃĲ
è§ģ è¿ĩ
çħ ®
å¹³ æĹ¶
å¿ħ å¤ĩ
é©¬ ä¸Ĭ
æ½ ®
å½» åºķ
2 6
Ġ æ¯Ķè¾ĥ
ç» ³
å°± ç®ĹäºĨ
å¸ Ŀ
å¹ ħ
æĥ³ éĢĢè´§
éĿŀå¸¸ ä¸įéĶĻ
çĶŁ æ°Ķ
åĲĪ ä½ľ
ä½ľ å®¶
æĦŁè§ī ä¸įéĶĻ
è¿ĺæĺ¯ åı¯ä»¥
äºİ æĺ¯
çī¹ çĤ¹
ä»İ æĿ¥
æķĻ ç§ĳä¹¦
éľ ī
çłģ çļĦ
æļ ´
æĶ¹ åıĺ
Ġä¹° æĿ¥
åĵĪåĵĪ åĵĪåĵĪ
é¢Ĩ åŁŁ
ä¼¤ å¿ĥ
åĹ ¯
åĲī ç¥¥
ha o
nb sp
næ¬²ä¹ĲåĽŃ æ¬²ä¹ĲåĽŃ
Ġ åıĳè´§éĢŁåº¦
çļ ĩ
å¾Ī ç²¾èĩ´
è¿ĺ åľ¨
æĿ Ł
æĪĳ ä¹Ł
æ²¡ åĬŀæ³ķ
èī² å½©
æŀľ çĦ¶
ç³ ĸ
å¹´ åīį
å·¥ ç¨ĭ
çĪ Ĩ
èĢģ æĺ¯
è®© æĪĳä»¬
äº§ çĶŁ
åįĸå®¶ æľįåĬ¡
Ġä¸ľè¥¿ å¾Īå¥½
è¯ķ è¯ķ
ç¢ Ĺ
å¤§å®¶ ä¸įè¦ģ
çļĦå¾Ī è¯¦ç»Ĩ
Ġè¿ĺæ²¡ çĶ¨
èľ ĹçīĽ
åĩı èĤ¥
ä¸ĭçļĦ åįķ
è¿ĩç¨ĭ ä¸Ń
æģŃ ç»´
2 4
ä¸ Ľ
çļĦ äº§åĵģ
ä¸į çĦ¶
ä¹° è°ģ
åĬ ³
ä»¥ ä¸Ĭ
å¼ ĥ
èĥ½ ä¸įèĥ½
å¤ļ æľĪ
ä½ł å®¶
ãĢĭ ï¼Ī
æ°´ å¹³
ï¼ļ \
ä¿¡ åı·
æĳ ĩ
åŃ©åŃĲ ä»¬
éļ¾ çľĭ
è®² è§£
Ġä¸įå¥½ çĶ¨
ï¼Įï¼Įï¼Įï¼Į ï¼Įï¼Įï¼Įï¼Į
ç¢İ äºĨ
æĮºå¥½å°±æĺ¯è´§çī©åĮħè£ħå¤ªå·®åĬ²æĮºå¥½å°±æĺ¯è´§çī©åĮħè£ħå¤ªå·®åĬ² æĮºå¥½å°±æĺ¯è´§çī©åĮħè£ħå¤ªå·®åĬ²æĮºå¥½å°±æĺ¯è´§çī©åĮħè£ħå¤ªå·®åĬ²
è²¨ å¿«
ï ¿
Ġ ãĢĬ
Ġ æł¹æľ¬
Ġ è¶ħçº§
æĿ °
æĪĳ å¾Īåĸľæ¬¢
æ¬ £
åį ł
æĹ ¦
åĬ ±
å¤§ æĸ¹
ä¸ĭ åĸ®
ä¸ľè¥¿ ä¸įéĶĻ
éĢģ æĿ¥
èĩª çĶ±
çĶµ æºĲ
è´Ń ä¹°äºĨ
çŃ ĳ
æĻ ĵ
åĪļ åĪļå¥½
åĨĻ å¾Ĺ
çľ¼ éķľ
å² Ľ
å¹¿ åĳĬ
ï¼ģï¼ģï¼ģï¼ģï¼ģï¼ģï¼ģï¼ģï¼ģï¼ģï¼ģï¼ģï¼ģï¼ģï¼ģï¼ģ ï¼ģï¼ģï¼ģï¼ģï¼ģï¼ģï¼ģï¼ģï¼ģï¼ģï¼ģï¼ģï¼ģï¼ģï¼ģï¼ģ
åĨ¬ å¤©
ä¾Ĩ äºĨ
æ Ĩ
è Ķ
ä¸Ģ ä¼ļ
ä¸Ģ åĪĩ
æ²¡ æĶ¶åĪ°
éĥ½ ä¸įéĶĻ
åĩ °
ä¸ĭ éĿ¢
å¤© å¤©
æĶ¶ èİ·
ç»ı éªĮ
æ»¡æĦı çļĦ
æīĵ äºĨ
å¦Ĥ æĦı
å¤ĸ è¯Ń
èģ ļ
èĻ İ
ç©¿çĿĢ èĪĴæľį
åĲĦ ä½į
è§Ĵ åº¦
éļı ä¾¿
å¤ªå·®åĬ² äºĨ
ç¬¬äºĮå¤©å°± ä¾ĨäºĨ
æ§ ½
è°¨ æħİ
åĬª åĬĽ
ä¸ĭåĸ® ç¬¬äºĮå¤©å°±ä¾ĨäºĨ
º å¾Ĺ
ä¸į çĪ½
è¯ ¸
å°± æİīäºĨ
ä¹Ł ä¸įæĺ¯
éĥ½ è¦ģ
å¤ª éº»çĥ¦
åİ Į
æ²¡æľī ä»Ģä¹Ī
åĸ ·
éĢģ è²¨å¿«
å¿ĥ å¾Ĺ
æĮº åĸľæ¬¢çļĦ
éĤ£ éĩĮ
è° ·
æħ¢ çļĦ
æ³ķ æıı
éŁ µ
äºĮ æīĭ
èĥ ŀ
æİ¥ è§¦
æ¶ ī
ç»Ĩ èĬĤ
éĽ ·
æķĪæŀľ å¥½
æĽ´ å¥½
ä½į ç½®
ï¼ģï¼ģï¼ģï¼ģï¼ģï¼ģï¼ģï¼ģ ï¼ģï¼ģï¼ģï¼ģ
11 11
è¯ī çļĦä¹Łå¾Ī
ä»ĭç»į çļĦå¾Īè¯¦ç»Ĩ
äº¤ æĺĵ
é¸ Ł
é¼ ĵ
åĪĿ åŃ¦èĢħ
éĴĪ æ³ķæıı
éĿŀå¸¸æ»¡æĦıéĿŀå¸¸æ»¡æĦıéĿŀå¸¸æ»¡æĦıéĿŀå¸¸æ»¡æĦı éĿŀå¸¸æ»¡æĦıéĿŀå¸¸æ»¡æĦıéĿŀå¸¸æ»¡æĦıéĿŀå¸¸æ»¡æĦı
çĴ ĥ
åĩ¤ åĩ°
èĬ±æł· å¾Īå¤ļ
ï¿ ¥
è¯īçļĦä¹Łå¾Ī åĪ°ä½į
éĴĪæ³ķæıı è¯īçļĦä¹Łå¾ĪåĪ°ä½į
åı Ķ
ä¸Ģ å¼ł
è´ ¢
åĲ ¹
ç» ª
å· Ŀ
å¤ª ç¡¬
çĤ ī
æĬ ±
æĬ Ĺ
äº¬ä¸ľ èĩªèĲ¥
çĶŁ æĹ¥
æ± ¤
åĪļ åĪļ
é¦ Ĩ
çļ® å¸¦
çĪ± æĥħ
æķ° æį®
éªĹ äºº
æĲ º
ä¸ĵ è¾ĳ
åŀĭ åı·
åľ¨äº¬ä¸ľ ä¹°ä¸ľè¥¿
è°ģ ä¹°è°ģ
æī£ åŃĲ
è² ·çļĦ
Ġ 1
Ġ æĢİä¹Ī
Ġ æľ¬æĿ¥
çļĦ è¯´
ä¸į ç»ĻåĬĽ
ä¸į æĩĤ
æĺ¯ ç»Ļ
å° Ŀ
åĲ Ĭ
æĪĳ å®¶
çĶ¨ æĿ¥
åľ¨ ä¸Ģèµ·
éĥ½ å¾Ī
è¦ ºå¾Ĺ
æĹ¶ æľŁ
å¾Ĺ å¾Ī
æĮº èĪĴæľį
æĮº å¿«çļĦ
ä¸įæĺ¯ æŃ£åĵģ
åĮħè£ħ çĽĴ
çĥ «
åħ¨ åĽ½
éĻ Ĩ
åīį éĿ¢
åĲĮ åŃ¦
ä»¥åĲİ åĨįä¹Łä¸į
ä¸» ä¹ī
éħį å¥Ĺ
è¾¹ çļĦ
éº ¦
è°ĥ æķ´
æľįåĬ¡æĢģåº¦ å¾Īå¥½
ç¬Ķ è®°
ä¼¼ çļĦ
åįĥä¸ĩ åĪ«ä¹°
æ°¸ è¿ľ
ä¸ĭæ¬¡è¿ĺ æĿ¥
å®£ ä¼ł
é¼ł æłĩ
æ ¾
Ġ å®Ŀå®Ŀ
ä¸ ¾
äº Ī
å¾Ī è½»
åį ¸
éĥ½ ä¼ļ
æĥ ¨
å¤ļ è¯»ä¹¦
éģ ¥
æ» ¤
å¿ĥ éĩĮ
éĻ ¶
æīĵ ç®Ĺ
èĤ ©
åºĹ éĩĮ
è´µ çļĦ
å·®è¯Ħ å·®è¯Ħ
èº« ä½ĵ
å¤´ åıĳ
åĨĻ äºĨ
æĤ Ł
é»ĳ èī²çļĦ
çĸ ı
çĥĤ çļĦ
èī¯ å¿ĥ
èĵĿ èī²
åķĬåķĬ åķĬåķĬ
è¸ ı
ä¸įæķ¢ æģŃç»´
æĹħ æ¸¸
è¿ĺåı¯ä»¥å°±æĺ¯åĶ±çīĩéĥ½è¶ĬæĿ¥è¶Ĭè´µè¿ĺåı¯ä»¥å°±æĺ¯åĶ±çīĩéĥ½è¶ĬæĿ¥è¶Ĭè´µ è¿ĺåı¯ä»¥å°±æĺ¯åĶ±çīĩéĥ½è¶ĬæĿ¥è¶Ĭè´µè¿ĺåı¯ä»¥å°±æĺ¯åĶ±çīĩéĥ½è¶ĬæĿ¥è¶Ĭè´µ
2 5
u s
è ¹
Ġ å·²ç»ı
äº Ĵ
ä¸į åĩº
ä» ª
ä¸Ģ å¥Ĺ
æĪ ª
ä¼ ª
ä¼ ¯
åĮ ¹
åİ ¿
çİ »
æ» ĭ
äº¬ä¸ľ åķĨåŁİ
èµ· æ¯Ľ
ï¼ī .
çł´ çļĦ
è®° å½ķ
è®° å¿Ĩ
åľ¨äº¬ä¸ľ ä¸Ĭ
Ġçī©æµģ å¤ªæħ¢
åĭ ī
åı¯èĥ½ æĺ¯
è§£åĨ³ éĹ®é¢ĺ
ä¸įåĢ¼è¿Ļä¸ªä»· éĴ±
èŀ į
åı¯çĪ± çļĦ
ä¼ģ ä¸ļ
åĲīç¥¥ å¦ĤæĦı
åĩ¤åĩ° ä¼łå¥ĩ
s quo
« æľĭåıĭ
Ġ çľŁ
ä¸Ģ èĤ¡
ä¸Ģ åı¥
ç» ¼
è¿ĺ å¾Ĺ
åŃ £
çī ¢
æ²¡ å¥½è´§
åº Ħ
å¤§ éĩı
ä¹¦ æĺ¯
å¹ «æľĭåıĭ
è£ħ ä¸Ĭ
çº ł
å¤© äºĨ
å½ Ĵ
ç§ »
åķĨ åľº
å¿«éĢĴ åħ¬åı¸
æľĢ è¿ĳ
ä¸¤ å¤©å°±
æīĵ èĦļ
åĽ½ åĨħ
èĥ ¡
æ¡ Ĩ
è¡¨ ç¤º
åĲĥ äºĨ
Ġä¸į æĢİä¹Īæł·
å»º çŃĳ
æī¾ å®¢æľį
20 13
çļĦäºº çĶŁ
é¥ ¼
å¥½å¥½å¥½å¥½ å¥½å¥½å¥½
çĬ ¯
çĹķ è¿¹
éĶ® çĽĺ
æĿĤ å¿Ĺ
åĳĬè¯ī æĪĳ
ä¸įæĢİä¹Ī å¥½
å°¤åħ¶ æĺ¯
è¦ºå¾Ĺ ä¸įéĮ¯
çİ» çĴĥ
å¹«æľĭåıĭ è²·çļĦ
å® «
åŃ ¤
æ²¡ éĹ®é¢ĺ
åĽ °
åĵ Ĵ
åº Ń
å¤ª å¤±æľĽäºĨ
æĥ³ ä¹°
æīį ä¹°çļĦ
æľīçĤ¹ è´µ
èĦ Ĩ
éĢĤ çĶ¨
éŁ ©
èģ Ĭ
éĢŁåº¦ å¾Īå¿«
æ¡ Į
åı£ åĳ³
æĹ¥ æľ¬
æĢĿ ç»´
è¿Ĳ è¾ĵ
è®¤ è¯Ĩ
ä¸įä¼ļ åĨį
èĩ³ å°ĳ
æĬĺ èħ¾
åıĸ æ¶Ī
æĮī çħ§
é¸ Ń
å¥¶ ç²ī
èĽ® å¥½çļĦ
æĥĬ åĸľ
ç»ıåħ¸éĨĩç»ıåħ¸éĨĩç»ıåħ¸éĨĩç»ıåħ¸éĨĩç»ıåħ¸éĨĩç»ıåħ¸éĨĩç»ıåħ¸éĨĩç»ıåħ¸éĨĩ ç»ıåħ¸éĨĩç»ıåħ¸éĨĩç»ıåħ¸éĨĩç»ıåħ¸éĨĩç»ıåħ¸éĨĩç»ıåħ¸éĨĩç»ıåħ¸éĨĩç»ıåħ¸éĨĩ
éĵľ çīĪ
è¦ºå¾Ĺä¸įéĮ¯ å¹«æľĭåıĭè²·çļĦ
2 1
3 9
t i
ä¸į é«ĺ
ä¸į è´µ
ä¸Ģ éĥ¨
å¥½ ä¹ħ
æľī äºº
æľī ä»Ģä¹Ī
å°± æ²¡æľī
æĪĳ äºĨ
éĥ½ åı¯ä»¥
å¤ª å¥½
åĨ Ĵ
åĳ Ī
éĹ Ń
ä¸Ń åįİ
è¾ Ľ
æĥ³ åĥı
åŃ¦ æł¡
çŃ Ĵ
æĻ ¶
æīĵ åį°
éķ ĩ
é¡ ¿
çīĪ çļĦ
è¶ħ æīĢåĢ¼
å» ¶
éĢļ å¿«éĢĴ
åıĺ å¾Ĺ
çĸ ¼
ä¿® èº«
åĨ³ å®ļ
è¯ģ åĪ¸
Ġä¹° åĽŀæĿ¥
éĶĪ éĴ¢
2 9
7 0
o r
æ ©
é ¹
Ġ å¯¹
Ġ ä¸įçŁ¥éģĵ
Ļ åŃĲ
ä¸į åĲĪéĢĤ
äºĨ æĪĳ
ä¸Ģ æ¬¾
ï¼ģ &
åľ¨ äºİ
å¤ª èĸĦ
ä¸Ĭ æľī
è´¨éĩı å¾Īå·®
çī© è¶ħæīĢåĢ¼
æĬ ¹
ä¹°çļĦ æĺ¯
åī ©
æĸ¹ åĲĳ
æĶ¶åĪ° åĲİ
æ³ķ å¾ĭ
å®Į å¥½
èĥ ĥ
ç»Ĩ èĥŀ
æŃ¤ ä¹¦
åıį æĺł
èĲ ¨
è¿ŀ ä¸ª
çĭ Ĥ
è®¤ çľŁ
æ·± åħ¥
åĶ®åĲİ æľįåĬ¡
æ°ĳ æĹı
çĮ ®
æĦ¿ æĦı
ç¹ ģ
å¤ĸè¯Ń æķĻç§ĳä¹¦
éĵľçīĪ å¤ĸè¯ŃæķĻç§ĳä¹¦
2 8
h h
Ġ æľįåĬ¡
Ġ æĿ¯åŃĲ
çļĦ æľįåĬ¡
æĺ¯ æľĢ
å¸ ħ
åıĳ å¾Īå¥½
è£ ģ
æ³ ¥
è¾ ħ
è¾ ŀ
æľĢ å¥½
å¹´ ä»£
ä¸Ģæ¬¡ å°±
çī©æµģ æħ¢
è¶ħ è¿ĩ
ç¾İ çļĦ
çŃī çŃī
ä¹Łä¸į ä¼ļ
éľ ĩ
è¯ķ çĶ¨
æł¹æľ¬ æ²¡æľī
æıĲ éĨĴ
åħ¥ éĹ¨
Ġå¾Īå¥½ çĶ¨
æłĩ çŃ¾
Ġå¤ª å°ıäºĨ
éĩĳ å±ŀ
èµ° äºĨ
è¿ĺä¸į ç»Ļ
æĶ¹ è¿Ľ
éĢı æĺİ
çŃĶ æ¡Ī
çļĦè¦ģ æŃ»
å¥½å¤§ çļĦä¸Ģæľ¬
æĪĳä¹Łæĺ¯ éĨīäºĨ
åĻª éŁ³
; ãĢģ
Ġ ç¬¬äºĮæ¬¡
çļĦ åİĨåı²
å¥½ åĩł
å¥½ èĸĦ
è´¨éĩı ä¹Łå¾Īå¥½
è£ ¹
è¿ĩ æľŁ
æĦŁ åĪ°
æĥ³ è¯´
å¼Ģ åıĳç¥¨
èĢĮ è¨Ģ
æĽ ¿
åºĹ ä¸»
åºĹ éĵº
ä¿¡ ä»»
æł¹ æį®
è¡¨ è¾¾
å¡ Ķ
åĽĽ ä¸ª
åľ¨äº¬ä¸ľ ä¹°
åı¤ åħ¸
åı¤ ä»£
æĹ¢ çĦ¶
ãĢģãĢģ ãĢģãĢģ
è¢ĸ åŃĲ
çļĦäºĭ æĥħ
æ¬ºéªĹ æ¶Īè´¹èĢħ
æļĤ æĹ¶
å¥½å¥½å¥½å¥½å¥½å¥½å¥½ åıĳå¾Īå¥½
ä¸Ģ å¦Ĥ
å°± èĥ½
åĬ Ŀ
åĩ ¡
è´¨éĩı è¿ĺåı¯ä»¥
éĿ¢ æľī
ä¼ļ ä¸įä¼ļ
èĢĮ å·²
æīĭ å¥Ĺ
æľĢ éĩįè¦ģ
éĻ ·
Ġè´¨éĩı å·®
ãĢĭ ãĢĬ
èĢħ çļĦ
èĥ İ
çĽ¸ ç¬¦
ç²¾ å½©
ä¸ĢçĤ¹ çĤ¹
åĬł çĥŃ
èĬ± éĴ±
Ġè¿Ļ æ¬¾
ä¸ĵ å®¶
åĩĨ ç¡®
å®Įåħ¨ ä¸įä¸Ģæł·
è¿Ļä¸ªä»· ä½į
å© ļ
å¯¼ èĩ´
ä¸įåĴĭ åľ°
éĿ© åĳ½
èļ Ĭ
å¥½å¥½å¥½å¥½å¥½å¥½å¥½åıĳå¾Īå¥½ å¥½å¥½å¥½å¥½å¥½å¥½å¥½åıĳå¾Īå¥½
è Ń
ä¸į å®¹æĺĵ
å¥ ĭ
å° ĸ
çĶ¨ ä¸įäºĨ
æĹ ĭ
éĥ½ åľ¨
å¤ª å¤ļäºĨ
è´¨éĩı å¤ªå·®äºĨ
å¼Ģ èĥ¶
ä¸Ģä¸ª åŃĹ
è¡Į ä¸º
æĻ ĥ
è¶ħ æħ¢
åı· çłģ
Ġå¾Ī ä¸įéĶĻçļĦ
æĤ ī
è¯ķ äºĨ
å¸ĮæľĽ èĥ½
æĺĵ æĩĤ
éĤ® å¯Ħ
åŁİ å¸Ĥ
ï½ŀï½ŀ ï½ŀï½ŀ
åŀĥåľ¾åŀĥåľ¾ åŀĥåľ¾åŀĥåľ¾
æ¦Ĥ å¿µ
æİĮ æı¡
åħ¨å½© éĵľçīĪå¤ĸè¯ŃæķĻç§ĳä¹¦
åĭī å¼º
9 0
b u
å ³
ä¸ ģ
çļĦ è¡£æľį
ä¸į åĨį
ä» Ļ
ä¸Ģ åıª
ä¸Ģ æŃ¥
å¾Ī å®¹æĺĵ
å¾Ī å®ŀæĥł
æĪ Ĵ
å¤§ åĪ©
ä¸Ĭ åįĪ
æĮ ¡
åģ ·
å¸¸ è¯Ĩ
å¯¹ æ¯Ķ
æľĢ ç»Ī
åĨħ è¡£
éª Ĥ
éķ¿ æĹ¶éĹ´
åŃĹ æķ°
äºĨä¸Ģ å¤©
ä¾¿å®ľ æ²¡å¥½è´§
æł¹æľ¬ ä¸į
ä¸ĢçĽ´ åľ¨
ä¸ĵ æŁľ
æŀģ äºĨ
åĭ ĩ
æīĭæĦŁ ä¸įéĶĻ
åĲ¯ åıĳ
è·Ŀ ç¦»
-- --
èģĮ ä¸ļ
an d
çıł åŃĲ
æĲº å¸¦
2 3
Ġ åĽ¾çīĩ
çļĦ æķħäºĭ
çļĦ ä½ľåĵģ
ä¸į å½±åĵį
å¥ Ī
å¥ ī
ä¸Ģ å¤§
ä¸Ģ åįĬ
å¾Ī æħ¢
æ² Ĵ
è´§ åĪ°
ä¼ Ł
è´¨éĩı ä¹Łä¸įéĶĻ
è¦ģ ä¸įæĺ¯
èī ³
æ³ Ľ
å¿ĥ çģµ
å¼Ģ çļĦ
æ´ Ľ
å¿«éĢĴ ä¹Ł
åħ¨ çĲĥ
æľįåĬ¡ å¥½
çŃī å¾ħ
è·Ł æĪĳ
åįģ å¤ļ
ç»ĵ åĲĪ
æĤ ¦
å¥Ĺ è£ħ
Ġä¸į æĢİä¹Ī
Ġè¿Ļ æ¬¡
èħ Ķ
æįŁ åĿı
åł ª
æĹ¢ å¾Ģ
!! !!
ç»Ħ ç»ĩ
å¢ŀ åĬł
å°±æĽ´ å¥½äºĨ
ä¸į å¹³
ä¸į æİ¨èįĲ
ä¸Ģ åĳ¨
æĪĳ å¾Īæ»¡æĦı
è¿Ļ çĤ¹
è¿Ļ å°±æĺ¯
è¯´ å¥½
å°±æĺ¯ å¿«éĢĴ
æĭ Ľ
æ» ļ
ç§ Ĵ
ä»Ģä¹Ī çļĦ
åĽŀ æĿ¥çļĦ
çī©æµģ å¿«
åįķ ä½į
é«ĺ çļĦ
åıĳè´§ å¾Īå¿«
æ¼Ĥäº® çļĦ
åıĺ åĮĸ
åºķ éĥ¨
éĢģè´§ å¿«
èµŀ èµŀ
è½¯ ä»¶
æĭį çļĦ
çĵ¶ åŃĲ
éĺ² æ°´
åĩĳ åįķ
ä¼¼ ä¹İ
é¡º ä¸°
åĪº é¼»
åĽº å®ļ
ç¨³ å®ļ
Ġ èĢģ
Ġ å¥½çľĭ
çļĦ æľĭåıĭ
ä¸Ģ é¢ĹæĺŁ
æľī å¾Īå¤ļ
è¿ĺ éĢģäºĨ
æĿ ĳ
å°± ä¸įèĥ½
æī §
ä¼ ¦
ä¼ Ĭ
å®¶ åºŃ
çĽ ĳ
æĦı è¯Ĩ
æĦı å¤§åĪ©
èĪ į
è¥¿ æĸ¹
æ³ ³
ä¼ļ æľī
éģĵ çĲĨ
éģĵ è·¯
ï¼ģï¼ģï¼ģï¼ģ ï¼ģï¼ģ
åıª å¥½
æľĢ å¤§
ä½ĵ çİ°
çīĪ åŀĭ
ä¹Łä¸į çŁ¥éģĵ
è¢« åŃĲ
~~ ~
çĻ½ èī²çļĦ
åºĶè¯¥ æĺ¯æŃ£åĵģ
èģĶç³» ä¸įä¸Ĭ
åİļ çļĦ
ä»ĸä»¬ çļĦ
æ¢ °
èĩ³ ä»Ĭ
ç§ĳ æĬĢ
æ£Ĵ æ£Ĵ
å¾Ģ å¾Ģ
æĹ© ä¸Ĭ
ç£¨ æįŁ
é¸ £
çª Ĺ
ç¦» å¼Ģ
çº¯ æ£īçļĦ
çĶ³è¯· éĢĢè´§
è¿½ æ±Ĥ
éĿł è°±
çº¸å¼ł åĴĮ
Ġ ç©¿
Ġ ä½¿çĶ¨
Ġ ç©¿çĿĢ
Ġ æĶ¶åĪ°äºĨ
ä¹ ³
å® ģ
å¾Ī ä¸įæ»¡æĦı
çĶ °
ç» µ
æī ¯
æĪĳ åĴĮ
æĸ ĳ
ä¹Ł å¤ª
èĢ ½
ä¸Ĭ æ¬¡
è¦ģ æĪĳ
æķ ¬
å¹ »
é¢ ĸ
å½ ¼
è¾ £
ä»ĸ è¯´
çİ° è±¡
æīį åıĳçİ°
ãĢĤãĢĤãĢĤãĢĤ ãĢĤãĢĤãĢĤ
æĽ ¼
åĨħ éĥ¨
Ġè´¨éĩı å¤ªå·®äºĨ
ç¨ĭ åºı
æŀģ åħ¶
æĮĩ å¯¼
å»ºè®® å¤§å®¶
ç¤¼ åĵģ
å°ıäºĨ çĤ¹
æĹ§ ä¹¦
æ¸© åº¦
åŁºæľ¬ ä¸Ĭ
èµĦ æĸĻ
çĮ «
ä¸įåĲĮ çļĦ
åįĥä¸ĩ åĪ«
çĬ¶ æĢģ
Ġä¸ĢçĤ¹ éĥ½ä¸įå¥½
æ¯« æĹł
æŀķ å¤´
3333333333333333333333333333333333333333333333333333333333333333 3333333333333333333333333333333333333333333333333333333333333333
Ġ åķĨå®¶
Ġ ç©¿äºĨ
çļĦ ä¸Ģä¸ª
çļĦ åķĨåĵģ
ä¸į ç®Ĺ
å® ĭ
ä¸Ģ åĿĹ
å¾Ī æĺ¯
æī Ń
æĿ¥ çľĭ
åľ¨ çº¿
å¤ª è´µ
ä¸Ĭ éĿ¢çļĦ
è¡ ¬
åıĳ è¡¨
åĲİ çļĦ
å°ı åŃ©åŃĲ
å°ı å·§
æ²¡æľī åĽ¾çīĩ
è¿ĩ å¹´
è¿ĩ æķı
å°±æĺ¯ ä¸ª
èĩª èº«
åĮħè£ħ çļĦ
åĮħè£ħ å¾Īå¥½
è· µ
ç½ ©
èĤ ļ
æĮºå¥½ çľĭçļĦ
äºĨä¸Ģ æ®µæĹ¶éĹ´
è¿Ľ åħ¥
çĸ Ĺ
ç£ ģ
æĭį æĳĦ
åĬŀ åħ¬
äº² ä»¬
éĴ¢ åĮĸ
å¯Ĩ å°ģ
ãĢĤãĢĤãĢĤãĢĤãĢĤãĢĤãĢĤãĢĤãĢĤãĢĤãĢĤãĢĤãĢĤãĢĤãĢĤãĢĤ ãĢĤãĢĤãĢĤãĢĤãĢĤãĢĤãĢĤãĢĤãĢĤãĢĤãĢĤãĢĤãĢĤãĢĤãĢĤãĢĤ
åĿļ æĮģ
å¥½å¤§çļĦä¸Ģæľ¬ åħ¨å½©éĵľçīĪå¤ĸè¯ŃæķĻç§ĳä¹¦
ä¸ ²
çļĦ è¯Ħä»·
çļĦ çłĶç©¶
æľī æķĪ
åħ ļ
åĪ° å®¶
è´§ å¸ģ
ä¼ Ļ
ä¹¦ æľ¬
æ²¡æľī æĶ¶åĪ°
å®ŀ çİ°
æĭ ³
æĥ³ çļĦ
èĩª æĪĳ
çĦ ¦
åĽ½ éĻħ
éĴ± åĮħ
èĩªå·± åİ»
æ°Ķ æŃ»
ç¥ Ŀ
åįĸå®¶ æĢģåº¦
èĸĦ çļĦ
æģ ©
å¸¦ ä¸Ĭ
æĽ´ æĺ¯
åĢ¼å¾Ĺ æĭ¥æľī
èį £
éļ¾ ä»¥
èĢĥ çłĶ
æĢĿ èĢĥ
éĢī çļĦ
æ¯ı ä¸Ģä¸ª
æİ¨èįĲ çļĦ
çĵ ¦
æ¢ ħ
èĩ³ äºİ
èĥ¶ æ°´
ä¸Ĭå½ĵ åıĹ
æĹ© å°±
éĿ¢çļĦ åŃĹ
æŃ£çīĪ çļĦ
æĢ§ä»·æ¯Ķ å¾Īé«ĺ
æģ¶ åĬ£
è£Ĥ äºĨ
æľīçĤ¹å°ı è´µ
ä¸¢ äºĨ
æĳ¸ çĿĢ
åŁ¹ è®Ń
æ¼« çĶ»
æīĵèĦļ æīĵèĦļ
2 7
h o
â Ģ
ç µ
Ġ å®¢æľį
çļĦ å¿«éĢĴ
ä¸į éĶĪéĴ¢
åı Ļ
å¾Ī éĩį
å¾Ī åĪĴç®Ĺ
å°± å¥½
å¿ ł
åº Ĩ
éĥ½ éĢı
åĳ ¼
ç»Ļ åŃ©åŃĲ
ä»· ä½į
è¾ ¨
å¼Ģ æľº
ç² Ĵ
åħ¨ ä¹¦
åĨį è¯´
ç½ Ĳ
æĢİä¹Ī èĥ½
æ± ½
è¯Ŀ è¯´
åıĪ ä¸į
èĥ ĸ
æķĻ æİĪ
è¢« éªĹäºĨ
æĽ´ æį¢
ä¸ĢçĤ¹ éĥ½ä¸įå¥½
çº¿ äºĨ
ä¸» é¢ĺ
ä¿Ŀ éļľ
è¿Ļä¹Ī ä¹ħ
ç´ «
è¿ĺæ²¡ ç©¿
å¢ Ļ
åħĥ çļĦ
Ġçī©æµģ å¾Īå¿«
èĭ± åĽ½
éļı çĿĢ
ç¼º çĤ¹
åı« æĪĳ
è¯¾ ç¨ĭ
åį³ ä½¿
åĵ¥ åĵ¥
æĹħ è¡Į
ĠæĮº ä¸įéĶĻçļĦ
ç¡®è®¤ æĶ¶è´§
ä¸įå»ºè®® è´Ńä¹°
e n
l o
v v
® çļĦ
Ġ æľĢ
Ġ ä¸İ
ï¼Į \
ï¼Į ãĢĤ
æľ µ
ä¸į ä¸ĭ
ä¹ ¡
ä¸Ģ çĻ¾
éĢ ¼
ä¸ª åŃĹ
åį ¤
æĹ ģ
å¤§ æ¦Ĥ
å¤ª è´µäºĨ
ä¼ ŀ
æĮ ¤
æ¯Ķ æĪĳ
åĿ ¦
ä¸ĢèĪ¬ åĲ§
æĹł èī¯
åģļ åĩº
åľ° åĽ¾
éĻ ĭ
äºĭ æĥħ
è¯· éĹ®
éĽ ª
ä¿Ŀ æĮģ
å§ Ķ
.... ..
åİŁ æľ¬
åİŁ è£ħ
æł¹æľ¬ ä¸įæĺ¯
æĭ¿ åĩºæĿ¥
ï¼Ľ \
ä¸ŃåĽ½ åİĨåı²
åıĮ åįģä¸Ģ
æ¢ Ń
åĩºæĿ¥ äºĨ
ç£¨ èĦļ
å£« å°¼
å¨ ĺ
æ¡Ī ä¾ĭ
in g
é²ģ è¿ħ
è¿ª å£«å°¼
è¤ ª
C E
h i
i t
é Ħ
Ġ æŃ£åĵģ
Ġ èĻ½çĦ¶
çļĦ åĲĹ
æľ ±
æĺ¯ æľī
æĺ¯ åģĩçļĦ
å° ¿
å¾Ī å°ĳ
å¾Ī è½¯
æ² ¾
æ²¡ çľĭ
åį ±
æĦ ¤
ä¸įéĶĻ åĵ¦
åĴ ¬
æĮ ¥
åģ ¿
åĩº èĥĮ
ä¸Ģä¸ª äºº
æ´ Ĵ
å¹´ æĿ¥
è¿ĺæĺ¯ æľī
åĽŀ çŃĶ
ç« ¿
æ± Ĺ
éļ Ĳ
é«ĺ äºĨ
èĤ ł
ç¥ ĸ
æľĪ ä»½
å£ ģ
ä¿¡ èªī
æľŁ éĹ´
æģ Ĳ
ä¸įçŁ¥éģĵ æĢİä¹Ī
æıĲ åīį
æĺ¾ å¾Ĺ
æī¾ ä¸įåĪ°
éĩĮéĿ¢ æľī
å®ĥ çļĦ
ç¨ĭ åº¦
Ġå¾Īå¥½ çļĦ
èĳ ¡
è¯»ä¹¦ åı¯ä»¥
æĶ¯ ä»ĺ
åĤ »
æĮī éĶ®
éĤ® æĶ¿
çĶŁæ´» çļĦ
èĭ± æĸĩ
çŃĶ åºĶ
çĪ¸ çĪ¸
æĿĲæĸĻ åħ¬è·¯
ä¹ĭåīįä¹°çļĦ æĿĲæĸĻåħ¬è·¯
éģ¥ æİ§
å¥½èĸĦ åķĬ
ä¸Ģå¦Ĥ æĹ¢å¾Ģ
çº¸å¼łåĴĮ ä¹ĭåīįä¹°çļĦæĿĲæĸĻåħ¬è·¯
éĥ½éĢı åĩºèĥĮ
çº¸å¼łåĴĮä¹ĭåīįä¹°çļĦæĿĲæĸĻåħ¬è·¯ ä¸įä¸Ģæł·
éĥ½éĢıåĩºèĥĮ éĿ¢çļĦåŃĹ
3 00
a d
è ³
Ġ æķ´ä½ĵ
Ġ éŁ³è´¨
ï¼Į ãĢĬ
å¥½ åĲĥ
æľī åħ³
æĿ ľ
å°± è¦ģ
è¿Ļ ä¸įæĺ¯
éĶ ĭ
çĶ¨ æĪ·
åĵ Ń
å·® å¼Ĥ
è£ ĻåŃĲ
éĹ ¹
å¼Ģ åıĳ
ä»ĸ å®¶
çĶµ åķĨ
æĹł å¥Ī
ä¸ī åįģ
æĢ§ èĥ½
æİ¥ åı£
å¼ı çļĦ
æģ ¨
æģ ĭ
æĽ´ åĬł
çļ® çļĦ
çĹ ĺ
èĲ Ħ
çļĦæĹ¶åĢĻ ä¹°çļĦ
å¦Ī çļĦ
å¯Ħ æĿ¥
ä¼ĺ ç§Ģ
åĴĮåĽ¾çīĩ ä¸Ģæł·
çĭ¬ çī¹
çĳ ŀ
èľ ľ
çŃ¾æĶ¶ äºĨ
AA AA
ç³Ł ç³ķ
ç¬Ķè®° æľ¬
èĢ½ è¯¯
éĦ Ļ
N I
Ġ åľ¨
Ġ åĸľæ¬¢
ä¸ ¹
çļĦ æľĢ
å® ı
å¥½ ä¸ľè¥¿
å¾Ī ç¡¬
åħ Ħ
æ² «
æĿ ł
å°± è¿Ļ
å°± æĸŃäºĨ
æĪĳ åıª
åĪ° å¤Ħ
å¼ ¯
å¼ ±
è´¨éĩı è¿ĺè¡Į
æ²¡æľī åıĳç¥¨
åĴĮ æĪĳ
çº ¤
ï¼Ł ï¼ģ
éĴ ĵ
ç¬¬ ä¸Ģä¸ª
æĦŁè§ī è¿ĺä¸įéĶĻ
åľ° åĮº
æ³ķ åĽ½
Ġè´¨éĩı å¾Īå·®
éĩį çĤ¹
éª ¨
åįģ äºĮ
æģ °
ä¸ĢçĤ¹ ä¹Łä¸į
ä»¥åĲİ ä¸įä¼ļ
æ¯Ľ å·¾
ä¸ĵ éĹ¨
åħħ åĪĨ
åŀĭ çļĦ
çĽ® çļĦ
è§Ĩ é¢ĳ
æīĵå¼Ģ ä¸Ģçľĭ
æľįåĬ¡æĢģåº¦ å¥½
å°±ä¸į è¯´äºĨ
æīĭæĦŁ å¾Īå¥½
æ¹ ¾
å¡ĳæĸĻ è¢ĭ
Ġè¯´ å¥½çļĦ
åŁ¹ åħ»
çªģ çĦ¶
åħ³éĶ® æĺ¯
ç»¼ åĲĪ
ç °
Ġ å°ºçłģ
çļĦ æĥħ
çļĦ ç¡®
ä¸į åĩĨ
äºĨ ä¸¤
å® ĩ
æľī çĶ¨
æī ¬
å¿ §
åľ¨ è¿ĻéĩĮ
ä¸Ĭ èº«
è´¨éĩı éĿŀå¸¸å¥½
è¦ Ĩ
å°ı æľĭåıĭ
æĦı è§ģ
åĢ į
ä¸Ń æĸĩ
æĭ §
æ° ı
æĶ¶ äºĨ
çľŁ çĽ¸
æĥ³ æĥ³
éĴ ī
è¡Į äºĨ
çł Ĥ
éĹ® äºĨ
æīĵ ä¸į
èĬ ¬
Ġè´¨éĩı è¿ĺåı¯ä»¥
éĩį éĩı
é¢ľèī² ä¹Ł
èĢĮä¸Ķ è¿ĺ
éĽ ¾
éĢŁåº¦ æħ¢
åŃ©åŃĲ å¾Īåĸľæ¬¢
Ġå¾Ī æ»¡æĦı
æ´Ĺ å®Į
ç¡® å®ļ
äºĶ åĪĨ
å¸® æĪĳ
åį° è±¡
éľĢ æ±Ĥ
ä¸¥ å®ŀ
è½» æĿ¾
å¯Ħ è¿ĩæĿ¥
æĴ ĳ
ç¼ĸ è¾ĳ
å¨ ĥ
è¦ģæ±Ĥ éĢĢè´§
åĲ¦ åĪĻ
çĶŁäº§ æĹ¥æľŁ
å¿ĺ è®°
éĿŀå¸¸çļĦ æ£Ĵ
èŃ ¦
è¤ª èī²
èĳ¡ èĲĦ
éĦĻ è§Ĩ
3 7
g t
Ġ åĮħ
ä¸Ģ å¹´
ä¸Ģ æ®µæĹ¶éĹ´
å¥½ åĩłå¤©
æī ĩ
æ²¡ åķ¥
ä¸ª å°ıæĹ¶
å·® çĤ¹
çĤ ¼
ç»Ļ å¥½è¯Ħ
ç»Ļ å®Ŀå®Ŀ
å¾Ĺ äºĨ
çº ·
éĿ¢ å¯¹
æĥ³ è¦ģ
æ»¡ åĪĨ
æ»¡ è¶³
ä¸įæĺ¯ ä¸ĢèĪ¬çļĦ
å¯¹ ä¸įèµ·
åī Ĥ
åī ĳ
å± ĭ
çĥ ¤
ç« ¹
åĨħ åŃĺ
æĪĲ çļĦ
æľº æ¢°
éļ Ĩ
ï¼ī ãĢĤ
æ¶ µ
æ¸ħ æ´Ĺ
åģļå·¥ å¾Ī
éļ¾ éĹ»
è¯ķ ç©¿
æĭ¿ æĿ¥
è¿Ļä¹Ī è´µ
çĪ± å¥½
çĹ Ĵ
è§Ĥ çĤ¹
Ġè¿Ļ æĺ¯
è§ģ åĪ°
åºĶè¯¥ ä¸įéĶĻ
åħ¥ æīĭ
å½¢ è±¡
èµ° è·¯
Ġä¸ĢèĪ¬ åĲ§
è¶ħçº§ æħ¢
åĪĽ æĸ°
è§Ħ èĮĥ
ç¤¾ä¼ļ çļĦ
ç§¯ æŀģ
æī¿ è¯º
èĮĥ åĽ´
æĲŃ çĲĨ
åıĳéĶĻ è´§
é½Ĳ åħ¨
çĽĹçīĪ çļĦ
çŀ ¬
é¥® åĨ°
RR RR
/ /
6 6
c m
Ġ å®Įåħ¨
Ġ éĢģçļĦ
å¤ ®
åı ¹
ä¸Ģ å¼Ģå§ĭ
å¥½ å°ı
å¾Ī åĲĪèº«
éĢ Ĳ
åħ ¼
å°± ä¸Ģä¸ª
éĥ½ å¥½
åĩ ¹
æ¯ ģ
å¯ Ĵ
è£ħ é¥°
å®ŀ è·µ
æĶ¶ å½ķ
éĿ¢ åīį
å¼Ģ åħ³
çĶŁ åŃĺ
æľīçĤ¹ å¤±æľĽ
éŀĭ åŀ«
èĢģ äºº
äºĭ ä»¶
åĬ¨ çļĦ
åıĪ æĺ¯
ç¾İ æľ¯
æ¯Ķè¾ĥ æ»¡æĦı
ç¨ ¿
æķĪ çİĩ
çģ Ń
ç¼ ĵ
éķ¿ çļĦ
å¸¦ çļĦ
æĽ´ å¤ļ
é© ±
è°ĥ èĬĤ
åĤ ³
è¿Ļæ¬¡ è´Ńçī©
åĪ«äºº ä¹°çļĦ
æĩĴå¾Ĺ æį¢äºĨ
åįĥä¸ĩ ä¸įè¦ģä¹°
ĠçĶ¨ çĿĢ
äººçĶŁ çļĦ
æĳ¸ èµ·æĿ¥
Ġå¸® æľĭåıĭä¹°çļĦ
åĲĮäºĭ ä¹°çļĦ
æĸ½ å·¥
è¯·æ³¨æĦıåķĨåĵģåĮħè£ħè¯·æ³¨æĦıåķĨåĵģåĮħè£ħè¯·æ³¨æĦıåķĨåĵģåĮħè£ħè¯·æ³¨æĦıåķĨåĵģåĮħè£ħè¯·æ³¨æĦıåķĨåĵģåĮħè£ħè¯·æ³¨æĦıåķĨåĵģåĮħè£ħè¯·æ³¨æĦıåķĨåĵģåĮħè£ħè¯·æ³¨æĦıåķĨåĵģåĮħè£ħ è¯·æ³¨æĦıåķĨåĵģåĮħè£ħè¯·æ³¨æĦıåķĨåĵģåĮħè£ħè¯·æ³¨æĦıåķĨåĵģåĮħè£ħè¯·æ³¨æĦıåķĨåĵģåĮħè£ħè¯·æ³¨æĦıåķĨåĵģåĮħè£ħè¯·æ³¨æĦıåķĨåĵģåĮħè£ħè¯·æ³¨æĦıåķĨåĵģåĮħè£ħè¯·æ³¨æĦıåķĨåĵģåĮħè£ħ
ä¼ĳ éĹ²
æĨ ¾
o u
Ġ è¿ĺæĺ¯
ä¸į ä¹°
ä¹ ı
å¾ ª
æĺ¯ åģĩè´§
è´ ¯
å° ¾
åĪ ĺ
æľī éľĢè¦ģ
éĢ Ļ
æĿ ¨
å°± åľ¨
å¸ Ĳ
å¸ Ń
åĩ Ń
è¯´ æĪĳ
åİ ĺ
åĲİ éĿ¢çļĦ
å¹ ¼
èĪ ¹
åĴĮ çħ§çīĩ
æĭ Ķ
çľŁ åģĩ
æ¯Ķ å®ŀä½ĵåºĹ
ç©¿ ä¸įäºĨ
çĶµ äºĨ
æŃ£ æĺ¯
æŃ£ åĲĪéĢĤ
ï¼ģï¼ģï¼ģï¼ģ ï¼ģï¼ģï¼ģ
æľĢ å¤ļ
æīĵ æĬĺ
åĬĽ çļĦ
éĺ Ĳ
æİī æ¼Ĩ
æģ ¼
è¿Ļæł· äºĨ
éĥ½ä¸į ä¸Ģæł·
çľŁçļĦ å¾Ī
å¸ĮæľĽ äº¬ä¸ľ
åįĬ å¹´
çļĦä¸Ģ æ¬¾
ä½łä»¬ çļĦ
Ġå¤ª èĸĦäºĨ
æ¶Ī æģ¯
è¶ħçº§ NI
ç¬¦ åĲĪ
æĪĺ äºī
ä¹°ä¸ľè¥¿ äºĨ
å¤±è´¥ çļĦä¸Ģæ¬¡è´Ńçī©
åĪº æ¿Ģ
ä¾Ŀ çĦ¶
éģĹ æĨ¾
åĨĻå¾Ĺ å¾Īå¥½
éĿŀå¸¸çļĦæ£Ĵ è¶ħçº§NI
éĿŀå¸¸çļĦæ£Ĵè¶ħçº§NI CE
d d
l e
l i
Ġ åıĳ
Ġ ä»İ
Ġ ä»Ĭå¤©
ãĢ Į
ä¸į æ»¡
æĺ¯ æĢİä¹Ī
å® Ī
å¥½ ä¸įå¥½
åĲ ´
æľī æĹ¶
æĪĳ åİ»
æ²¡ è´§
æ²¡ å¾Ĺ
å¸ §
åŃĲ åĳ¢
å¤ª è¿ľ
è¡ ¡
æľį äºĨ
åĲİ æīį
åĮħ è£¹
ä¸ĭ è·
æĥ³ è¦ģçļĦ
æĮº å¿«
è¿Ļä¸ª éĴ±
ä»Ģä¹Ī æĹ¶åĢĻ
ä¹ĭ ä½ľ
ä¹ĭ å¤Ħ
éĢĢ åĽŀ
æľĢ å¤§çļĦ
èĦ ī
ä¸¤ æĿ¡
é«ĺ åº¦
äº§ ä¸ļ
ä¹Łä¸į èĥ½
ç¨ İ
åºĶ çĶ¨
ä»İ èĢĮ
åįĸå®¶ çļĦ
éħ ·
è´¹ åĬ²
æ¶ ©
Ġä¸ľè¥¿ æĶ¶åĪ°äºĨ
ä»¶ è¡£æľį
Ġå¾Ī ä¸ĢèĪ¬
æıĲ ç¤º
ç®Ģ ä»ĭ
å¥³ åŃ©
æĲ ľ
å¤į æĿĤ
æĸ¯ åĴĮ
ä¸¤ä¸ª æľĪ
æ·± åĪ»
èµł éĢģ
ç¿ ¼
åĺ ¿
åĲİæĤĶ äºĨ
ä¸Ģä¸ªæľĪ äºĨ
æ£Ģ æµĭ
æİ§ åĪ¶
æĴŃ æĶ¾
å¹¸ ç¦ı
æ¤ ħ
æĤ² åī§
äº« åıĹ
ç¾½ ç»Ĵ
è²Į ä¼¼
å¾Īå¥½å¾Īä¸įéĶĻ éĿŀå¸¸çļĦæ£Ĵè¶ħçº§NICE
éĴ¢åĮĸ èĨľ
çŀ¬ éĹ´
a t
» è¾ĳ
è ķ
Ġ éĥ½
Ġ æķĪæŀľ
Ġ å¤§å°ı
Ġ åºĹå®¶
Ġ åģĩè´§
çļĦ é¢ľèī²
çļĦ æĢĿæĥ³
äº ¦
ä¸į åĢ¼å¾Ĺ
å¥½ åĲ§
æľī è¶£
éĢ »è¾ĳ
å°± å½ĵ
æĹ Ĺ
åĽ Ĭ
ä¹Ł ä¼ļ
æĢ ľ
ä»¥ ä¸ĭ
å¼ Ĺ
å®¶ åħ·
å°ı åĵ¥
å¤© ä¸ĭ
åģ ¶
ä¿ ©
ä¾ Ħ
åĸľæ¬¢ çľĭ
åŃ¦ ä¼ļ
ä»Ģä¹Ī çİ©æĦı
ä¹ĭ ä¸Ń
æĽ ¸
ä¹°äºĨ ä¸ª
æľº ä¼ļ
ä½ĵ ç³»
å¤ĸ å£³
æīĢ æľīçļĦ
éĺ ´
äºĮ æ¬¡
éķ¿ åº¦
Ġä¸ľè¥¿ ä¸ĢèĪ¬
åĪļ å¼Ģå§ĭ
æ· »
å§ Ĩ
åĬł ä¸Ĭ
è¿Ľ æŃ¥
æıĲ åįĩ
ç®Ģ éĻĭ
æĭ¿ åĽŀæĿ¥
çİ°åľ¨ çļĦ
ä¸ļ åĬ¡
åıĬ åħ¶
åģĩ äºĨ
å¥³ äºº
é»ĳ æļĹ
éĢģè´§ ä¸ĬéĹ¨
å½¢ å®¹
20 15
éĹ¨ åı£
è®¢ çļĦ
åĳ¨ åĪ°
é¦Ļ æ°´
æĬĢ å·§
çŁŃ ä¿¡
çŃĶ å¤į
è¿ĺæ²¡æľī çĶ¨
åıĤ åĬł
èģĮ åľº
é²ľ èī³
çģ° å°ĺ
ä¿¡èµĸ äº¬ä¸ľ
æ½ ľ
ç¢° åĪ°
äºı äºĨ
åıĺå½¢ äºĨ
è¤ ¶
æĳĺ è¦ģ
è¿ħ éĢŁ
å³ °
èħĶ è°ĥ
å¾Īå¥½å¾Īä¸įéĶĻéĿŀå¸¸çļĦæ£Ĵè¶ħçº§NICE å¾Īå¥½å¾Īä¸įéĶĻéĿŀå¸¸çļĦæ£Ĵè¶ħçº§NICE
3 6
4 00
ä¸į åĬ¨
ä¸į åĩºæĿ¥
ä¸Ģ å±Ĥ
è¯ ŀ
å° Ĭ
æľī æ²¡æľī
æľī æĹ¶åĢĻ
åŃ Ļ
å°± ç®Ĺ
çĶ¨ å¤Ħ
èĢ Ĺ
å¤§ ä¸Ģ
å¤ª éĩį
äºº çĲĨ
æĶ »
åĳ ĥ
è´¨éĩı è¿ĺä¸įéĶĻ
çĽ Ľ
å¿« éĢŁ
èī °
éģ ¿
éģ Ń
åĮħè£ħ å¥½
çĶŁ éĶĪ
æīĭ åĨĮ
ä¹ĭ å¤ĸ
éĢĢ åĽŀåİ»
çĲĨ å¿µ
é«ĺ ç«¯
èĩªå·± çľĭ
åĲĮ ä¸Ģ
ï¼ī ãĢĭ
åı· çļĦ
åĪļ æĶ¶åĪ°
éĽ Ħ
åģļå·¥ ç²Ĺç³Ļ
æĬĬ å®ĥ
ä¿Ŀ æ¹¿
åı£ è¢ĭ
æıĲ äº¤
ä¸ĢçĽ´ çĶ¨
åıĹ ä¸įäºĨ
è´´ çº¸
é¥ ±
ç±» çļĦ
Ġå¥½ çĶ¨
ç¤¼ æĭľ
çľĭèµ·æĿ¥ ä¸įåĥı
è¿ĳ ä»£
èĨ ı
é¢Ĩ å¯¼
åĪĽ æĦı
åĪĽ éĢł
æĬ¤ çĲĨ
å¾· åĽ½
åĢĴ éľī
æĪ´ ä¸Ĭ
éķľ çīĩ
éĴĪ å¯¹
æĮºèĪĴæľį çļĦ
;ãĢģ &
Ġ èµłåĵģ
Ġ æł·åŃĲ
Ġ åĦ¿åŃĲ
Ġ å¤§å°ıåĲĪéĢĤ
çļĦ éĤ£
ãĢ į
å° Ħ
å¾Ī æŁĶè½¯
åĲ Ľ
å°± éĻįä»·
ä¹Ł å¿«
å¤§ å¤ļ
å¤ª åĿĳäºĨ
ä¼ ½
è¯´ è¯´
çĽ Ĩ
ç»Ļ äºº
å°±æĺ¯ ç¢Ł
ä¸º åķ¥
éĢģ åĪ°äºĨ
åķĨ åĬ¡
åĪ« äººçļĦ
åĪĨ éĩı
æĦŁè§ī æľīçĤ¹
æĹł æķ°
åģļ çĶŁæĦı
åĽŀ åºĶ
çĽ´ åĪ°
ç½ ª
åŀĥåľ¾ çļĦ
æĸĩ éĽĨ
çī¹ æĦı
çī¹ ä»·
èĢģ å¦Ī
éĺ Ķ
çŃī åĪ°
æİī ä¸ĭæĿ¥
æĸ° é¢ĸ
çķ ª
æ¶ ¨
ç½ĳ é¡µ
äºĨä¸Ģ äºĽ
æķĻ è®Ń
ä»¥åĲİ çĶ¨
éľ ľ
è¿ĺæ²¡ åĪ°
å¹¶ ä¸į
åĲĦ ä¸ª
çĥŃ æ°´
æĶ¯ æŀ¶
çŁŃ äºĨ
ç£¨ èĬ±
æ¨ ª
é¡µ éĿ¢
åı° æ¹¾
æıĴ åĽ¾
ä»¥åīį ä¹°çļĦ
æĪ´ çĿĢ
ç®ĢçĽ´ æĺ¯
æ³¡ æ²«
åįļ å£«
çļĦå¿ĥ çģµ
æ¬§ æ´²
èĿ ¶
æŃª çļĦ
åĲĲ æ§½
åĽ¤ è´§
è¿ĺå¥½å¤Łæ¸ħæĻ°çļĦè¿ĺå¥½å¤Łæ¸ħæĻ°çļĦ è¿ĺå¥½å¤Łæ¸ħæĻ°çļĦè¿ĺå¥½å¤Łæ¸ħæĻ°çļĦ
çĶŁæĹ¥ ç¤¼çī©
é¥¼ å¹²
åŃ¤ çĭ¬
bu ll
a c
o f
r e
å ļ
é ĸ
î Ĳ
Ġ è¶ħ
Ġ å°ºå¯¸
ï¼Į *
çļĦ éĥ½
çļĦ æĸ¹æ³ķ
ä¸į åıĬ
ä¸į è¿Ľåİ»
å¾ Ħ
ä¸Ģ è¯»
å¾Ī èĦı
æ² Ī
å°± çŁ¥éģĵ
æ²¡ ç©¿
è¿Ļ éĥ¨
å¤ª æ¬¡äºĨ
ä¼ ¸
åİ ħ
åĲİ åıĳçİ°
ç»Ļ çļĦ
å¤ļ è¯´
çº ½
çİ «
ä¸Ń å¿ĥ
å°±æĺ¯ åĿıçļĦ
å¸¸ è§ģ
ä¹°çļĦ ä¸ľè¥¿
åĲĪ èĦļ
å± İ
çŃ ·
åĪĨ äº«
æ¸ Ĭ
å¹´ è½»
è¿ĺæĺ¯ å¾Ī
å®¢æľį èģĶç³»
ä¹°äºĨ ä¸Ģä¸ª
çĪ ¹
ï¼ī ãĢĲ
çĽ¸ æ¯Ķ
çĽ¸ å¯¹
äº® åº¦
åı· ä¸ĭåįķ
åģļå·¥ ç²¾èĩ´
åĢ¼å¾Ĺ æĶ¶èĹı
æľĭåıĭ ä»¬
è¯ķ äºĨä¸Ģä¸ĭ
ç¢ ³
æķ´ æķ´
Ġä¸į åĴĭ
çĸ ¯
æĿ¡ ä»¶
Ġå¾Īå¥½ çľĭ
20 14
å¸® å¿Ļ
çľŁå¿ĥ ä¸įéĶĻ
ç¦ ģ
è¿Ļæĺ¯ æĪĳ
Ġå®Ŀè´Ŀ æĶ¶åĪ°
æĬĢ èĥ½
åŀ« åŃĲ
æ¨¡ ç³Ĭ
ä¹¦çļĦ åĨħå®¹
åĨįä¹Łä¸į ä¼ļ
é£Ł åĵģ
æĺİæĺİ æĺ¯
åıĳéĶĻ è´§äºĨ
éĵ¶ è¡Į
æµªè´¹ éĴ±
ç»Ļä¸ª å¥½è¯Ħ
ç½ĳç»ľ æĸĩåŃ¦
çŀ İ
è¿ĺæĺ¯åı¯ä»¥ çļĦ
ä¸Ľ ä¹¦
éĿ¢æľī ç£¨èĬ±
å°±æĺ¯ç¢Ł éĿ¢æľīç£¨èĬ±
3 2
3 60
Ġ çľŁæĺ¯
ï¼ į
çļĦ åĮħè£ħ
çļĦ ä»·æł¼
çļĦ çĶŁæ´»
è´ ¦
ç» £
çľ ī
çľ ł
æĪĳ å·²ç»ı
ä¹° è¿Ļä¸ª
æĿ¥ ä¹°
å¤ª éĺ³
çľĭ å®Į
åı¯ è§ģ
åı¯ æĢľ
å¹ ½
é¢ ĩ
æĬ ĵ
ä¿ ±
åŃ¦ çļĦ
éĴ ©
æ´ ª
ä»ĸ äººçļĦ
æīĭ ä¸Ĭ
åĽ¾ åĥı
æīį æĶ¶åĪ°è´§
åģļ å¥½
åĽŀ å¿Ĩ
çī©æµģ éĢŁåº¦
ç½ ¢
åīį åĲİ
åįķ åı·
éĴ± çļĦ
èĢģ çĪ¸
éĺ µ
ç¾İ ä¸½
åįģ åĩł
èº ģ
æĢ» ç»ĵ
æľĭåıĭ è¯´
æľĭåıĭ å¾Īåĸľæ¬¢
å¤Ħ ä¸ĸ
è§Ĥ å¯Ł
çİ© äºĨ
è®¡ ç®Ĺ
åĮĸ å¦Ĩ
å¡ «
æī¾ äºĨ
å¼º å¤§
è®¾ å¤ĩ
å¾Īæ»¡æĦı çļĦä¸Ģæ¬¡è´Ńçī©
å®Įåħ¨ æĺ¯
ä¸ŃåĽ½ äºº
åľ¨äº¬ä¸ľ è´Ńçī©
æĴ ŀ
èµł éĢģçļĦ
æĮĩ çĶ²
æīĵå¼Ģ åĮħè£ħ
å© ´
åĭ º
è¾¾ åĪ°
æľ¬æĿ¥ æĥ³
è§Ħ å®ļ
è§Ħ åĪĴ
Ġæ²¡ çĶ¨
ä½ı äºĨ
åħħçĶµ åĻ¨
æ±ī è¯Ń
æĸĩåĮĸ çļĦ
æĲŃ éħį
æł·å¼ı ä¸įéĶĻ
çĪ¶ äº²
Ġè¯´ å®ŀè¯Ŀ
æĥ³è±¡ä¸ŃçļĦ å¥½
åĮħè£ħå¾Ī æĥ¨
æīĢè°ĵ çļĦ
åĽ¤ çĿĢ
éĥ½åĿıäºĨä»¥åĲİè¯·æ³¨æĦıäº§åĵģåĮħè£ħåĪ«ç¨ĢéĩĮç³Ĭæ¶ĤçļĦåĮħäºĨéĥ½åĿıäºĨä»¥åĲİè¯·æ³¨æĦıäº§åĵģåĮħè£ħåĪ«ç¨ĢéĩĮç³Ĭæ¶ĤçļĦåĮħäºĨ éĥ½åĿıäºĨä»¥åĲİè¯·æ³¨æĦıäº§åĵģåĮħè£ħåĪ«ç¨ĢéĩĮç³Ĭæ¶ĤçļĦåĮħäºĨéĥ½åĿıäºĨä»¥åĲİè¯·æ³¨æĦıäº§åĵģåĮħè£ħåĪ«ç¨ĢéĩĮç³Ĭæ¶ĤçļĦåĮħäºĨ
æ¬£ èµı
æ¶ī åıĬ
åĮ¹ éħį
åħĦ å¼Ł
çľĭèµ·æĿ¥ä¸įåĥı æŃ£çīĪ
å°±æĺ¯ç¢ŁéĿ¢æľīç£¨èĬ± è¿ĺåı¯ä»¥åĲ§
o k
è ©
è Ł
Ġ çī¹åĪ«
ä¸į æİī
ä¸į ç´§
ä¸Ģ å®¶
å¾Ī åİļå®ŀ
æľī èī²å·®
æĪĳ ä¹°
æĪĳ è¿ĺæĺ¯
çĶ¨ å¿ĥ
ä¹Ł æ¯Ķè¾ĥ
å·® äºĨ
åľ¨ èº«ä¸Ĭ
è´¨ åľ°
åİ ¨
å¿« æį·
åĴĮ å®ŀçī©
ä¸ľè¥¿ å¾Īå¥½
ä¸Ń å¤®
éĿŀå¸¸ ç»ĻåĬĽ
æĮº åĸľæ¬¢
äº¬ä¸ľ äºĨ
ä¸įå¥½ åĲĥ
è½ ¨
æµģ è¡Į
æµģ çķħ
ç² ¹
æĦŁè§ī æĺ¯
åħ¶ æ¬¡
æĪĲ æľ¬
æĪĲ æŀľ
éĢĤ ä¸Ń
åŀĥåľ¾ æ¡¶
ä»·æł¼ è¿ĺ
æį¢ ä¸ª
çŃī çĿĢ
é¢ľèī² å¾ĪæŃ£
èģ ª
é» Ľ
åĽ¾çīĩ ä¸Ĭ
å¸¦ åŃĲ
è¢« åĿĳäºĨ
ä¸» åĬ¨
å§ ¿
æĢ» çļĦ
æĤ £
éļ¾ åĲĥ
èĢĥ çĤ¹
çĪ± çļĦ
ä¹Łå¾Ī ç»ĻåĬĽ
æķ° éĩı
Ġä¸į åĢ¼
å¹¶ æ²¡æľī
è®¾ ç½®
åİļ åº¦
çļĦä¸Ģ æľ¬ä¹¦
æ® Ĭ
åĪ¶ éĢł
åĲ¬ è¯´
éĩĳ çļĦ
çĵ ·
åĺ ī
ä¼ĺ çĤ¹
éªĮ è´§
ä»ĭç»į äºĨ
åħ¬åı¸ çļĦ
æ¼ı æ°Ķ
æĻļ äºĨ
ä½ľèĢħ çļĦ
æĺİæĺ¾ çļĦ
èĵĿ çīĻ
æī¿ è®¤
æ·¡ æ·¡
æµĭ è¯ķ
é¾ Ł
è¸ ª
åľĨ éĢļ
éĴ» çŁ³
æĲŀæ´»åĬ¨ çļĦæĹ¶åĢĻä¹°çļĦ
å·®å·®å·®å·®å·®å·®å·®å·®å·®å·®å·®å·®å·®å·®å·®å·® å·®å·®å·®å·®å·®å·®å·®å·®å·®å·®å·®å·®å·®å·®å·®å·®
ãĢĭï¼Ī ï¼Ī
åĳĪ çİ°
O K
e d
i c
â ĳ
æ ª
Ġ åĪ°è´§
Ġ åĵİ
Ġ è¢ľåŃĲ
çļĦ éŀĭåŃĲ
çļĦ åŁºç¡Ģ
çļĦ æĸ¹å¼ı
äº ¡
ä¸į æ¸ħæ¥ļ
å¤ ¸
ä¸Ģ çĶŁ
å¾Ī éĢĤåĲĪ
å¾Ī ç»ĵå®ŀ
è¿ĺ éĢģ
æĪĳ åıĪ
è¿Ļ å¥Ĺ
åį §
ä¹Ł è¦ģ
æĿ¥ åĽŀ
å¤§ äºº
åıĳ åĪ°
çĤ º
çĤ Ĵ
èµ Ķ
æ²¡æľī å¼Ĥåĳ³
æŀ ª
è£ħ å¸§
å°±æĺ¯ ä¸į
å°±æĺ¯ ä¸įçŁ¥éģĵ
æĶ¶ åħ¥
çľŁ é¢ĺ
æ¯Ķ å¦Ĥ
ä¿ Ħ
åĿ ł
ä¸įæĺ¯ å¾Īæ»¡æĦı
ä»ĸ äºº
æŃ£ ç¡®
ä»Ģä¹Ī ä¸ľè¥¿
ä¸ĢèĪ¬ äºĨ
å¿«éĢĴ çļĦ
æĢİä¹Ī åĬŀ
ä½ĵ ä¼ļ
å½ĵ ä»£
é«ĺ çŃī
é«ĺ åħ´
æľįåĬ¡ å¾Īå¥½
å·² æĶ¶åĪ°
çĽ¸ åĲĮ
ä½¿ äºº
éĽ »
æŁ Ħ
åħ¬ éĩĮ
çº¿ çļĦ
Ġå¾Ī å·®
åİŁ æĿ¥çļĦ
å¤Ł äºĨ
éĤ£ä¹Ī è´µ
æķ° åŃĹ
éĢģè´§ éĢŁåº¦
èĽ Ľ
æĴ °
æ¢ ³
åĪ© çĶ¨
Ġå®Ŀè´Ŀ ä¸įéĶĻ
æĶ¹ åĸĦ
åħĭ æĸ¯
ç©¿ä¸Ĭ å¾ĪèĪĴæľį
è§Ħ åĪĻ
å¡ĳæĸĻ çļĦ
å½ķ éŁ³
çĶ· äºº
è¿½ åĬł
ä¿Ŀæ¸© æķĪæŀľ
èĦ¸ ä¸Ĭ
åħīé¡¾ çļĦ
ç»ĺ çĶ»
åľ¨ç½ĳä¸Ĭ ä¹°
åĬ£ è´¨
å¾Īå¥½å¾Īå¥½å¾Īå¥½å¾Īå¥½ å¾Īå¥½å¾Īå¥½å¾Īå¥½å¾Īå¥½
ãĢĢãĢĢãĢĢãĢĢãĢĢãĢĢãĢĢãĢĢãĢĢãĢĢãĢĢãĢĢãĢĢãĢĢãĢĢãĢĢ ãĢĢãĢĢãĢĢãĢĢãĢĢãĢĢãĢĢãĢĢãĢĢãĢĢãĢĢãĢĢãĢĢãĢĢãĢĢãĢĢ
æĹłèī¯ åķĨå®¶
åİĺ ç±³
4 5
9 9
n åĽĽ
Ġ æīĭæľº
Ġ å£°éŁ³
Ġ é¦ĸåħĪ
ĺ èĽĽ
çļĦ åĲ§
çļĦ å£°éŁ³
çļĦ æĻºæħ§
ä¸į æĪĲ
ä¸į ä¸Ģèĩ´
ä¹ ĥ
è¿ İ
æĺ¯ åı¯ä»¥
ä¸Ģ çĵ¶
æľī ä¸ĢçĤ¹
æľī çĳķçĸµ
ç» ©
æĪĳ çľĭ
æĪĳ çİ°åľ¨
éĥ½ è¢«
å¤ª è¿ĩ
åĩ Ŀ
åıĳ ç»ĻæĪĳ
è´¨éĩı æĮºå¥½çļĦ
æķ ĳ
èĥ½ æºĲ
æŀ ¯
åĮħ çļĦ
åĢ ¾
ä¸º ä½ķ
åĿ Ľ
ç§ ģ
å¯¹ æĪĳ
çĶŁ åĬ¨
æīĭ æĮĩ
æ¸ ¯
ä¸¤ ä»¶
çī©æµģ å¤ªæħ¢äºĨ
ç« ŀ
ä¿¡ çĶ¨
æĸ° é²ľ
é£ ĺ
ç»Ĩ èħ»
Ġä¸ľè¥¿ è¿ĺåı¯ä»¥
è¢« äºº
åĨĻ çĿĢ
ä¸» æĿ¿
.... .
èį ¡
çłģ åŃĲ
çĹ ĩ
æ¯Ľ æ¯Ľ
å¸ĮæľĽ èĩªå·±
å¤§å®¶ éĥ½
åıĺ æĪĲäºĨ
åıį å¤į
å¡ Į
ä¸ĭæ¬¡ åĨįæĿ¥
ç»ĻåĬĽ äºĨ
Ġè¡£æľį ä¸įéĶĻ
ä»Ĭ å¹´
å¤į ä¹ł
åĪ¶ åº¦
å¥¹ çļĦ
å¯Ħ åĽŀåİ»
åķ¦ åķ¦
åıªæľī ä¸Ģä¸ª
æŁ¥ è¯¢
äº¤ æµģ
è½¬ æį¢
çģµ æ´»
åı¥ è¯Ŀ
èľ ĺèĽĽ
çĶ³è¯· æį¢è´§
æī¿ æĭħ
éĺ³ åħī
ĠéĢģ ç»Ļ
é¡¹ çĽ®
çľĭä¸į æĩĤ
çıį èĹı
å½¼ å¾Ĺ
é ³
Ġ ä¾¿å®ľ
Ġ å®īè£ħ
çļĦ åĲį
çļĦ éĤ£ä¸ª
ä¸į å¼Ģ
ä¸į è§ģ
ä¸į è´Łè´£ä»»
å¥ Ķ
æĺ¯ åĽłä¸º
ä¸Ģ å¤©å°±
ä¸Ģ æ®µ
æľī çĿĢ
æľī å¸®åĬ©
åħ µ
è¿ĺ ä¸įçŁ¥éģĵ
æĪĳ ä¹Łä¸į
æ²¡ ç»Ļ
æ²¡ äºĭ
çĶ¨ çĶ¨
æĿ¥ å¾Ĺ
å¤§ çĪ±
éĥ½ ä¸įæĺ¯
å¤ª å¤ª
å¤ª åŀĥåľ¾
ä¸Ĭ è¡£
çľĭ è¿ĩ
ä¹¦ è¯Ħ
æĹ¶ è£ħ
è¿ĩ åİ»äºĨ
ä¸ľè¥¿ äºĨ
å°±æĺ¯ ä»·æł¼
æĭ Ł
éĢģ è¿ĩæĿ¥
æ¯Ķ è¶ħå¸Ĥ
ç§ ¦
åŃ¦ éĹ®
äº¬ä¸ľ è´Ńçī©
æĸ¹ éĿ¢çļĦ
åİ» çļĦ
å¿«éĢĴ è´¹
å¿«éĢĴ éĢŁåº¦
çī©æµģ ä¹Łå¾Īå¿«
æľº åŃĲ
çī¹ èī²
å¤ĸ å½¢
æ°Ķ æĦ¤
æ¯Ķè¾ĥ å¥½
æİī çļĦ
æ³¨ éĩĬ
ç»Ĩ å¿ĥ
æ· ĭ
éĵ ĥ
æ¡ ĥ
éĥ½ä¸į ä¼ļ
åħ³ æľº
ç®Ģ æ´ģ
æĭ¿ åĪ°è´§
çļ® åŃĲ
è¿Ļä¹Ī åı¯çĪ±çļĦ
åĮĸ çļĦ
å»º ç«ĭ
æĿ¥çļĦ æĹ¶åĢĻ
ä¸ĵ åįĸ
èħ Ĳ
20 16
é£İ æĻ¯
?? ?
å¿ħ è¦ģ
åģı æĸ¹
è´´ åĲĪ
è®² çļĦ
ç£ ķ
Ġå¥½ åĲĥ
çľĭçĿĢ ä¸įéĶĻ
æĬĢ æ³ķ
å±ħçĦ¶ æĺ¯
æĭį çħ§
åĳĬ çŁ¥
ç¼º éĻ·
æĺ¯ä¸Ģ æľ¬
æį® è¯´
ĠåĪļ æĶ¶åĪ°
æŀ¶ åŃĲ
å®ŀä½ĵåºĹ ä¹°çļĦ
æ²¡ä»Ģä¹Ī çĶ¨
æ²¡æ³ķ çĶ¨
åĨ² çĿĢ
åħį è´¹
èĽĭ ç³ķ
ä¹Łèĥ½ åģļåĩº
çĩ ¥
åª Ĵ
0000 0000
æĮºå¥½å°±æĺ¯è´§çī©åĮħè£ħå¤ªå·®åĬ²æĮºå¥½å°±æĺ¯è´§çī©åĮħè£ħå¤ªå·®åĬ²æĮºå¥½å°±æĺ¯è´§çī©åĮħè£ħå¤ªå·®åĬ²æĮºå¥½å°±æĺ¯è´§çī©åĮħè£ħå¤ªå·®åĬ² æĮºå¥½å°±æĺ¯è´§çī©åĮħè£ħå¤ªå·®åĬ²æĮºå¥½å°±æĺ¯è´§çī©åĮħè£ħå¤ªå·®åĬ²æĮºå¥½å°±æĺ¯è´§çī©åĮħè£ħå¤ªå·®åĬ²æĮºå¥½å°±æĺ¯è´§çī©åĮħè£ħå¤ªå·®åĬ²
å¼Ģèĥ¶ äºĨ
æĢİä¹Īèĥ½ è¿Ļæł·
é¥®åĨ° å®¤
çŃ· åŃĲ
åĽ¤çĿĢ ä»¥åĲİçĶ¨
å¸ĮæľĽèĩªå·± ä¹Łèĥ½åģļåĩº
è¿Ļä¹Īåı¯çĪ±çļĦ ä¸ľä¸ľ
å¸ĮæľĽèĩªå·±ä¹Łèĥ½åģļåĩº è¿Ļä¹Īåı¯çĪ±çļĦä¸ľä¸ľ
0 3
S B
j j
r squo
Ġ éĿŀå¸¸æ»¡æĦı
Ġ çľĭèµ·æĿ¥
çļĦ åıĳå±ķ
çļĦ éŁ³ä¹Ĳ
åı ł
ä¸Ģ ä¸Ģ
å¾Ī èµŀ
æľī çł´æįŁ
è¿ĺ ä¸įèĥ½
ä½ ©
ä¹° å¤§äºĨ
ä¹° éĶĻäºĨ
å·® ä»·
åľ¨ æĪĳ
éĥ½ ä¸įçŁ¥éģĵ
éĥ½ ä¸įèĥ½
è® ¿
ä¸Ĭ ä¸ĭ
è¯´ æ³ķ
å¤ļ ç§į
æ³ °
ä¼ļ åĳĺ
å¦ ¥
è¿Ļä¸ª åĵģçīĮ
è¡Į ä¸ļ
ä½ł æĺ¯
åĲĪ éĽĨ
æīĭ éĩĮ
åĢ¼ çļĦ
æľīçĤ¹ èĸĦ
æľº ç®±
ä¸İ å®ŀçī©
èĢģ åģıæĸ¹
éħ ±
æĢģåº¦ å¾Īå¥½
åĢ¼å¾Ĺ ä¹°
å§ ĳ
è¡¨ å¸¦
ä¹Łå¾Ī èĪĴæľį
è¿ĺæľī å°±æĺ¯
é»ĳ çļĦ
èĲ Į
å¹¶ ä¸įæĺ¯
ä¸įåĢ¼ è¿Ļä¸ªä»·æł¼
å¤§å°ı ä¹Ł
æĥ³è±¡ çļĦå¥½
å®Ŀå®Ŀ å¾Īåĸľæ¬¢
èİ ±
è´´ å¿ĥ
è®² è¿°
å®ŀçĶ¨ æĢ§
Ġä¹¦ ä¸įéĶĻ
ä¼ĺ éĽħ
å¥ĩ æĢª
Ġåŀĥåľ¾ ä¸ľè¥¿
èĦı çļĦ
å¹¿ å¤§
19 8
åı¦ ä¸Ģä¸ª
åĲ¸ å¼ķ
æĢ»ä½ĵ æĿ¥è¯´
çĮ ª
çº¯ æ£ī
äº¬ä¸ľçļĦ æľįåĬ¡
æķĻèĤ² æĦıä¹ī
åĲ¯ è¶ħ
å¾Īæľī åĲ¯åıĳ
éŃ Ĥ
éŃ ħ
æĦī å¿«çļĦ
æŃ¦ ä¾ł
èµ¶ ç´§
åĬłæ²¹ åĬłæ²¹
æ¢ģ åĲ¯è¶ħ
Â·Â· Â·Â·
æ®ĭ æ¬¡åĵģ
ä»ĵ åºĵ
ä»į çĦ¶
cc cc
è®¨ è®º
æ»ĭ æ¶¦
' '
n T
â Ĭ
ç ¶
Ġ è·ŁåĽ¾çīĩ
çļĦ æĪĳ
çļĦ è®¾è®¡
ä¸į å°ıå¿ĥ
ä» °
è´ ª
æľī å¤ļ
æľī ç§į
æľī å¾ħ
ç» ķ
è¿ĺ æĮº
å°± è¿Ļä¹Ī
æī ©
æī ģ
è¿Ļ ä¸ľè¥¿
ä¸ª ç§¯åĪĨ
çĶ¨ è¿ĩçļĦ
ä¹Ł å°±æĺ¯
åľ¨ æŃ¤
è´¨ çļĦ
è´¨ æľŁ
åĩ ¸
è¡ į
åıĳ è¡Į
åıĳ çļĦæĺ¯
æĥ ĳ
è¦ģ ä¸į
å°ı åŃ¦
æĮ ¯
çº ²
è¾ Ī
å¸¸ çĶ¨
æĬ µ
æĬ Ľ
ä»ĸ çļĦä¹¦
æīį ç©¿
æĦŁè§ī åĥı
åĨį æĿ¥çļĦ
æĻ ĭ
æĢİä¹Ī çĶ¨
åŀĥåľ¾ è´§
æ± ģ
éļ Ļ
å¤ĸ è¡¨
éĥ ĳ
ç²¾ éĢī
åŃĹ ä½ĵ
æĥħ æĦŁ
æ£ ®
åħ¬ ä¸»
ä¿Ŀ è´¨æľŁ
èĬ± èī²
éħį åĲĪ
è¾¹ ç¼ĺ
çĻ½ çļĦ
è¿ĺæľī åŃĹæķ°
Ġè¿Ļ æĺ¯æĪĳ
çĸ ¾
å¹¶ éĿŀ
å¼º è°ĥ
æŀģ åħ·
è·¯ ä¸Ĭ
ä¸ŃåĽ½ çļĦ
æĸ¯ åĿ¦
è®° å¾Ĺ
å¦Ĥæŀľ æĺ¯
æĪĸ è®¸
åĤ ¨
ä»ĭç»į çļĦ
ä»ĺ äºĨ
ç«ŁçĦ¶ æĺ¯
èĲ¥ åħ»
éĩįè¦ģ çļĦ
çĭ¬ ç«ĭ
æ²» çĸĹ
ä¸ĥ åħ«
åħħçĶµ ä¹¦ç±į
é£Ł çī©
æĽ¾ ç»ı
æī¹ åĪ¤
å¿ĺ äºĨ
æĳĦ åĥı
Ġè¿ĺå¥½ åĲ§
å´ ©
èµļ ä¸ªç§¯åĪĨ
æĭĴ æĶ¶
æĦīå¿« çļĦä¸Ģæ¬¡è´Ńçī©
ç»³ åŃĲ
éĿŀå¸¸æ»¡æĦıéĿŀå¸¸æ»¡æĦıéĿŀå¸¸æ»¡æĦıéĿŀå¸¸æ»¡æĦıéĿŀå¸¸æ»¡æĦıéĿŀå¸¸æ»¡æĦıéĿŀå¸¸æ»¡æĦıéĿŀå¸¸æ»¡æĦı éĿŀå¸¸æ»¡æĦıéĿŀå¸¸æ»¡æĦıéĿŀå¸¸æ»¡æĦıéĿŀå¸¸æ»¡æĦıéĿŀå¸¸æ»¡æĦıéĿŀå¸¸æ»¡æĦıéĿŀå¸¸æ»¡æĦıéĿŀå¸¸æ»¡æĦı
ä¸Ĭå½ĵåıĹ éªĹ
åıĻ è¿°
ä¸ĭè· ª
èģĮåľº åħħçĶµä¹¦ç±į
åĳĥ åĳĥ
æĢİä¹Īèĥ½è¿Ļæł· åŃĲåĳ¢
âĬ Ļ
è¿ĺæľīåŃĹæķ° éĻĲåĪ¶
èµļä¸ªç§¯åĪĨ è¿ĺæľīåŃĹæķ°éĻĲåĪ¶
a g
m m
¹ æŀľ
Ġ æīĭ
Ġ ä»¥åīį
Ġ åĳµåĳµ
çļĦ æĥħåĨµ
ä¸į äº®
ä¸į æ¸ħ
æĺ Į
æĺ¯ ä¸ŃåĽ½
è´ «
å¥½ çĤ¹
å¥½ æŀģäºĨ
æľī åĪĴçĹķ
æľī æĶ¶èİ·
åŃ ¸
æĪĳ å¯¹
ä¹° å®Į
çĶ¨ å®Į
å¤§ éĥ¨åĪĨ
å¤§ åĵģçīĮ
å¼ ĺ
å¤ª éķ¿
åĩ ¯
è¦ģ çĶ¨
åĲİ è·Ł
å¯ ¨
ç»Ļ å®¢æľį
å¾Ĺ èµ·
çİ Ħ
è¿ĩ å¾Ĺ
éģ ®
ä¸Ń åįĪ
åŃ¦ éĻ¢
åĩº éĹ®é¢ĺ
åĩº éĹ¨
äº¬ è±Ĩ
éĤ£ è¾¹
çĶµ è·¯
åī ²
æį ķ
åĪĨ åĪ«
æīį æĿ¥è¯Ħä»·
æı Ń
çī©æµģ å¤ªæħ¢
èĥ Ĩ
åįĸå®¶ æľįåĬ¡æĢģåº¦
èº« ä»½
éĢļ ä¿Ĺ
è± ª
åĢ¼å¾Ĺ ä¸Ģçľĭ
åŃ©åŃĲ åĸľæ¬¢
ä¿Ŀ ä¿®
åħī ä¸´
èĭ ¹æŀľ
æ¯Ľ çĹħ
ç¢ į
å¤Ł å¤§
åıĹ åĪ°
æ´Ĺ è¿ĩ
åºķ åº§
é»ĳ äºĨ
é»ĳ å¿ĥ
Ġä¸įéĶĻ ä¸įéĶĻ
åħħ å®ŀ
Ġå¤ª åŀĥåľ¾äºĨ
è½» è½»
å¦Ĥæŀľ ä¸įæĺ¯
åĺ »
åĺ İ
è¿ĺä¼ļ åĨįæĿ¥
è¯ģ æĺİ
å¡ĳ å°ģ
å¾Īå¤§ çļĦ
å¾Īå¤§ æ°Ķ
åĵĪåĵĪ åĵĪ
æľ¬æĿ¥ æĺ¯
æľīä¸Ģ ç§į
åĳ½ è¿Ĳ
èĥĮ æĻ¯
éĢł æĪĲ
éĢł åŀĭ
èµĦ æł¼
èĦ± èĥ¶
æ¨¡ å¼ı
èĢ³ æľµ
ç»Ŀå¯¹ çļĦ
ä¸įç¬¦ åĲĪ
Ġä¸įæĺ¯ å¾Īå¥½
æīįèĥ½ åľ¨
éĿĴ æĺ¥
ä¸įå¾Ĺ äºĨ
èħ° å¸¦
ä¹ĭéĹ´ çļĦ
åŃķ å¦ĩ
???????? ????????
å¤ªéº»çĥ¦ äºĨ
éŁµ è¾¾
è¿ĺåı¯ä»¥å°±æĺ¯åĶ±çīĩéĥ½è¶ĬæĿ¥è¶Ĭè´µè¿ĺåı¯ä»¥å°±æĺ¯åĶ±çīĩéĥ½è¶ĬæĿ¥è¶Ĭè´µè¿ĺåı¯ä»¥å°±æĺ¯åĶ±çīĩéĥ½è¶ĬæĿ¥è¶Ĭè´µè¿ĺåı¯ä»¥å°±æĺ¯åĶ±çīĩéĥ½è¶ĬæĿ¥è¶Ĭè´µ è¿ĺåı¯ä»¥å°±æĺ¯åĶ±çīĩéĥ½è¶ĬæĿ¥è¶Ĭè´µè¿ĺåı¯ä»¥å°±æĺ¯åĶ±çīĩéĥ½è¶ĬæĿ¥è¶Ĭè´µè¿ĺåı¯ä»¥å°±æĺ¯åĶ±çīĩéĥ½è¶ĬæĿ¥è¶Ĭè´µè¿ĺåı¯ä»¥å°±æĺ¯åĶ±çīĩéĥ½è¶ĬæĿ¥è¶Ĭè´µ
3 8
4 1
4 2
N P
n C
Ġ ç»ıåħ¸
Ġ éĻ¤äºĨ
Ġ ä¸ľä¸ľ
çļĦ éĢŁåº¦
ä¸į ä¹°äºĨ
ä¸į æĢķ
äºĨ ä¸ĭ
ä» ģ
ä¸Ģ åħ±
å¥½ æħ¢
å¥½ åĩłæ¬¡
å¾Ī æļĸåĴĮ
è¿ĺ æľīçĤ¹
å°± ä¹°äºĨ
æĪĳ çĶ¨
æĪĳ ä¼ļ
æ²¡ äºĨ
ä¸ª å¤ļæľĪ
çĶ¨ äºĨä¸Ģ
æĸ ľ
å¤§ äºİ
åľ¨ å®¶
éĥ½ éĿŀå¸¸
çĤ¹ èµŀ
ç»Ļ å¤§å®¶
æŀ £
è¥¿ äºļ
é¢ ł
å¤© ç©º
åı¯ä»¥ çĶ¨
æ° §
æ¯Ķ æĥ³è±¡ä¸ŃçļĦ
éĤ Ħ
ç©¿ åĲ§
ä¸Ģä¸ª æĺŁ
ä¸Ģä¸ª å¤ļæľĪ
éĿŀå¸¸ å¿«
ä»¬ çļĦ
åķĨ æłĩ
è¡Į è½¦
è· Į
ç»ı èĲ¥
æīĭ çļĦ
ä½ľ ä¸ļ
åĪ« å®¶
ç¬¬ åĽĽ
æīį ç»Ļ
æĦŁè§ī è¿ĺåı¯ä»¥
æĹł èģĬ
åľ° ä¸Ĭ
çī©æµģ ç»ĻåĬĽ
æĪĲ åħ¨
éĢĤ åºĶ
çī¹ æł¹
åĬ¨ çī©
ä¸ī æ¬¡
æĮºå¥½ çĶ¨çļĦ
ä»İ äºĭ
åı· ä¸ĭçļĦåįķ
æģ Ĵ
æ¸ħ æĸ°
æĽ´ æĸ°
å°ĳ å¹´
å°ĳ å¥³
åĨĻ çļĦæĺ¯
çł´ çİ©æĦı
å¤§å®¶ ä¸įè¦ģä¹°
è®¡ åĪĴ
ï¼ģï¼ģï¼ģï¼ģï¼ģï¼ģï¼ģï¼ģ ï¼ģï¼ģ
æĲ ¬
ç»ĵæŀľ æĺ¯
ç©¿çĿĢ èĪĴéĢĤ
è¿Ĳ çĶ¨
è¿ŀ ç»Ń
ä¸įåĢ¼ è¿Ļä¸ªéĴ±
å¼º çļĦ
çĭ ¼
çĽ® å½ķ
è§Ĩ è§Ĵ
ç»´ çī¹æł¹
å±± å¯¨
å±ķ çİ°
æĩĴ çļĦ
Ġæ²¡ ä»Ģä¹Ī
æĻº èĥ½
è¯¯ å¯¼
éķľ å¤´
çº¯ ç²¹
é»Ħ èī²
å°½ å¿«
ç¢İ çļĦ
éĿĻ éŁ³
Ġä¸ĢèĪ¬èĪ¬ åĲ§
éĿĴ å¹´
è¸ ©
æĿĥ å¨ģ
åĸĦ å¾ħ
ä»Ķç»Ĩ çľĭ
çĨŁ æĤī
ä¼°è®¡ æĺ¯
æł¹æľ¬å°± ä¸įæĺ¯
è¯´ä»Ģä¹Ī äºĨ
éī´ å®ļ
çĪ· çĪ·
æĭĴ ç»Ŀ
çī©æµģä¹Ł å¿«
èĥ¸ æĢĢ
äºĶæĺŁ å¥½è¯Ħ
å«Į éº»çĥ¦
hao hao
åĽ° éļ¾
è¾Ľ èĭ¦
æĪĳå¾Īæ»¡æĦı åķĬ
æĢ»çļĦ æĿ¥è¯´
æķĻèĤ²æĦıä¹ī åķĬ
å¾ĪæľīåĲ¯åıĳ æķĻèĤ²æĦıä¹īåķĬ
ç»´çī¹æł¹ æĸ¯åĿ¦
9 8
X L
a l
a p
n ä¸Ģ
t o
Ġ è£ħ
Ġ æŃ¤
çļĦ é«ĺ
çļĦ çŁ¥è¯Ĩ
çļĦ åŁºæľ¬
çļĦ æł·åŃĲ
çļĦ åĲĮæĹ¶
äºĨ ä¸ª
æĺ¯ å¥½
æĺ¯ çľŁçļĦ
ä¸Ģ ä½į
å¥½ ä¸įå®¹æĺĵ
åĪ ¹
å¾Ī ä¾¿å®ľ
å¾Ī èĪĴéĢĤ
è¿ĺ æħ¢
å°± ä¸Ģ
å°± è¯´
æĪĳ ä¹°äºĨ
éĶ »
å¤§ ä½ľçĶ¨
åıĳ æĿ¥çļĦ
è´¨éĩı åĴĮ
è´¨éĩı åı¯ä»¥
æķ ·
èµ µ
æĦı å¤ĸ
çī© è´¨
çº ±
èī ¾
ä¸º äºº
ç¬ Ľ
éĤ ¦
ï¼Ł &
åĩº åºĵ
æħ °
ä¸įå¥½ æĦıæĢĿ
è½ ´
å¹´ äºĨ
åĩł çĻ¾
å½ĵ å¤©
éŀĭ å¸¦
èĤ ¿
åºĹ çļĦ
åĬ¨ äºĨ
éĺ »
è¶ħ å¿«
æİ¥ çĿĢ
åı· ä¹°çļĦ
Ġä¸ľè¥¿ è¿ĺè¡Į
éļ¾ åıĹ
å®ī æİĴ
æĺ¾ çĺ¦
ä¹Łå¾Ī ä¸įéĶĻ
çº§ çļĦ
è¿ĺæ²¡ æĶ¶åĪ°
åĽĽ äºĶ
è½» ä¾¿
ç¡¬ çĽĺ
çĵ ľ
çĽ´æİ¥ æīĶäºĨ
è¿Ļæĺ¯ ä»Ģä¹Ī
Ġä¹¦ å¾Īå¥½
å¤§äºĨ çĤ¹
ç±³ å¥ĩ
æĮī æĳ©
åĭ ¤
Ġä¹° ç»Ļ
ĠéŀĭåŃĲ ä¸įéĶĻ
æ¼ı äºĨ
æľª æĿ¥
åĴĮåĽ¾çīĩ ä¸ĬçļĦ
æĺ¯æĪĳ åĸľæ¬¢çļĦ
è¯¾ å¤ĸ
å°½ ç®¡
ä¹Łå°± ç®ĹäºĨ
åģ¥ èº«
è·ĳ æŃ¥
å¤±è´¥ çļĦè´Ńçī©
è½® åŃĲ
oo oo
è¿Ļä¸ªçīĮåŃĲ çļĦ
å¥½å¥½å¥½å¥½å¥½å¥½å¥½å¥½ å¥½çĶ¨
ï¼ģï¼ģï¼ģï¼ģï¼ģï¼ģï¼ģï¼ģï¼ģï¼ģï¼ģï¼ģï¼ģï¼ģï¼ģï¼ģï¼ģï¼ģï¼ģï¼ģï¼ģï¼ģï¼ģï¼ģï¼ģï¼ģï¼ģï¼ģï¼ģï¼ģï¼ģï¼ģ ï¼ģï¼ģï¼ģï¼ģï¼ģï¼ģï¼ģï¼ģï¼ģï¼ģï¼ģï¼ģï¼ģï¼ģï¼ģï¼ģï¼ģï¼ģï¼ģï¼ģï¼ģï¼ģï¼ģï¼ģï¼ģï¼ģï¼ģï¼ģï¼ģï¼ģï¼ģï¼ģ
ç§» åĬ¨
è¾ħ å¯¼
æ°ĶæŃ» æĪĳäºĨ
é¥± æ»¡
éĽ» å½±
é¥®åĨ°å®¤ åĲĪéĽĨ
F å·±
Z çļĦæĻºæħ§
i s
l squo
t e
w Få·±
y åŁºç¡Ģ
Ġ çī©ç¾İä»·å»ī
ä¸į å¼Ģå¿ĥ
ä¹ ĺ
æĺ¯ çĶ¨
æĺ¯ å¤Ħä¸ĸ
ä¸Ģ å£°
å¥½ å¤Ħ
åĪ ł
å¾Ī æĹ¶å°ļ
åĲ ĵ
åħ ¹
å°± ä¹°
æĪĳ æ²¡
æĪĳ è¿Ļ
æĪĳ åĸľæ¬¢
è¿Ļ ä¹¦
è¿Ļ æ®µ
ä¹Ł éĿŀå¸¸
ä»¥ åįļ
åľ¨ ä¹°
å¤ª åĿĳ
åĩ Į
è¡ «
å®¶ éķ¿
è¯´ æľī
è¯´ çļĦæĺ¯
è´¨éĩı ä¸įè¡Į
è¦ģ çļĦæĺ¯
æ³ ª
åı¯ä»¥ è¯´
ä¸º yåŁºç¡Ģ
çĿĢ æĢ¥
åŃ¦ å®¶
èĩª wFå·±
å¯¹ æĸ¹
å¯¹ è±¡
æīį éĢģåĪ°
å¿«éĢĴ æħ¢
æĺİ å¤©
åĽ½ äº§
åĨħ å¿ĥ
åĨħ è£¤
ä¸İ æııè¿°
é«ĺ å¤§
èĤ Į
æ°Ķ äºĨ
æĮºå¥½ çľĭ
ä¹Łä¸į ç»Ļ
çĽ¸ æľº
çģ Į
Ġä¸ľè¥¿ è¿ĺä¸įéĶĻ
æķĻ ç¨ĭ
ä»¥åĲİ ä¼ļ
é¦ Ī
ä¸» è§Ĵ
åİŁ è£ħçļĦ
è¿Ľ åı£
èĻ «
ä¸ĢçĽ´ æ²¡
çľŁçļĦ ä¸įéĶĻ
Ġä¸į å¤ª
å¥³ æĢ§
æ´Ĺ è¡£
åĲį èĳĹ
ĠæĪĳ ä¹°çļĦ
å½¢ æĪĲ
å½¢ æĢģ
æłĩ é¢ĺ
é£İ æīĩ
å¾Īå¿« å°±
å®Įåħ¨ ä¸Ģèĩ´
çĥĤ çĥĤ
ä¹ħ äºĨ
è½¯ çļĦ
æİ¨èįĲ è´Ńä¹°
èİ ²
Ġä¸įå¥½ åĲĥ
æ¢ ¯
ä¸Ģä¸ĭ å°±
åĤ ²
æķħ éļľ
åıªæľī åĮħå®¹
ï¼Įï¼Įï¼Įï¼Į ï¼Į
å¤§çļĦ èĥ¸æĢĢ
è¿ĺè¦ģ èĩªå·±
éļı æľº
ç¼º å°ĳ
æŃ£çīĪ ä¹¦
èī¯ çļĦ
ä¸Ģçľĭ å°±æĺ¯
è¿Ļæľ¬ä¹¦ çļĦ
åįĥä¸ĩ ä¸įè¦ģ
åıĳè´§éĢŁåº¦ å¿«
åĲĮæĹ¶ æĪĲåħ¨
ä»·éĴ± ä¸ĢåĪĨè´§
å¾Īä¸į èĪĴæľį
ä»·å»ī ä»·å»ī
è¯¢ éĹ®
çĶŁäº§ çļĦ
è®Ń ç»ĥ
ç¬¬ä¸īæĸ¹ åįĸå®¶
æī¹ è¯Ħ
ä¸įéĶĻä¸įéĶĻ ä¸įéĶĻä¸įéĶĻ
å¥ĸ åĬ±
åĿļ åĨ³
çļĦå¤§ æĻºæħ§
çĹĽ èĭ¦
æĻ®éĢļ çļĦ
çķħ éĶĢ
æ¤ į
æ¡¥ æ¢ģ
åĮħå®¹ æĺ¯å¤Ħä¸ĸ
æĺ¯ä¸Ģç§į ä»¥åįļ
æĴĴ æĹ¦
æ²¡æľīä»»ä½ķ æĦıä¹ī
,, ,,
å¤ªç¡¬ äºĨ
æ© ¡
è´§åĪ° ä»ĺæ¬¾
èĤļ åŃĲ
ä»ĸäººçļĦ åĲĮæĹ¶æĪĲåħ¨
åİ¨ æĪ¿
æīįèĥ½åľ¨ NP
åĸĦå¾ħ ä»ĸäººçļĦåĲĮæĹ¶æĪĲåħ¨
éĶ» çĤ¼
å¥½å¥½å¥½å¥½å¥½å¥½å¥½å¥½å¥½çĶ¨ å¥½å¥½å¥½å¥½å¥½å¥½å¥½å¥½å¥½çĶ¨
ä¸ºyåŁºç¡Ģ ZçļĦæĻºæħ§
å¤§çļĦèĥ¸æĢĢ ä¸ºyåŁºç¡ĢZçļĦæĻºæħ§
åĮħå®¹æĺ¯å¤Ħä¸ĸ çļĦå¤§æĻºæħ§
æĺ¯ä¸Ģç§įä»¥åįļ å¤§çļĦèĥ¸æĢĢä¸ºyåŁºç¡ĢZçļĦæĻºæħ§
æīįèĥ½åľ¨NP åĸĦå¾ħä»ĸäººçļĦåĲĮæĹ¶æĪĲåħ¨
æīįèĥ½åľ¨NPåĸĦå¾ħä»ĸäººçļĦåĲĮæĹ¶æĪĲåħ¨ èĩªwFå·±
1 20
h us
z z
Ġ æľ¬
Ġ æ»¡æĦı
Ġ æīį
Ġ ä¸¤
Ġ ä¸ī
Ġ å¤ªå·®
Ġ éĢĤåĲĪ
Ġ æĺ¯æŃ£åĵģ
Ġ å¯¹äºİ
Ġ ç¡®å®ŀ
Ġ çĶµæ±ł
Ġ åĹ¯
çļ Ĩ
çļĦ æĸ°
çļĦ ç»ıåħ¸
æľ ´
æĺ¯ ä¸į
ä¸Ģ æł¹
ä¸Ģ ä»½
ä¸Ģ é¢Ĺ
å¥½ åľ¨
æľī æĦıæĢĿ
å°± åıĳçİ°
æ²¡ çļĦè¯´
è¿Ļ è´¨éĩı
ä¸ª å°ı
æĹ ¨
è´§ çļĦ
èĢ į
ä¸Ĭ ç½ĳ
ä¸Ĭ çıŃ
äºº éĥ½
çľĭ åĽ¾
çľĭ ä¼¼
çľĭ å®ĮäºĨ
åĳ Ĩ
çĤ¹ äºĨ
æķ Į
å°ı æĹ¶åĢĻ
æ²¡æľī éĢģ
èĪ °
æŀ Ŀ
ç© ·
çİ ²
æµ ¸
å°±æĺ¯ æĦŁè§ī
æĦŁ æĥħ
æ¯Ķ è¿Ļ
å¼Ģ æ°´
å¼Ģ åı£
æĮº æ¼Ĥäº®çļĦ
è¿Ļä¸ª ä¸ľè¥¿
è· ĥ
ä¹°çļĦ ä¹¦
çĶŁ çļĦ
æµģ ç¨ĭ
ä¹ĭ ä¸ĭ
æīį åıĳè´§
éĢĢ ä¸įäºĨ
æľīçĤ¹ åĦ¿
åģļ å¾Ĺ
æľĢ æĸ°
æľĢ ä½³
èĦ ĸ
åľ° ä½į
è¿ĺæĺ¯ æ¯Ķè¾ĥ
æĺİ çļĦ
é¢ĺ çĽ®
åĩł ä¸ªæľĪ
éĩį çļĦ
éĩį è§Ĩ
çī¹ å¾ģ
çī¹ æ®Ĭ
æ°´ äºĨ
æīĢ åľ¨
éª ¤
åĲĮ æĦı
è§£ æŀĲ
è´¹ çĶ¨
åŃĹ éĻĲåĪ¶
åĽ¾çīĩ ä¸ĬçļĦ
æ¸ħ æ´ģ
åģļå·¥ å¾Īå¥½
æĶ¾ äºĨ
è± «
åĨĻ åŃĹ
æ· ³
ä¸» æµģ
åħī æ³½
éĥ½ä¸į æķ¢
ä¹ł é¢ĺ
çĶ¨äºĨ åĩłå¤©
ä½¿çĶ¨ æĸ¹ä¾¿
è¾¹ ä¸Ĭ
æľ¬ä¹¦ çļĦ
æłĩ å¿Ĺ
åĽłä¸º æĺ¯
åį° æľ¬
å¥¹ å¾Īåĸľæ¬¢
èĳ ©
çļĦä¹¦ ç±į
ç¥ŀ å¥ĩ
æĶ¶åĪ°è´§ åĲİ
è§Ĩ éĩİ
æľįåĬ¡æĢģåº¦ å·®
è®¾è®¡ çļĦ
å¥ĩ èĳ©
å² ³
èĦı äºĨ
çľĭçľĭ ç»Ŀå¯¹
19 6
æĩĤ çļĦ
ĠéĿŀå¸¸ ä¸įéĶĻ
èĦ± èĲ½
å©Ĩ å©Ĩ
è¯į æ±ĩ
éĩįè¦ģ çļĦæĺ¯
ç§¯ ç´¯
èı ²
çĨ Ĭ
æİĴ çīĪ
;ï¼Į &
ä¸ªäºº æĦŁè§ī
æ²¡æ³ķ ç©¿
ç»Ħ è£ħ
ç»Ħ åĲĪ
çĨŁ è¯»
å¦¹ å¦¹
æ±Ł èĭı
å°±è¿Ļæł· åĲ§
ä¸įæĸŃ åľ°
åĮħå®¹ åĮħå®¹æĺ¯å¤Ħä¸ĸçļĦå¤§æĻºæħ§
æīİ å®ŀ
éŁ© åĽ½
ti m
é¹ ħ
å¥½å¥½å¥½å¥½å¥½å¥½å¥½åıĳå¾Īå¥½å¥½å¥½å¥½å¥½å¥½å¥½å¥½åıĳå¾Īå¥½ å¥½å¥½å¥½å¥½å¥½å¥½å¥½åıĳå¾Īå¥½å¥½å¥½å¥½å¥½å¥½å¥½å¥½åıĳå¾Īå¥½
éģ¥æİ§ åĻ¨
éĦĻè§Ĩ äº¬ä¸ľ
è¤¶ çļ±
æĿ¥å¾Ĺ åıĬ
çľĭçľĭç»Ŀå¯¹ æľīæĶ¶èİ·
. \
` `
l t
Ġ èĩªå·±
Ġ æīĵå¼Ģ
Ġ æīĭæĦŁ
Ġ åģĩçļĦ
Ġ èĢģå©Ĩ
çļĦ ä¿¡
çļĦ åįĸå®¶
çļĦ æķĪæŀľ
ä¸į éĢģ
ä¹ Ķ
å¾ Ĳ
å® ¾
ä¸Ģ æµģ
ä¸Ģ éģį
ä¸Ģ åłĨ
å¥½ åķĬ
å¾Ī åİļ
å¾Ī æ¸ħæĻ°
æľī åĽ¾
æľī ä¸¤
æľī åĳ³éģĵ
æ² ¿
å°± çĶ¨
å°± å¼Ģå§ĭ
å°± éĤ£æł·
æ¬ ł
æĦ §
ä¹Ł åĸľæ¬¢
ä¹Ł å¥½çľĭ
æĿ¥ èĩª
æĢ Ĵ
éĥ½ å¿«
å¤ª å¥½äºĨ
å¤ª çĥĤäºĨ
å¤ª éķ¿äºĨ
äºº ä¸º
åĮ Ģ
åıĳ çļĦè´§
è¦ģ æŃ»
å°ı è´µ
æ²¡æľī ä¸ĢçĤ¹
å¤ļ å¹´
åĢ º
å¸¸ å¸¸
çĿĢ çĶ¨
æħ ķ
ä¸įæĺ¯ æĪĳ
å¯¹ äº¬ä¸ľ
å¯¹ å¾Ĺèµ·
çĶŁ æĢģ
ä»ĸ åľ¨
å®¢ è§Ĥ
åİ» ä¹°
æ¸ į
æĹł èī²å·®
åģļ äºĨ
åľ° çĲĨ
è¿ĺæĺ¯ è¦ģ
çī©æµģ å¾Īç»ĻåĬĽ
æĺİ ç¡®
æ³ķ è¯Ń
çĪ ¬
ä¸İ åįĸå®¶
æ°´ çļĦ
ç¡ ķ
éŁ³ åĥı
æĥħ èĬĤ
ç»Ĩ ç»Ĩ
å§ ĵ
.... ...
éľ ¸
éľ ĸ
åİŁ çĲĨ
æł¹æľ¬ å°±ä¸į
æıĲ åĩº
ç®Ģ æĺİ
çĶ¨äºĨ ä¸Ģæ¬¡
éĤ£ä¹Ī å¤§
åĲĪéĢĤ çļĦ
çļĦä¸ľè¥¿ äºĨ
å»º è®¾
æ´Ĺ åıĳ
éĢģè´§ åĳĺ
å¤į åĪ¶
è·¯ è¾¹
çľŁå¿ĥ çļĦ
åŃ¦ä¹ł çļĦ
å¯Ħ åĽŀ
ä¸Ģä¸ĭ åŃĲ
Ġä¹¦ æĺ¯
ç±» åŀĭ
ç»Ł ä¸Ģ
è¶ħçº§ å·®
ä¹Łå¾Īå¥½ çľĭ
ĠéĿŀå¸¸ ä¸įæ»¡æĦı
çģµ éŃĤ
ä¸Ģèµ· ä¹°çļĦ
ä¾Ľ è´§
ç§° ä¸º
æĿĤ éŁ³
åĲ¯ è¿ª
æ±ī ä¹¦
åĿĹéĴ± çļĦ
ç»¿ èī²
èµ·çĲĥ äºĨ
å®ĺ æĸ¹
åĲĮæł· çļĦ
éĺ¶ æ®µ
çľŁæŃ£ çļĦ
ä¿ĥ éĶĢ
çĬ¹ è±«
æ·¡æ·¡ çļĦ
æĹ¶è£ħ çĶ»
r a
é ł
Ġ æ°´
Ġ éĩĮéĿ¢
Ġ æ´»åĬ¨
Ġ éªĹåŃĲ
Ġ åį°åĪ·
Ġ è½¦åŃĲ
çļĦ æ°´
çļĦ åķĨå®¶
çļĦ åŃ¦ä¹ł
çļĦ åİŁåĽł
æľ ĥ
ä¸į è®©
ä¸į æĦ¿æĦı
å¾ Ĵ
ä¸Ģ åĮħ
ä¸Ģ åı£
åĲ µ
åĲ »
æľī æīĢ
è¿ĺ åįĸ
å°± ä¸įè¦ģ
æī °
çĶ¨ ä¹¦
æĦ Ī
ä¸įéĶĻ äºĨ
å¤ª éļ¾
ä¸Ĭ æ¥¼
çľĭ ä¹¦
åıĳ åĩº
çĤ ¸
è¦ģ æ³¨æĦı
çĤ¹ çĤ¹
åĵģ ç§į
æ²¡æľī çĶ¨
è£ħ ä¿®
é¢ Ĥ
å®ŀ éªĮ
è¿ĩ æ»¤
å¤© æĹł
æµ ĳ
å°±æĺ¯ ä¸Ģä¸ª
æĭ ¨
çľŁ ä¸įçŁ¥éģĵ
èī² æ³½
æĬ ¢
éĢģ äººäºĨ
éĿŀå¸¸ ä¸įå¥½
è¿Ļä¸ª éĹ®é¢ĺ
å± Ĭ
åİ» å¹´
åıª ä¸įè¿ĩ
åĪĨ ä¸º
åĽ¾ ä¸Ĭ
æĹł æīĢè°ĵ
å¿«éĢĴ å°ıåĵ¥
åħ¨ æĸ°
åľ° çļĦ
åľ° è¯´
å®¢æľį æľįåĬ¡
ä¸¤ æľ¬
æĺİ äºĨ
æĢİä¹Ī ä¼ļ
ä¹°äºĨ ä¸¤ä¸ª
ä½ĵ çļĦ
çī¹ æľīçļĦ
ä»·æł¼ ä¹Łä¸į
ãĢĭ ãĢĤ
èĢģ åŃĲ
èĢģ é¸Ń
åĬ¨ åĬĽ
æ°Ķ è´¨
æľĪ åŃĲ
æĸ° è°·
åįģ äºĶ
è¯Ń æ³ķ
ç²¾ åĵģ
åı· æīįåĪ°
èº« è¾¹
å¤´ çļĦ
åģļå·¥ ä¸įéĶĻ
æĶ¾ çĿĢ
æĬĬ æīĭ
æ· ĺ
åħī æ»ĳ
åĬł å¼º
æĤ ¬
æľĭåıĭ æİ¨èįĲ
è¯ķ è¿ĩ
æĹ¥ å¸¸
éĢĢè´§ çļĦ
è¿Ľ ä¸ĢæŃ¥
éĥ½ä¸į ç»Ļ
æł¹æľ¬ æ²¡
è¿Ļä¹Ī å¤§
æķ´ çĲĨ
å¤§å®¶ åĪ«
åı² æĸĻ
çī¹åĪ« åĸľæ¬¢
åĻ ¢
çħ ²
å¹³ åı°
ç©¿çĿĢ ä¸įèĪĴæľį
Ġè¡£æľį æĶ¶åĪ°äºĨ
ç¬¬äºĮ ä¸ª
ç¬¬ä¸Ģæ¬¡ ç»Ļå·®è¯Ħ
ä¹Łæĺ¯ éĨīäºĨ
æłĩ æ³¨
å¹² åĺĽ
åĲ¬ åĪ°
Ġå¤ª å¤§äºĨ
å°Ĩ è¿ĳ
å¥¹ è¯´
èİ İ
å¼Ģå§ĭ çĶ¨
åľ¨äº¬ä¸ľ ä¹°äºĨ
æ·± åº¦
åĬŁ å¤«
å¦Ĥæŀľ ä½ł
çľĭåĪ° çļĦ
éªĮ è¯ģ
é¢Ĩ åŃĲ
å¹¿ æ³Ľ
åĸĿ äºĨ
å¥½å¤ļ äºĨ
éĺ² æ»ĳ
éĺ² ä¼ª
å¤ĸè§Ĥ æ¼Ĥäº®
åİĭ åĬĽ
åİĭ æł¹
åĳµåĳµ äºĨ
çīĽ çļ®
æĩĴå¾Ĺ éĢĢ
éĴ¢ çĲ´
èı ©
æĺ¾ç¤º åĻ¨
æİĴ çıŃ
å¾Īä¸į æ»¡
çĬ¶ åĨµ
å¥³åĦ¿ å¾Īåĸľæ¬¢
æīĺ é©¬
æħ¢æħ¢ æħ¢æħ¢
åŁŁ åĲį
æĪĳè¦ģ çļĦæĺ¯
å¼Ł å¼Ł
æĳĦ å½±
åĪ® çĹķ
åį« çĶŁ
å¯» æī¾
åĬ³ åĬ¨
1111 1111
åĲĬ çīĮ
çºł ç»ĵ
ç»ıåħ¸éĨĩç»ıåħ¸éĨĩç»ıåħ¸éĨĩç»ıåħ¸éĨĩç»ıåħ¸éĨĩç»ıåħ¸éĨĩç»ıåħ¸éĨĩç»ıåħ¸éĨĩç»ıåħ¸éĨĩç»ıåħ¸éĨĩç»ıåħ¸éĨĩç»ıåħ¸éĨĩç»ıåħ¸éĨĩç»ıåħ¸éĨĩç»ıåħ¸éĨĩç»ıåħ¸éĨĩ ç»ıåħ¸éĨĩç»ıåħ¸éĨĩç»ıåħ¸éĨĩç»ıåħ¸éĨĩç»ıåħ¸éĨĩç»ıåħ¸éĨĩç»ıåħ¸éĨĩç»ıåħ¸éĨĩç»ıåħ¸éĨĩç»ıåħ¸éĨĩç»ıåħ¸éĨĩç»ıåħ¸éĨĩç»ıåħ¸éĨĩç»ıåħ¸éĨĩç»ıåħ¸éĨĩç»ıåħ¸éĨĩ
åĬŀåħ¬ å®¤
tim es
0 9
b e
n P
n o
³ å¦ĩ
Ġ &
Ġ è¦ģ
Ġ ä½ł
Ġ ä¸Ģæ¬¡
Ġ å¥½è¯Ħ
Ġ ç©¿ä¸Ĭ
Ġ åĴĮåĽ¾çīĩ
Ġ æĺİæĺİ
Ġ æĺ¨å¤©
Ġ èĮ¶åı¶
Ġ å¸½åŃĲ
çļĦ å¿«
çļĦ èµ·
çļĦ ç¾İ
æľ Ĺ
ä¸į ä½Ĩ
ä¸į éĢĢ
ä¸į åĲĪçĲĨ
ä¸į ç¨³
ãĢĤ ï¼Ī
å¾ ½
è¯ Ī
éĢ ĥ
éĢ Ĺ
è¿ĺ åĩĳåĲĪ
å°± åĪ°äºĨ
æĪĳ å°±ä¸į
æ²¡ è§ģè¿ĩ
æ²¡ è¯Ŀè¯´
å¸ ķ
æĸ ¼
å¤§ ä¼Ĺ
ä¸Ĭ ä¸Ģ
åĨ »
çľĭ å¾Ĺ
ä¹¦ ä¸ŃçļĦ
åıĳ ä¸ª
åıĳ çĥŃ
è´¨éĩı å¾Īä¸įéĶĻ
æ¯ ¯
ç»Ļ äºĪ
æĦı çļĦ
æĦı æĸĻ
å¿« çĤ¹
æ²¡æľī éĹ®é¢ĺ
èĥ½ åĲ¦
å¤ļ èĬ¬
åĸ »
å°±æĺ¯ æ²¡æľī
åı¯ä»¥ è®©ä½ł
éĿ¢ èĨľ
ç©¿ è¿ĩ
èĩª æľī
èĩª ä¸»
éĴ ®
åĮħè£ħ å®Įå¥½
æ´ ¥
éĤ£ æĺ¯
å± ĳ
çł ĸ
ä»Ģä¹Ī éĥ½æ²¡æľī
è° Ĳ
æ¸ Ĺ
æĹł çº¿
æľĢ å¤±è´¥
åľ° çĲĥ
åĳ³ çļĦ
åĩł å¹´
æĪĲ çĨŁ
éĩį å¤į
å½ĵ åĪĿ
ç§į ç±»
åĬ¨ æīĭ
åĬ¨ ä½ľ
åĬ¨ çĶ»
ä¸ī æĺŁ
æľįåĬ¡ å·®
æ°Ķ çļĦ
æ°Ķ äºº
ä¹Łä¸į è¡Į
ï¼ī ãĢĤ\
åıĳè´§ äºĨ
åŁ ĥ
åįģ åĩłå¤©
è§£ çŃĶ
ä»İ æŃ¤
ç²¾ åįİ
é» İ
æľŁ ç»´çī¹æł¹æĸ¯åĿ¦
æĥħ ç»ª
æģ ¢
Ġä¸ľè¥¿ å¾Īä¸įéĶĻ
æĽ´ å¤ļçļĦ
åĬł è¥¿äºļ
èį Ĵ
ä¾¿å®ľ çļĦ
ä¾¿å®ľ å¥½å¤ļ
æł¹æľ¬ å°±æĺ¯
éħį çļĦ
è´Ŀ å¤ļèĬ¬
åıį é¦Ī
é»ĳ çĻ½
ä¸ĭæ¬¡ ä¸įä¼ļ
èħ ¹
èĬĤ å¥ı
ä¸ŃåĽ½ åı¤ä»£
åħ¶ä»ĸ éĥ½
çĥŃ çĪ±
è¿ĺå¥½ åĲ§
ä¸¤ä¸ª åŃĹ
Ġçī©æµģ å¤ªæħ¢äºĨ
Ġå¥½ ä¹¦
ç¤¼ çĽĴ
åħĭ åĬĽ
åħ¬åı¸ ä¹°çļĦ
è¡¥ åģ¿
æįŁ å¤±
19 9
ç¼º ä¹ı
ç¼ĸ åĨĻ
çª Ŀ
æıĴ ä¸Ĭ
ç«ĭ åĪ»
å¯¸ çļĦ
èĵĿ èī²çļĦ
æĪĺ çķ¥
åĩºçīĪ çļĦ
èĽ® å¥½
è§£åĨ³ äºĨ
ç¯ ®
å·¥ä½ľ äººåĳĺ
æ¨¡ ä¸Ģæł·
çľĭäºĨ ä¸ĭ
é¡º æīĭ
è°¢è°¢ åįĸå®¶
åıĳå±ķ çļĦ
å¾Īä¸į çĪ½
Ġä»Ģä¹Ī çİ©æĦı
æ£Ģ éªĮ
Ġä»·æł¼ ä¾¿å®ľ
Ġä»·æł¼ å®ŀæĥł
èĴ ¸
åĨ° ç®±
é¢Ħ æľŁ
çĿ¡ è§ī
èĢģåħ¬ å¾Īåĸľæ¬¢
çĽĹçīĪ ä¹¦
èµ¶ ä¸Ĭ
åĶĲ èĢģé¸Ń
ar r
åª ³å¦ĩ
æİ¢ ç´¢
çī¢ åĽº
33333333333333333333333333333333333333333333333333333333333333333333333333333333333333333333333333333333333333333333333333333333 33333333333333333333333333333333333333333333333333333333333333333333333333333333333333333333333333333333333333333333333333333333
æ±½ è½¦
å¹¼ åĦ¿
åĺ¿ åĺ¿
æĹĹ èĪ°
ä¸ĵåįĸ åºĹ
æĦīå¿«çļĦ è´Ńçī©
æķ· è¡į
0 1
4 4
U SB
a a
a y
v e
~ ï¼ģ
´ èĿ¶
Ġ æĸĻåŃĲ
Ġ çľĭä¸Ĭåİ»
Ġ å·®å·®å·®
ä¸į èī¯
æĺ¯ ä¸įéĶĻ
è´ ¡
è¯ ±
æľī çĽĬ
éĢ Ĭ
éĢ Ŀ
è¿ĺ æ¯Ķè¾ĥ
å°± ç»Ļ
å°± ä¸įæĺ¯
å°± åĪ«
å°± æİī
å°± çł´äºĨ
æĪĳ ä¸į
æĪĳ æĬĬ
è¿Ļ è¡£æľį
çĶ¨ æīĭ
ä¹Ł è¡Į
ä¹Ł å¾Īåĸľæ¬¢
è§ Ī
åľ¨ è¿Ļå®¶
å¤ª è®©äºº
çľĭ åĲ§
æľį è£ħ
åĳ Ĳ
åĳ ľ
åĮ Ļ
ä¹¦ åĨĻ
è¦ģ ä¹°çļĦ
è¦ģ åıĳç¥¨
åĴ ¸
å°ı ç¤¼çī©
ç»Ļ å¥¹
è£ħ äºĨ
åĴĮ åįĸå®¶
è¿ĩ äºİ
æµ ¦
æµ ´
æĭ ¢
çľŁ ä¸įéĶĻ
çľŁ åĵģ
éĢģ çļĦä¸ľè¥¿
æ¯Ķ ä¾ĭ
æ¬¢ è¿İ
åĩº ä¹İ
å¼Ģ è£Ĥ
å¼Ģ éĺĶ
éĿŀå¸¸ æ£Ĵ
æĮº å¤§çļĦ
åķĨ ä¸ļ
è¿Ļä¸ª æĺ¯
åĮħè£ħ ä¸įéĶĻ
å¯¹ å¾ħ
æīĭ æ®µ
åĢ¼ äºĨ
è´Ń çļĦ
æĸ¹ æ¡Ī
æĶ¶åĪ° çļĦè´§
çł ¸
åĪĨ è¾¨
ç¬¬ äºĶ
çĲĨ ä¸įçĲĨ
æľĢ é«ĺ
è¿ĺæĺ¯ ä¸įéĶĻ
ä¸¤ åıĮ
åħ¶ ä¸ŃçļĦ
Ġè´¨éĩı å¾Īä¸įéĶĻ
æľº åħ³
åįķ èĸĦ
æĸĩ çĮ®
éĴ± ä¹°
å¤ĸ éĿ¢çļĦ
æĢ§ æĦŁ
è¶ħ åĸľæ¬¢
åıĳè´§ æħ¢
åįģ å¤©
ä½¿ ä½ł
éĽ ķ
åĽł ç´ł
åŃ©åŃĲ ä¹°çļĦ
è¡¨ çĽĺ
èĬ± çļĦ
äº§åĵģ çļĦ
æĭ¿ åİ»
éħį ç½®
ä¹Łå¾Ī æ¼Ĥäº®
æ¯Ľ çº¿
å¸ĮæľĽ ä»¥åĲİ
Ġä¸į æĥ³
èģĶç³» åįĸå®¶
çĭ ł
ä¼ł è¯´
å§ĭ ç»Ī
è®¤ äºĨ
é© ¾
ä¸ŃçļĦ åŀĥåľ¾
ä¿® è®¢
æĸ¯ çī¹
è´´ èº«
æĮĩ å®ļ
æµ· æ´ĭ
åı¤ äºº
Ġå®Ŀè´Ŀ å¾Īå¥½
æĬĺ æī£
å¯¼ èĪª
åĪ· åŃĲ
èĹ ©
ä¸įå¤ª æ»¡æĦı
ä¸įå¤ª ä¸Ģæł·
å½© èī²
ä¸ĢåĪĨ ä»·éĴ±ä¸ĢåĪĨè´§
éļı æĹ¶
æıĴ å¤´
è£Ĥ ç¼Ŀ
å¤©æīį æĶ¶åĪ°
çĳ °
é»Ħ éĩĳ
åĦ¿åŃĲ å¾Īåĸľæ¬¢
å·§ åħĭåĬĽ
éŃ ı
å·´ å·´
åħ» çĶŁ
èĢģå©Ĩ å¾Īåĸľæ¬¢
èĴ Ĥ
ç»¿ æŀĹ
æĺ¥ ç§ĭ
ä¸ĭæ¬¡è¿ĺ ä¹°
èįī èįī
èĿ ´èĿ¶
åĤ¬ äºĨ
æī« æıı
å±ģ èĤ¡
ä»ĵ ä½į
æľĢå·® çļĦä¸Ģæ¬¡
çľŁçļ® çļĦ
ä»İæĿ¥ æ²¡æľī
è¯¸ å¤ļ
hh hh
èĤł èĥĥ
éĶĭ åĪ©
çĳŀ åħ¸
4 9
n èĢĥçĤ¹
o m
¥ åĮĻ
Ġ æĸ°
Ġ å¤§å®¶
Ġ ä¹ĭåīį
Ġ å¤ªæħ¢äºĨ
Ġ ç¬¬ä¸Ģ
Ġ çľĭäºĨ
Ġ æľīçĤ¹å°ı
Ġ çº¸å¼ł
Ġ éĶħ
Ġ çĽĴåŃĲ
Ġ èĢģæĿ¿
Ġ å¸ĥæĸĻ
Ġ ç®±åŃĲ
Ġ æīĭè¡¨
Ġ çī©åĵģ
Ġ åĩĳåįķ
çļĦ åıĳ
ä¸į åı¯ä»¥
ä¸į åĲĪ
ä¸į èµ·æĿ¥
ä¸į è¯´äºĨ
ä¸į éĢıæ°Ķ
ä¸į éĿłè°±
ä¸Ģ æĺŁæľŁ
ä¸Ģ æĹ¦
å¾Ī åĢ¼å¾Ĺ
çĶ ĺ
æľī æķĪæŀľ
æľī å·®è·Ŀ
è¿ĺ è¯´æĺ¯
æ²¡ éĤ£ä¹Ī
æ²¡ åıĳçİ°
ä¹° å°ıäºĨ
è¿Ļ ä»·æł¼
çĶ¨ æĸĻ
çĶ¨ ä¸įä¸Ĭ
èĢ Ģ
å¤§ éĻĨ
åľ¨ çĶ¨
éĥ½ åĨĻå¾Ĺå¾Īå¥½
å¤ª è½¯
çľĭ åĪ°äºĨ
çľĭ ä¸įåĪ°
è¯´ å®ŀè¯Ŀ
è´¨éĩı ä¹Łå¥½
çĽ ²
è¦ģ å¥½
åĴ ±
åĴ Ĵ
å¯ ¿
å°ı åĮº
å¤ļ ä¹Ī
å¤ļ å¤ļ
åĴĮ å¼ł
çİ Ľ
ä¸ĭ æīĭ
ä¸Ń ä¸įè¶³
è¾ ī
çľŁ å·®
æĬ ¬
æ¯Ķ è¿Ļä¸ª
éģĵ çļĦ
èĩª æıĲ
éĿŀå¸¸ ä¸įæ»¡æĦı
éĴ ¥åĮĻ
ä¸įå¥½ ä¸įå¥½
æīĭ å·¥
è´Ń ä¹¦
ä½Ĩ æĪĳ
éĩĮ è¾¹
è° ĭ
åıª ä¼ļ
åıª æĥ³è¯´
åĪĨ äºĨ
æĦŁè§ī å¾Īå¥½
æľīçĤ¹ åĥı
å¿«éĢĴ å¾Īç»ĻåĬĽ
å¹´ åº¦
æĻ ¨
ç½ ļ
æĽ ¹
é«ĺ æ¡£
è¾ĥ å¤§
æľįåĬ¡ å¤ªå·®
è¶ħ å¥½
ç¾İ åľ¨
ä¹Łä¸į æĥ³
æ¯Ķè¾ĥ å¤§
éŁ³ åĵį
æİ¥ è¿ĳ
éķ¿ æľŁ
é» ı
ç½ĳ ä¸ĬçļĦ
äºĨä¸Ģ å¤§
æĢģåº¦ ä¸įå¥½
æ¸ħ é¦Ļ
åģļå·¥ å¥½
æĬĬ æı¡
ä¿Ŀ åģ¥
ç»ĻæĪĳ åıĳè´§
çĪ± çĲĨä¸įçĲĨ
çľŁçļĦ å¾Īå¥½
è¾¹ è§Ĵ
è½¦ ä¸Ĭ
å¥³ æľĭåıĭ
åıį èĢĮ
åĽĽ å¤©
åĲį åŃĹ
å½¢ çĬ¶
è¯Ħä»· çļĦ
ç¬¬ä¸Ģæ¬¡ ä¹°
ä¹Łæĺ¯ ä¸Ģç§į
å®Įåħ¨ ä¸į
åħ¶ä»ĸ è¿ĺå¥½
çľ¼ åħī
è´´ èĨľ
æ·± çļĦ
æ·± æĢĿ
Ġçī©æµģ æħ¢
éĿŀå¸¸å¥½ çĶ¨
Ġä¹¦ çļĦ
å¸ĥ é²ģ
è¯ģ ä¹¦
æĮģ ç»Ń
æĶ¹ éĿ©
ç±³ çļĦ
åĵª ä¸ª
éĥ½æ²¡ æĶ¶åĪ°
é² į
æŃ¥ éª¤
æĿ¾ äºĨ
çª Ħ
æĪĺ æĸĹ
æĻ® éģį
çİĭ æľĿ
å®ŀéĻħ ä¸Ĭ
çķĻ çĿĢ
çķĻ è¨Ģ
éĵ¾ åŃĲ
ĠçĶ¨ èµ·æĿ¥
å»ī ä»·
Ġè¿ĺæ²¡ çľĭ
æķ£ æĸĩ
13 0
äºĨä¸Ģä¸ª æĺŁæľŁ
å¼¹ åĬĽ
ä¸°å¯Į çļĦ
å¢ŀ éķ¿
ç©¿èµ·æĿ¥ å¾ĪèĪĴæľį
é±¼ ç«¿
æĺ¥ èĬĤ
è¿ĺç®Ĺ åı¯ä»¥
ä¼Ĺ å¤ļ
Ġä¸ĢçĽ´ çĶ¨
å¤ªä¸į ç»ĻåĬĽäºĨ
åºŁ è¯Ŀ
æµ® èºģ
ä¸İåĽ¾çīĩ ä¸įç¬¦
å§Ĳ å§Ĳ
çĩ ĥ
åĨľ æ°ĳ
ä¸įçŁ¥éģĵæĺ¯ä¸įæĺ¯ æŃ£åĵģ
ĠæĢ»ä½ĵ æĿ¥è¯´
Ġè¿ĺæ²¡æľī çĶ¨
åºĦ åŃĲ
æĪĴ æĮĩ
æ¶µ çĽĸ
æ²¡å¾Ĺ è¯´
åĭº åŃĲ
èģª æĺİ
åĪ¹ è½¦
æīĺé©¬ æĸ¯åĴĮ
7 5
J D
g h
n n
n æĪĳ
n äºĶ
ç į
Ġ ä¸¥éĩį
Ġ åŁºæľ¬
Ġ å°ıåŃ©
Ġ æł·å¼ı
Ġ æĿĲè´¨
Ġ æŃ£åľ¨
çļĦ çľĭ
çļĦ éĴ±
ä¸į å¸¦
ä¸į å®ŀçĶ¨
ä¸į åı¯èĥ½
è¿ Ī
ä¸Ģ æīĵå¼Ģ
è´ ·
å¥½ åĸľæ¬¢
å¥½ æ±ī
æľī åĬŀæ³ķ
æĪ Ī
éĢ ¸
åħ ®
è¿ĺ è®©æĪĳ
å°± æĬĬ
æī ĳ
æ²¡ éĶĻ
è¿Ļ ä»¶
åĪ° æŀģ
ä¹Ł èĪĴæľį
ä¹Ł ç®Ĺ
å·® å¾Īå¤ļ
è´§ åĵģ
è´§ åĪ°äºĨ
å¼ ¦
å¤ª æ¬¡
å¤ª é«ĺ
å¤ª å°ĳ
ä¸Ĭ äº¬ä¸ľ
ä¸Ĭ ä¼ł
åĨ ¶
äºº æĢ§
äºº å£«
çľĭ åĩº
è¯´ è¿ĩ
çĤ¹ çļĦ
åĴ ½
ç»Ļ ä»ĸ
æĹ¶ åħī
ä»· å®ŀ
ä¸ĭ éĽ¨
ä¸ĭ è½½
ä¸Ń éĢļ
çľŁ ä»·å®ŀ
éĿ¢ ç§¯
ä¸º ä¸»
éģĵ å¾·
åŃ¦ åĪ°
ç©¿ åľ¨èº«ä¸Ĭ
éĿŀå¸¸ å¤±æľĽ
æĮº ä¸įéĶĻ
æĮº æ»¡æĦıçļĦ
äº¬ä¸ľ å¿«éĢĴ
çĶŁ çī©
çĶµ ç£ģ
æīĭ æ³ķ
çĦ Ĭ
çŃ ĭ
åĽ¾ æĸĩ
æīį æĺ¯
æĦŁè§ī å¾Ī
æĹł åĬĽ
éĹ® éĹ®
æľĢ å¥½çļĦ
å®¢æľį ä¹Ł
å®¢æľį æ²ŁéĢļ
ä¸Ģæ¬¡ è´Ńçī©
æĪĲ ç»©
å½ĵ æĪĳ
å½ĵ åľ°
äºĭ å®ŀ
æį¢ çļĦ
åıĪ è¯´
è¶ħ èµŀ
ç¾İ ä¸Ńä¸įè¶³
æ¯Ķè¾ĥ åĸľæ¬¢
ï¼ī &
ï¼ī ï¼Ī
éŁ³ éĩı
åĶ ¤
åįģ ä¹Ŀ
æİ¥ åĪ°
é¢ľèī² å¥½çľĭ
ä½Ĩæĺ¯ æĪĳ
ç¼ Ĩ
ç¼ ļ
èº« é«ĺ
æĥħ æĢĢ
èĪĴæľį çļĦ
åģļå·¥ ç»Ĩèĩ´
æĶ¾ å¤§
åħ¸ åŀĭ
åħ¬ éģĵ
éļ¾ å¾Ĺ
éļ¾ åº¦
ä¾¿å®ľ äºĨ
çİ© çļĦ
é»ĳ åºĹ
å®ĥ æĺ¯
å¹³ å¸¸
èħ ¥
è£¤ èĦļ
Ġè¡£æľį è¿ĺåı¯ä»¥
20 10
ä»» åĬ¡
æĭī æĸ¯
çĥĤ è´§
ä¸įåĪ° ä¸Ģä¸ªæľĪ
åıªèĥ½ çĶ¨
ç¡¬ çļĦ
ç¥ŀ ç»ı
çĽ® æłĩ
çº¢ èī²çļĦ
è§Ĩ è§ī
ç¿ ĺ
åĳ¨ å¹´
Ġå¥½ ä¸ľè¥¿
é©¬ èĻİ
å¾Īå·® åĬ²
æĮī éĴ®
æľīä¸Ģ èĤ¡
èĭ± éĽĦ
æŁ¥ ä¸įåĪ°
éļı æĦı
ä¸ĸçķĮ çļĦ
ç¬¬ä¸Ģ éĥ¨
ĠéĿŀå¸¸ å¥½çļĦ
åĢĴ éĹŃ
æĭĨ äºĨ
æ¥ļ è¾ŀ
åĲ¸ æĶ¶
åĲ¸ æ°´
çīĽ å¥¶
æºĲ äºİ
åı¥ åŃĲ
é£ŀ æľº
ç¡®å®ŀ ä¸įéĶĻ
æ¨¡ æĭŁ
èľ Ĥ
é¢Ĺ ç²Ĵ
åĩºçİ° äºĨ
é¾ Ħ
ç¬¬äºĮæ¬¡ ä¹°äºĨ
200 0
ç¯ĩ æĸĩç«ł
çºª å¿µ
çģ° èī²
æĪĳæĥ³ è¦ģçļĦ
åĩĳåĲĪ çĿĢ
åĲī ä»ĸ
ç»Ļä¸ª å·®è¯Ħ
å·®è·Ŀ å¤ªå¤§
çĭĹ å±ģ
çªģ çł´
éĽ¶ ä»¶
ä¸įåĴĭ çļĦ
ä¸ĢæĺŁ éĥ½ä¸įæĥ³ç»Ļ
æ²¡äºº çĲĨ
å´ ĩ
éĢĶ ä¸Ń
å¤§æ°Ķ ä¸Ĭæ¡£æ¬¡
åĢŁ éī´
æŀľæĸŃ å·®è¯Ħ
çĬ¹ å¦Ĥ
èĶ ¡
çļĦäººçĶŁ éģĵè·¯
è¯ģåĪ¸ çļĦ
Ġç¬¬äºĮæ¬¡ ä¹°äºĨ
ä¸įå½±åĵį ä½¿çĶ¨
æ´Ľ éĺ³
âĢ ¦
è³ ª
æ·» åĬł
è®¡ç®Ĺ æľº
é»Ľ ä¸Ŀ
éŃħ åĬĽ
ç¶ ĵ
èĦĸ åŃĲ
èı© æıĲ
ç»¿æŀĹ å¥½æ±ī
æīĺé©¬æĸ¯åĴĮ æľĭåıĭ
0 4
c hi
e m
j d
l y
n äºĮ
â ķ
ç ·
ç ¸
Ġ 2
Ġ çº¿
Ġ è½¦
Ġ æŃ£çīĪ
Ġ èī²å·®
Ġ æĢ§ä»·æ¯Ķ
Ġ åı£æĦŁ
Ġ ä¸ĢåĪĨéĴ±ä¸ĢåĪĨè´§
çļĦ ä¸įéĶĻ
çļĦ åĳ¢
çļĦ å½±åĵį
ä¸į ä¸Ģ
ä¹ ¾
å¤ ķ
æĺ ı
åı ī
ä¸Ģ ä»£
å¾Ī äº®
åĲ ¾
æľī åĩł
æľī æľºä¼ļ
åħ ģ
è¿ĺ è´µ
æĪĳ å¾Ī
æ²¡ æĶ¶åĪ°è´§
ä¹° ä¸Ģä¸ª
è¿Ļ ä¸¤
ä¸ª æĢ§
çĶ¨ åĲİ
åĵ ĳ
èĢ ¶
å¤§ åĵ¥
éĥ½ å¾Īåĸľæ¬¢
éĥ½ å¾Īæ»¡æĦı
ä¹¦ å±Ģ
å°ı åŃ¦çĶŁ
åĵģ åĳ³
åĴĮ æııè¿°çļĦä¸Ģæł·
åĮħ åĲ«
å°±æĺ¯ åĳ³éģĵ
è¾ ©
æ° Ľ
éĿ¢ æĿ¿
æĦŁ åħ´è¶£
éĿŀ è¦ģ
æĥ³ æ³ķ
åŃ¦ èī¯çļĦ
åĩº å·®
èĩª è¡Įè½¦
ä¸Ģä¸ª å°ı
ä¸Ģä¸ª å¤ļ
ä¸Ģä¸ª ç¤¼æĭľ
éĿŀå¸¸ ä¸į
äº¬ä¸ľ ä¸Ĭ
è¡Į çļĦ
å¯¹ äºĨ
ä¹°çļĦ å¥½
çĶŁ äºİ
ä½ł è¯´
ä½ł å°±åı¯ä»¥
çĶµ åĻ¨
åī Ķ
ä½ľ éľĸ
æŃ£ è§Ħ
æħ¢ äºĨ
çĥ ĺ
å¿«éĢĴ ç»ĻåĬĽ
æľĢ å·®çļĦ
ä¾¿ äºİ
å®¢æľį ä¹Łä¸į
æĻ ¾
éĻ ª
çī©æµģ ä¿¡æģ¯
æĢİä¹Ī çľĭ
æĢİä¹Ī è¿Ļä¹Ī
Ġè´¨éĩı éĿŀå¸¸å¥½
æĸĩ æĺİ
é«ĺ ä»¿
çī¹ æ¢Ń
æ¬¾ çļĦ
çŃī çļĦ
äºĮ ç»´
ä¹Łä¸į ä¸Ģæł·
è·Ł æľ¬
åķĨåĵģ è¯Ħä»·
èĢĮä¸Ķ æĺ¯
åįĸå®¶ è¯´
æ³¨ æĺİ
æ¶ ¯
æľŁ æľĽ
åģļå·¥ ä¸ĢèĪ¬
åģļå·¥ å¾Īç²¾èĩ´
æ£ ĭ
ä»¶ å¥Ĺ
Ġå¾Ī å®ŀçĶ¨
éľ īäºĨ
åĨħå®¹ åĮħæĭ¬
ç»ĻæĪĳ åıĳçļĦ
æĹ¶éĹ´ éķ¿
è¿Ľ çļĦ
æĭ¿ çĿĢ
çļ® äºĨ
èĭ į
åı² ä¸Ĭ
Ġä¸į è¡Į
åĮĸ äºĨ
å¼ł ä½ľéľĸ
èģĶç³» äºĨ
å¹³ éĿĻ
èħ Ĭ
ä¸įåĢ¼ éĤ£ä¸ª
è¯Ħä»· äºĨ
åİĨ ç¨ĭ
ãĢĤãĢĤãĢĤãĢĤãĢĤãĢĤãĢĤãĢĤ ãĢĤ
æ¯ı ä¸ªäºº
çļĦä¸Ģ ç§į
å®Įåħ¨ æ²¡æľī
åħĥ ä»¥ä¸Ĭ
çº¢ æ¥¼
åĪ© æķĻèĤ²
æµ· ç»µ
æ²¹ çĥŁ
ç»Ł æ²»
æĭį äºĨ
åĭ ķ
çļĦå¥½ å¤Ħ
è¡¥ æ°´
å¾Ģ ä¸ĭ
æĹ© çŁ¥éģĵ
æľīä¸Ģ å®ļçļĦ
æŁ¥ çľĭ
ç«ł èĬĤ
æ¨ ±
ï¼Įï¼Įï¼Įï¼Į ï¼Įï¼Įï¼Į
èĥĮ å¸¦
åł ¡
æĩĤ å¾Ĺ
ä¸ĸçķĮ ä¸Ĭ
èµĦ æºĲ
ç¬¬ä¸ī æ¬¡
ä»¥åīį çļĦ
ä¸Ĭåİ» çļĦ
è£Ĥ çĹķ
æīĶ æİī
çĮ ©
åħ± åĲĮ
å¤ĦçĲĨ çļĦ
çģ¯ æ³¡
ç²ĺ éĶħ
ä¸ĢèĪ¬èĪ¬ åĲ§
ä»ħ ä»ħ
å·¦ åĤ³
ï½ŀï½ŀ ï½ŀ
è¿½ è¯Ħ
æĶ¯æĮģ äº¬ä¸ľ
å¥½åĥı æĺ¯
ç´ł è´¨
æ¯į äº²
æ¼Ķ å¥ı
ä¹¦ç±į çļĦ
å²ģ åĦ¿ç«¥
åľĨ éĢļå¿«éĢĴ
çļĦå¿ĥ çĲĨ
çļĦå¿ĥ æĥħ
æĪ¿ éĹ´
é¡¹ éĵ¾
åħ° æ³¢
çľĭä¸į æ¸ħ
ä¸ĭæ¬¡è¿ĺä¼ļ åĨįæĿ¥
éĻĪ æ·³
oo d
æĳĨ è®¾
å¥ı é¸£
åĮ» åŃ¦
æĮĳ æĪĺ
å®¡ ç¾İ
å·¥åħ· ä¹¦
èĪª ç©º
èĴĻ çī¹æ¢Ń
è®¨ åİĮ
æııè¿°çļĦ å®Įåħ¨ä¸Ģèĩ´
æĹłè®º æĺ¯
æĿŁ ç¼ļ
è°ģä¹°è°ģ åĲİæĤĶ
ä¸Ģåı¥ è¯Ŀ
æľĢéĩįè¦ģ çļĦæĺ¯
èļĬ å¸Ĳ
æĲºå¸¦ æĸ¹ä¾¿
æ£Ĵæ£Ĵ åĵĴ
ãĢĤãĢĤãĢĤãĢĤãĢĤãĢĤãĢĤãĢĤãĢĤãĢĤãĢĤãĢĤãĢĤãĢĤãĢĤãĢĤãĢĤãĢĤãĢĤãĢĤãĢĤãĢĤãĢĤãĢĤãĢĤãĢĤãĢĤãĢĤãĢĤãĢĤãĢĤãĢĤ ãĢĤãĢĤãĢĤãĢĤãĢĤãĢĤãĢĤãĢĤãĢĤãĢĤãĢĤãĢĤãĢĤãĢĤãĢĤãĢĤãĢĤãĢĤãĢĤãĢĤãĢĤãĢĤãĢĤãĢĤãĢĤãĢĤãĢĤãĢĤãĢĤãĢĤãĢĤãĢĤ
ä¼Ļ ä¼´
æīĵèĦļæīĵèĦļ æīĵèĦļæīĵèĦļ
åį± éĻ©
AAAA AAAA
çĸ¾ çĹħ
æĳĦåĥı å¤´
æģ¢ å¤į
åĴĮå¼ł åŃ¦èī¯çļĦ
ç»¿æŀĹå¥½æ±ī æķħäºĭ
äºĮç»´ çłģ
å¼łä½ľéľĸ åĴĮå¼łåŃ¦èī¯çļĦ
å¥ıé¸£ æĽ²
èĴĻçī¹æ¢Ń åĪ©æķĻèĤ²
å¼łä½ľéľĸåĴĮå¼łåŃ¦èī¯çļĦ ç»¿æŀĹå¥½æ±īæķħäºĭ
0 5
0 6
E M
i r
n èĥ½æºĲ
o z
y ou
Ġ è¯¥
Ġ è´§çī©
Ġ è°¢è°¢
Ġ ä¸Ģä¸ªåŃĹ
çļĦ åŃ©åŃĲ
çļĦ çĹķè¿¹
ä¸į åİ»
ä¸į ä¹ħ
ä¸į æĺİçĻ½
å¤ º
æĺ §
ä» ĩ
æĺ¯ æŃ£çīĪ
å® ¿
å® Ļ
ä¸Ģ å°ı
ä¸Ģ åı°
å¾Ī åŀĥåľ¾
å¾Ī é¦Ļ
å¾Ī ç²Ĺç³Ļ
è¿ĺ å·®
è¿ĺ æĿ¥
è¿ĺ æľª
å°± è·Ł
çī §
æī ¼
è¿Ļ ä»½
ä¸ª çĶµè¯Ŀ
æł ½
ä¹Ł å·®
ä¹Ł ä¸ĢèĪ¬
å¤§ äºĨä¸Ģ
å¼ ¥
åľ¨ ä¸ĬéĿ¢
åľ¨ åĵªéĩĮ
åŃĲ ä¸Ĭ
è® ¼
å¤ª çŁŃ
å¤ª åģĩäºĨ
åĨ ł
ä¼ ı
åıĳ è¿ĩæĿ¥çļĦ
è¦ģ æľī
èĥ½ åľ¨
èĥ½ ç©¿
å¤ļ è¯»
è£ħ å¥½
åĮħ éĤ®
è¿ĩ ä¸Ģæ¬¡
éģ İ
å°±æĺ¯ åĮħè£ħ
å°±æĺ¯ è¿Ļæł·
çľŁ å¥½
éĿ¢ å¥¶
æĬ Ħ
éĢģ æĿ¥çļĦ
æ¯Ķ æĥ³è±¡ä¸Ń
åĿ ¨
ä¸Ģä¸ª å°ıæĹ¶
éĿŀå¸¸ åĸľæ¬¢çļĦ
åĮħè£ħ ä¹Łå¾Ī
ä½ł å°±
ä¸įå¥½ äºĨ
èĢĮ åıĪ
å± Ī
æľīçĤ¹ å·®
è¿ĺæĺ¯ æĮº
å®¢æľį çĶµè¯Ŀ
åĽŀ åĪ°
åĨį çĶ¨
ä¸¤ è¾¹
å¦Ĥ ä»Ĭ
åĽ½ å¤ĸ
æĪĲ è¿Ļæł·
æľº æŀĦ
åįķ è¯į
å½ĵ ä»Ĭ
çī¹ ä¹Ī
ä»·æł¼ åĲĪçĲĨ
å¤ĸ å¥Ĺ
å®Į æĪĲäºĨ
æ°´ æĻ¶
è¶ħ èĥ½åĬĽ
å¥½å¥½ çļĦ
å£ ®
æ¯Ķè¾ĥ å¿«
åįģ åħ«
ä»İ æĸĩ
åŃĹ æ¯į
æĢģåº¦ å¥½
è¢« éªĹ
æĶ¾ åĪ°
çº¿ æĿ¡
åĳ³éģĵ å¾Īå¥½
ä¸» äºº
Ġå¾Ī æ£Ĵ
ä¸įèĥ½ åĨį
æ¡ Ĥ
åĬł åĽº
åİŁ åĪĻ
ç»ĻæĪĳ å¯Ħ
ç»ĻæĪĳ åıĳäºĨ
éĥ½ä¸į è¦ģ
èĢĥ åı¤
æ¯Ľ é¢Ĩ
æİ¨ åį¸
å¸ĮæľĽ å¤§å®¶
Ġè¿Ļ å¥Ĺ
æ´Ĺ éĿ¢å¥¶
ä¸įè¦ģ ä¹°äºĨ
ä¸ĵ çĶ¨
ä¼ł æĴŃ
ãĢĤãĢĤãĢĤãĢĤãĢĤãĢĤãĢĤãĢĤ ãĢĤãĢĤãĢĤ
çļĦä¸Ģ äºĽ
åĲĦ èĩª
å¹² çļĦ
å¹² äºĨ
å¯Ħ åĪ°
ç¥ŀ ç§ĺ
æĮĩ åįĹ
æ¶Ī å¤±
å¤ĩ æ³¨
åĳ¨ åĽ´
åķ¦ åĴ¯
é¦Ļ æ¸¯
çĻ¾ æĲŃ
è¯ī è®¼
æº ¢
å®ŀæĥł çļĦ
å¾Ģ äºĭ
è¿Ļæł·çļĦ åķĨå®¶
å±ķ ç¤º
çĶŁæ´» ä¸ŃçļĦ
ä¸¥éĩį çļĦ
ä¹Łæ²¡ äºº
è¶³ è¶³
ĠæĦŁè§ī ä¸įéĶĻ
èĥĮ éĿ¢
èĥĮ çĿĢ
å¹¿ å·ŀ
ç®Ģåįķ çļĦ
çģµ æķı
ç«ĭ åį³
åħ´ å¥ĭ
ç¦» è°±
æīĶ æİīäºĨ
çİĭ åŃĲ
çĳ ľ
æŀ¶ äºĨ
Ġåĳ³éģĵ ä¸įéĶĻ
ä¹°åĽŀæĿ¥ å°±
å¢ĥ çķĮ
æ¿Ģ åħī
Ġå¸® åĲĮäºĭä¹°çļĦ
çĺ ¾
ä¸įå¯¹ çīĪ
ç»¿ éĩİ
èĩŃ åĳ³
å« ©
è¿Ķ ä¿®
è¾ĵ åħ¥
åºŁ äºĨ
åĢŁ åı£
èĪŀ è¹
ä»¥åĲİè¿ĺä¼ļ ä¹°
å®Ĺ æķĻ
äºĮæīĭ çļĦ
æĹ¶æľŁ çļĦ
ä¸įä¼ļåĨį ä¹°äºĨ
æĬ¹ å¸ĥ
è¯ķäºĨ ä¸ĭ
åŀĥåľ¾åŀĥåľ¾åŀĥåľ¾åŀĥåľ¾ åŀĥåľ¾åŀĥåľ¾åŀĥåľ¾åŀĥåľ¾
ä¼Ł å¤§
Ġä¸įæĢİä¹Ī å¥½
æ»ļ æ»ļ
å¿ł å®ŀ
çº¤ ç»´
RRRR RRRR
å©´ åĦ¿
æł·å¼ıä¸įéĶĻ æł·å¼ıä¸įéĶĻ
æŀ¯ çĩ¥
é¢ł è¦Ĩ
æ©¡ èĥ¶
æĹĹèĪ° åºĹ
å²ģåĦ¿ç«¥ èĴĻçī¹æ¢ŃåĪ©æķĻèĤ²
èĪŀè¹ Ī
; ãĢĬ
n ç¬¬ä¸ī
o w
t a
v er
Ġ æīĵ
Ġ è®¾è®¡
Ġ ä¸ĭåįķ
Ġ åķ¥
çļĦ æľ¬
çļĦ çī©æµģ
çļĦ åį¡
ä¸į åģľ
è¿ ģ
äºĨ ä¸Ģæ¬¡
æĺ¯ å¯¹
æĺ¯ çł´çļĦ
ä¸Ģ å¯¹
å¥½ åĿı
å¥½ è¯»çī©
å¾Ī æĹ§
å¾Ī å¼Ģå¿ĥ
ç» ĳ
éĢ Ľ
åħ ľ
è¿ĺ ä¸įéĶĻçļĦ
è¿ĺ ä»¥ä¸º
å°± åĪ°
å°± çľĭ
å°± æĸŃ
æ²¡ åĪ°
æ²¡ åĩłå¤©å°±
ä¹° è¿Ļ
ä¸ª èµŀ
ä¹Ł æĮºå¥½
æĿ¥ åĪ°
åľ¨ å®ŀä½ĵåºĹ
éĥ½ å·²ç»ı
è® ¯
å¤ª ä¸ĢèĪ¬äºĨ
éĩı çļĦ
è´¨éĩı ä¸įæĺ¯å¾Īå¥½
è¦ģ ä¹Ī
çĤ¹ åĩ»
éĹ º
å°ı ä¸Ģ
å¿« äºĨ
å¾Īå¥½ åĲĥ
æľ¬ çļĦ
æ²¡æľī äºĨ
èĥ½ è£ħ
å¾Ĺ åĪ°äºĨ
åĴĮ åĽ¾
åĴĮ åķĨå®¶
çº µ
æİ ı
å¤© æ°Ķ
æµ Ĩ
æµ Ļ
å°±æĺ¯ åľ¨
æ³ ī
æĶ¶ çļĦ
æĶ¶ éŁ³
æĦŁ æĤŁ
æ¯Ķ åĽ¾çīĩ
çŁ £
æĥ³ èµ·
æĥ³ éĢĢ
åĩº åİĤ
å¼Ģ çº¿äºĨ
éĿŀå¸¸ æħ¢
éĿŀå¸¸ æ¼Ĥäº®
å¯¹ ä¸įä¸Ĭ
ä¸įå¥½ çļĦ
èĢĮ ä¸į
è½ §
èµ· çļĦ
æį ī
æŃ£ éĿ¢
ä»Ģä¹Ī éĥ½
ä»Ģä¹Ī æĦıæĢĿ
æµģ ä¼ł
æīį åı¯
æĹł çĸĳ
çĲĨ äºĨ
å¿«éĢĴ å¤ªæħ¢
å¿«éĢĴ å¾Īå¿«
å¹´ åĲİ
è¿ĺæĺ¯ ä¹°
è¿ĺæĺ¯ åĿıçļĦ
åĳ³ åĦ¿
å®¢æľį çļĦ
ä¸¤ å¼ł
æĺİ æĻº
åīį çļĦ
Ġè´¨éĩı è¿ĺè¡Į
Ġè´¨éĩı è¿ĺä¸įéĶĻ
Ġè´¨éĩı å¾Īä¸ĢèĪ¬
æĸĩ èīº
ä»·æł¼ ä¸įè´µ
å®Į åĸĦ
åĬ¨ äºº
ä¸ī ä¸ªæľĪ
è®© ä»ĸ
åıĪ æľī
æ°Ķ æ³¡
åįģ ä¸ī
å®ļ äºĨ
éĥ¨ ä»¶
ç½ĳ åºĹ
åĪļ åĪ°
æŁ ´
æ£ ķ
æĽ´ æľī
åŃ©åŃĲ çļĦå¿ĥçģµ
åĬł åİļ
æĹ¥ åŃĲ
å®ī éĿĻ
éĥ½ä¸į å¦Ĥ
éĥ½æĺ¯ åĿıçļĦ
æĭ¿ åľ¨
èĭ Ĺ
å·²ç»ı æĺ¯
è¿ĺä¸įéĶĻ åĲ§
ä½¿çĶ¨ ä¸Ń
ç¢ ĳ
ï¼ģï¼ģï¼ģ \
æķ° çłģ
çī¹åĪ« æħ¢
æŃ» æİīäºĨ
å½± çīĩ
éĢģè´§ ä¹Łå¾Īå¿«
ä¸ĭæ¬¡ åĨį
ĠæĪĳ æĺ¯
ç»ĻåĬĽ çļĦ
è¿ŀ çİ¯
ç¬¬ä¸Ģæ¬¡ å·®è¯Ħ
åĳĺ å·¥
å¥½çľĭ çļĦ
ãĢĤãĢĤãĢĤãĢĤãĢĤãĢĤãĢĤãĢĤ ãĢĤãĢĤ
åĲĦ æĸ¹éĿ¢
æıı åĨĻ
æ¬¾å¼ı ä¸įéĶĻ
Ġå¤ª å°ı
å¥¹ ä»¬
èĽ ¾
æ¶Ī æ¯Ĵ
åĪ© çĽĬ
èµ° åĲĳ
åĳ¨ æľ«
æīĵå¼Ģ äºĨ
èĥ¶ å¸¦
ä¸ºä»Ģä¹Ī ä¸į
æĶ¿ çŃĸ
æķħ æĦı
åıĸ å¾Ĺ
ç±³ å¦
æº ĥ
é¦ĸ éĢī
éĿ¢æĸĻ å¾Īå¥½
è¶³ å¤Ł
åįİ ä¸½
å¹¿ ä¸ľ
åł µ
æĲŀ çļĦ
æĺ¯ä¸Ģ éĥ¨
æľĢåĲİ è¿ĺæĺ¯
Ġå¿«éĢĴ å¤ªæħ¢äºĨ
æĭĨ å°ģ
ç«ĭ é©¬
è² ·
èĵĿ åħī
æ¸¸ æ³³
è¯į åħ¸
æĸĩåŃ¦ åı²
è¿Ļå®¶ çļĦ
çĶ· å£«
ä¸Ģå®ļ æľīåĬŀæ³ķ
æķ£ çĥŃ
ï¼ģï¼ģï¼ģï¼ģï¼ģï¼ģï¼ģï¼ģï¼ģï¼ģï¼ģï¼ģï¼ģï¼ģï¼ģï¼ģ ï¼ģï¼ģï¼ģï¼ģï¼ģï¼ģï¼ģï¼ģï¼ģï¼ģï¼ģï¼ģ
åĿĹéĴ± çļĦä¸ľè¥¿
Ġä»Ģä¹Ī çł´
!! !
èĭ¦ éļ¾
å¥³åĦ¿ éĿŀå¸¸åĸľæ¬¢çļĦ
ç¢Ł çīĩ
ĠéĢģ äººçļĦ
æ¬º è¯Ī
æ¯ķ ä¸ļ
åº§ æ¤ħ
è¿Ľè¡Į äºĨ
çľĭä¸į åĩº
è¢ĸ åı£
æıĲä¾Ľ äºĨ
èĤ¯å®ļ æĺ¯
æģ¶å¿ĥ äºĨ
ï¼Łï¼Łï¼Łï¼Ł ï¼Łï¼Łï¼Łï¼Ł
ä¼łç»Ł çļĦ
ä¼ĳ æģ¯
èµļ éĴ±
å®¡ æł¸
çĩ ķ
å¿ĥçĲĨ åŃ¦
åįı åķĨ
æľĢå·® çļĦä¸Ģæ¬¡è´Ńçī©
è¿« ä¸įåıĬ
éĿŀå¸¸å·® éĿŀå¸¸å·®
äºĮæīĭ è´§
åĭĩ æķ¢
å¥ī åĬĿ
æ²Ĵ æľī
æľīæķĪ çļĦ
vv vv
å§Ķ åĳĺ
ä¸ŃåĽ½åİĨåı² å¸¸è¯Ĩ
æĪĳåıª ä¿¡èµĸäº¬ä¸ľ
æľºæ¢° æľºæ¢°
åģļå·¥å¾Ī ç²¾ç»Ĩ
çĪ±å¥½ èĢħ
éĺĲ è¿°
å¤©ä¸ĭ çĶµåķĨ
å°Ĭ éĩį
å¤§å¤ļ æķ°
æ²Ī ä»İæĸĩ
çİ« çĳ°
å¹½ é»ĺ
è¿ĩå¾Ĺ åİ»
åĺİ åĺİ
hus h
çĨŁè¯» æ·±æĢĿ
åĲ¯è¿ª åŃ©åŃĲçļĦå¿ĥçģµ
æĸ°è°· å¼ĺ
èĶ¡ çĲ´
çº¢æ¥¼ æ¢¦
çĳľ ä¼½
å¥½è¯»çī© åĲ¯è¿ªåŃ©åŃĲçļĦå¿ĥçģµ
å¥³åĦ¿éĿŀå¸¸åĸľæ¬¢çļĦ è¯»çī©
è¿«ä¸įåıĬ å¾ħ
3 4
\ \
m l
n ä¸ī
r i
r arr
Ġ åģļ
Ġ åīį
Ġ è´Ńä¹°
Ġ åħĪ
Ġ èĮ¶
Ġ äº¬ä¸ľçļĦ
Ġ åħ¶å®ŀ
Ġ éħįéĢģ
Ġ å®¢æľįæĢģåº¦
Ġ çľŁçļĦæĺ¯
Ġ çļ®è´¨
ä¸ Ī
çļĦ çĥŃ
çļĦ ä¸ĸçķĮ
çļĦ éĩįè¦ģ
çļĦ æĶ¯æĮģ
çļĦ æĸĩç«ł
çļĦ èĳĹä½ľ
äº ¿
ä¸į åĽŀ
ä¸į ä¹łæĥ¯
è¿ Ŀ
äºĨ åĩł
åı ®
æĺ¯ æ²¡æľī
ä¸Ģ åľº
å¾Ī ä¸¥éĩį
å¾Ī åı¯çĪ±
å¾Ī å¸ħ
åĲ ŀ
æľī ä¸¤ä¸ª
å· ¢
åľ ĭ
å°± è¡Į
å°± çĽ´æİ¥
çī µ
æĪĳ ä¸Ģ
æ²¡ åıįåºĶ
è¿Ļ ä»·
è¿Ļ è¾¹
å¿ Ĵ
éĶĻ çļĦ
æĦ ļ
å¸ ĺ
ä¹Ł æĸ¹ä¾¿
èĢ »
å¤§ å¤§
å¤ª åİļ
ä¸Ĭ å¸Ĥ
åĨ ¯
çľĭ ä¸ĭ
çľĭ å¾ħ
çľĭ æ¸ħæ¥ļ
è¡ °
åĳ ¸
è¯´ åĳ¢
è´¨éĩı éĥ½
è´¨éĩı åıĪ
è´¨éĩı çľŁçļĦ
çĽ ¼
çĽ Ĳ
è¦ģ åĳ½
èµ ĭ
åĲİ å°±
åĲİ çĽĸ
å¯ ¥
ç»Ļ ä¸ĢæĺŁ
çī© çļĦ
å¤ļ å¤§
æĹ¶ ä¸į
åĴĮ äº¬ä¸ľ
åĢ ĭ
æİ ª
åĸ Ĭ
åĸ Ķ
å°±æĺ¯ æ²¡
çĿ £
ä¸º æŃ¢
éĢģ è¾¾
è¯Ħ åĪĨ
éĿŀ å¾Ĺ
éĤ »
åŃ¦ ç§ĳ
ç©¿ èµ·
åĩº åħ¥
è¶ ģ
è¶ ĭ
åĮħè£ħ ç²¾ç¾İ
è¡Į åĬ¨
è· ¨
èĢĮ ä¸įæĺ¯
èµ· çłģ
ä»Ģä¹Ī çł´
ç² ¥
ä¸ĢèĪ¬ ä¸ĢèĪ¬
æĦŁè§ī ä¸įæĺ¯
æľīçĤ¹ ç¡¬
åģļ è¶Ĭ
å¿«éĢĴ ä¹Łå¾Īå¿«
åħ¨ éĽĨ
åľ° çĤ¹
ä¸¤ åıª
ä¸¤ æĺŁ
æĺİ å¹´
èĬ ³
èĬ Ŀ
åĨħ çļĦ
åĨħ è¡¬
åĨħ èĥĨ
Ġè´¨éĩı æĮºå¥½çļĦ
æĪĲ å°±
æľº æ²¹
åįķ çĭ¬
é«ĺ éĢŁ
ï¼ļ ãĢĬ
è®© èĩªå·±
çīĪ æĿĥ
æĢ§ åĴĮ
æĢ§ æł¼
åıĪ è´µ
è¶ħ åĩº
è¶ħ è¶Ĭ
ç¾İ å¥½
çŃī äºİ
ä¹Łä¸į æĢİä¹Īæł·
éĹ®é¢ĺ æĺ¯
ä½¿ çĶ¨äºĨ
åķĨåĵģ åıĳè¡¨
èº º
æİ¥ çĶµè¯Ŀ
ä½Ĩæĺ¯ è´¨éĩı
èµ·æĿ¥ äºĨ
ä»İ ä¸Ń
åı· æīįæĶ¶åĪ°
åŃĹ å¿ĥå¾Ĺ
äºĨä¸Ģ åĳ¨
å¸¦ æĿ¥
æķĪæŀľ ä¸ĢèĪ¬
åĳ³éģĵ ä¸įéĶĻ
åĨħå®¹ ä¹Łå¾Ī
åİŁ çīĪ
å¤Ħ äºİ
ç»ĻæĪĳ ä»¬
æĺ¾ çĦ¶
ãĢĢãĢĢ ãĢĢ
Ġè¿Ļ è¡£æľį
è¶Ĭ åģļè¶Ĭ
å¾Īå¤ļ ä¸ľè¥¿
ä¸įè¦ģ è´Ńä¹°
åıį æĬĹ
æŃ» äºº
ä¸ĵ é¢ĺ
åºĶè¯¥ åı¯ä»¥
å¹³ è¡¡
ä¸ĭæ¬¡ åĨįä¹°
éĢī äºĨ
ä¸ĩ åį·
ä¸ĩ åĨĮ
ç¬¬ä¸Ģæ¬¡ åľ¨äº¬ä¸ľ
20 11
èĮ «
åĽłä¸º æĪĳ
æĸ¯ åį¡
åģı é«ĺ
ç¥ŀ éĢŁ
æĶ¶åĪ°è´§ äºĨ
Ġçī©æµģ éĢŁåº¦
ç¿ Ķ
å»ºè®® ä¸įè¦ģä¹°
æīĵå¼Ģ çľĭ
è¿ĺä¼ļ åĨįæĿ¥çļĦ
å¡ĳ èĥ¶
çĻ¾ å¤ļ
æĬĺ çĹķ
åĵª äºĽ
çŁ¥è¯Ĩ çļĦ
èĨ Ģ
è§Ĵ èī²
éĢı äºĨ
å°Ķ çļĦ
è°ģ çŁ¥éģĵ
åĩłå¤© äºĨ
ï¼Įï¼Įï¼Įï¼Į ï¼Įï¼Į
æ¹ ĺ
æĿ¾ åĬ¨
è§Ħ å¾ĭ
åŁºæľ¬ çļĦ
å¨ ±
å¨ ´
æĺ¯ä¸įæĺ¯ æŃ£åĵģ
çĶ³ éĢļå¿«éĢĴ
åĵģçīĮ çļĦ
æĪ´ äºĨ
åĲİæĤĶ ä¹°äºĨ
åĳµåĳµ åĳµåĳµ
åĲ¸ çĽĺ
Ġç»Ļ æľĭåıĭä¹°çļĦ
å®³ å¾Ĺ
æĹłæ³ķ ä½¿çĶ¨
è£Ĥ å¼ĢäºĨ
ç²¾èĩ´ çļĦ
æĩĴå¾Ĺ æį¢
éĴ¢ éĵģ
åĴĭ æł·
ç²ī èī²
æĺ¯æĪĳ æĥ³è¦ģçļĦ
çķĻ ä¸ĭ
çģ¯ åħī
éĶĢ éĩı
åĨįä¹Łä¸į ä¹°äºĨ
ç»§ç»Ń è´Ńä¹°
è¯¾ åłĤ
çİ¯ ä¿Ŀ
çİ¯ èĬĤ
åĲĮæĹ¶ ä¹Ł
æ¦ ľ
çĽ¸ä¿¡ äº¬ä¸ľ
Ġåģļå·¥ ç²Ĺç³Ļ
è¯¦ç»Ĩ çļĦ
å°±æ²¡ çĶµäºĨ
ãĢģãĢģ ãĢģ
è¸ ¢
åĶ¯ è¯Ĩ
åĿĲ çĿĢ
Ġå¸® åĪ«äººä¹°çļĦ
åįĩ çº§
åħ° åħĭ
æł¹æľ¬å°± æ²¡æľī
ĠæĮºå¥½ çĶ¨çļĦ
ĠæĮºå¥½ çľĭçļĦ
åĲ« ä¹ī
å¿į äºĨ
å°±è¿Ļæł· äºĨ
æ¯ķç«Ł æĺ¯
Ġä¹°çļĦ æĹ¶åĢĻ
çĽ¸å·® å¤ªå¤§
èİ·å¾Ĺ å¥ĸåĬ±
ä¸įå»ºè®® ä¹°
åŃķ æľŁ
çĶŁåĳ½ çļĦ
ç§¯åĪĨ è§ĦåĪĻ
å¤ıå¤© ç©¿
ç¾Ĭ æ¯Ľ
ãĢĳ ãĢĲ
åĹ¯ åĹ¯
è°ģä¹°è°ģ ä¸Ĭå½ĵ
è°ĥæķ´ åķ¦
è¸ı æĿ¿
æĬĺèħ¾ äºĨ
åıĸæ¶Ī è®¢åįķ
æĹĭ è½¬
ä¸Ģé¢ĹæĺŁ éĥ½ä¸įæĥ³ç»Ļ
çļĦè¯Ħä»· æīįåı¯
æĹģ è¾¹
æĿł æĿł
å¾Īå¥½å¾Īä¸įéĶĻéĿŀå¸¸çļĦæ£Ĵè¶ħçº§NICEå¾Īå¥½å¾Īä¸įéĶĻéĿŀå¸¸çļĦæ£Ĵè¶ħçº§NICE å¾Īå¥½å¾Īä¸įéĶĻéĿŀå¸¸çļĦæ£Ĵè¶ħçº§NICEå¾Īå¥½å¾Īä¸įéĶĻéĿŀå¸¸çļĦæ£Ĵè¶ħçº§NICE
åļ ¼
å¡Į ç³Ĭæ¶Ĥ
é³ ŀ
å¤§å°ıä¹Ł åĲĪéĢĤ
éĢļä¿Ĺ æĺĵæĩĤ
éŁ³åĥı åķĨåĵģè¯Ħä»·
å¤©æĹł çĲĨçĶ±
æīĺé©¬æĸ¯åĴĮæľĭåıĭ ä¸Ģå®ļæľīåĬŀæ³ķ
åħĥä»¥ä¸Ĭ åķĨåĵģåıĳè¡¨
åŃĹå¿ĥå¾Ĺ çļĦè¯Ħä»·æīįåı¯
ç§¯åĪĨè§ĦåĪĻ è°ĥæķ´åķ¦
éŁ³åĥıåķĨåĵģè¯Ħä»· ç§¯åĪĨè§ĦåĪĻè°ĥæķ´åķ¦
åħĥä»¥ä¸ĬåķĨåĵģåıĳè¡¨ å¤§äºİ
åŃĹå¿ĥå¾ĹçļĦè¯Ħä»·æīįåı¯ èİ·å¾Ĺå¥ĸåĬ±
0 2
3 1
5 1
5 9
7 8
8 9
W i
| |
Ġ *
Ġ æĹł
Ġ æľĭåıĭ
Ġ çº¸
Ġ æĭ¿åĪ°
Ġ ä¸ºäºĨ
Ġ çĽ¸å½ĵ
Ġ éĩĮéĿ¢çļĦ
Ġ çŃīäºĨ
Ġ èĢ³æľº
çļĦ ä½ľçĶ¨
çļĦ ç²¾ç¥ŀ
ä¸į åıĳè´§
ä¸į è®²
ä¸į æĺİæĺ¾
ä¸į æŃ¢
å¾ Į
æĺ¯ éĿŀå¸¸
ä¸Ģ çķª
å¥½ åĩłä¸ª
åĪ ĥ
å¾Ī åĢ¼
å¾Ī ç®Ģåįķ
æľī çĶ¨çļĦ
æľī éĻĲ
å°± åıĺ
å°± çĥĤäºĨ
æĪĳ è¦ģçļĦ
ä¹° äºıäºĨ
è¿Ļ ä¸ĢçĤ¹
éĶ Ĳ
æĦ ģ
å¸ ĸ
ä¹Ł æĮºå¥½çļĦ
åĵ Ģ
åĵ ĩ
éĿ ĵ
åľ¨ éĤ£
éĥ½ è§īå¾Ĺ
è® Ģ
ä¸Ĭ æĿ¥
çĽ ¾
çĽ Ī
æŃ ī
ç»Ļ äº¬ä¸ľ
æĹ¶ çļĦ
æĹ¶ åĪ»
æł· çļĦ
è¥¿ èĹı
ä¸ĭ è®¢åįķ
å®ŀ ä¾ĭ
è¿ĩ åĲİ
ä¸ľè¥¿ è¿ĺä¸įéĶĻ
å°±æĺ¯ é¢ľèī²
åı¯ä»¥ æĶ¾
æĶ¶ è´¹
çľŁ è¯ļ
æĦŁ åı¹
å¿ĥ ä¸Ń
æĥ³ çĿĢ
éĤ ª
åĩº è´§
åĩº åıĳ
èĩª ä»İ
å¼Ģ ä¸įäºĨ
éĿŀå¸¸ èĪĴæľį
æĮº æ»¡æĦı
åķĨ åºĹ
åĮħè£ħ éĥ½æ²¡æľī
åĮħè£ħ è¢ĭ
éĤ£ å°±
æŃ£ å®Ĺ
è° ¦
æīį åĪ°è´§
æĦŁè§ī è¿ĺè¡Į
æĹł äºº
æľīçĤ¹ ç´§
åģļ äºĭ
åħ¨ äºĶåĪĨ
æľĢ ä¸įæ»¡æĦı
åľ° éģĵ
å®¢æľį äººåĳĺ
ä¸Ģæ¬¡ æĢ§
è¡£ è¡£
æīĵ åĮħ
æīĵ æ°Ķ
åĩł åĪĨéĴŁ
è¯» è¿ĩ
æ³ķ çļĦ
ä¸İ å®ŀéĻħ
æ± ª
æĸĩ ç¬Ķ
éŀĭ éĿ¢
èĢģ å®¶
æ°´ æŀľ
äºĭ ä¸ļ
ä¸ī éģį
è®© åŃ©åŃĲ
åıĪ æħ¢
éª Ħ
ç¾İ å®¹
ç¾İ å¥½çļĦ
çŃī æĪĳ
ï¼ī ãĢģ
è·Ł æĪĳè¯´
éŁ³ èī²
å¾Īåĸľæ¬¢ çļĦ
æĸ° çĶŁ
ç»ĵ æĿŁ
è§£ è¯»
æ³¨ éĩį
éĥ¨ ä½į
éĥ¨ éĹ¨
åŃĹ çļĦ
æĥħ è¶£
åĽ¾çīĩ çļĦ
Ġä¸ľè¥¿ æĶ¶åĪ°
ä¸ĢçĤ¹ ä¹Łä¸įå¥½
åħ¬ åħ±
ä»¥åĲİ åĨį
æĬĬ è´§
ä¿Ŀ éĻ©
Ġå¾Ī èĸĦ
Ġå¾Ī ä¸įæ»¡æĦı
ä¸įèĥ½ ç©¿
åı£ åŃĲ
åĨħå®¹ ä¸°å¯Į
åĨħå®¹ ç®Ģä»ĭ
ç»ĻæĪĳ çļĦ
ä¸įè¿ĩ è¿ĺæĺ¯
åķĨå®¶ è¯´
è¿Ļä¹Ī å¥½çļĦ
çĹ ´
æİ¨ å¹¿
ä¹Ĳ è¶£
Ġä¸į çŁ¥
çī¹åĪ« çļĦ
çī¹åĪ« å·®
æŃ¤ å¤ĸ
Ġè¿Ļ ä¹¦
è½¦ éĩĮ
è§ģ è¯Ĩ
éĢģè´§ å¾Īå¿«
èµŀ ç¾İ
ĠæĪĳ çļĦ
ĠæĪĳ ä¹°çļĦæĺ¯
è¿Ĳ è¡Į
Ġè¡£æľį è´¨éĩı
ä¸įä¼ļ æľī
åİļ éģĵ
ä¿® æĶ¹
è¯»ä¹¦ èĥ½
è´´ çļĦ
è´´ ä¸Ĭ
çķĮ çļĦ
æĮĩ çº¹
å»ºè®® ä¹°
å¸ĥ çļĦ
ç²Ĺ å¿ĥ
é©¬ å°Ķ
å°ģ åı£
åĭ ¾
åİĨåı² çļĦ
åİĨåı² çľŁçĽ¸
é¦ĸ æ¬¡
æ°ĳ åĽ½
å² ¸
ä¸¥éĩį ä¸įç¬¦
æĹ© å·²
æľīä¸Ģ å®ļ
è¿Ļæ¬¡ ä¹°çļĦ
æĲŀ ç¬ĳ
ç´§ å¯Ĩ
ç¬¬ä¸Ģ å¤©
æľĢåĲİ ä¸Ģæ¬¡
Ġæ²¡ æĥ³åĪ°
èī¯ å¥½
å¼Ĥ å¸¸
è¦ģæ±Ĥ æį¢è´§
ĠåĮħè£ħ ä¸įéĶĻ
è¯¦ è§£
çīĽ èĤī
å±Ĥ çļĦ
çĮ Ľ
å¤©æīį æĶ¶åĪ°è´§
éķľ åŃĲ
æĬ¥ éĶĢ
å¯Į æľī
éĺħè¯» çļĦ
çĨ ı
é»Ħ èī²çļĦ
å¼ķ å¯¼
é¡º åĪ©
ä¸įæĥ³ è¯´
Ġè¿ĺæ²¡ ç©¿
è·ĳ äºĨ
16 0
æłĳ æľ¨
18 0
çĪ¸ å¦Ī
éĻ¢ æł¡
åĿĲ åŀ«
æµªè´¹ äºĨ
åĨĽ äºĭ
æ¥¼ ä¸ĭ
åºĵ åŃĺ
ĠéĢģè´§ å¿«
åįĬä¸ªæľĪ äºĨ
å·®åĪ« å¤ªå¤§
ä¾Ŀ æį®
ä¸įåĴĭ æł·
åºĬ åįķ
çİ°ä»£ æ±īè¯Ń
å¹¸ å¥½
ä»¿ ä½Ľ
åĿĩ åĮĢ
æĥ³è±¡ä¸Ń å¥½
ä¾§ éĿ¢
æĳ© æĭī
ä¹°ä¹¦ äºĨ
ç¼© æ°´
åĪ¤ æĸŃ
ä¿ĥ è¿Ľ
èģļ æĭ¢
çĥ« æīĭ
ä»¥åĲİåĨįä¹Łä¸į ä¼ļ
éĻ¶ åĨ¶
åķĬåķĬåķĬåķĬ åķĬåķĬåķĬåķĬ
æĪª åĽ¾
ä¸Ńåįİ ä¹¦å±Ģ
è¿ĩæľŁ äºĨ
èļĬ åŃĲ
æĹĭ å¾ĭ
ç° §
è¯·æ³¨æĦıåķĨåĵģåĮħè£ħè¯·æ³¨æĦıåķĨåĵģåĮħè£ħè¯·æ³¨æĦıåķĨåĵģåĮħè£ħè¯·æ³¨æĦıåķĨåĵģåĮħè£ħè¯·æ³¨æĦıåķĨåĵģåĮħè£ħè¯·æ³¨æĦıåķĨåĵģåĮħè£ħè¯·æ³¨æĦıåķĨåĵģåĮħè£ħè¯·æ³¨æĦıåķĨåĵģåĮħè£ħè¯·æ³¨æĦıåķĨåĵģåĮħè£ħè¯·æ³¨æĦıåķĨåĵģåĮħè£ħè¯·æ³¨æĦıåķĨåĵģåĮħè£ħè¯·æ³¨æĦıåķĨåĵģåĮħè£ħè¯·æ³¨æĦıåķĨåĵģåĮħè£ħè¯·æ³¨æĦıåķĨåĵģåĮħè£ħè¯·æ³¨æĦıåķĨåĵģåĮħè£ħè¯·æ³¨æĦıåķĨåĵģåĮħè£ħ è¯·æ³¨æĦıåķĨåĵģåĮħè£ħè¯·æ³¨æĦıåķĨåĵģåĮħè£ħè¯·æ³¨æĦıåķĨåĵģåĮħè£ħè¯·æ³¨æĦıåķĨåĵģåĮħè£ħè¯·æ³¨æĦıåķĨåĵģåĮħè£ħè¯·æ³¨æĦıåķĨåĵģåĮħè£ħè¯·æ³¨æĦıåķĨåĵģåĮħè£ħè¯·æ³¨æĦıåķĨåĵģåĮħè£ħè¯·æ³¨æĦıåķĨåĵģåĮħè£ħè¯·æ³¨æĦıåķĨåĵģåĮħè£ħè¯·æ³¨æĦıåķĨåĵģåĮħè£ħè¯·æ³¨æĦıåķĨåĵģåĮħè£ħè¯·æ³¨æĦıåķĨåĵģåĮħè£ħè¯·æ³¨æĦıåķĨåĵģåĮħè£ħè¯·æ³¨æĦıåķĨåĵģåĮħè£ħè¯·æ³¨æĦıåķĨåĵģåĮħè£ħ
ç¾½ç»Ĵ æľį
èķ ¾
åģ¶ å°Ķ
å¤ªéĩį äºĨ
éģ¿ åħį
é«ĺç«¯ å¤§æ°Ķä¸Ĭæ¡£æ¬¡
çĥŃæ°´ åĻ¨
è¿ĺå¥½å¤Łæ¸ħæĻ°çļĦè¿ĺå¥½å¤Łæ¸ħæĻ°çļĦè¿ĺå¥½å¤Łæ¸ħæĻ°çļĦè¿ĺå¥½å¤Łæ¸ħæĻ°çļĦ è¿ĺå¥½å¤Łæ¸ħæĻ°çļĦè¿ĺå¥½å¤Łæ¸ħæĻ°çļĦè¿ĺå¥½å¤Łæ¸ħæĻ°çļĦè¿ĺå¥½å¤Łæ¸ħæĻ°çļĦ
ç½¢ äºĨ
é¾Ł éĢŁ
nåĽĽ å·Ŀ
çıįèĹı æľ¬
å§ĳ å¨ĺ
å´© æºĥ
æ´Ĺåıĳ æ°´
EM S
è¿ŀçİ¯ çĶ»
èĽ¾ æĳ©æĭī
) ï¼Į
4 8
9 5
; ï¼ģ
P S
b b
e c
n ä¸ŃåĽ½
n å¿«ä¹Ĳ
w j
w w
y y
z wj
â Ĺ
Ġ çĶ¨çļĦ
Ġ åıĳç¥¨
Ġ æĹłè¯Ń
Ġ æĭį
Ġ è¯´æĺ¯
Ġ ç»Ŀå¯¹
Ġ å¦Īå¦Ī
Ġ å¥½å¥½å¥½
Ġ æĭ¿åĪ°æīĭ
Ġ åıªèĥ½è¯´
Ġ å¤ªå·®åĬ²äºĨ
Ġ è¢«åŃĲ
Ġ è£ĻåŃĲ
çļĦ æľī
çļĦ éĤ£ç§į
ä¸į æĺĵ
ä¸į éĩĬ
ä¸į æĶ¯æĮģ
ä¸į å¹²åĩĢ
ä¸į åłª
äºĨ å¯¹
å¥ İ
æĺ¯ çļĦ
æĺ¯ ä»İ
ä¸Ģ ä½ĵ
å¥½ å¥ĩ
åĪ ĳ
å¾Ī éķ¿
å¾Ī ä¸Ĭæ¡£æ¬¡
å¾Ī åĲĪèĦļ
åĲ ±
æľī èĤ¡
ç» İ
è¿ĺ çľŁæĺ¯
å°± æĿ¥
å°± è¢«
æ²¡ çľĭåĪ°
ä¹° ç»Ļ
çĶ¨ è¿Ļä¸ª
çĶ¨ åĬĽ
çĶ¨ å®ĮäºĨ
åĪ° æĪĳ
ä¹Ł åı¯
ä¸įéĶĻ åķĬ
æĿ¥ è®²
å¤§ çĤ¹
å¤§ åı·
å¤§ ä¸ĢçĤ¹
å¤§ çº²
ä»¥ æŃ¤
åľ¨ åĵª
éĥ½ æİīäºĨ
å¤ª è½»
ä¸Ĭ çģ«
äºº åľ¨
æĶ Ģ
åıĳ äºĨä¸Ģ
è´¨éĩı çľŁå¿ĥ
åı¯ è¯»
çĤ «
å¤ļ å½©
è£ħ ä¸Ĭåİ»
åĸ Ĥ
åĸ ĩ
æĭ ¾
æ¯Ķ èľĹçīĽ
æ¯Ķ åĪ«å®¶
æĥ³ éĹ®
åĸľæ¬¢ è¿Ļä¸ª
ç©¿ ç©¿
æ»¡ æ»¡
æ»¡ åĩı
å¼Ģ ç®±
éĿŀå¸¸ å¥½çļĦ
ä¸įæĺ¯ ä¸Ģä¸ª
åĮħè£ħ ä»Ķç»Ĩ
å¯¹ è¯Ŀ
å¯¹ çħ§
åŀ ®
çĶµ éĩı
åĢ¼ è¿Ļä¸ªä»·
åī ĸ
ä½Ĩ æĦ¿
æĶ¶åĪ° çļĦæĺ¯
åĪ« æīŃ
æīį æľī
æĦŁè§ī åĪ°
æĦŁè§ī ä¸įåĢ¼
éĢĢ çļĦ
éĢĢ éĴ±
æĹł éĻĲ
åģļ åĪ°
åħ¨ æĸ°çļĦ
è¿ĺæĺ¯ æľīçĤ¹
åĽŀ å¤´
æīĵ åĩ»
çĽ´ å¾Ĺ
å¦Ĥ æľī
å¦Ĥ åĲĮ
ä¹°äºĨ ä¸ī
éĩį åĲ¯
å½ĵ ä¸Ń
å½ĵ å¹´
å½ĵ æĪĲ
æĸĩ æĳĺ
ä¸ī æĢĿ
æ°Ķ æŃ»äºĨ
æ¯Ķè¾ĥ æħ¢
è·Ł çĿĢ
è·Ł åįĸå®¶
ä½¿ æĪĳä»¬
ä½Ĩæĺ¯ æ²¡æľī
å¤± åİ»
æ³¨ çĸı
è¯· å¤§å®¶
äºĨä¸Ģ åı¥
æŁ ³
è¿Ļæł· çļĦä¹¦
æĬĬ æĪĳ
æĬĬ æĪĳçļĦ
å§ »
æ¡ ĳ
åĬł ç»Ĵ
æĢ» åħ±
æł¹æľ¬ ä¸įåĢ¼è¿Ļä¸ªä»·
æł¹æľ¬ å°±æ²¡
èĢĥ å¯Ł
ä¸ĢçĽ´ éĥ½
ä¸ĢçĽ´ æ²¡æľī
çľŁçļĦ å¥½
èģĶ æĥ³
å¸ĮæľĽ åįĸå®¶
åıĺ çļĦ
è½¦ è´¹
ç©º çļĦ
å¤±æľĽ çļĦ
åĵĪ åĵ¦
æĸ¹ä¾¿ çļĦ
çº¸ ç®±
å¼ł å°ı
éĢģè´§ éĢŁåº¦å¿«
åĽĽ å¤§
Ġä¸įéĶĻ åĵ¦
äºĶ å¤©
åħ¥ äºĨ
èģĶç³» æĪĳ
å¸Ī èĮĥ
å¹¶ å¯¹
ç¬¬ä¸Ģæ¬¡ éģĩåĪ°
é© °
åĿĹ çļĦ
çļĦä¸Ģ åĪĩ
ä½łä»¬ å®¶
æ¬¾å¼ı å¥½çľĭ
çļĦäºº çī©
å¤§å°ı æŃ£åĲĪéĢĤ
å¿ħ çĦ¶
çľŁæĺ¯ æĹłè¯Ń
å°Ĩ åħ¶
éĢĤåĲĪ åĪĿåŃ¦èĢħ
åĽŀæĿ¥ äºĨ
çº¢ çļĦ
æĪĸ æĺ¯
ç§ĳ æĻ®
å¡ĳ éĢł
ä¹ĭåīį çļĦ
çĻ¾ å¹´
å®¹æĺĵ æİī
æĬĺ äºĨ
ä¼ĺ è´¨
è®©æĪĳ å¤±æľĽ
çļĦå¥½ ä¹¦
å°±ä¸į è¡ĮäºĨ
ç©¶ ç«Ł
å¯¼ è¯»
ä½İ éŁ³
ä½İ ç¢³
è§Ĵ èĲ½
èĹ ī
å±ķ å¼Ģ
éĽĨ è§£
æľīä¸Ģ äºĽ
äº² èº«
çľĭçľĭ åĲ§
èĥĮ åĲİ
æĲŀ å¾Ĺ
æĿ¾ ç´§
ç´§ äºĨ
ĠéĿŀå¸¸ åĸľæ¬¢
åĴĮåĽ¾çīĩ ä¸įä¸Ģæł·
åĲ¸ åĬĽ
å®³ çļĦ
èĤ¡ ç¥¨
è¯¯ å·®
æį¢äºĨ ä¸Ģæ¬¡
è¿Ļæľ¬ä¹¦ è¿ĺä¸įéĶĻ
ä¸Ģå®ļ ä¼ļ
æŁĶ åĴĮ
æİīèī² åģĩçļĦ
åĨĮ åŃĲ
åĩı å°ĳ
åı¶ åŃĲ
æĢª çļĦ
éĢļè¿ĩ å¯¹
ä»·å»ī çī©ç¾İ
å½ĵæĹ¶ çļĦ
æĿĥ åĬĽ
è·ŁåĽ¾çīĩ ä¸Ģæł·
an g
ç¼Ŀ éļĻ
åĩĳåĲĪ åĲ§
åĽ´ å·¾
åĨ¬ åŃ£
æĭĸ éŀĭ
æĭĸ æĬĬ
Ġç¬¬ä¸Ģæ¬¡ ä¹°
æ±Ł æ¹ĸ
èĻļ åģĩ
è¿· ä½ł
è¯º æĸ¯
åıĳçĶŁ çļĦ
åıĳçĶŁ äºĨ
Ġä¸įéĶĻçļĦ ä¹¦
æ¯« ä¸į
èĿ ī
èİ« åĲį
çıį çıł
æŃª äºĨ
æĹ¶ä»£ çļĦ
åľ£ è¯ŀ
æ¢¦ æĥ³
åĨľ æĿĳ
åįı è°ĥ
åĪ°åºķ æĺ¯
ĠæĶ¶åĪ°è´§ äºĨ
æ¸£ æ¸£
ä½ľå®¶ æĸĩæĳĺ
åıĶ åıĶ
æķ°æį® çº¿
å°Ŀ è¯ķ
æ¾ Ħ
çºł çº·
æĥ³åĥı ä¸Ń
æīĵåį° æľº
ä¸Ĭæ¬¡ ä¹°çļĦ
å¹» æĥ³
åĳ¼ åĲ¸
åĵ¥åĵ¥ åĵ¥åĵ¥
æĶ¯ä»ĺ å®Ŀ
ç¬Ķè®°æľ¬ çĶµèĦĳ
ä¸Ĭèº« æķĪæŀľ
å¿ĺè®° äºĨ
// //
éĢĲ æ¸Ĳ
å¤ªè¿ľ äºĨ
éĥ½åĿıäºĨä»¥åĲİè¯·æ³¨æĦıäº§åĵģåĮħè£ħåĪ«ç¨ĢéĩĮç³Ĭæ¶ĤçļĦåĮħäºĨéĥ½åĿıäºĨä»¥åĲİè¯·æ³¨æĦıäº§åĵģåĮħè£ħåĪ«ç¨ĢéĩĮç³Ĭæ¶ĤçļĦåĮħäºĨéĥ½åĿıäºĨä»¥åĲİè¯·æ³¨æĦıäº§åĵģåĮħè£ħåĪ«ç¨ĢéĩĮç³Ĭæ¶ĤçļĦåĮħäºĨéĥ½åĿıäºĨä»¥åĲİè¯·æ³¨æĦıäº§åĵģåĮħè£ħåĪ«ç¨ĢéĩĮç³Ĭæ¶ĤçļĦåĮħäºĨ éĥ½åĿıäºĨä»¥åĲİè¯·æ³¨æĦıäº§åĵģåĮħè£ħåĪ«ç¨ĢéĩĮç³Ĭæ¶ĤçļĦåĮħäºĨéĥ½åĿıäºĨä»¥åĲİè¯·æ³¨æĦıäº§åĵģåĮħè£ħåĪ«ç¨ĢéĩĮç³Ĭæ¶ĤçļĦåĮħäºĨéĥ½åĿıäºĨä»¥åĲİè¯·æ³¨æĦıäº§åĵģåĮħè£ħåĪ«ç¨ĢéĩĮç³Ĭæ¶ĤçļĦåĮħäºĨéĥ½åĿıäºĨä»¥åĲİè¯·æ³¨æĦıäº§åĵģåĮħè£ħåĪ«ç¨ĢéĩĮç³Ĭæ¶ĤçļĦåĮħäºĨ
ok ok
é«ĺçŃī æķĻèĤ²
åĺ» åĺ»
æ´Ĺè¡£ æľº
åĳ¨å¹´ çıįèĹıæľ¬
è³ª éĩı
ä¹¾ éļĨ
oz e
å¤ļè¯» åĩłæ¬¡
æĶ¶éŁ³ æľº
8 5
8 8
; ï¼Ī
M M
X X
_ &
a u
a ll
l d
n A
o s
u n
Ġ 3
Ġ 5
Ġ åıĪ
Ġ å¥½å¥½
Ġ èĬ±
Ġ å¸ĮæľĽ
Ġ åıĮ
Ġ å¦Ĥæŀľ
Ġ å±ħçĦ¶
Ġ å®ŀåľ¨
Ġ åħ¬åı¸
Ġ æīĭå¥Ĺ
Ľ çĽ¾
çļĦ è¿ĺæĺ¯
çļĦ å®¢æľį
çļĦ å·¥ä½ľ
çļĦ ç¤¼çī©
çļĦ æĸĩåŃĹ
äº ķ
ä¸į ä¸į
ä¸į åİĮ
äºĨ äºĨ
åı ¬
æĺ¯ æĮĩ
æĺ¯ çº¯æ£īçļĦ
ä¸Ģ æĶ¯
ä¸Ģ è¾Ī
è´ ¾
å¥½ å·®
å¥½ äºĽ
å¾Ī å¼º
å¾Ī æĺİæĺ¾
å¾Ī å¹²åĩĢ
å¾Ī çĶŁæ°Ķ
å¾Ī è´´å¿ĥ
æľī è´§
æľī å°ı
æľī è¿Ļä¹Ī
æľī è®¸å¤ļ
æľī ä¿Ŀè¯ģ
æĪ ļ
è¿ĺ è¢«
è¿ĺ çľģ
å°± è¡ĮäºĨ
æĪĳ ç»Ļ
æĪĳ éĹ®
æĪĳ è®¤ä¸º
æ²¡ åıĳ
æ²¡ éĢģ
æ²¡ æĹ¶éĹ´
è¿Ļ ä¹Ł
çĶ¨ åĵģ
æĹ º
åĪ° è¾¾
å¸ Ĩ
å¤§ èĩ´
å¤ª å°ĳäºĨ
ä¸Ĭ åįĬå¹´
ä¼ į
ä¼ Ĳ
ä¹¦ åĲį
è¯´ ä¸į
è¯´ ç»Ļ
åı¯ éĿł
åı¯ è½¬æį¢
æķ ¦
æķ ²
åĲİ ç»Ń
åĲİ è½®
å°ı çĤ¹
å°ı å°ıçļĦ
æ²¡æľī æĥ³è±¡çļĦ
å¤ļ å¤©
èĪ Į
èĩ £
è£ħ çĿĢ
è£ħ è®¢
åĴĮ æııè¿°
åĴĮ è°Ĳ
åĢ ¡
ä¸ĭ éĿ¢çļĦ
å¤© é¹ħ
éģ µ
ä¸Ń æīĢ
è¾ °
çľŁ åŀĥåľ¾
éĿ¢ åĮħ
ä¼ļ è¯´è¯Ŀ
ä¸º æĪĳä»¬
éĢģ ä¸Ģ
çŁ ©
çŁ ĽçĽ¾
éĤ ĵ
çĿĢ çļĦ
å¼Ģ è½¦
ä¸Ģä¸ª å¤§
éĿŀå¸¸ ä¾¿å®ľ
åĮħè£ħ ä¹Łå¾Īå¥½
ä¹°çļĦ ä¸Ģæł·
ä½ł ä¼ļ
ä½ł èĩªå·±
ä»ĸ æĺ¯
çĶµ ç¼Ĩ
èĢĮ æĪĳä»¬
è´Ń åħ¥
ä½Ĩ è¿ĺæĺ¯
åĪ« ä¹°äºĨ
æŃ£ å¼ı
ä»Ģä¹Ī åİŁåĽł
ä¹ĭ ç±»çļĦ
ä¹ĭ æī¹åĪ¤
åİ» å®ŀä½ĵåºĹ
è° ħ
åĪĨ æķ°
æĹł æįŁ
åħ¨ å®¶
æľĢ ä¸»è¦ģ
èĦ ¾
è¿ĺæĺ¯ æ²¡æľī
è¿ĺæĺ¯ å¾Īå¥½çļĦ
ä¸¤ æł·
ä¸¤ å¹´
ä¸¤ åĳ¨
æīĵ åŃĶ
åĬĽ æ±Ĥ
Ġè´¨éĩı çľŁå¿ĥ
è¿ĺåı¯ä»¥ çļĦ
æĸĩ ä»¶
é«ĺ ä¸Ń
éĴ± åħĪçĶŁ
éŀĭ çļĦ
éŀĭ çłģ
ä»·æł¼ åĲĪéĢĤ
èĤ ĭ
è¡£æľį è´¨éĩı
åıĪ ä¸įæĺ¯
åıĪ ä¹°äºĨ
éĺ ģ
éĥ İ
æľĪ çļĦ
åĲĮ ç±»
å·² çŃ¾æĶ¶
ä¹Łä¸į æĢİä¹Ī
æ¯Ķè¾ĥ å°ı
æİī é¢ľèī²
è·Ł å®¢æľį
éŁ³ ç®±
éĢŁ åĨĻ
èĢĮä¸Ķ è¿ĺæľī
Ġè¿ĺ ä¸įéĶĻçļĦ
çģ ¼
ç²¾ å¿ĥ
ç¼ ł
æ¶ ¤
äºĨä¸Ģ ç§į
å¸¦ äºĨ
æĢģåº¦ å·®
æ¸ħ åįķ
æ¸ħ çĪ½
æŁ ±
ä¸įçŁ¥éģĵ æķĪæŀľ
ä¸įçŁ¥éģĵ æĢİä¹Īæł·
ä¸įçŁ¥éģĵ æĺ¯ä»Ģä¹Ī
åĢ¼å¾Ĺ ä¸Ģ
å§ ¬
ä¸įèĥ½ ä¹°
éĵ Ń
æĢ» ç»Ł
åĲĥ èµ·æĿ¥
åİŁ ä»·
åİŁ åİĤ
è¿Ľ æĿ¥
äº§åĵģ è´¨éĩı
éĥ½ä¸į åĢ¼
å¸Į èħĬ
å¥Ĺ é¤Ĳ
ä½¿çĶ¨ çļĦ
çĻ½ å®ī
æİ¨ çĲĨ
éĤ£ä¹Ī å·®
åı² åŃ¦
å¾Īå¤ļ äºº
ç©º æ°Ķ
å¥³ ç¥ŀ
çĶ¨çļĦ æĹ¶åĢĻ
åĽĽ åįģ
äºĶ éĩĳ
åħĪ åĲİ
è¿Ĳ éĢģ
èĮ Ĥ
åİļ éĩį
åıĳçİ° èĩªå·±
æ® ¿
åį¡ äºĨ
åħ¶ä»ĸ äºº
çĥŃ çļĦ
åģı å·®
è¯»ä¹¦ æĺ¯ä¸Ģç§į
éĩĳ çīĮ
åıªèĥ½ ç»Ļ
å¯Ħ äºĨ
å»ºè®® è´Ńä¹°
Ġä¹¦ çļĦåĨħå®¹
ç±» ä¼¼
çľĭçĿĢ è¿ĺè¡Į
è¿Ļç§į æĥħåĨµ
çĻ¾ åĪĨ
æĿ¯ çĽĸ
æĬĺ åıł
åıĸ ä»¶
æº ¶
çļĦå¥½ çĶ¨
ä¸Ĭå½ĵ çļĦæĦŁè§ī
è¡¥ åħħ
æľīäºĽ å°ı
Ġåŀĥåľ¾ è´§
ä¹Łæ²¡ çĶ¨
é¢Ĩ åı£
äº² åĪĩ
åĪ°è´§ äºĨ
åĪ°è´§ åĲİ
ç©¿ä¸Ĭ åİ»
åı¯èĥ½ ä¼ļ
æĿ¾ çļĦ
åĪĽ ä¸ļ
19 5
éĻ¤ éĿŀ
èµĦ äº§
çĶ³ éĢļ
ĠéĿŀå¸¸ ä¸įéĶĻçļĦ
æĿ¥è¯´ è¯´
åħ´ éļĨ
æĢĢ åŃķ
è¯´çļĦ éĤ£ä¹Īå¥½
éĺħè¯» äºĨä¸Ģä¸ĭ
ç²ĺ è´´
æķĻèĤ² åĵ²åŃ¦
çĶ· å¥³
åį³ åı¯
Ġä¹°äºĨ ä¸¤ä¸ª
å¯Ĩ çłģ
å·´ ä¹Į
ä¾ĭ å¦Ĥ
èĢģå©Ĩ ä¹°çļĦ
100 0
åįļ çī©
ç«Ļ åľ¨
é¢Ħ æµĭ
æµªè´¹ æĪĳ
å¿½ çĦ¶
Ġåıĳè´§ å¿«
ĠæĶ¶åĪ° çļĦ
å¤ªä¸į è´Łè´£ä»»
æĻºæħ§ çļĦ
ä¾Ŀ æĹ§
åŃ¦æľ¯ èĳĹä½ľ
æµĵ çļĦ
æµĵ éĥģ
èµ¶ å¿«
ä¸Ģæľ¬ä¹¦ å¤ļè¯»åĩłæ¬¡
æŀķ å¥Ĺ
æķĻåŃ¦ ä¸İ
on e
å¾Īéļ¾ çľĭ
Ġå®ŀçī© ä¸İåĽ¾çīĩ
éĩĩ çĶ¨
ä¸įçĲĨ äºº
ä¹ŁæĮº å¿«çļĦ
éĢıæ°Ķ æĢ§
æĮĳ åīĶ
å§Ĳ å¦¹
çĶŁæĦı åħ´éļĨ
åĩī å¿«
Ġå¾Īæ¼Ĥäº® çļĦ
å®ŀçĶ¨çļĦ ä¹¦
å®Įæķ´ çļĦ
åĶ¯ä¸Ģ çļĦ
ä¹°äºĨä¸¤ ä»¶
~~~~~~~~ ~~~~~~~~
æĶ¿åºľ è¿ĩç¨ĭ
èĳĹåĲį çļĦ
è¡Ĺ ä¸Ĭ
hao chi
çļĩ å¸Ŀ
ä¸Ģä¼ļ åĦ¿
è°¨æħİ è´Ńä¹°
ï¼ģï¼ģï¼ģï¼ģï¼ģï¼ģï¼ģï¼ģï¼ģï¼ģï¼ģï¼ģ ï¼ģï¼ģï¼ģ
è´¢ å¯Į
ç»Ĩèĥŀ çĻĮ
ãĢģãĢģãĢģãĢģ ãĢģãĢģãĢģãĢģ
ä»Ļ è¸ª
ä¸ĢçĽ´åľ¨ çĶ¨
---- ----
!!!! !!!!
èµŀèµŀ èµŀ
æ£Ĵæ£Ĵ çļĦ
ä¸Ĭå½ĵåıĹ éªĹäºĨ
æĿľ æ¯Ķ
çĹĺ çĹĺ
éĴĵ é±¼
æĶ¶å½ķ äºĨ
ä¾Ħ å¥³
è¯ŀ çĶŁ
ä¼¸ ç¼©
å¾Īå¥½å¾Īå¥½å¾Īå¥½å¾Īå¥½å¾Īå¥½å¾Īå¥½å¾Īå¥½å¾Īå¥½ å¾Īå¥½å¾Īå¥½å¾Īå¥½å¾Īå¥½å¾Īå¥½å¾Īå¥½å¾Īå¥½å¾Īå¥½
ä¹ĥ èĩ³
é«ĺå¤§ ä¸Ĭ
æľīåĽ¾ æľī
è´¡ çĮ®
åĩºä¹İ æĦıæĸĻ
åĪĨè¾¨ çİĩ
å¸ĥé²ģ æīĺ
èľĤ èľľ
èı©æıĲ æłĳ
èĢĥåı¤ ç¼ĸ
ç»¿éĩİ ä»Ļè¸ª
ç±³å¦ ®çļĦ
åĨħå®¹ä¹Łå¾Ī ä¸°å¯Į
åİĨåı²çľŁçĽ¸ ä½ľå®¶æĸĩæĳĺ
nå¿«ä¹Ĳ ä½ľä¸ļ
ä½İç¢³ ç»ıæµİ
æİīèī²åģĩçļĦ æİīèī²åģĩçļĦ
åı¯è½¬æį¢ è¯ģåĪ¸çļĦ
4 3
6 5
; ãĢĤ\
= =
A D
P U
S S
h y
i a
i e
n F
x x
â Ķ
Ġ 8
Ġ ï¼Į
Ġ å¤ļ
Ġ ä¸Ģä¸ª
Ġ åħ¨
Ġ å¤´
Ġ æ´Ĺ
Ġ è§īå¾Ĺ
Ġ çģ¯
Ġ åħħçĶµ
Ġ åĪĢ
Ġ ä¸Ĭå½ĵäºĨ
Ġ æĭīéĵ¾
Ġ çĽĸåŃĲ
Ġ çļ®å¸¦
Ġ èĽ®å¥½çļĦ
Ġ å¦ĪçļĦ
çļĦ å¤´
çļĦ è´¨éĩıå¾Īå¥½
çļĦ éĥ¨åĪĨ
çļĦ èĥ½åĬĽ
çļĦ åħ³ç³»
ä¸į ä¿¡
ä¸į è¯¥
ä¸į è®º
ä¸į æ¸ħæĻ°
ä¸į åĽŀå¤į
ä¸į è´Łè´£
ä¸į ç»ĵå®ŀ
äºĨ ä¸įå°ĳ
åı Ń
æĺ¯ å¾Ī
æĺ¯ æĹ§çļĦ
æĺ¯ æĢİä¹ĪåĽŀäºĭ
ä¸Ģ çīĩ
ä¸Ģ çº§
å¥½ åĲĹ
å¥½ å¤±æľĽ
å° ¸
å¾Ī è¯¦ç»Ĩ
å¾Ī ä¿®èº«
å¾Ī åĵĪåĵ¦
æľī å¼Ĥåĳ³
å· ħ
è¿ĺ éĢģè´§
æĿ ±
å°± æĥ³
å°± æľīçĤ¹
å°± åĿı
æĪĳ æ²¡æľī
æĪĳ ä¸įæĺ¯
æĪĳ æĦŁè§ī
æĪĳ çľŁçļĦ
æĪĳ ä»¥ä¸º
æĪĳ çľĭçļĦ
æ²¡ ç»ĻæĪĳ
æ²¡ åıĳç¥¨
ä¹° åĲ§
ä¹° ä¹ĭåīį
ä¹° ä¾¿å®ľå¥½å¤ļ
è¿Ļ ä¸¤ä¸ª
åį ¢
åĪ° åĵª
åĵ ¼
åº ¸
ä»¥ å¤ĸ
åľ¨ ä¹Łä¸į
éĥ½ è¿Ļæł·
éĥ½ çł´äºĨ
å¤ª å¹³
å¤ª ç²Ĺç³Ļ
ä¸Ĭ æ²¡æľī
å®¶ çĶ¨
ä¹¦ äºĨ
ä¹¦ åĨħå®¹
è¯´ æ²¡æľī
è¯´ ä¸īéģį
è´¨éĩı ä¸ĢèĪ¬èĪ¬
åı¯ æĢķ
çĤ İ
è¦ģ äºĨ
è¦ģ ç´ł
èµ «
åĲİ åĨį
åĲİ æľŁ
å°ı ç±³
å°ı è¯´çļĦ
ç»Ļ èĩªå·±
ç»Ļ æľĭåıĭ
èĥ½ è®©
æĹ¶ åıĳçİ°
æł· åĵģ
å°±æĺ¯ è¿Ļä¸ª
å°±æĺ¯ åŀĥåľ¾
æĶ¶ ä»¶
æĶ¶ ä¸įåĪ°
çľŁ è´§
çľŁ æĥ³
éĿ¢ ä¸Ĭ
æĦŁ åĬ¨
æĬ «
ç¬ ¨
æ¯Ķ æĥ³è±¡
æ¯Ķ ä»¥åīį
åĸľ æĤ¦
çŁ ¿
æĥ³ ä¹°çļĦ
éĤ ¹
çĿĢ æīĭ
åĮħè£ħ å¤ª
ä»ĸ å®¶çļĦ
èĢĮ æĪĳ
èĢĮ æĿ¥
æīĭ æŁĦ
å®¢ åİħ
æĸ¹ çļĦ
æį §
çĦ ¡
æĶ¶åĪ° çļĦæĹ¶åĢĻ
ä»Ģä¹Ī æĺ¯
ä¹ĭ åŁİ
ç² ®
åİ» æĭ¿
æĹł æ¯Ķ
æĹł åħ³
çĲĨ æĢ§
æľīçĤ¹ çŁŃ
æľīçĤ¹ èĦı
æľĢ æĹ©
å¹´ çº§
æł¼ å¼ı
è¿ĺæĺ¯ éĿŀå¸¸
è¿ĺæĺ¯ èĽ®
çīĩ åŃĲ
å·¥ ä¸ļ
åĨį åĪ°
åĨį çİ°
ä¸¤ å¥Ĺ
æīĵ åŃĹ
åĩł æľ¬
è¯» å®Į
æ³ķ è§Ħ
Ġè´¨éĩı ä¸įè¡Į
æĪĲ åĪĨ
æĸĩ çļĦ
ä»·æł¼ è´µ
ä»·æł¼ ä¼ĺæĥł
éķ ¯
èĤ ĸ
èĢģ é¼ł
æ°´ å£¶
æĢ§ å¼º
åıĪ è¦ģ
éª ļ
ç¥ ¸
ç¾İ åŃ¦
åĲĮ ä¸Ģä¸ª
æ¯Ķè¾ĥ å·®
åıĳè´§ ä¹Łå¾Īå¿«
æĸ° æ¬¾
ç»ĵ å©ļ
é¢ľèī² æŃ£
é¢ľèī² æ¼Ĥäº®
é¢ľèī² ä¹Łå¾Ī
èĢĮä¸Ķ å¿«éĢĴ
åįĸå®¶ æľįåĬ¡æĢģåº¦å¾Īå¥½
æ³¨ è§£
æĥħ äºº
åĪļ ä¹°
è¢« æĪĳ
è¢« å¥Ĺ
æķĪæŀľ éĥ½æ²¡æľī
æŁ ¯
ä¸įçŁ¥éģĵ ä¸ºä»Ģä¹Ī
æĬĬ ä¸ľè¥¿
ä¸» ä½ĵ
éĵ ħ
åĬł å·¥
æĢ» èĥ½
ä¾¿å®ľ å¤ļäºĨ
éĨ ī
æĹ¥ ä¸ĭåįķ
æĹ¶éĹ´ éķ¿äºĨ
ä¸įè¿ĩ æĺ¯
æıĲ çĲ´
åķĨå®¶ çļĦ
æĺ¾ åį¡
ä»£ çĲĨ
èĢĥ è¯ģ
ä¹Łå¾Ī æĸ¹ä¾¿
å¤Ł çĶ¨
å¸ĮæľĽ åķĨå®¶
å¤§å®¶ è´Ńä¹°
éĤ£ä¹Ī å¥½çľĭ
è§Ĥ æĦŁ
è§Ĥ ä¼Ĺ
Ġä¸į å¤ªå¥½
çī¹åĪ« å¤§
Ġè¿Ļ æľ¬
ç©º è°ĥ
å¥³ åıĭ
åĮĸ åŃ¦
å»º éĢł
æĸ¹ä¾¿ å¿«æį·
åħħ æ°Ķ
äºĶ ä¸ª
äºĶ åħŃ
èģĶç³» åķĨå®¶
å¹³ æĿ¿
ĠæĪĳ è§īå¾Ĺ
ĠæĪĳ åıªæĥ³è¯´
åįĬ çĵ¶
Ġè¡£æľį è¿ĺè¡Į
è¯Ħä»· æĻļäºĨ
ç¬¬äºĮ èĬĤ
Ġå¾Īå¥½ åĲĥ
é£İ éĻ©
è®¤ çŁ¥
æ¬¾å¼ı æĸ°é¢ĸ
ä¹ħ çļĦ
ä¸ŃåĽ½ è¿ĳä»£
åĿĳ äººçļĦ
çľŁæĺ¯ æĹłè¯ŃäºĨ
åħĥ éĴ±
ç®¡ çĶ¨
ä¸¥ æł¼
åģı è´µ
èĳ ¬
çľ¼ åīį
è´´ åľ¨
è½» å¾®
ç¡¬ åº¦
åľ¨äº¬ä¸ľ èĬ±
Ġçī©æµģ å¿«
åĬŁ çİĩ
Ġä¹¦ çļĦè´¨éĩı
æľįåĬ¡æĢģåº¦ ä¸įå¥½
æľįåĬ¡æĢģåº¦ ä¹Łå¾Īå¥½
åı¤ ç±į
æ²¹ èħ»
Ġå®Ŀè´Ŀ è´¨éĩıå¾Īå¥½
åħĭ éĩĮ
æīĭæľº å£³
å¯¼ å¸Ī
çŁ¥è¯Ĩ çĤ¹
èĨ Ŀ
ĠéŀĭåŃĲ æĶ¶åĪ°äºĨ
Ġè¿Ļä¸ª ä»·æł¼
ä¹Łæ²¡ ç»Ļ
å£°éŁ³ å¤§
ä¸ĭåįķ åĲİ
çłĶç©¶ çļĦ
çĵ¶ çĽĸ
åĸĿ çļĦ
æĬ¤ å£«
çģ« æľº
æ¸ħæĻ° åº¦
ĠéĿŀå¸¸ å·®
ç®Ģåįķ å¤§æĸ¹
åĴĮåĽ¾çīĩ ä¸Ĭ
ç«ĭ ä½ĵ
æĪ´ èµ·æĿ¥
å®³ æĪĳ
ç»§ æī¿
æīĶ åŀĥåľ¾æ¡¶
15 0
æĬ¥ çº¸
æĬ¥ åĳĬ
çīĮåŃĲ çļĦ
æ³¡ äºĨ
ĠåĪļ å¼Ģå§ĭ
é£ŀ è¡Į
éĵ¾ æİ¥
åıĤ æķ°
ä¸ĥ å¤©
ç»Ŀå¯¹ ä¸įæĺ¯
ç»§ç»Ń åħ³æ³¨
åıĳè´§éĢŁåº¦ å¾Īå¿«
å°½ éĩı
è¶£ åĳ³
åĲİæĿ¥ å°±
ä¸ªäºº è§īå¾Ĺ
ä¾ĭ åŃĲ
200 3
ä¸ĭçļĦ è®¢åįķ
ç½Ĺ æĸ¯
ĠåķĨåĵģ ä¸įéĶĻ
éŁ³è´¨ ä¸įéĶĻ
ç¢Ł éĿ¢
æĵ¦ äº®
ĠéĢģ æľĭåıĭçļĦ
å°¼ éĩĩ
å¢ŀ å¼º
åĿĲ åľ¨
åįģåĪĨ éĴŁ
èĩªçĦ¶ çļĦ
ä¸¤å¤© äºĨ
å¿½ çķ¥
è¿ĺç®Ĺ ä¸įéĶĻ
å¤ªä¸į è´Łè´£
æıĲä¾Ľ çļĦ
æĢĢçĸĳ æĺ¯
åıĤèĢĥ ä¹¦
ä¸įåĴĭ æ»´
æł¸ æ¡ĥ
åİŁæĿ¥ æĺ¯
ç»ĺ æľ¬
è¿Ļä¹Īå¤ļ éĴ±
åĽ¢ éĺŁ
ä¸įåľ¨ çº¿
ä¹¦ä¸Ń èĩªæľī
åħħæ»¡ äºĨ
å¤¹ åŃĲ
ĠçľĭçĿĢ ä¸įéĶĻ
åĮ» çĶŁ
æĻķ æŃ»
è¿Ł è¿Ł
äºĨå¥½ ä¹ħ
................ ................
ĠåŃ©åŃĲ å¾Īåĸľæ¬¢
ä¼¤å¿ĥ äºĨ
äºĴ çĽ¸
éĢıæĺİ çļĦ
å¥ĭ æĸĹ
éªĤ äºº
ä¸įæİ¨èįĲ è´Ńä¹°
å»ºè®®å¤§å®¶ ä¸įè¦ģä¹°
çµ ¦
ä¸įéĶĪéĴ¢ çļĦ
æģ° æģ°
ç° ¿
å¨ĥ å¨ĥ
é©± åĬ¨
çĶŁéĶĪ äºĨ
æİīä¸ĭæĿ¥ äºĨ
æ¶¨ ä»·
åĽ¤è´§ ä¸Ń
Ġä¸įåĴĭ åľ°
èŁ ¹
ç£ķ ç¢°
åªĴ ä½ĵ
æĮºå¥½å°±æĺ¯è´§çī©åĮħè£ħå¤ªå·®åĬ²æĮºå¥½å°±æĺ¯è´§çī©åĮħè£ħå¤ªå·®åĬ²æĮºå¥½å°±æĺ¯è´§çī©åĮħè£ħå¤ªå·®åĬ²æĮºå¥½å°±æĺ¯è´§çī©åĮħè£ħå¤ªå·®åĬ²æĮºå¥½å°±æĺ¯è´§çī©åĮħè£ħå¤ªå·®åĬ²æĮºå¥½å°±æĺ¯è´§çī©åĮħè£ħå¤ªå·®åĬ²æĮºå¥½å°±æĺ¯è´§çī©åĮħè£ħå¤ªå·®åĬ²æĮºå¥½å°±æĺ¯è´§çī©åĮħè£ħå¤ªå·®åĬ² æĮºå¥½å°±æĺ¯è´§çī©åĮħè£ħå¤ªå·®åĬ²æĮºå¥½å°±æĺ¯è´§çī©åĮħè£ħå¤ªå·®åĬ²æĮºå¥½å°±æĺ¯è´§çī©åĮħè£ħå¤ªå·®åĬ²æĮºå¥½å°±æĺ¯è´§çī©åĮħè£ħå¤ªå·®åĬ²æĮºå¥½å°±æĺ¯è´§çī©åĮħè£ħå¤ªå·®åĬ²æĮºå¥½å°±æĺ¯è´§çī©åĮħè£ħå¤ªå·®åĬ²æĮºå¥½å°±æĺ¯è´§çī©åĮħè£ħå¤ªå·®åĬ²æĮºå¥½å°±æĺ¯è´§çī©åĮħè£ħå¤ªå·®åĬ²
cccc cccc
çļĦæĥħåĨµ ä¸ĭ
è½»è½» ä¸Ģ
èĦ±èĥ¶ äºĨ
èµµ ç¿¼
æ¤į çī©
ä¸İåįĸå®¶ æııè¿°çļĦå®Įåħ¨ä¸Ģèĩ´
åĳľ åĳľ
å·´å·´ çļĦ
å¾ĪåĢ¼å¾Ĺ çľĭ
åħģ è®¸
æİ¨åį¸ è´£ä»»
å¨± ä¹Ĳ
é³ŀ çĬ¶
éªĦ åĤ²
åı¯è¯» æĢ§
åįļçī© é¦Ĩ
haochi haochi
ä¹°ä¾¿å®ľå¥½å¤ļ è¿ĺçľģ
% ,
% ï¼Į
? \
d e
g f
n B
n åįģä¸Ģ
v b
â ĺ
ã ĥ
ç Ģ
Ġ å¤ĸ
Ġ ç»ĻæĪĳ
Ġ çļ®
Ġ çİ°åľ¨
Ġ åĽłä¸º
Ġ æ¯ı
Ġ çľĭåĪ°
Ġ å®ŀéĻħ
Ġ ä¸ĵä¸ļ
Ġ ä»·éĴ±
Ġ ç©¿èµ·æĿ¥
Ġ æ°Ķåĳ³
Ġ éŀĭåºķ
Ġ åĶī
Ġ çī©æľīæīĢåĢ¼
Ġ ç®ĢçĽ´å°±æĺ¯
çļĦ çļĦ
çļĦ äº¬ä¸ľ
çļĦ è¡Į
çļĦ åķĬ
çļĦ åŃĹ
çļĦ çº¿
çļĦ åİŁ
çļĦ ä¸»è¦ģ
çļĦ è¯Ĺ
çļĦ é£İæł¼
çļĦ è§Ĵåº¦
çļĦ æĸ½å·¥
äº ŀ
ä¸į æĿ¥
ä¸į è¿Ļä¹Ī
ä¸į ä¸¥
ä¸į éĢĢäºĨ
ä¸į æİīèī²
ä¸į èĤ¯
ä¸į çĲĨæĥ³
ä¸į èĢĲçĶ¨
äºĨ åĽĽ
å¥ ´
æĺ¯ ä¸įéĶĻçļĦ
æĺ¯ è¿Ļæł·çļĦ
æĺ¯ æŃªçļĦ
å® ħ
å¾Ī çĥĤ
å¾Ī æĿ¾
å¾Ī åĲİæĤĶ
çĶ ©
æľī å¿ĥ
æľī å¾Īå¤§
æľī ç£¨æįŁ
éĢ ¢
åħ ®çļĦ
è¿ĺ ä¸įæĺ¯
è¿ĺ ä¸įå¥½
è¿ĺ è¿Ļä¹Ī
åľ ³
å°± çŃī
å°± å·²ç»ı
å°± ä¸įä¼ļ
å°± éĻį
å°± åĥıæĺ¯
æ²¡ å¤ļä¹ħ
è¿Ļ ç±»
ä¸ª åĪ«
ä¸ª ä½ĵ
çĶ¨ å¾Ĺ
ä¹Ł è¯´
ä¸ľ åĮĹ
å¤§ åħ¬åı¸
å¤§ éªĹåŃĲ
å¤§ çº¦
åľ¨ çļĦ
åľ¨ æĿ¥
åľ¨ å®¶éĩĮ
åľ¨ è¶ħå¸Ĥ
éĥ½ æĶ¾
éĥ½ çĥĤäºĨ
éĥ½ ç¢İäºĨ
å¤ª ä¸įåĢ¼
å¤ª çŁŃäºĨ
å¤ª æģ¶å¿ĥäºĨ
åĩ ¶
ä¸Ĭ åĲİ
ä¸Ĭ è¿ĺæľī
å®¶ å±ħ
åĮ ª
ä¹¦ çĶŁ
åıĳ ç»Ļ
åıĳ éŁ³
åıĳ ä¿¡æģ¯
åıĳ æĮ¥
åı¯ æ°Ķ
çĤ ĸ
æĥ §
è£ ¸
è¦ģ ä¸įè¦ģ
çĤ¹ å¿ĥ
çĤ¹ å°±å¥½äºĨ
åĴ ³
å°ı ä¸ľè¥¿
ç»Ļ åĩº
ç»Ļ åĪ«äºº
æĦı åĳ³
çī© ä»¶
å¾Īå¥½ å¾Īåĸľæ¬¢
æľ¬ è´¨
æ²¡æľī æĥ³è±¡ä¸ŃçļĦå¥½
å¤ļ å¹´çļĦ
å¤ļ å¹´æĿ¥
èĪ ĩ
è£ħ ä¸įä¸Ĭ
åĴĮ å°ı
åĴĮ åıĳå±ķ
ä¸ĭ æ°´
å®ŀ æĸ½
å¤© åľ°
ä¸Ń æľĢ
å°±æĺ¯ åıĳè´§
æĭ ±
æ³ ¼
åı¯ä»¥ çļĦ
åı¯ä»¥ è¯´æĺ¯
åı¯ä»¥ çľĭçľĭ
æĶ¶ çº³
éĿ¢ å¡ĳ
ä¼ļ è®¡
çĿ ¬
çĿ ¹
ä¸º è¯ģ
æ¯Ķ èµ·
æ¯Ķ åħ¶ä»ĸ
åĸľ åī§
æĥ³ ä¸įåĪ°
ä¾ µ
åĸľæ¬¢ äºĨ
åŃ¦ äºº
åĩº æ°´
å¦ ®
èĩª åŃ¦
èĩª ä¿¡
éĿŀå¸¸ å¥½çľĭ
æĮº å¤§
æĮº æ¼Ĥäº®
ä¸įæĺ¯ å¤ª
å¯¹ èĩªå·±
çĶŁ æ¶¯
ä½Ĩ è¿Ļ
èµ· äºĨ
çİ° çĬ¶
æį ¡
æį ı
ä½ľ æĸĩ
ä»Ģä¹Ī éĹ®é¢ĺ
åĪĨ æķ£
æħ¢ äºĨçĤ¹
æħ¢ çļĦè¦ģæŃ»
æĦŁè§ī å¥½
æĦŁè§ī ä¸ĢèĪ¬
æ¸ Ķ
æĹł çŁ¥
æľĢ çĪ±çļĦ
åľ° æĿ¿
è¿ĺæĺ¯ å¾Īä¸įéĶĻçļĦ
ä¸¤ ç§į
çī©æµģ ä¹Łå¾Īç»ĻåĬĽ
æĺİ æĺŁ
åįĸ äºĨ
åĬĽ åº¦
èĬ ¦
èĬ Ĵ
æĽ °
é¢ĺ æĿĲ
åĽ½ è´§
æĪĲ éĥ½
ä½ĵ éĩį
åŀĥåľ¾ ä¸ľè¥¿
è¾ĥ å¥½
è¾ĥ å·®
çī¹ åľ°
ãĢĭ \
å¤ĸ éĥ¨
èĢģ çļĦ
æį¢ ä¸Ģä¸ª
åıĪ å°ı
æ°Ķ åĢĻ
è¶ħ å·®
çĻ ¼
è·Ł åĽ¾
æĸ° ä¹¦
æĸ° æīĭ
çĽ¸ äºĴ
åįģ å¹´
åįģ è¶³
åįģ ä¸ªåŃĹ
ç»ĵ æĻ¶
èĢĮä¸Ķ æ²¡æľī
Ġè¿ĺ ç®Ĺ
çķ «
éķ¿ çŁŃ
èº« å¿ĥ
æľŁ çļĦ
å¸¦ æľī
å¸¦ æĿ¥çļĦ
å¤´ çļ®
æĢģåº¦ æŀģå·®
æķĻ ä¼ļ
éĢļ å¸¸
æĶ¾ å¼ĥ
æĽ´ å·®
å°ĳ çļĦ
ä¸ĢçĤ¹ åĦ¿
åħ¬ å¹³
ä»¥åĲİ è¿ĺæĺ¯
åĢ¼å¾Ĺ ä¸Ģè¯»
ä¸» ä»»
ä¿Ŀ çķĻ
éĵ İ
éľ į
è¯ķ ç©¿äºĨ
æĹ¥ çĽĬ
åħ³ éĹ¨
çľŁçļĦ å¾Īä¸įéĶĻ
ç¢ §
æ³¨æĦı äºĨ
çĻ½ çĻ½
çĻ½ æĿ¡
æİ¨ èĦ±
å¤§å®¶ åĪ«ä¹°
éĤ£ä¹Ī åĽŀäºĭ
è§Ĥ å¿µ
è®¡ è¾ĥ
åıį å¯¹
çº¸ çĽĴ
è¯Ĩ åĪ«
æĲ ģ
åĽĽ éĥ¨
åĽĽ å·Ŀ
åħ· å¤ĩ
ä¸ĭæ¬¡ ä¸įä¹°äºĨ
åħĪ ä¸įè¯´
èµŀ ä¸Ģä¸ĭ
å½¢ æĦı
èħ º
èħ ķ
éĢī è´Ń
éĢī é¡¹
Ġè¡£æľį å¾Īå¥½
Ġè¡£æľį è´¨éĩıå¾Īå¥½
20 12
å¸® æľĭåıĭä¹°çļĦ
ãĢĤãĢĤãĢĤãĢĤãĢĤãĢĤãĢĤãĢĤ ãĢĤãĢĤãĢĤãĢĤãĢĤ
æŀģ ä¸º
æĸŃ çļĦ
çĶ» è´¨
çĶ» å®¶
åĲĦ ç±»
å¹² èĦĨ
å¤§å°ı åĪļå¥½
åĲ¬ åķĬ
åĲ¬ åĬĽ
éĢĤåĲĪ çĪ¶æ¯į
èİ ī
å¤©å°± åĪ°äºĨ
è½» å·§
åıĮ éŀĭ
åºĹå®¶ çļĦ
Ġçī©æµģ å¾Īç»ĻåĬĽ
Ġä¸įå¥½ æĦıæĢĿ
æĮĩ éĴĪ
åľº æĻ¯
å¸ĥ éĽ·
åı¤ é¾Ļ
æ²¹ æ¼Ĩ
Ġå¥½ åĥı
è¿ĺä¼ļ æĿ¥çļĦ
å°ģ çļ®
å®īè£ħ æĸ¹ä¾¿
æĹ§ è´§
æīĭæľº ä¸Ĭ
å®ŀåľ¨ ä¸įæķ¢æģŃç»´
æ®µ èĲ½
åĬŀ äºĭ
Ġåŀĥåľ¾ ä¸ŃçļĦåŀĥåľ¾
æ°ĳ éĹ´
è¿ľ äºĨ
çĶŁæ´» ä¸Ń
éĿ¢æĸĻ ä¸įéĶĻ
æľ¬æĿ¥ æĥ³éĢĢè´§
ä¸Ŀ è¢ľ
èĦı åħ®
åĳ½ é¢ĺ
ĠæĦŁè§ī è¿ĺä¸įéĶĻ
ç½ĳä¸Ĭ è´Ńçī©
å¾® ä¿¡
åĸĿ æ°´
æŃ£çīĪ çļĦä¸ľè¥¿
è§Ħ æł¼
æĺ¯ä¸Ģ ä»¶
èĢĲ ç£¨
Ġå¿«éĢĴ åĳĺ
å¥½å¤ļ æ¬¡
åĮº åŁŁ
åı¦ ä¸Ģ
ĠåĮħè£ħ å¾Īå¥½
èĵĿ è®°
å¥¶ çĵ¶
å¥¶ å¥¶
è£Ĥ çº¹
å¼Ħ çļĦ
ĠåĪļ æĶ¶åĪ°è´§
çķĻ ä¸ĭäºĨ
ç²ĺ çļĦ
åĪ» åŃĹ
å°ļ åı¯
ç»§ç»Ń æĶ¯æĮģ
ä¸įæĥ³ å¤ļè¯´
æĿ¯åŃĲ èĽĭç³ķ
å¾Īæľī å¸®åĬ©
åĦ¿åŃĲ ä¹°çļĦ
çĶ³è¯· äºĨ
æİīèī² ä¸¥éĩį
åħ¶å®ŀ æĺ¯
æĹ¢ æľī
ç³»ç»Ł çļĦ
ç¬¬äºĮæ¬¡ è´Ńä¹°äºĨ
æĥħåĨµ ä¸ĭ
æŀĦ æĪĲ
çĽ¸å½ĵ ä¸įéĶĻ
æ¼Ķ åĩº
æ¼Ķ ç»İ
åĶ¯ æľī
Ġè´§ æĶ¶åĪ°äºĨ
æĢ¥ çĶ¨
ç«¥ å¹´
ä¸įå¯¹ æĿ¿
ç³»åĪĹ çļĦ
åĩĳåĲĪ çĶ¨åĲ§
ä¼ĺæĥł åĪ¸
ç»Ļä¸ª èµŀ
æ³¢ è¥¿
ä¹łæĥ¯ å¥½è¯Ħ
Ġåıĳè´§ å¾Īå¿«
å¤ļå°ĳ éĴ±
å¤« å¦ĩ
æ°¸ æģĴ
ĠéĢģè´§ å¾Īå¿«
å¾Īé«ĺ åħ´
æ¹ĸ åįĹ
ä¸įå¾Ĺ ä¸į
è¿Ķ åĽŀ
æŃ£å¸¸ çļĦ
ä¸ĭæ¬¡è¿ĺä¼ļ æĿ¥
éĻĦ å½ķ
æµħ æĺ¾
å·¨ å¤§
ä¸´ åºĬ
å¿į ä¸įä½ı
è¿Ļä¹Īå¤ļ å¹´
éľ² åĩº
æĳ© æĵ¦
ä¸įä»ħ ä»ħ
è¡ĮæĶ¿ è¯īè®¼
éĺ¶ æ¢¯
å¼ºçĥĪ çļĦ
å¯» æ±Ĥ
å¥½å¥½å¥½å¥½å¥½å¥½å¥½å¥½ å¥½å¥½å¥½å¥½å¥½å¥½å¥½å¥½
çŃĸ çķ¥
ä¸įç®¡ æĺ¯
ä¹Łè®¸ æĺ¯
å®¹éĩı å¤§
ä»£è¡¨ ä½ľ
Ġå¤ĸè§Ĥ ä¸įéĶĻ
æĪĳè¿ĺ ä»¥ä¸º
ä»¥æĿ¥ æľĢ
æŃĮæĽ² éĥ½éĿŀå¸¸
é¢ĨåŁŁ çļĦ
å·¥ç¨ĭ å¸Ī
åįĸå®¶æľįåĬ¡ å¾Īå¥½
å¤©å¤© å¿«éĢĴ
é¼ĵ åĬ±
åĲĬ åĿł
æ¾ ³
å¤ļè¯»ä¹¦ åı¯ä»¥
è®°å½ķ ä»ª
å»ºçŃĳ å·¥ç¨ĭ
æĥ³åĥı ä¸ŃçļĦ
æ·±åħ¥ æµħ
è¿ĩæľŁ çļĦ
æĦıè¯Ĩ å½¢æĢģ
çªĹ å¸ĺ
åįĥä¸ĩåĪ« ä¸Ĭå½ĵ
ç´« çłĤ
çļĦæĥħ ç»ª
å®ĩ å®Ļ
æīĵä¸į éĢļ
çĽĹçīĪçļĦ éĴ±ä¹°
æ¯Ķå®ŀä½ĵåºĹ ä¹°ä¾¿å®ľå¥½å¤ļè¿ĺçľģ
èĦī ç»ľ
æĲľ ç´¢
å°±éĻįä»· äºĨ
ä¼½ èĵĿè®°
éĸ ĭ
çº½ çº¦
ä¿± ä½³
è½¨ è¿¹
å·®å·®å·®å·®å·®å·®å·®å·®å·®å·®å·®å·®å·®å·®å·®å·®å·®å·®å·®å·®å·®å·®å·®å·®å·®å·®å·®å·®å·®å·®å·®å·® å·®å·®å·®å·®å·®å·®å·®å·®å·®å·®å·®å·®å·®å·®å·®å·®å·®å·®å·®å·®å·®å·®å·®å·®å·®å·®å·®å·®å·®å·®å·®å·®
ic e
ãĢĢãĢĢãĢĢãĢĢãĢĢãĢĢãĢĢãĢĢãĢĢãĢĢãĢĢãĢĢãĢĢãĢĢãĢĢãĢĢãĢĢãĢĢãĢĢãĢĢãĢĢãĢĢãĢĢãĢĢãĢĢãĢĢãĢĢãĢĢãĢĢãĢĢãĢĢãĢĢ ãĢĢãĢĢãĢĢãĢĢãĢĢãĢĢãĢĢãĢĢãĢĢãĢĢãĢĢãĢĢãĢĢãĢĢãĢĢãĢĢãĢĢãĢĢãĢĢãĢĢãĢĢãĢĢãĢĢãĢĢãĢĢãĢĢãĢĢãĢĢãĢĢãĢĢãĢĢãĢĢ
æĪĳçİ°åľ¨ æĿ¥è¯´è¯´
æ¯Ķè¶ħå¸Ĥ ä¾¿å®ľ
jj jj
æĮ¯ å®ĩ
éĿŀå¸¸æ»¡æĦıéĿŀå¸¸æ»¡æĦıéĿŀå¸¸æ»¡æĦıéĿŀå¸¸æ»¡æĦıéĿŀå¸¸æ»¡æĦıéĿŀå¸¸æ»¡æĦıéĿŀå¸¸æ»¡æĦıéĿŀå¸¸æ»¡æĦıéĿŀå¸¸æ»¡æĦıéĿŀå¸¸æ»¡æĦıéĿŀå¸¸æ»¡æĦıéĿŀå¸¸æ»¡æĦıéĿŀå¸¸æ»¡æĦıéĿŀå¸¸æ»¡æĦıéĿŀå¸¸æ»¡æĦıéĿŀå¸¸æ»¡æĦı éĿŀå¸¸æ»¡æĦıéĿŀå¸¸æ»¡æĦıéĿŀå¸¸æ»¡æĦıéĿŀå¸¸æ»¡æĦıéĿŀå¸¸æ»¡æĦıéĿŀå¸¸æ»¡æĦıéĿŀå¸¸æ»¡æĦıéĿŀå¸¸æ»¡æĦıéĿŀå¸¸æ»¡æĦıéĿŀå¸¸æ»¡æĦıéĿŀå¸¸æ»¡æĦıéĿŀå¸¸æ»¡æĦıéĿŀå¸¸æ»¡æĦıéĿŀå¸¸æ»¡æĦıéĿŀå¸¸æ»¡æĦıéĿŀå¸¸æ»¡æĦı
ag e
è¿ĺåı¯ä»¥å°±æĺ¯åĶ±çīĩéĥ½è¶ĬæĿ¥è¶Ĭè´µè¿ĺåı¯ä»¥å°±æĺ¯åĶ±çīĩéĥ½è¶ĬæĿ¥è¶Ĭè´µè¿ĺåı¯ä»¥å°±æĺ¯åĶ±çīĩéĥ½è¶ĬæĿ¥è¶Ĭè´µè¿ĺåı¯ä»¥å°±æĺ¯åĶ±çīĩéĥ½è¶ĬæĿ¥è¶Ĭè´µè¿ĺåı¯ä»¥å°±æĺ¯åĶ±çīĩéĥ½è¶ĬæĿ¥è¶Ĭè´µè¿ĺåı¯ä»¥å°±æĺ¯åĶ±çīĩéĥ½è¶ĬæĿ¥è¶Ĭè´µè¿ĺåı¯ä»¥å°±æĺ¯åĶ±çīĩéĥ½è¶ĬæĿ¥è¶Ĭè´µè¿ĺåı¯ä»¥å°±æĺ¯åĶ±çīĩéĥ½è¶ĬæĿ¥è¶Ĭè´µ è¿ĺåı¯ä»¥å°±æĺ¯åĶ±çīĩéĥ½è¶ĬæĿ¥è¶Ĭè´µè¿ĺåı¯ä»¥å°±æĺ¯åĶ±çīĩéĥ½è¶ĬæĿ¥è¶Ĭè´µè¿ĺåı¯ä»¥å°±æĺ¯åĶ±çīĩéĥ½è¶ĬæĿ¥è¶Ĭè´µè¿ĺåı¯ä»¥å°±æĺ¯åĶ±çīĩéĥ½è¶ĬæĿ¥è¶Ĭè´µè¿ĺåı¯ä»¥å°±æĺ¯åĶ±çīĩéĥ½è¶ĬæĿ¥è¶Ĭè´µè¿ĺåı¯ä»¥å°±æĺ¯åĶ±çīĩéĥ½è¶ĬæĿ¥è¶Ĭè´µè¿ĺåı¯ä»¥å°±æĺ¯åĶ±çīĩéĥ½è¶ĬæĿ¥è¶Ĭè´µè¿ĺåı¯ä»¥å°±æĺ¯åĶ±çīĩéĥ½è¶ĬæĿ¥è¶Ĭè´µ
è¿Ļæľ¬ä¹¦çļĦ è§ĤæĦŁ
åĢº åĬ¡
å¤ªè®©äºº å¤±æľĽäºĨ
æ¶µçĽĸ äºĨ
çį ²
è´· æ¬¾
æ´Ľéĺ³ ä¼½èĵĿè®°
åķ¦åĴ¯ åķ¦åĴ¯
æĭ¿åľ¨ æīĭéĩĮ
åĳ¸ åĳ¸
å¼łå°ı å¨´
åľ¨äº¬ä¸ľèĬ± çĽĹçīĪçļĦéĴ±ä¹°
çļĦæĸ½å·¥ å·¥èīº
éĢĤåĲĪçĪ¶æ¯į åĲ¬åķĬ
èĦıåħ® åħ®çļĦ
æŃĮæĽ²éĥ½éĿŀå¸¸ éĢĤåĲĪçĪ¶æ¯įåĲ¬åķĬ
æĪĳçİ°åľ¨æĿ¥è¯´è¯´ è¿Ļæľ¬ä¹¦çļĦè§ĤæĦŁ
åľ¨äº¬ä¸ľèĬ±çĽĹçīĪçļĦéĴ±ä¹° æŃ£çīĪçļĦä¸ľè¥¿
æĪĳçİ°åľ¨æĿ¥è¯´è¯´è¿Ļæľ¬ä¹¦çļĦè§ĤæĦŁ åĲ§
( âĬĻ
0 8
; _&
P å·¨
a b
a f
i o
k e
n åľ¨
n äº¬ä¸ľ
p s
t er
u æĿ°
´ å°
å µ
ĉ ĉ
Ġ 6
Ġ å¿«
Ġ èĥ½
Ġ ä¸Ń
Ġ å·²
Ġ ä½łä»¬
Ġ åĲ¬
Ġ äº²
Ġ å¥³åĦ¿
Ġ æľ¬äºº
Ġ çľ¼éķľ
Ġ åĨħè¡£
Ġ çıłåŃĲ
Ġ åıĮåįģä¸Ģ
ä¸ §
ä¸ «
ï¼Į ?
çļĦ æ²¡
çļĦ å·®
çļĦ èĢģ
çļĦ ä¸įä¸Ģæł·
çļĦ ç½ĳè´Ń
çļĦ åĬĽéĩı
ãĢ ī
ä¸į è§ī
ä¸į éķ¿
ä¸į éĢļ
ä¸į ä¾¿å®ľ
ä¸į ç»ĻæĪĳ
ä¸į åĪĴç®Ĺ
ä¸į å¿į
ä¸į çĽ¸ç¬¦
ãĢĤ |
å¥ ¢
æĺ¯ è¦ģ
æĺ¯ å¥½çļĦ
æĺ¯ æŃ£çīĪçļĦ
ä¸Ģ éĿ¢
ä¸Ģ æĿ¯
ä¸Ģ é¡µ
ä¸Ģ åī¯
å° ´å°
ï¼ģ ï¼Ł
å¾Ī è¿ľ
æľī å·®åĪ«
æľī ä¿Ŀéļľ
åħ Ķ
è¿ĺ éľĢè¦ģ
è¿ĺ éĤ£ä¹Īè´µ
åľ ĸ
æĿ ı
å°± æĪĲ
æĪĳ æľī
æĪĳ ä¹Łæ²¡
æĪĳ åĸľæ¬¢çļĦ
æ²¡ éĢĢ
ä¹° ä¸įåĪ°
è¿Ļ éŀĭåŃĲ
è¿Ļ å¼ł
è¿Ļ é¦ĸ
è¿Ļ çİ©æĦı
éĶ ¡
çĶ¨ èĩªå·±çļĦ
çĶ¨ äºĨä¸Ģæ®µæĹ¶éĹ´
ä¹Ł ä¸Ģæł·
ä¹Ł ä¸įæĺ¯å¾Ī
åº ŀ
æĿ¥ å½¢å®¹
å¤§ æĪĺ
å¼ ĵ
åľ¨ ä»ĸ
åľ¨ éĺħè¯»
åľ¨ æŁĲ
å¤ª ä¹ħ
å¤ª æ·±
å¤ª ä¸¥éĩį
åĩ īäºĨ
ä¸Ĭ å°±
äºº å¾Īå¥½
äºº åİ»
äºº ä½ĵ
äºº ä¸İ
çľĭ åľ¨
çľĭ æ¸ħ
ä¹¦ é¡µ
ä¹¦ åį·
åķ ĥ
åıĳ ä¸Ģä¸ª
åıĳ åŀĭ
åıĳ äºĨä¸Ģä¸ª
è´¨éĩı æľīéĹ®é¢ĺ
è´¨éĩı å¾Īä¸ĢèĪ¬
è´¨éĩı ä¿±ä½³
çĽ Ł
çĤ¹ åĦ¿
åĲİ åıĪ
å¯ ŀ
å°ı åĮħ
ç»Ļ ä½łä»¬
æĦı å¿Ĺ
çī© çĲĨ
æľ¬ ä»¥ä¸º
æ²¡æľī åĳ³éģĵ
èĩ Ĥ
å¾Ĺ ä»¥
åĴĮ ä»ĭç»į
åĴĮ ç½ĳä¸Ĭ
æİ °
æİ ĺ
è¿ĩ åħ³
å½ Ŀ
ä¸Ń åĮ»
å°±æĺ¯ ä¸Ģ
å°±æĺ¯ å¤ª
æĭ ĵ
æĭ ĺ
åı¯ä»¥ çľĭåĪ°
åı¯ä»¥ çĲĨè§£
è¾ Ł
æ» ¥
æĬ ł
æ¯Ķ åķĨåľº
åĸľ çĪ±
ä¾ į
åĩº äºİ
å¦ ¨
å¦ »
å¼Ģ æĶ¾
éĿŀå¸¸ åĲĪéĢĤ
çĲ Ĳ
he r
æħ Ī
ä¸įæĺ¯ å¾Īåĸľæ¬¢
ä¸įæĺ¯ çī¹åĪ«
ä¸įæĺ¯ å¤ªå¥½
ä¸įæĺ¯ æĪĳæĥ³è¦ģçļĦ
åĮħè£ħ ä¹Ł
ä½ł äºĨ
åŀ Ĥ
åĲĪ æł¼
çŁ¥ åĲį
éĤ£ æ¬¾
æīĭ åĬ¨
æīĭ æıĲ
è½ ©
ä½Ĩ åıĪ
å± ¯
æµģ åĬ¨
ä¹ĭ è·¯
ä¹ĭ æīĢä»¥
è° £
è° Ľ
åĪĨ æĺİ
åĪĨ ç±»
æ¸ ł
çĥ ¹
éĹ® æĪĳ
æľīçĤ¹ å¤§äºĨ
å¿«éĢĴ ä¹Łå¾Īç»ĻåĬĽ
èĦ Ĥ
è¿ĺæĺ¯ æĮºå¥½çļĦ
å®¢æľį å¾Ī
å®¢æľį çļĦæĢģåº¦
åĨį çľĭ
åĨį ä¸ī
æĻ Ĥ
ä¸Ģæ¬¡ æĢ§çļĦ
çī©æµģ æľīçĤ¹æħ¢
æīĵ ç£¨
åįĸ åģĩè´§
æ¼ ł
æĢİä¹Ī è¯Ħä»·
ç¾ ¡
åĽ½ æ°ĳ
ä¹°äºĨ å¾Īå¤ļ
Ġè´¨éĩı è¿ĺå¥½
Ġè´¨éĩı ä¸ĢèĪ¬èĪ¬
çĪ ·çļĦ
ä»·æł¼ é«ĺ
å¤ĸ çļĦ
æ°´ è´§
äºĭ äºĨ
è¡£æľį äºĨ
æīĢ æľª
åĬ¨ éĿĻ
åıĪ ç»Ļ
åıĪ èĸĦ
æ°Ķ çĲĥ
ç¥ Ń
ç¾İ é£Ł
äºĮ æĺ¯
ä¿¡ ä»°
éŁ³ é¢ĳ
åįģ åŃĹ
ä½¿ å¾Ĺ
ä½¿ èĩªå·±
æİ¥ å¤´
æİ¥ åĲ¬
é¢ľèī² ä¸įä¸Ģæł·
èĢĮä¸Ķ è¿ĺæĺ¯
èĢĮä¸Ķ éĥ½æĺ¯
ä½Ĩæĺ¯ æĦŁè§ī
å¤± è¯¯
ä»İ å®¹
ä»İ å¤´
è´¹ åĬĽ
åı· æīį
å¸¦ é¢Ĩ
è¢« åĿĳ
æĽ´ å¥½çļĦ
Ġå¾Ī ä¸įå¥½
åĬł äºĨ
åĬł ä»¥
åĬł åħ¥
æĺŁ éĥ½ä¸įæĥ³ç»Ļ
æĢ» ç®Ĺ
è´Ńä¹° æĹ¶
è¯ķ è¯»
è¯ķ åį·
åĲĥ çĿĢ
åĲĥ å®Į
åĨħå®¹ å¾Ī
åİŁ å§ĭ
æĹ¥ è¯Ń
ç»ĻæĪĳ éĢģ
éĥ½ä¸į è¡Į
åħ³ éĹŃ
æł¹æľ¬ ä¸įä¸Ģæł·
æıĲ åĪ°
è¿Ļä¹Ī å¤§çļĦ
ä¸įéĶĻçļĦ åĵ¦
è´Ńçī© ä½ĵéªĮ
ä»£ æĽ¿
è±¡ å¾ģ
çł´ çĥĤ
çĪ± ä¸įéĩĬ
ä½¿çĶ¨ åĲİ
æķ´ é½Ĳ
æİ¨ åĩº
å¸ĮæľĽ å¤§å®¶ä¸įè¦ģ
ä¹Ĳ æĽ²
Ġè¿Ļ æĺ¯ä»Ģä¹Ī
åıĹ çĽĬ
ä¸įè¦ģ äºĨ
è¿ĺæ²¡ ä½¿çĶ¨
è¿ĺæ²¡ æĿ¥å¾ĹåıĬ
åºķ ä¸ĭ
åĲį ç§°
æĿ¡ è£¤åŃĲ
èģĶç³» ä¸įåĪ°
åįĬ å°ıæĹ¶
éĹ¨ åį«
ãĢĤãĢĤãĢĤãĢĤãĢĤãĢĤãĢĤãĢĤ ãĢĤãĢĤãĢĤãĢĤãĢĤãĢĤ
èĬĤ çĽ®
æıı ç»ĺ
æ¬¾å¼ı æ¼Ĥäº®
è§īå¾Ĺ å¾Ī
åĪ¶ åĵģ
åį° èĬ±
åıĳç¥¨ ä¹Łæ²¡æľī
ä»ĸä»¬ å®¶
åį´ æ²¡æľī
èĳ µ
èİ ĵ
çĽ® çļĦæĺ¯
åĪĴ ä¼¤
çĶ± æŃ¤
èµ° è¿Ľ
è¿ĺä¸į è®©
æīĵå¼Ģ åĲİ
åı¤ æ¨
ç§ĳ çłĶ
çľĭèµ·æĿ¥ å¾Ī
å±± ä¸ľ
ç¬Ķ èĬ¯
å®¹æĺĵ èĦı
åıĸ è´§
å±ħçĦ¶ æ²¡æľī
å®ŀçī© ä¸İ
åħĭ æľį
æ¸© åĴĮ
åĭ ĥ
å°±ä¸į çĶ¨
çŁ¥è¯Ĩ åĴĮ
æľīäºĽ äºº
éĢı å½»
èĹ ¤
ä¸įå¤ª åĸľæ¬¢
éĽĨ ä¸Ń
æĹ© çĤ¹
æīĭæĦŁ å¥½
èĦı ä¸ľè¥¿
ç©¿ä¸Ĭ äºĨ
ĠæĦŁè§ī è¿ĺåı¯ä»¥
ç´§ å¼ł
ç¼º åı£
è§Ħ æ¨¡
çª ¥
ç¬¬ä¸Ģ æĹ¶éĹ´
ç¬¬ä¸Ģ ç«ł
Ġå¿«éĢĴ éĢŁåº¦
ç©¿äºĨ ä¸Ģæ¬¡
ç»Ī èº«
ç¿» ç¿»
Ġè¿ĺä¸įéĶĻ åĲ§
å¨ ľ
æĢ§ä»·æ¯Ķ ä¸įé«ĺ
ç®Ģåįķ æĺĵæĩĤ
åŀ« ä»ĺ
è¯¦ å°½
è¿ĺæ²¡æľī æĶ¶åĪ°
åı¯æĺ¯ æĪĳ
çĮ İ
çĮ ľ
çº¯ æŃ£
è´Ł åĪĨ
ĠåĪļ ä¹°
ç§° èµŀ
ç¡®å®ŀ æĺ¯
åıĤ ä¸İ
ä»½ éĩı
åħħçĶµ å®Ŀ
é¡º çķħ
èľ ¡
æķ£ æŀ¶äºĨ
è¯Ĺ è¯į
æ¦ ¨
éĢīæĭ© äºĨ
æµª æ¼«
è´µäºĨ çĤ¹
éĶħ çĽĸ
éĺ³ å¸Ĥ
éĻį ä½İ
Ġä»Ģä¹Ī ä¸ľè¥¿
å¿ħé¡» è¦ģ
è¯ĳ æĸĩ
åŃ¦çĶŁ çļĦ
ä¸įç»Ļ éĢĢ
å¦Īå¦Ī ä¹°çļĦ
å°ıåŃ© åĸľæ¬¢
åıĳäºĨ ä¸ª
åĳĬè¯ī ä½ł
çģ° å¸¸
çĺ ª
æĿĲè´¨ ä¸įéĶĻ
åī§ æĥħ
é½ ¿
è¡Ģ ç®¡
éĵ¶ çļĦ
çļĦå¿ĥ æĢģ
ç»¿ èī²çļĦ
æĪ¿ åŃĲ
è¿Ļä¸Ģ åĪĩ
in the
æĥ³è±¡ä¸ŃçļĦ éĤ£ä¹Īå¥½
Ġåıĳè´§ æħ¢
åºı æ¸Ĳ
è½® èĥİ
èĢģåħ¬ è¯´
èª ª
èª ĵ
çªģ åĩº
å®½ å®¹
çīĻ èĨı
æ´¾ éĢģ
è¿Ķ çİ°
åİļå®ŀ çļĦ
Ġä¸ĢçĤ¹ éĥ½ä¸į
éħĴ ç¥ŀ
å°±æĺ¯æľīçĤ¹ èĸĦ
*** ï¼Į
æĭĨå¼Ģ åĮħè£ħ
æľºåĻ¨ äºº
Ġå®ŀçī© ä¸İ
ç¿»è¯ĳ çļĦ
æĭ¼ éŁ³
é¥® é£Ł
å¾Īä¹ħ äºĨ
éŃĶ æ³ķ
ä»·æł¼ä¹Ł éĿŀå¸¸ä¾¿å®ľ
ç§ĺ å¯Ĩ
åľ£ ç»ı
æĪĳä¹°çļĦ æĺ¯
æĬķèµĦ èĢħ
æ´ĭ æ°Ķ
çĪ¶æ¯į çļĦ
å¿½æĤł äºº
åįı ä¼ļ
çŃĸ åĪĴ
äºĨå¥½ åĩł
ĠæĢ»ä½ĵ ä¸įéĶĻ
ç¾½ æ¯Ľ
çĽ¸åħ³ çļĦ
é»ĺ é»ĺ
æ¸Ĳ æ¸Ĳ
éħ¸ å¥¶
æ·· ä¹±
é¸¡ èĤĭ
åĩłåįģ åĿĹéĴ±
è§ģè¿ĩ è¿Ļä¹Ī
ï¼Įï¼Įï¼Įï¼Įï¼Įï¼Įï¼Įï¼Į ï¼Įï¼Įï¼Įï¼Įï¼Įï¼Įï¼Įï¼Į
å²Ľ çĶ°
æĪĳå®¶ å°ıåŃ©
æ¾ ¡
å¤§éĩı çļĦ
éĢĤçĶ¨ äºİ
èģĬ å¤©
è¯ķäºĨ è¯ķ
åĭĩ æ°Ķ
ä¼Ł å¤§çļĦ
ç§Ĵ æĿĢ
ç¡®è®¤æĶ¶è´§ äºĨ
lo w
æĭ¿åĩºæĿ¥ åįĸ
æ¢Ń ç½Ĺ
ä¸įæĺ¯ä¸ĢèĪ¬çļĦ å·®
åĨħåŃĺ åį¡
åħ¼ å®¹
æ¯ģ çģŃ
åĤ³ åı¤æ¨
å¾ª çİ¯
å¾ª åºıæ¸Ĳ
éĢĻ éĥ¨
èķ ´
å¼Ĺ åħ°åħĭ
å°±çŁ¥éģĵ äºĨ
çº½ æī£
ç«ŀ äºī
00000000 00000000
è®¿ éĹ®
âĬĻ )
å¥½åĩłæ¬¡ äºĨ
ç»Ļå¤§å®¶ ä»ĭç»į
æħ° èĹī
ç¡ķ å£«
åĲ» åĲĪ
çĶµç£ģ çĤī
åĽ¾æĸĩ å¹¶
æĹłåĬĽ åĲĲæ§½
âĢ¦ âĢ¦
æµĻ æ±Ł
æĺİæĻº çļĦ
æİª æĸ½
é©¬å°Ķ åħĭæĸ¯
åĸĩ åıŃ
æķĻåŃ¦ä¸İ çłĶç©¶
æľīåĽ¾æľī çľŁçĽ¸
å°´å° ¬
è´¨éĩıä¿±ä½³ åĢ¼å¾Ĺæİ¨èįĲ
åĤ³åı¤æ¨ ĵ
0 7
; ;
; ï¼Ľ
A èĤ¡
G O
G çļĦ
Z ç¥ŀ
e ä¹ĭ
i P
i f
k g
« æ¯Ľ
â ĸ
Ġ ä¼ļ
Ġ çŃī
Ġ åŃĹ
Ġ æ¼Ĥäº®
Ġ çĽ´æİ¥
Ġ æľīä¸Ģ
Ġ èĽ®
Ġ çħ§çīĩ
Ġ æĢ§ä»·æ¯Ķé«ĺ
Ġ å±ıå¹ķ
Ġ çīĪåŀĭ
Ħ çļĦ
ä¸ ¶
çļ Ĥ
çļĦ æīĭ
çļĦ æħ¢
çļĦ åı£
çļĦ åĲĦç§į
çļĦ å½¢å¼ı
çļĦ æŃĮæĽ²
çļĦ çĪ±æĥħ
çļĦ åıĺåĮĸ
ãĢ Ī
ä¸į ç»ı
ä¸į è¿Ľ
ä¸į åĪ°äºĨ
ä¸į éħįå¥Ĺ
ä¸į æĦ§
ä¹ Ļ
ãĢĤ [
äºĨ çļĦ
äºĨ åĲĹ
äºĨ åĩłå¤©
äºĨ åĩłæ¬¡
äºĨ ç©ºéĹ´
æĺ¯ å¤§
æĺ¯ èĩªå·±
ä¸Ģ ä¸¤
ä¸Ģ æĬĬ
ä¸Ģ é¦ĸ
ä¸Ģ ç¢°
ä¸Ģ æ¨¡ä¸Ģæł·
å¥½ åıĭ
å¥½ ä¸ĢçĤ¹
å¥½ è¯´çļĦ
ï¼ģ ï¼Į
å¾Ī éº»çĥ¦
çĶ «
æľī åŀĭ
æľī èµłåĵģ
æľī ä¸įåĲĮ
æľī è´¨éĩıéĹ®é¢ĺ
è¿ĺ çľŁ
è¿ĺ æĥ³
è¿ĺ åħį
å°± è¿Ļä¸ª
å°± ä¸įä¸Ģæł·
å°± èĦ±
å°± ç¢İäºĨ
æĪĳ ä»İ
æĪĳ ä¸ĢçĽ´
æĪĳ ä¸įæĥ³
æ²¡ çļĦ
æ²¡ æķĪæŀľ
æ²¡ å£°éŁ³
è¿Ļ è´§
è¿Ļ æīį
ä¸ª å¤´
ä¸ª æ´ŀ
åį µ
åį ī
åį ĳ
çĶ¨ åķĬ
éĶĻ åĪ«
åĪ° ä»Ĭå¤©
å·® å¥½å¤ļ
å·® å¤ļäºĨ
å·® å¤ªå¤ļ
éĿ ´
ä¸ľ æĸ¹
å¤§ èĦĳ
å¤§ å¤§çļĦ
åľ¨ è¿Ļä¸ª
åľ¨ ä¸İ
éĥ½ åıĳ
éĥ½ ä¸Ģæł·
éĥ½ å¾Īä¸įéĶĻ
éĥ½ ä¸įå¥½çĶ¨
å¤ª ä½İ
å¤ª åİīå®³
å¤ª é«ĺäºĨ
ä¸Ĭ èĦļ
ä¸Ĭ è¯¾
çľĭ ä¸Ń
çľĭ åĽ¾çīĩ
çľĭ äºĨä¸Ģä¸ĭ
åĳ Ľ
è¯´ æ²¡
è¯´ è¦ģ
è¯´ åı¯ä»¥
åı¯ æģ¶
çĤ ®
çĽ Ķ
è£ ķ
æ¯ ħ
å°ı å§Ĳ
æĮ £
æ²¡æľī ç»Ļ
å¤ļ ä½Ļ
èĪ ľ
ä¸ĭ ç¬Ķ
å®ŀ çļĦ
å¤© æĹ¶éĹ´
å°±æĺ¯ æľīçĤ¹å°ı
å°±æĺ¯ ä¹°å¤§äºĨ
æ³ Ĭ
ä¼ļ çĶ¨
çĿ «æ¯Ľ
ä¸º æŃ¤
èī² äºĨ
éĢģ ä¸Ģä¸ª
éĢģ ç¤¼
æ¬¢ ä¹Ĳ
ä¾ ¯
ç©¿ å¾Ĺ
ç©¿ è¶Ĭ
æ»¡ äºĨ
åĩº çĶŁ
åĩº è¿Ĳè´¹
èĩª çŁ¥
èĩª åıĸ
è¶ ¾
æĮº æľī
äº¬ä¸ľ éħįéĢģ
æħ ¨
ä¸įæĺ¯ çº¯æ£īçļĦ
åĮħè£ħ éĿŀå¸¸
å¯¹ æīĭ
ä»ĸ èĩªå·±
çĶµ æ°Ķ
èĢĮ éĿŀ
æīĭ ç»Ń
æĶ¶åĪ° æĹ¶
åĪ« è¯´
ä»Ģä¹Ī æĥħåĨµ
åİ» æī¾
åİ» åĵª
åĪĨ å¼Ģ
åĪĨ ç¦»
åĽ¾ çĶ»
æĦŁè§ī å°±æĺ¯
éĢĢ è¿ĺ
æĹł æĦı
æľīçĤ¹ é«ĺ
æľīçĤ¹ éķ¿
æľīçĤ¹ åĳ³éģĵ
å¿«éĢĴ å¤ªæħ¢äºĨ
å¿«éĢĴ åįķåı·
åħ¨ ä¸ĸçķĮ
åħ¨ æ£ī
æľĢ ä¸º
åľ° äºĨè§£
å·¥ åĩı
åĽŀ åĳ³
åĨį ä¹°äºĨ
çī©æµģ è¶ħæħ¢
æīĵ çļĦ
æīĵ æŀ¶
åīį éĿ¢çļĦ
åħ¶ å¦Ļ
é¢ĺ åŀĭ
æĢİä¹Ī ç©¿
åĩł åı¥
åĽ½ èĹ©
æľº çļĦ
æľº èº«
çĪ µ
åįķ åħĥ
åįķ çº¯
å½ĵ ä½ł
é«ĺ åİĭ
è¾ĥ ä¸º
çī¹ è´¨
éķ Ģ
å¤ĸ åĽ½
å®Į åĲİ
åºĹ éĩĮçļĦ
æ°´ æ´Ĺ
è¡£æľį çļĦ
æį¢ æĪĲ
ä¸ī éĥ¨
è®© ä»ĸä»¬
è®© åĪ«äºº
ç¾İ äºº
ç¾İ åĳ³
ç¾İ åħĥ
åĲĮ æŃ¥
æ¯Ķè¾ĥ å¤ļ
ä¿¡ å¿ĥ
ä¿¡ å¿µ
è·Ł æĪĳåľ¨
åĥı ç´ł
å·®è¯Ħ æĺ¯ç»Ļ
çĽ¸ å¯¹äºİ
åįģ å¤§
é¢ľèī² åĴĮ
é¢ľèī² å¾Īå¥½çľĭ
äº® çĤ¹
åįĸå®¶ åıĳè´§
åįĸå®¶ çļĦæľįåĬ¡
çģ ¾
ç²¾ åĩĨ
ç²¾ èī¯
æ¶ Į
ç½ĳ åıĭ
åĪļ çĶ¨
è¢« åİĭ
æķĪæŀľ ä¸įå¥½
åģļå·¥ ä¹Ł
éĢļ è¯Ŀ
æĶ¾ æĿ¾
åĽł èĢĮ
åĳ³éģĵ å¾Ī
ä¸» ç¼ĸ
ä¿Ŀ åŃĺ
Ġå¾Ī å·®åĬ²
ä¸įèĥ½ éĢĢ
éĵ Ŀ
æ¡ ©
åħī çļĦ
æĺŁ åĲ§
æĺŁ æĺŁ
èĬ± çº¹
èĬ± åįī
ä¾¿å®ľ å¾Īå¤ļ
è¯¥ ä¹¦
è¯ķ é¢ĺ
å®ī å¾½
éĥ½ä¸į è¯´äºĨ
éĥ½ä¸į è¦ģä¹°
æĪĳä»¬ åºĶè¯¥
éħį éĢģçļĦ
ä»£ ä»·
èĢĥ éªĮ
çł´ ä¸ĩåį·
å·²ç»ı æĶ¶åĪ°äºĨ
çĻ½ å¤©
æĢĿ è·¯
æŃ¤ æ¬¡
Ġè¿Ļ å®¶
Ġè¿Ļ ä¸ľè¥¿
ç©º çĻ½
è¿ĺæ²¡ æĶ¶åĪ°è´§
è§ģ çļĦ
è§ģ äºĨ
ç»ĵæŀľ è¿ĺæĺ¯
æī¾ åĶ®åĲİ
as s
èĦļ åĲİè·Ł
åŁº éĩĳ
å¹³ åĿĩ
ĠæĪĳ è¦ģçļĦæĺ¯
è¿Ĳ æ°Ķ
ç¥¨ æĪ¿
åįĬ ä¸ªå°ıæĹ¶
åĵ¦ åĵ¦
çĭ ®
é£İ åĬĽ
è®¤ åĢĴéľī
é© »
æĸŃ è£Ĥ
è°¢ äºĨ
çļĦä¸Ģ èĩ´
å®Įåħ¨ ä¸įåĲĮ
åıĳç¥¨ åĳ¢
å¤§å°ı æŃ£å¥½
åĲ¬ åĲ¬
è°ĥ æŁ¥
Ġå¤ª è´µäºĨ
å¿ħ è¯»
æĸ¯ å¹´
åĿĳ åķĬ
çľŁæĺ¯ å¤ª
å®Ŀå®Ŀ åĸľæ¬¢
è½¯ è½¯çļĦ
è®² å¾Ĺ
è®² åº§
ä¸¤ä¸ª æĺŁæľŁ
æ·± åľ³
Ġä¸įå¥½ çľĭ
ç¿ ģ
åĪ© äºİ
å»ºè®® ä¸įè¦ģè´Ńä¹°
åľº éĿ¢
æĶ¯ æĴĳ
çľĭçĿĢ è¿ĺä¸įéĶĻ
è¿Ļç§į ä¸ľè¥¿
æ£Ĵ äºĨ
æĵ ħ
ä¼ĺ åĬ¿
åįĥ éĩĮ
éªĮ æĶ¶
Ġä¹° éĶĻäºĨ
è¡¥ æ³¨
è¿Ļæł·çļĦ åįĸå®¶
éĿ¢æĸĻ å¥½
ä¹Łæ²¡ äººçĲĨ
éĥ½æ²¡ çĶ¨
ç£¨ çł´äºĨ
æŃĮ æīĭ
èĻ½çĦ¶ æĺ¯
ä¸ĭåįķ åĪ°
çłĶç©¶ çĶŁ
å£« å¾·
ç¼º è´§
èĢĲ ç©¿
èĢĲ å¿ĥçļĦ
çģ« çģ«
Ġæ²¡ æĶ¶åĪ°è´§
ç¿» å¼Ģ
æľª æĶ¶åĪ°
æľª æĿ¥çļĦ
æĢ§ä»·æ¯Ķ ä¸įéĶĻ
åĪĿ åŃ¦
æıĴ çĶµ
ĠåĮħè£ħ ç²¾ç¾İ
Ġç»Ļ åŃ©åŃĲä¹°çļĦ
èĤ¡ å¸Ĥ
æĪĺ èĥľ
æĢ»ä½ĵ ä¸įéĶĻ
æį¢äºĨ ä¸Ģä¸ª
ä½ľåĵģ çļĦ
æĩĴå¾Ĺ éĢĢè´§
çĮ ¿
ä¸»è¦ģ åĨħå®¹åĮħæĭ¬
å¤©æīį åĪ°è´§
è¯į è¯Ń
æĸĩåŃ¦ æī¹è¯Ħ
ä¾Ľ ç»Ļ
å·¥ä½ľ å®¤
æľīçļĦ åľ°æĸ¹
åĨįä¹Łä¸į ä¹°
çĸĳ éĹ®
ç»§ç»Ń ä¹°
Ġä¸įæĺ¯ æŃ£åĵģ
Ġä¸įæĺ¯ å¾Īæ»¡æĦı
ĠçĶ¨ è¿ĩ
ĠçĶ¨ äºĨä¸Ģæ®µæĹ¶éĹ´
æ¬² æľĽ
çĶ³è¯· åĶ®åĲİ
è¯Ĺ æĸĩ
è¿½ å¿Ĩ
çľģ äºĭ
æİĴ åĪĹ
-- -
èĲ½ åĲİ
æī¿ åıĹ
åı³ èĦļ
çĲĨè§£ èĥ½åĬĽ
çļĦå°ı è¯´
è¯Ħè®º å®¶
æĢª æĢªçļĦ
ç½Ĺ åĪĹ
ä¸įæĺ¯å¾Ī çĲĨæĥ³
å¦Īå¦Ī çļĦ
å®¢æĪ· çļĦ
æĮĤ éĴ©
æĪĸèĢħ æĺ¯
Ġè´§ åĵģ
æ¿Ģ åĬ±
è·ŁåĽ¾çīĩ ä¸Ĭ
åĹ ĵ
é¢Ħ æĥ³
æĽ¾ åĽ½èĹ©
ç»ıæµİ å®ŀæĥł
ä¸įåĥı æĺ¯
çĶļ è¿ľ
Ġåıĳè´§ å¤ªæħ¢
çľĭä¸į åĩºæĿ¥
ĠéĢģè´§ éĢŁåº¦
çĭĹ èĤī
Ġæ¯Ķ æĥ³è±¡ä¸Ń
æ²¡çĶ¨ è¿ĩ
å« ģ
äºĳ åįĹ
åħ¶å®ĥ çļĦ
ä¸ĭæ¬¡è¿ĺä¼ļ åħīé¡¾
åĪ® èĬ±
çº¿å¤´ å¤ļ
æļĸåĴĮ çļĦ
Ġæ¬¾å¼ı ä¸įéĶĻ
åĲ« éĩı
å¹¸ äºı
çľŁå®ŀ çļĦ
èĩªåĬ¨ åħ³æľº
å¤ľ åħī
Ġä¹°çļĦ æĺ¯
ä¸įè¶³ ä¹ĭå¤Ħ
æµ® çİ°
æĿİ å®ģ
æĬķèµĦ ä»·åĢ¼
é¤Ĳ åħ·
ç¾Ĭ å¤´
æĺİçĻ½ äºĨ
ĠéĿŀå¸¸å¥½ çĶ¨
ç¾İè§Ĥ å¤§æĸ¹
æ±¡ æ¸į
ĠæĶ¶åĪ°è´§ åĲİ
Ġè¿ĺæ²¡æľī ä½¿çĶ¨
åĩłåįģ åĿĹ
è´£ä»» å¿ĥ
Ġåıĳè´§éĢŁåº¦ å¾Īå¿«
äº§çĶŁ äºĨ
ĠæĢİä¹Ī è¯´åĳ¢
èĤ© å¸¦
åºĹéĩĮ ä¹°çļĦ
äºĴ åĬ¨
èµ·æ¯Ľ çĲĥ
èĥ¡ éĢĤ
åī© ä¸ĭçļĦ
è¾ħ åĬ©
èĬ±éĴ± ä¹°
å©ļ å§»
åģ· å·¥åĩı
å¿«éĢĴä¹Ł ç»ĻåĬĽ
åįģå¤ļ å¤©
æĤ¦ åĦ¿
Ġè¿Ļæ¬¡ ä¹°çļĦ
æī§ è¡Į
æ³³ å¸½
æľĢå¤§ çļĦå¥½å¤Ħ
ç§ĳæĬĢ äº§ä¸ļ
Ġä½¿çĶ¨ æĸ¹ä¾¿
æī¯ æ·¡
å¾Īæĺ¯ åĸľæ¬¢
åĮħè£ħçļĦ å¾Īå¥½
åį¤ èıľ
æģĲ æĥ§
ä¸Ģå¦ĤæĹ¢å¾Ģ çļĦå¥½
çĭ¬çī¹ çļĦ
çļĦæľĢ ä½³
å¥½åĩłå¤© äºĨ
æĳ¸èµ·æĿ¥ å¾ĪèĪĴæľį
éĢĢåĽŀ åİ»äºĨ
å¤įæĿĤ çļĦ
å®¶åħ· åĪ¶éĢł
ä¸ļåĬ¡ åĳĺ
èī° éļ¾
éģŃ éģĩ
åĲĽ åŃĲ
å¹´è½» äºº
çĸ¯ çĭĤ
ä¹¦çļĦåĨħå®¹ çĽ´å¾Ĺ
æ´ª åĲ¯
å¡« åħħ
æĤ£ èĢħ
èµĶ åģ¿
èħĲ è´¥
è®²è¿° äºĨ
ä»ĸçļĦä¹¦ äºĨ
è´« è¡Ģ
è¯¾å¤ĸ çŁ¥è¯Ĩ
oooo oooo
å¤ªåĿĳ äººäºĨ
ä»·å»īä»·å»ī ä»·å»īä»·å»ī
å¥½å¥½å¥½å¥½å¥½å¥½å¥½å¥½å¥½çĶ¨å¥½å¥½å¥½å¥½å¥½å¥½å¥½å¥½å¥½çĶ¨ å¥½å¥½å¥½å¥½å¥½å¥½å¥½å¥½å¥½çĶ¨å¥½å¥½å¥½å¥½å¥½å¥½å¥½å¥½å¥½çĶ¨
å¥½å¥½å¥½å¥½å¥½å¥½å¥½åıĳå¾Īå¥½å¥½å¥½å¥½å¥½å¥½å¥½å¥½åıĳå¾Īå¥½å¥½å¥½å¥½å¥½å¥½å¥½å¥½åıĳå¾Īå¥½å¥½å¥½å¥½å¥½å¥½å¥½å¥½åıĳå¾Īå¥½ å¥½å¥½å¥½å¥½å¥½å¥½å¥½åıĳå¾Īå¥½å¥½å¥½å¥½å¥½å¥½å¥½å¥½åıĳå¾Īå¥½å¥½å¥½å¥½å¥½å¥½å¥½å¥½åıĳå¾Īå¥½å¥½å¥½å¥½å¥½å¥½å¥½å¥½åıĳå¾Īå¥½
ä¸Ģåı£ æ°Ķ
ä»·æł¼ä¹Łä¸į è´µ
æľĭåıĭæİ¨èįĲ æĪĳçľĭçļĦ
æľĢå¤±è´¥ çļĦä¸Ģæ¬¡
å¤ªè½¯ äºĨ
çİĭæľĿ ä¸ĭè·ª
åĬ¨äºº å¿ĥçļĦ
åı® å½ĵ
æĿłæĿł çļĦ
èķ¾ ä¸Ŀ
èİ«åĲį åħ¶å¦Ļ
âĶ Ģ
è¿ĺéĢģè´§ ä¸Ĭæ¥¼
ä¹¦åĨħå®¹ è´¨éĩıä¿±ä½³åĢ¼å¾Ĺæİ¨èįĲ
å½¢æĦı æĭ³
æ¯Ķå®ŀä½ĵåºĹä¹°ä¾¿å®ľå¥½å¤ļè¿ĺçľģ è½¦è´¹
åµ Į
çĪ±ä¸įéĩĬ æīĭ
åģ·å·¥åĩı æĸĻ
ä¹¦çļĦåĨħå®¹çĽ´å¾Ĺ ä¸Ģè¯»
) ãĢĭ
4 50
5 5
? &
? ï¼Į
M P
P P
T he
c h
g o
m s
n åħŃ
n åľ¨äº¬ä¸ľèĬ±çĽĹçīĪçļĦéĴ±ä¹°æŃ£çīĪçļĦä¸ľè¥¿
t le
~ \
§ åħī
« èĬ¦
â ħ
Ġ æĥ³
Ġ åıª
Ġ åı·
Ġ è¡¨
Ġ éĥ½æĺ¯
Ġ è¿ŀ
Ġ åıªèĥ½
Ġ æµ·
Ġ æľįåĬ¡æĢģåº¦
Ġ é©¬
Ġ åĶ®åĲİ
Ġ è®¢åįķ
Ġ åĵģè´¨
Ġ è¿Ļä¸ªä»·ä½į
Ġ æīĭæĦŁä¸įéĶĻ
Ġ åıĳéĶĻè´§äºĨ
çļĦ è¿Ļ
çļĦ åı¯ä»¥
çļĦ èĩª
çļĦ åĨħ
çļĦ ä¸ī
çļĦ éĥ½æĺ¯
çļĦ åĵ¦
çļĦ ç¬¬ä¸Ģ
çļĦ åĵģè´¨
çļĦ æĹ¶ä»£
çļĦ èī²å½©
çļĦ ä½įç½®
çļĦ è¡Įä¸º
ä¸į çĿĢ
ä¸į åħ¨
ä¸į çĪ±
ä¸į éľĢè¦ģ
ä¸į åĢ¼å¾Ĺè´Ńä¹°
è¿ ¦
äºĨ åįĬå¤©
æĺ¯ æĪĳä»¬
æĺ¯ ä¸ºäºĨ
ä¸Ģ çľ¼
è´ ¤
è´ º
å¾Ī è´µ
å¾Ī ç»Ĩ
å¾Ī ç²¾ç¾İ
å¾Ī åıĬæĹ¶
å¾Ī éħ·
å¾Ī å¼ºå¤§
åĲ Ł
çĶ ¥
æľī éĤ£ä¹Ī
æľī åı²
éĢ Ĩ
åħ ½
è¿ĺ å°ĳ
è¿ĺ æķ¢
è¿ĺ ä»¥ä¸ºæĺ¯
ä½ Ĳ
æ² ģ
å°± å¾Ī
æĪĳ æĢİä¹Ī
æĪĳ åıªæĺ¯
æĪĳ å½ĵæĹ¶
æĪĳ ä¹Łä¸įçŁ¥éģĵ
æ²¡ åĩłå¤©
è¿Ļ éĴ±
åį ľ
çĶ¨ äºĨä¸Ģä¸ĭ
çĶ¨ ä¸ĬäºĨ
æł ı
éĶĻ åŃĹ
åĪ° åĵªéĩĮ
æĸ ĭ
ä¹Ł åľ¨
ä¹Ł è¿ĺè¡Į
ä¹Ł å¤ªæħ¢äºĨ
æĿ¥ ä¹°äºĨ
æĢ ¨
æĢ ĸ
å¤§ éĿ©åĳ½
åľ¨ ä¹¦åºĹ
åŃĲ éĥ½
åŃĲ åĴĮ
éĥ½ çľĭ
éĥ½ ç»Ļ
éĥ½ åİĭ
è® ¶
å¤ª ç»Ĩ
å¤ª ç²Ĺ
å¤ª æĹ§
å¤ª èĤ¥
ä¸Ĭ åĽ¾
åĨ ¤
äºº æł¼
åĳ ±
åıĳ åĬ¨
è´¨éĩı ä¹Łä¸įå¥½
ãĢģ &
æĥ Ł
è¦ģ éĢĢè´§
éĹ ¸
æ¬¡ çļĦ
å¿« ä¸Ģä¸ªæľĪäºĨ
åĵģ å°Ŀ
æ²¡æľī äºº
æ²¡æľī æĥ³è±¡çļĦå¥½
èĥ½ ä¹°åĪ°
å¤ļ ä¸ª
æĹ¶ ä¹°çļĦ
åĴĮ ä¸ŃåĽ½
åĴĮ åħ¶ä»ĸ
åĴĮ ç¤¾ä¼ļ
çº º
åĸ ½
è¿ĩ åĩłå¤©
å½ ¹
å°±æĺ¯ å¥½
å°±æĺ¯ ä¸ºäºĨ
å°±æĺ¯ å°ıäºĨçĤ¹
åı¯ä»¥ è£ħ
è¾ ľ
æĶ¶ éĽĨ
ä¼ļ è®®
ä¼ļ åĨįæĿ¥
éĢģ æľĭåıĭçļĦ
æ¯Ķ èµĽ
è¯Ħ ä¼°
åĿ ¡
ä¾ £
åĸľæ¬¢ åĸľæ¬¢
åŃ¦ äºĨ
ç©¿ ä¸Ģæ¬¡
åĩº äºĨä¸Ģ
èĩª å·²
å¼Ģ åĲ¯
ä¸Ģä¸ª æĦıå¤§åĪ©
äº¬ä¸ľ éĢģè´§
ä¸įæĺ¯ ä¸ĢèĪ¬
ä¸įæĺ¯ å¾ĪèĪĴæľį
ä¸įæĺ¯ å¾Īå¤§
è¿Ļä¸ª é¢ľèī²
è¡Į ä¹ĭ
ä½ł ä¸į
ä½ł å¥½
ä½ł è¿Ļ
æ´ ±
ä»ĸ å¾Īåĸľæ¬¢
åĲĪ ä¸Ģ
éĤ£ æĹ¶
éĤ£ å°±æĺ¯
çĶµ çº¿
èĢĮ æĹł
æīĭ éĵ¾
åī ĩ
ä½Ĩ ä¸į
ä½Ĩ åľ¨
å± ¡
éĩĮ æľī
æŃ£ æĸĩ
ä¹ĭ éģĵ
åĪĨ å¥½è¯Ħ
çĦ¶ å¹¶
æħ¢ çĤ¹
æīį å¥½
æīį çĶ¨äºĨ
éĢĢ å·®ä»·
æ¸ ´
æĹł è¯Ŀ
æĹł èĢ»
éĹ® ä»ĸ
æľīçĤ¹ éĩį
å¿«éĢĴ éĢģè´§ä¹Łå¾Īå¿«
æľĢ åĪĿ
æľĢ å·®åĬ²
åĨį åĬłä¸Ĭ
ä¸¤ çĵ¶
çī©æµģ çļĦ
çī©æµģ å¾Īæħ¢
æīĵ åºķ
æīĵ éĢł
å¦Ĥ åĽ¾
åĽ½ çļĦ
åįķ ä¸Ģ
é« ĵ
æĸĩ äºº
é«ĺ å°ļ
éĴ± äºĨ
éŀĭ è·Ł
çī¹ æķĪ
èĩªå·± æī¾
ä»·æł¼ æ¯Ķ
èĤ ĥ
å®Į æ¯ķ
ç§į ç§į
åºĹ å¤§
èĢģ æłĳ
éŁ §
æĢ§ æĥħ
åıĪ æ²¡
ç¾İ çĶ²
çŃī äºº
ä¹Łä¸į çĲĨ
æİī çº¿
åıĳè´§ çļĦ
åŁ ĭ
è·Ł å®¢æľįèģĶç³»
ä½¿ åĬ²
å¤ªå·® å¤ªå·®
åķĨåĵģ è´¨éĩı
é¢ľèī² ä¸įéĶĻ
è§£ è¯´
è¯Ń æĸĩ
èĢĮä¸Ķ æĪĳ
å®ļ ä½į
å®ļ ä¹ī
åįĸå®¶ æľįåĬ¡æĢģåº¦å¥½
ç¼ ª
æ¶ Ľ
èº« çļĦ
èº« ä¸ĬçļĦ
èĸĦ èĸĦçļĦ
äºĨä¸Ģ åįĬ
æģ į
å¤´ ä¸Ĭ
å¤´ æĻķ
æĢģåº¦ æģ¶åĬ£
æ¸ħ ä»£
åģļå·¥ ä¸į
æŁ ı
æĶ¾ ä¸įä¸ĭ
æ£ µ
æĳ ¹
ä¸ĢçĤ¹ ä¸į
ä¸ĢçĤ¹ çĶ¨
åħ¬ åĽŃ
ä»¥åĲİ è¿ĺ
ä»¶ äºĨ
æ· «
åĳ³éģĵ å¥½
é¦ ¨
ä¸» æĮģ
Ġå¾Ī å¤±æľĽ
éĵ ²
åħī çº¿
èį §åħī
éļ¾ çĤ¹
éļ¾ æĢª
åİŁ è½¦
åİŁ èĳĹ
æĹ¶éĹ´ çļĦ
å®ī å¿ĥ
æł¹æľ¬ ä¸įèĥ½çĶ¨
çļ® åħĭæĸ¯
è¿Ļä¹Ī å·®
è¿Ļä¹Ī å°ı
ä¸įéĶĻçļĦ éĢīæĭ©
èĢĥ çĶŁ
çł´ æ´ŀ
è¿ĺæľī ä¸Ģä¸ª
è¿ĺæľī å¾Īå¤ļ
æŃ¤ åķĨåĵģ
Ġè¿Ļ ç§į
å»º ç¯
æĺĵ åŃ¦
æĺĵ äºİ
æ´Ĺ çļĦæĹ¶åĢĻ
æ´Ĺ ä¸įæİī
åıį é»ĳ
åºķ äººçĶŁ
æŃ» æľº
çĸ ²
çĸ Ĩ
éĩĮéĿ¢ éĥ½æĺ¯
åĽĽ å¹´
åĲį ä¸º
å®ĥ äºĨ
ï¼Łï¼Ł ï¼Łï¼Łï¼Ł
åŁº éĩĳçļĦ
ä¸ĭæ¬¡ è¿ĺè¦ģ
åįĬ å¤©æīį
è£¤ èħ¿
å¼º åĮĸ
ç¬¬ä¸Ģæ¬¡ çĶ¨
æłĩ è¯Ĩ
æłĩ ç¤º
é£İ åº¦
è®¾ æĸ½
æŀģ åº¦
ä¸įä¼ļ ä¹°
åıĳçİ° æľī
åĩĨ æĹ¶
æ¬¾å¼ı å¾Īå¥½çľĭ
åį¡ çīĩ
åĪ¶ çļĦ
å¤§å°ı åĪļåĪļå¥½
åĲ¬ äºĨ
åĲ¬ è§ģ
è°ĥ è¯ķ
æĸ¯ åŁº
æĸ¯ é¡¿
è®° èĢħ
è®° ä½ı
è®° èĢħçļĦ
å°Ĩ ä¼ļ
ä¸¥ è°¨
è®¢ çļĦè´§
èĳ Ľ
èĳ «èĬ¦
è¿ĺå¥½ è¿ĺå¥½
ç¡¬ ä»¶
åľ¨äº¬ä¸ľ ä¹°çļĦ
ä¸¤ä¸ª äºº
æ·± å¤Ħ
åıĮ éĿ¢
çº¢ æ¨±
åºĹå®¶ æľįåĬ¡
Ġçī©æµģ ç»ĻåĬĽ
æĮĩ å¼ķ
ç¿ ħ
ç¿ ł
çı ¾
èµ° çļĦ
èµ° æĹ¶
å¤ĩ çĶ¨çļĦ
10 5
çĥ¦ æģ¼
ä¸Ģä¸ĭ åĲ§
ç»´ æĬ¤
èĥ¶ åĳ³
åıªæĺ¯ ä¸Ģä¸ª
ä¸ºä»Ģä¹Ī è¦ģ
ç¬Ķ ä¸ĭçļĦ
æĿ¯ åı£
å°ģ å»º
å®īè£ħ çļĦ
å®īè£ħ å¸ĪåĤħ
æĶ¹ æŃ£
åĲĳ å¾Ģ
æĭį ä¸ĭ
æº ľ
è¿ĳ è·Ŀç¦»
åĵª åİ»äºĨ
åİĨåı² ä¸Ĭ
åİĨåı² åŃ¦å®¶
æııè¿° ä¸Ģæł·
è¡¥ åıĳçļĦ
è¡¥ éĤ®è´¹
ĠéŀĭåŃĲ å¾Īå¥½
ä¸įå¤ª å¥½çĶ¨
å°Ķ éĽħ
æ°ĳ ä¸»
æ¼ı åıĳ
å² ©
èĦĳ æµ·
èĦĳ æ®ĭ
èĮ¶ å£¶
ç½ĳä¸Ĭ ä¹°
å¾® ç¬ĳ
æĲŀ å®ļ
19 39
ç¼º å¤±
æĬ¤ èĤ¤
å¡ĳæĸĻ åĳ³
Ġæ²¡ æĶ¶åĪ°
ä¸įè¡Į äºĨ
ä¸įè¡Į åķĬ
èī¯ å¥½çļĦ
Ġå¿«éĢĴ æħ¢
Ġå¿«éĢĴ å¾Īå¿«
éĢł å°±
åİĭ è¿«
æľª å¿ħ
æıĴ åľ¨
åı« äºº
åĶ± æŃĮ
çİĭ æ°¸
èı Į
åĩłæ¬¡ äºĨ
ç²ĺ ä¸įä½ı
ä¸ĵä¸ļ çļĦ
å¼ķ äºº
å¼ķ èµ·
é¡º åºı
ç»§ç»Ń åħīé¡¾
åĲ¯ åĬ¨
å¾Īæľī æ¡£æ¬¡
æķ£ äºĨ
åį³ å°Ĩ
ä¹Łå°± éĤ£æł·
è¯Ĺ æŃĮ
å·´ é»İ
åĩºçİ° éĹ®é¢ĺ
æī¿ è½½
æħİ ä¹°
åı³ è¾¹
å¾Īä¸į å¼Ģå¿ĥ
éªĹåŃĲ éªĹåŃĲ
å¿ħé¡» å·®è¯Ħ
ç³Ĭ å¼Ħ
æĢª èĩªå·±
æłĳ åı¶
æķ´ä½ĵ æĿ¥è¯´
ä¸¢ å¤±
åĪĢ çīĩ
åĪĢ å¤´
æĳ¸ ä¸Ĭåİ»
åĩłä¸ª å°ıæĹ¶
è¯»èĢħ åľ¨éĺħè¯»
æ¼Ķ ä¹ī
å®¤ åĨħ
æĢ¥ çĿĢçĶ¨
èĥ½åĬĽ çļĦ
éĵģ è·¯
åĸĦ èī¯
éĻ¤äºĨ ä»ĸçļĦä¹¦
æ¦Ĥ è¿°
åħ¶ä¸Ń ä¸Ģä¸ª
åĨĻçļĦ çļĦä¹¦
ç¬ĳ äºĨ
æłĩåĩĨ çļĦ
æĥĬ è®¶
åħīé¡¾ äºĨ
å·®è·Ŀ å¾Īå¤§
äºī åıĸ
å®½ åº¦
å®½ æĿ¾
å¥¥ åħ¹
17 0
åĤħ æĸ¯å¹´
çļĦè¦ģ åĳ½
æĺ¨ æĻļ
æĺ¯åĲ¦ ç»ĻåĬĽ
Ġä¸ĢçĤ¹ ä¹Łä¸įå¥½
æķı æĦŁ
æ´ĹäºĨ ä¸Ģæ¬¡
æľīä¸ª å°ı
è®¸å¤ļ äºº
éĻĪ å¸ĥéĽ·
åīª åĪĢ
æĳĨ çĿĢ
è¿ŀæİ¥ å¤Ħ
çĽ¸å·® å¤ªè¿ľ
ä»ĺæ¬¾ äºĨ
è¡¨çİ° äºĨ
æ§ ¿
æ¯ıæ¬¡ éĥ½
æ¯ıæ¬¡ éĥ½æĺ¯
æĦŁåıĹ åĪ°
æµ® å£«å¾·
éĥ½è¯´ å¥½
éĺŁ ä¼į
ä»·æł¼ä¹Ł ä¾¿å®ľ
å®¡ åĪ¤
éĻįä»· äºĨ
æĿĨ åŃĲ
éĺ¶ çº§
æĻĴ åįķ
çī©æµģä¹Ł ç»ĻåĬĽ
Ġå¤§ åĵģçīĮ
å°Ĩå°± çĿĢ
nç¬¬ åħŃ
çĶµåŃĲ åķĨåĬ¡
æ±¡ æŁĵ
çĻĮ ç»Ĩèĥŀ
çĬ¹ å¤ª
ä¹Į é¾Ł
åĵĪåĵĪåĵĪåĵĪ åĵĪåĵĪåĵĪåĵĪ
éļ¾çľĭ æŃ»äºĨ
Ġæł¹æľ¬ ä¸įæĺ¯
çĶµæºĲ çº¿
æĻĵ å¾Ĺ
å¿ĥå¾Ĺ åĲ§
æĬ± æŃī
åľ¨äº¬ä¸ľä¹°ä¸ľè¥¿ äºĨ
è°ģä¹°è°ģ çŁ¥éģĵ
å®£ä¼ł çļĦ
ä¼¯ çī¹
èŀį åħ¥
åºĦ åı¸
ï½ŀï½ŀï½ŀï½ŀ ï½ŀï½ŀï½ŀï½ŀ
çĽĳ æµĭ
æĦıå¤§åĪ© çĭĤ
ä½ĵçİ° äºĨ
ä¸ĢçĤ¹éĥ½ä¸įå¥½ çľĭ
ç¼ºçĤ¹ æĺ¯
éĹ¹ å¿ĥ
åĪ°å¤Ħ éĥ½æĺ¯
å¼¯ çļĦ
è¦Ĩ çĽĸ
æĿ¨ çº¢æ¨±
æģ¼ çģ«
dd dd
åĽĬ æĭ¬
ä¾Ħ åŃĲ
äºĮæ¬¡ éĶĢåĶ®
å¤§ä¸Ģ çłģ
åĪĨäº« ä½łçļĦ
è´¦ åı·
éĴ»çŁ³ ä¼ļåĳĺ
æª Ĳ
å¤¸ å¼ł
åį§ åºķäººçĶŁ
'' ''
æīģ äºĨ
åĳĥåĳĥ åĳĥåĳĥ
é»ĳå¿ĥ åķĨå®¶
æĺ¯å¥½ äºĭ
ï¼ģï¼ģï¼ģï¼ģï¼ģï¼ģï¼ģï¼ģï¼ģï¼ģï¼ģï¼ģï¼ģï¼ģï¼ģï¼ģï¼ģï¼ģï¼ģï¼ģï¼ģï¼ģï¼ģï¼ģï¼ģï¼ģï¼ģï¼ģï¼ģï¼ģï¼ģï¼ģï¼ģï¼ģï¼ģï¼ģï¼ģï¼ģï¼ģï¼ģï¼ģï¼ģï¼ģï¼ģï¼ģï¼ģï¼ģï¼ģï¼ģï¼ģï¼ģï¼ģï¼ģï¼ģï¼ģï¼ģï¼ģï¼ģï¼ģï¼ģï¼ģï¼ģï¼ģï¼ģ ï¼ģï¼ģï¼ģï¼ģï¼ģï¼ģï¼ģï¼ģï¼ģï¼ģï¼ģï¼ģï¼ģï¼ģï¼ģï¼ģï¼ģï¼ģï¼ģï¼ģï¼ģï¼ģï¼ģï¼ģï¼ģï¼ģï¼ģï¼ģï¼ģï¼ģï¼ģï¼ģï¼ģï¼ģï¼ģï¼ģï¼ģï¼ģï¼ģï¼ģï¼ģï¼ģï¼ģï¼ģï¼ģï¼ģï¼ģï¼ģï¼ģï¼ģï¼ģï¼ģï¼ģï¼ģï¼ģï¼ģï¼ģï¼ģï¼ģï¼ģï¼ģï¼ģï¼ģï¼ģ
è¿Ļæ®µ è¯Ŀ
è·¯è¾¹ æĳĬ
æµĳ èº«
éĢĬ ä¸İ
éĽķ åĪ»
çĦĬ æİ¥
é©¬èĻİ èĻİ
ç¸ ½
å¼¥ æ¼«
é¢łè¦Ĩ æĢ§
å¾Īå¸ħ æ°Ķ
åīĸ æŀĲ
å¦Ĥæľī ç¥ŀ
ä½İç¢³ç»ıæµİ çłĶç©¶
æĥħäºº èĬĤ
é³ŀçĬ¶ ç»ĨèĥŀçĻĮ
åı¯æ°Ķ çļĦæĺ¯
æĮ¯å®ĩ èĭ±è¯Ń
å²ĽçĶ° åºĦåı¸
å¾ªåºıæ¸Ĳ è¿Ľ
éĢĻéĥ¨ éĽ»å½±
éĶĻåĪ« åŃĹ
ä¸ĭç¬Ķ å¦Ĥæľīç¥ŀ
ä¹¦åĨħå®¹è´¨éĩıä¿±ä½³åĢ¼å¾Ĺæİ¨èįĲ ä¹¦åĨħå®¹è´¨éĩıä¿±ä½³åĢ¼å¾Ĺæİ¨èįĲ
ä¸Ģä¸ªæĦıå¤§åĪ© åıįé»ĳ
å»ºç¯ ī
è®°èĢħçļĦ åį§åºķäººçĶŁ
å¥¥åħ¹ åĽ½
ä¸Ģä¸ªæĦıå¤§åĪ©åıįé»ĳ è®°èĢħçļĦåį§åºķäººçĶŁ
3 15
4 6
4 7
7 7
8 00
I T
L E
L O
M L
b ps
c d
i d
o T
t m
Ġ 9
Ġ éĩı
Ġ åĢ¼å¾Ĺ
Ġ çł´
Ġ æĸ¹ä¾¿
Ġ é»ĳ
Ġ åŃ¦ä¹ł
Ġ åľ¨äº¬ä¸ľ
Ġ çĲĥ
Ġ 10
Ġ å¥½å¥½å¥½å¥½
Ġ çĶµèĦĳ
Ġ è¦ģçļĦ
Ġ çĽ®åīį
Ġ ç»Īäºİ
Ġ å®ŀåľ¨æĺ¯
Ġ æķĪæŀľä¸įéĶĻ
Ġ ç©¿çĿĢå¾ĪèĪĴæľį
Ġ æŃ¤ä¹¦
Ġ ä¾¿å®ľæ²¡å¥½è´§
Ġ äº®åº¦
Ġ åŀ«åŃĲ
çļĦ éŀĭ
çļĦ ä½¿çĶ¨
çļĦ éĩĳ
çļĦ çĲĥ
çļĦ æ´»åĬ¨
çļĦ ç¤¾ä¼ļ
çļĦ çħ§çīĩ
çļĦ è¿Ĳè´¹
çļĦ å·®ä¸įå¤ļ
çļĦ åĬŀæ³ķ
çļĦ èīºæľ¯
çļĦ çĶŁåĳ½
çļĦ çĶ»éĿ¢
ä¸į æŃ£
ä¸į å¼º
ä¸į ä¸ĭæĿ¥
ä¸į è§£éĩĬ
ä¸į ç¨³å®ļ
ä¸į æĦīå¿«çļĦä¸Ģæ¬¡è´Ńçī©
æĺ¯ è¿Ļæł·
æĺ¯ å¹²
æĺ¯ ä¸Ģæł·çļĦ
å® °
ä¸Ģ æĺ¯
ä¸Ģ éģĵ
ä¸Ģ æīĭ
ä¸Ģ æĹł
ä¸Ģ åĽŀ
ä¸Ģ çĽĴ
ä¸Ģ ç®±
ä¸Ģ éĥ¨åĪĨ
ä¸Ģ åľĪ
è¯ ¡
å¾Ī æ¬¡
å¾Ī æĹłè¯Ń
å¾Ī å®ŀçĶ¨çļĦ
åĲ ķ
æľī ä¸Ģæ¬¡
æľī æĺİæĺ¾
åħ Ĩ
è¿ĺ å¤§
è¿ĺ æĶ¶
è¿ĺ åĸľæ¬¢çľĭ
å°± èµ·
å°± è§īå¾Ĺ
æī ¶
æĪĳ åı¯ä»¥
æĪĳ æīį
æ²¡ æ³¨æĦı
ä¹° ä¸Ģ
ä¹° åĪ°äºĨ
ä¹° ä¸¤ä¸ª
è¿Ļ åĩł
è¿Ļ ä¹Łæĺ¯
ä¸ª å·®è¯Ħ
çĶ¨ åĳ¢
çĶ¨ çļĦä¸ľè¥¿
åĪ° æĺ¯
åĪ° æĹ¶
åĪ° èĦļ
åĪ° æľĢåĲİ
ä¹Ł æĩĴå¾ĹéĢĢäºĨ
å·® å¾Ĺ
æĿ¥ äº¬ä¸ľåķĨåŁİ
éĿ ¡
è´§ çľŁä»·å®ŀ
è´§ ä¸įå¯¹çīĪ
å¤§ äºĭ
åľ¨ æĦı
åľ¨ ä¸Ģä¸ª
åľ¨ æĪĳä»¬
åľ¨ ä¸ŃåĽ½
åľ¨ ç¾İåĽ½
åŃĲ äºĨ
éĥ½ åĸľæ¬¢
ä¸Ĭ åįĩ
äºº ä¹°çļĦ
äºº æīį
äºº éĹ´
å®¶ çĶµ
å®¶ ä¼Ļ
åĳ ¦
ä¹¦ éĥ½
åıĳ åĩºæĿ¥
è´¨éĩı çļĦ
è´¨éĩı æĮºå¥½
è´¨éĩı ä¹Łä¸į
è´¨éĩı å·®çļĦ
åı¯ è¯´
åı¯ æĥ³
åı¯ è°ĵ
è¦ģ ä¸įçĦ¶
çĤ¹ ä¸ªèµŀ
å¯ ĵ
æŃ ¹
å°ı æ¡¥
ç»Ļ ä»ĸä»¬
å¿« ä»¶
å¿« åĪĨäº«ä½łçļĦ
åĵģ çĽ¸
æľ¬ æĥ³
æ²¡æľī çľĭ
æ²¡æľī ä¸Ģä¸ª
å¤ļ æķ°
å¤ļ åħĥ
å¤ļ è¯´äºĨ
å¤ļ å°ıæĹ¶
è£ħ å¤ĩ
å¾Ĺ å¥½
å¾Ĺ ä¸Ĭ
åĴĮ å®¢æľįèģĶç³»
è¥ Ł
è¥¿ çıŃ
åĢ ĳ
æİ ©
ä¸ĭ éĻį
å®ŀ åĬ¡
å®ŀ æĪĺ
å¤© ç©¿
å¤© çĦ¶
æµ ı
ä¸ľè¥¿ éĥ½
ä¸Ń è¯Ħ
ä¸Ń åħ±
ä¸Ń éĢļå¿«éĢĴ
å°±æĺ¯ æľī
å°±æĺ¯ æľīçĤ¹å°ıè´µ
è¾ ±
çľŁ è®©äºº
éĿ¢ ä¸´
æĦŁ çļĦ
æĦŁ è§¦
ä¼ļ æĽ´å¥½
éĢģ æĪĳ
æ¯Ķ æĥ³è±¡çļĦ
éĿŀ éĿŀå¸¸åĸľæ¬¢
åº¦ çļĦ
æĥ³ åĲĲ
åŃ¦ çķĮ
åĩº æīĭ
ç® Ń
èĩª åľ¨
èĩª å¦Ĥ
å¼Ģ çº¿
éĿŀå¸¸ çļĦå¥½
åķĨ éĩı
è¿Ļä¸ª ä¹¦
å¯¹ æŃ¤
çĶŁ çĲĨ
çĶŁ å¯¼å¸Ī
ä½ł åı¯ä»¥
ä½ł å®¶çļĦ
ä¸įå¥½ ç©¿
åī ¥
ä½Ĩ è´¨éĩı
æĸ¹ æ´²
ä½ľ æĽ²
ä»Ģä¹Ī é¬¼
çŃ Ĳ
è° ¬
åıª è¦ģæĺ¯
åĪĨ éħį
æīį æĿ¥
æīį è¡Į
æĦŁè§ī æ¯Ķ
æĹł æķĮ
æľīçĤ¹ è¿ĩ
æľīçĤ¹ ç²Ĺç³Ļ
åģļ æ´»åĬ¨
å¿«éĢĴ æľįåĬ¡
å¿«éĢĴ äººåĳĺ
åħ¨ èº«
åħ¨ éĿ¢çļĦ
æľĢ å¤±è´¥çļĦä¸Ģæ¬¡è´Ńçī©
å¹´ åºķ
è¿ĺæĺ¯ æľĭåıĭæİ¨èįĲæĪĳçľĭçļĦ
åĽŀ äºĨ
ä¸¤ ä¸ĭ
çī©æµģ åħ¬åı¸
åįĸ çĭĹèĤī
åĬĽ åĴĮ
åħ¶ éĹ´
åħ¶ éĵİ
æĢİä¹Ī å°±
æĢİä¹Ī æ²¡æľī
åĩł ç§į
æ³ķ æĴĴæĹ¦
ä¹°äºĨ å°±
ä¹°äºĨ å¥½å¤ļ
Ġè´¨éĩı ä¸įæĺ¯å¾Īå¥½
æĪĲ ä¸Ģ
ä½ĵ åĪ¶
ä½ĵ ç§¯
åįķ åŃĲ
åŀĥåľ¾ äº§åĵģ
å½ĵ å¤©å°±
é«ĺ çº§
ä»·æł¼ æľīçĤ¹è´µ
ä»·æł¼ å¾Īå®ŀæĥł
éķ ·
èĢģ äººå®¶
æį¢ æĿ¥
æīĢ è¯´çļĦ
ç¡ ħ
äº§ çļĦ
æ¯Ķè¾ĥ é«ĺ
ï¼Ī ï¼īãĢĤ\
åĶ ĩ
æĸ° çīĪ
åºĶ å¯¹
çĽ¸ åºĶ
çĽ¸ åıį
ä½¿ æĪĳ
äº® äºĨ
è¯Ń éŁ³
ä½Ĩæĺ¯ è¿Ļä¸ª
ä»İ æľª
è´¹ äºĨ
ç²¾ è£ħ
éķ¿ è¾¾
åı· äºĨ
èº« æĿĲ
æľŁ è´§
äºĨä¸Ģ ä¼ļ
äºĨä¸Ģ åı£
äºĨä¸Ģ åĿĹ
Ġä¸ľè¥¿ åı¯ä»¥
æ¸ħ åįİ
æķĪæŀľ è¿ĺåı¯ä»¥
æķĪæŀľ è¿ĺä¸įéĶĻ
æĶ¾ è¿Ľåİ»
ä¸įçŁ¥éģĵ ä¼ļä¸įä¼ļ
ä¸įçŁ¥éģĵ å¥½ä¸įå¥½
éĢŁåº¦ è¿ĺçľŁæĺ¯
åĨĻ æĸĩç«ł
æĬĬ åħ³
æ· Ģ
ä¸» æľº
ä¿Ŀ åħ»
Ġå¾Ī å¿«
å§ ¨
æ´» äºĨ
æ´» æ³¼
åħī é©±
è´Ńä¹° å¿ĥå¾ĹåĲ§
åĲĥ äºı
éĢĢè´§ éº»çĥ¦
è¿Ľ ç¨ĭ
éĥ½ä¸į åĪ°
æł¹æľ¬ æĹłæ³ķ
æĪĳä»¬ åľ¨
çļ® éŀĭ
è¿Ļä¹Ī è´µçļĦ
çĶ¨äºĨ ä¸¤æ¬¡
çİ°åľ¨ ç»Ļå¤§å®¶ä»ĭç»į
ä¸ļ èµĦæł¼
å·²ç»ı ä¸į
å·²ç»ı æĶ¶åĪ°
å¥Ĺ ä¹¦
æ¯Ľ åĪº
å¥½è¯Ħ åĲ§
çĻ½ ä¹°äºĨ
å¤§å®¶ åı¯ä»¥
å¤§å®¶ è¿ĺæĺ¯
å¤§å®¶ åįĥä¸ĩä¸įè¦ģä¹°
ä¹Ĳ åĻ¨
è§Ĥ çľĭ
è´Ŀ å°Ķ
å¾Īå¤ļ æĹ¶åĢĻ
å¥³ çĶŁ
å¥³ å£«
æ´Ĺ æ¾¡
åºķ æľ¬
çº¸ å·¾
æŃ» çļĦ
æŃ» äº¡
è§ģ è¯ģ
èĲ İ
éĩĮéĿ¢ æĺ¯
åĲį å®¶
çħ ¤
çħ Į
èĦļ æĦŁ
èĦļ åŀ«
å¹³ åĩ¡
ĠæĪĳ åıªèĥ½è¯´
åįĬ ä¸ªå¤ļæľĪ
è¿ŀ ä¸įä¸Ĭ
ä¸įåĢ¼ è¿Ļä»·
ä¸ĩ èĥ½
ç¬¬ä¸Ģæ¬¡ åľ¨äº¬ä¸ľä¹°ä¸ľè¥¿
è®¾ å®ļ
ä¼ł è¾ĵ
ãĢĤãĢĤãĢĤãĢĤãĢĤãĢĤãĢĤãĢĤ ãĢĤãĢĤãĢĤãĢĤ
æŀģ æħ¢
ä¸įä¼ļ åĨįä¹°
ä¸įä¸Ģæł· çļĦ
çļĦä¸Ģ ä»¶
çļĦäºº æĸĩ
åıĳç¥¨ çļĦ
çĥĤ ä¸ľè¥¿
ä¸ŃçļĦ æĪĺæĸĹ
ä»ĸä»¬ çļĦä¹¦
è°ĥ æį¢
Ġå¤ª åģĩäºĨ
åį´ è¯´
éľĢ è°¨æħİ
ä¿® å¤į
å¿ħ è¦ģçļĦ
çĥŃ çĤ¹
åĿĳ äººäºĨ
åħĥ ç´ł
ç®¡ äºĨ
çħ§ æĺİ
è®¢ çļĦæĺ¯
è¯»ä¹¦ çļĦ
è¯»ä¹¦ çł´ä¸ĩåį·
è´´ äºĨ
èĽ Ļ
æĴ ¼
åºĹå®¶ è¯´
æĮĩ åĩº
æĮĩ æľĽ
æĮĩ æĮ¥
æ¶Ī æŀģ
çĽ´æİ¥ ä¸¢
è¿Ļæĺ¯ ä¸Ģä¸ª
åĪ© çļĦ
éĥ½æ²¡æľī æĶ¶åĪ°
å¤ĩ çĶ¨
åĳ¨ äºĶ
Ġä¹¦ æľ¬
æĪĳçļĦ æīĭæľº
åı¸ æ³ķ
è¶ħçº§ åĸľæ¬¢
è¯ģ æį®
æīĢä»¥ æĪĳ
çĻ¾ ç§ĳ
çĻ¾ å§ĵ
æ¸© æļĸ
è®¾è®¡ å¸Ī
è®¾è®¡ ä¸įåĲĪçĲĨ
å¥ĩ å¦Ļ
åİĨåı² ç³»
çŁŃ çļĦ
æľīäºĽ åľ°æĸ¹
Ġè¿Ļä¸ª ä¸ľè¥¿
åĳĬ åĪ«
Ġåŀĥåľ¾ äº§åĵģ
éº»çĥ¦ çļĦ
å² Ĺ
è¿ľ è¿ľ
æ´»åĬ¨ ä¹°çļĦ
ä¹Łæ²¡ ä»Ģä¹Ī
æľ¬æĿ¥ å°±æĺ¯
éĥ½æ²¡ çľĭåĪ°
äº² æĪļ
è¿Ļæ¬¡ æĺ¯
Ġæ²¡æľī æĶ¶åĪ°
å¯Ĥ å¯ŀ
åı¯èĥ½ æĺ¯æĪĳ
äº¤ éĢļ
æĲŀ éĶĻäºĨ
é¸ ¿
æĽ² æĬĺ
ç¬¬ä¸Ģ æľ¬
ç¬¬ä¸Ģ èĬĤ
ç¬¬ä¸Ģ åį°è±¡
çģ« è½¦
Ġå¿«éĢĴ å¤ªæħ¢
éĺ² å°ĺ
å½ķ åĥı
åĪĿ ä¸Ń
æıĴ çĶ»
æıĴ åº§
æĬķ åħ¥
åĲ¸ æ±Ĺ
èĩªå·±çļĦ çŁ¥è¯Ĩ
èĦ± æ¯Ľ
è£Ĥ çļĦ
æĭ¿åĪ° åĲİ
çĮ ´
å¼Ħ å¾Ĺ
å¤©æīį åıĳè´§
ä¼¤ å®³
èı Ĭ
å¯¹äºİ æĪĳ
åĪĻ æĺ¯
æĺ¾ç¤º çļĦ
çħ§çīĩ ä¸ĬçļĦ
æ¨¡ çī¹
æ¨¡ ä»¿
åĩłæ¬¡ å°±
é»Ħ æĻĵ
èĢ³ éĴī
å°ļ æľª
ĠçĶ¨ æĿ¥
è¯¾ æľ¬
Ġé¢ľèī² å¾ĪæŃ£
é£Ł çĶ¨
å°ºçłģ åģıå°ı
éĴĪ çº¿
éĢģåĪ° å®¶
ä¸įçŁ¥ æĺ¯åĲ¦
ä¸ĬéĿ¢ æľī
æľ¨ å¤´
æ²¡ä»Ģä¹Ī éĹ®é¢ĺ
æ²¡ä»Ģä¹Ī æķĪæŀľ
éĺ³ åı°
æµĭ éĩı
åĵİ åĵİ
å°±æ²¡ äºĨ
200 8
200 9
ä¸¢ åľ¨
æŀĹ è¾¾
ç´ł æıı
ä½ľä¸º ä¸Ģä¸ª
ĠåķĨåĵģ è¿ĺåı¯ä»¥
æ²¡æ³ķ æ¯Ķ
å½ĵæĹ¶ ç¤¾ä¼ļçļĦ
ä¸įç»Ļ å·®è¯Ħ
éĻ¢ éķ¿
å¦Īå¦Ī å¾Īåĸľæ¬¢
å¼¹ ç°§
æ´ŀ æĤī
åŀĥåľ¾åŀĥåľ¾ åŀĥåľ¾
çģ° èī²çļĦ
åİŁåĽł æĺ¯
Ġè´§ æĶ¶åĪ°
åĪ«çļĦ åľ°æĸ¹
åĹ ·
Ġäº¬ä¸ľ èĩªèĲ¥
ä¹± ä¸ĥåħ«
é¢Ħ çº¦
æĪĳæĥ³ éĹ®
ä¹°åĪ° çļĦ
ä¹°åĪ° åģĩè´§
ç»ĵå®ŀ çļĦ
æľŁå¾ħ æķĪæŀľ
ç»Ļä¸ª è¯´æ³ķ
Ġåıĳè´§ å¤ªæħ¢äºĨ
å·®è·Ŀ å¤ªå¤§äºĨ
èµ·çĲĥ çĲĥ
æĵįä½ľ ç®Ģåįķ
ĠåĨħå®¹ å¾Ī
å·®åĪ« å¾Īå¤§
è¦ģæĺ¯ æľī
åºĬ ä¸Ĭ
åºĬ åŀ«
æŃ¦ æ±ī
æŃ£å¸¸ ä½¿çĶ¨
åŃ¦æľ¯ ä»·åĢ¼
æķı æį·
æĶ¾å¿ĥ è´Ńä¹°
æĪı åī§
æł¸ å¿ĥ
æĸĻåŃĲ å¾Īå·®
ç»ĺ åĽ¾
ä¸įçĶ¨ æĭħå¿ĥ
åĮħè£ħå¾Ī ç²¾ç¾İ
åħ·æľī å¾Īå¥½çļĦ
ä¿Ŀæļĸ æĢ§
åĩłå¤©å°± åĿıäºĨ
æĪĲåĬŁ çļĦ
ä¸ĢçĤ¹éĥ½ä¸į ä¸Ģæł·
åĿĩ çłģ
ç¿»è¯ĳ æĪĲ
