{"<unk>":0,"<s>":1,"</s>":2,"!":3,"#":4,"%":5,"&":6,"'":7,"(":8,")":9,"*":10,"+":11,",":12,"-":13,".":14,"/":15,"0":16,"1":17,"2":18,"3":19,"4":20,"5":21,"6":22,"7":23,"8":24,"9":25,":":26,";":27,"=":28,"?":29,"@":30,"A":31,"B":32,"C":33,"D":34,"E":35,"F":36,"G":37,"H":38,"I":39,"J":40,"K":41,"L":42,"M":43,"N":44,"O":45,"P":46,"Q":47,"R":48,"S":49,"T":50,"U":51,"V":52,"W":53,"X":54,"Y":55,"Z":56,"[":57,"\\":58,"]":59,"^":60,"_":61,"`":62,"a":63,"b":64,"c":65,"d":66,"e":67,"f":68,"g":69,"h":70,"i":71,"j":72,"k":73,"l":74,"m":75,"n":76,"o":77,"p":78,"q":79,"r":80,"s":81,"t":82,"u":83,"v":84,"w":85,"x":86,"y":87,"z":88,"|":89,"}":90,"~":91,"¡":92,"¢":93,"£":94,"¤":95,"¥":96,"¦":97,"§":98,"¨":99,"©":100,"ª":101,"«":102,"¬":103,"®":104,"¯":105,"°":106,"±":107,"²":108,"³":109,"´":110,"µ":111,"¶":112,"·":113,"¸":114,"¹":115,"º":116,"»":117,"¼":118,"½":119,"¾":120,"¿":121,"Â":122,"Ë":123,"Ð":124,"â":125,"ã":126,"ä":127,"å":128,"æ":129,"ç":130,"è":131,"é":132,"î":133,"ï":134,"ā":135,"ĉ":136,"Ċ":137,"Ġ":138,"Ģ":139,"ģ":140,"Ĥ":141,"ĥ":142,"Ħ":143,"ħ":144,"Ĩ":145,"ĩ":146,"Ī":147,"ī":148,"Ĭ":149,"ĭ":150,"Į":151,"į":152,"İ":153,"ı":154,"Ĳ":155,"ĳ":156,"Ĵ":157,"ĵ":158,"Ķ":159,"ķ":160,"ĸ":161,"Ĺ":162,"ĺ":163,"Ļ":164,"ļ":165,"Ľ":166,"ľ":167,"Ŀ":168,"ŀ":169,"Ł":170,"ł":171,"Ń":172,"ï¼":173,"ä¸":174,"ï¼Į":175,"çļ":176,"çļĦ":177,"äº":178,"ãĢ":179,"æľ":180,"ä¸į":181,"ä¹":182,"ãĢĤ":183,"è¿":184,"å¤":185,"æĺ":186,"äºĨ":187,"åı":188,"ä»":189,"å¥":190,"å¾":191,"æĺ¯":192,"å®":193,"ä¸Ģ":194,"è´":195,"å¥½":196,"è¯":197,"å°":198,"ï¼ģ":199,"åĪ":200,"å¾Ī":201,"åĲ":202,"çĶ":203,"æľī":204,"ç»":205,"æĪ":206,"å·":207,"éĢ":208,"åħ":209,"è¿ĺ":210,"åŃ":211,"ä½":212,"åľ":213,"æ²":214,"éĩ":215,"ĥ½":216,"æĿ":217,"å°±":218,"çī":219,"çľ":220,"æī":221,"æĪĳ":222,"æ²¡":223,"ä¹°":224,"è¿Ļ":225,"æ¬":226,"éĶ":227,"ä¸ª":228,"åį":229,"å¿":230,"çĶ¨":231,"æĹ":232,"æł":233,"éĶĻ":234,"åĪ°":235,"æĦ":236,"åĽ":237,"å¸":238,"æĸ":239,"ä¹Ł":240,"åĬ":241,"ä¸įéĶĻ":242,"åĵ":243,"åº":244,"å·®":245,"æĿ¥":246,"éĿ":247,"æĢ":248,"ï¼ģï¼ģ":249,"è´§":250,"èĢ":251,"ä¸ľ":252,"å¤§":253,"ä»¥":254,"å¼":255,"è§":256,"åľ¨":257,"åŃĲ":258,"éĥ½":259,"è®":260,"è´¨":261,"å¤ª":262,"åĩ":263,"ä¸Ĭ":264,"åĨ":265,"äºº":266,"çľĭ":267,"ãĢĤãĢĤ":268,"éĩı":269,"è¡":270,"æľį":271,"ä¼":272,"å®¶":273,"ä¹Ī":274,"æĶ":275,"åĳ":276,"åĮ":277,"ä¹¦":278,"è¯´":279,"åķ":280,"åıĳ":281,"è´¨éĩı":282,"åı¯":283,"ãĢģ":284,"çĤ":285,"çĽ":286,"è¦":287,"æĥ":288,"è£":289,"è¦ģ":290,"åİ":291,"æ¯":292,"çĤ¹":293,"æķ":294,"èµ":295,"éĹ":296,"åĴ":297,"åĲİ":298,"å¯":299,"æŃ":300,"å°ı":301,"ç»Ļ":302,"æ¬¡":303,"å¹":304,"æĦı":305,"å¿«":306,"çī©":307,"åĵģ":308,"æĮ":309,"å¾Īå¥½":310,"æľ¬":311,"æ²¡æľī":312,"èĥ½":313,"å¤ļ":314,"èĪ":315,"æĹ¶":316,"æł·":317,"æŀ":318,"èĩ":319,"è£ħ":320,"å¾Ĺ":321,"åĴĮ":322,"åĮħ":323,"è¥":324,"è¥¿":325,"ç©":326,"é¢":327,"ä»·":328,"åĢ":329,"çº":330,"æİ":331,"èī":332,"çİ":333,"ä¸ĭ":334,"å®ŀ":335,"åĸ":336,"è¿ĩ":337,"å¤©":338,"æµ":339,"å½":340,"éģ":341,"åģ":342,"ä¸ľè¥¿":343,"ä¸Ń":344,"å°±æĺ¯":345,"33":346,"æĭ":347,"æ³":348,"åı¯ä»¥":349,"è¾":350,"æ°":351,"æĶ¶":352,"æ»":353,"å¸¸":354,"çľŁ":355,"éĿ¢":356,"æĦŁ":357,"ä¼ļ":358,"çĿ":359,"ä¸º":360,"èī²":361,"æĬ":362,"ç¬":363,"éĢģ":364,"æ¯Ķ":365,"åĸľ":366,"è¯Ħ":367,"ä¿":368,"éģĵ":369,"çŁ":370,"éĿŀ":371,"æ¬¢":372,"åĿ":373,"å¿ĥ":374,"åº¦":375,"æĥ³":376,"ä¾":377,"éĤ":378,"çĿĢ":379,"ç§":380,"åĸľæ¬¢":381,"åŃ¦":382,"ç©¿":383,"ï¼Ł":384,"æ»¡":385,"åĩº":386,"äº¬":387,"å¦":388,"ç®":389,"èĩª":390,"å¼Ģ":391,"ä¸Ģä¸ª":392,"ãĢĢ":393,"è§ī":394,"éĿŀå¸¸":395,"è¶":396,"æĮº":397,"çĲ":398,"uo":399,"quo":400,"äº¬ä¸ľ":401,"he":402,"éĴ":403,"èĪ¬":404,"æħ":405,"ä»¬":406,"ä¸įæĺ¯":407,"ll":408,"æŀľ":409,"åķĨ":410,"è¿Ļä¸ª":411,"åĮħè£ħ":412,"è¡Į":413,"è·":414,"å¯¹":415,"..":416,"ä¹°çļĦ":417,"çĶŁ":418,"dquo":419,"ip":420,"ä½ł":421,"æ´":422,"ä»ĸ":423,"åŀ":424,"hell":425,"hellip":426,"åĲĪ":427,"ç»ı":428,"çŁ¥":429,"ä¸įå¥½":430,"éĤ£":431,"çĶµ":432,"èĢĮ":433,"æīĭ":434,"åĢ¼":435,"è½":436,"åī":437,"è´Ń":438,"ä½Ĩ":439,"å±":440,"èµ·":441,"å®¢":442,"æĸ¹":443,"éĩĮ":444,"çİ°":445,"åĲ§":446,"æį":447,"çĦ":448,"æ»¡æĦı":449,"ä½ľ":450,"æĶ¶åĪ°":451,"ä»Ģ":452,"åĪ«":453,"æŃ£":454,"çł":455,"ä»Ģä¹Ī":456,"æµģ":457,"çŃ":458,"ï¼ģï¼ģï¼ģï¼ģ":459,"ä¹ĭ":460,"ç²":461,"åİ»":462,"è°":463,"åıª":464,"åĪĨ":465,"çĦ¶":466,"ç¬¬":467,"åĽ¾":468,"ä¸ĢèĪ¬":469,"æħ¢":470,"æīį":471,"æĦŁè§ī":472,"éĢĢ":473,"æ¸":474,"æĹł":475,"éĢĴ":476,"çĲĨ":477,"çĥ":478,"åķĬ":479,"éĹ®":480,"æľīçĤ¹":481,"åģļ":482,"å¿«éĢĴ":483,"ç³":484,"åħ¨":485,"æľĢ":486,"ãĢĤãĢĤãĢĤãĢĤ":487,"å¹´":488,"æł¼":489,"ä¾¿":490,"èĦ":491,"åľ°":492,"è¿ĺæĺ¯":493,"çīĩ":494,"åĳ³":495,"å·¥":496,"å®¢æľį":497,"åĽŀ":498,"åĨį":499,"æı":500,"ä¸¤":501,"æĻ":502,"ä¸Ģæ¬¡":503,"å®Ŀ":504,"æĢİ":505,"éĻ":506,"çī©æµģ":507,"è¡£":508,"3333":509,"è¢":510,"æīĵ":511,";&":512,"çĽ´":513,"ç½":514,"æĺİ":515,"åįĸ":516,"åĬĽ":517,"å¦Ĥ":518,"æ¼":519,"èĬ":520,"åīį":521,"ç«":522,"æĽ":523,"åħ¶":524,"é¢ĺ":525,"ä¸Ģæł·":526,"æĢİä¹Ī":527,"åĩł":528,"è¯»":529,"ç¾":530,"æ³ķ":531,"åĽ½":532,"ä¹°äºĨ":533,"åĨħ":534,"å®¹":535,"æľĽ":536,"Ġè´¨éĩı":537,"åĬ¡":538,"æĪĲ":539,"éĩį":540,"å·±":541,"è¿ĺåı¯ä»¥":542,"åľ¾":543,"äºİ":544,"æľº":545,"åŀĥ":546,"çĪ":547,"ä½ĵ":548,"åįķ":549,"éĢĤ":550,"åŀĥåľ¾":551,"é«":552,"ä¸İ":553,"æ±":554,"éļ":555,"å½ĵ":556,"æĸĩ":557,"éŀ":558,"é«ĺ":559,"éĹ´":560,"éĴ±":561,"éŀĭ":562,"ãĢĤ\\":563,"è¾ĥ":564,"çī¹":565,"èĩªå·±":566,"ä»·æł¼":567,"ãĢĭ":568,"ãĢĬ":569,"éķ":570,"å¤ĸ":571,"èĤ":572,"å®Į":573,"ç§į":574,"åºĹ":575,"èĢħ":576,"é¡":577,"èĢģ":578,"æ°´":579,"çŁ¥éģĵ":580,"äºĭ":581,"è¡£æľį":582,"æį¢":583,"ï¼ļ":584,"æīĢ":585,"åĬ¨":586,"è¯Ŀ":587,"ä¸ī":588,"æľįåĬ¡":589,"éŁ":590,"è®©":591,"ç¡":592,"çīĪ":593,"æĢ§":594,"æ¬¾":595,"åıĪ":596,"éª":597,"ä¸Ķ":598,"éĺ":599,"æĸĻ":600,"æ°Ķ":601,"ç¥":602,"è¶ħ":603,"çĻ":604,"å¥½å¥½":605,"éĥ":606,"ç¾İ":607,"æĮºå¥½":608,"çŃī":609,"äº§":610,"ç¤":611,"æľĪ":612,"äºĮ":613,"äºĽ":614,"åĲĮ":615,"å£":616,"å·²":617,"åĥ":618,"ä¹Łä¸į":619,"èĥ":620,"èĪĴ":621,"éĹ®é¢ĺ":622,"æ¯Ķè¾ĥ":623,"ï¼ī":624,"æİī":625,"æĢģ":626,"è´µ":627,"ï¼Įï¼Į":628,"ï¼Ī":629,"åıĳè´§":630,"åŁ":631,"ä¿¡":632,"è·Ł":633,"éŁ³":634,"åĶ":635,"åĥı":636,"éĢŁ":637,"ç¨":638,"å¾Īåĸľæ¬¢":639,"ç³»":640,"ldquo":641,"rdquo":642,"å·®è¯Ħ":643,"æĸ°":644,"é¢ľ":645,"æķĪ":646,"åŃ©":647,"åºĶ":648,"çĽ¸":649,"åįģ":650,"ä½¿":651,"å¤ªå·®":652,"åķĨåĵģ":653,"ç»ĵ":654,"èº":655,"æİ¥":656,"é¢ľèī²":657,"è§£":658,"åĿı":659,"äº®":660,"è¯Ń":661,"èĢĮä¸Ķ":662,"ä½Ĩæĺ¯":663,"èģ":664,"å¼ı":665,"èµ·æĿ¥":666,"å¤±":667,"ä»İ":668,"Ġè¿ĺ":669,"æł¹":670,"å®ļ":671,"åįĸå®¶":672,"çķ":673,"éħ":674,"èĸ":675,"è´¹":676,"çģ":677,"ç²¾":678,"ç¼":679,"æ³¨":680,"éķ¿":681,"é»":682,"è¯·":683,"éĥ¨":684,"æ¶":685,"ç±":686,"å·®å·®":687,"åı·":688,"åŃĹ":689,"èº«":690,"ç½ĳ":691,"èĸĦ":692,"æľŁ":693,"æĥħ":694,"äºĨä¸Ģ":695,"é£":696,"æģ":697,"åĽ¾çīĩ":698,"èĪĴæľį":699,"ç»Ĩ":700,"Ġä¸ľè¥¿":701,"å¸¦":702,"å¤´":703,"ç®Ĺ":704,"æĢģåº¦":705,"åĪļ":706,"éĽ":707,"åıĭ":708,"æ¸ħ":709,"æķĻ":710,"è¢«":711,"åĢĻ":712,"æķĪæŀľ":713,"å»":714,"åģļå·¥":715,"åĦ":716,"æŁ":717,"è¿Ļæł·":718,"éĢļ":719,"æĶ¾":720,"åħ¸":721,"æ£":722,"åĦ¿":723,"è±":724,"ä¸įçŁ¥éģĵ":725,"æĳ":726,"æĽ´":727,"å°ĳ":728,"åĽł":729,"æĹ¶åĢĻ":730,"ä¸ĢçĤ¹":731,"åħ¬":732,"çº¿":733,"éĢŁåº¦":734,"ä»¥åĲİ":735,"ä»¶":736,"åĨĻ":737,"æĬĬ":738,"æ·":739,"åĳ³éģĵ":740,"åĢ¼å¾Ĺ":741,"00":742,"é¦":743,"ä¸»":744,"åŃ©åŃĲ":745,"ä¿Ŀ":746,"Ġå¾Ī":747,"å§":748,"ä¸įèĥ½":749,"....":750,"éĵ":751,"æ¡":752,"æ´»":753,"å®ľ":754,"åħī":755,"åĬł":756,"éľ":757,"æĺŁ":758,"çļĦæĺ¯":759,"æĢ»":760,"æľĭ":761,"è¡¨":762,"åĳ¢":763,"æĤ":764,"èį":765,"çłģ":766,"æľĭåıĭ":767,"33333333":768,"èĬ±":769,"éļ¾":770,"è´Ńä¹°":771,"ä¾¿å®ľ":772,"è¯¥":773,"è¯ķ":774,"åĲĥ":775,"éĨ":776,"åı£":777,"åĨħå®¹":778,"åİŁ":779,"æ¼Ĥ":780,"æĹ¥":781,"å¤Ħ":782,"ç»ĻæĪĳ":783,"éĢĢè´§":784,"æĹ¶éĹ´":785,"è¿Ľ":786,"å®ī":787,"äº§åĵģ":788,"éĥ½ä¸į":789,"åħ³":790,"æł¹æľ¬":791,"æ¼Ĥäº®":792,"ä¸įè¿ĩ":793,"æĪĳä»¬":794,"ä½į":795,"æıĲ":796,"ç®Ģ":797,"ä¹ł":798,"éĥ½æĺ¯":799,"æĭ¿":800,"çļ®":801,"åķĨå®¶":802,"è¿Ļä¹Ī":803,"ä¸įéĶĻçļĦ":804,"çĶ¨äºĨ":805,"èĭ":806,"ç´":807,"çİ°åľ¨":808,"æĺ¾":809,"èĻ":810,"è´Ńçī©":811,"éħį":812,"ç»ıåħ¸":813,"ä»£":814,"è±¡":815,"å¸Į":816,"èĢĥ":817,"ä¸ļ":818,"ä¸ĢçĽ´":819,"çł´":820,"çĪ±":821,"éŀĭåŃĲ":822,"å·²ç»ı":823,"çľŁçļĦ":824,"ä¹Łå¾Ī":825,"åıĬ":826,"çĹ":827,"å¥Ĺ":828,"è¿ĺè¡Į":829,"æ¯Ľ":830,"ãĢĢãĢĢ":831,"èģĶ":832,"å¥½è¯Ħ":833,"è¿ĺä¸įéĶĻ":834,"åģĩ":835,"ä½¿çĶ¨":836,"ç¢":837,"æ³¨æĦı":838,"è¾¹":839,"~~":840,"æķ´":841,"çĻ½":842,"å¤Ł":843,"æİ¨":844,"å¸ĮæľĽ":845,"å¤§å®¶":846,"éĤ£ä¹Ī":847,"ä¹Ĳ":848,"åĲĹ":849,"ï¼ģï¼ģï¼ģ":850,"åı²":851,"æķ°":852,"åıĺ":853,"è§Ĥ":854,"è¿ĺæľī":855,"Ġä¸į":856,"è´Ŀ":857,"çī¹åĪ«":858,"æĢĿ":859,"çİ©":860,"æŃ¤":861,"åĲĪéĢĤ":862,"Ġè¿Ļ":863,"è¶Ĭ":864,"å¾Īå¤ļ":865,"æľ¬ä¹¦":866,"è®¡":867,"è½¦":868,"çīĮ":869,"ç©º":870,"ï¼ģï¼ģï¼ģï¼ģï¼ģï¼ģï¼ģï¼ģ":871,"å¥³":872,"çļĦä¸ľè¥¿":873,"åıĹ":874,"å¤±æľĽ":875,"åĮĸ":876,"å»º":877,"æĺĵ":878,"åĵĪ":879,"çº§":880,"éªĹ":881,"æĸ¹ä¾¿":882,"æ´Ĺ":883,"ä¸įè¦ģ":884,"è¿ĺæ²¡":885,"åıį":886,"åºķ":887,"çº¸":888,"è¯Ĩ":889,"æŃ»":890,"èĩ´":891,"æĲ":892,"æĿ¥çļĦ":893,"é»ĳ":894,"è§ģ":895,"çĸ":896,"åĻ":897,"å¼ł":898,"å½±":899,"ä¸ĵ":900,"èĲ":901,"ç»ĵæŀľ":902,"æļ":903,"å¡":904,"ï¼Ľ":905,"æī¾":906,"è®º":907,"éĢģè´§":908,"çĶ¨çļĦ":909,"éĩĮéĿ¢":910,"æĩ":911,"ç¡®":912,"åĽĽ":913,"åĲį":914,"åºĶè¯¥":915,"Ġä¸įéĶĻ":916,"as":917,"å®Ŀè´Ŀ":918,"æŃ£åĵģ":919,"çħ":920,"å®ĥ":921,"åħħ":922,"åħ·":923,"äºĶ":924,"åħ¥":925,"èĦļ":926,"æĮºå¥½çļĦ":927,"æĿ¡":928,"ï¼Łï¼Ł":929,"èģĶç³»":930,"å¸Ī":931,"åŁº":932,"å¹³":933,"ä¸ĭæ¬¡":934,"ç©¿çĿĢ":935,"åħĪ":936,"èµŀ":937,"ĠæĪĳ":938,"è¿Ĳ":939,"ç¥¨":940,"åįĬ":941,"å½¢":942,"ç»ĻåĬĽ":943,"äººçļĦ":944,"ä¸ĸ":945,"è¿ŀ":946,"å¤ªæħ¢":947,"å£°":948,"èħ":949,"éĢī":950,"å¹¶":951,"éĨĩ":952,"ä¸įåĢ¼":953,"ï½":954,"ä¸ĩ":955,"è£¤":956,"Ġè¡£æľį":957,"å¥½çļĦ":958,"ï½ŀ":959,"das":960,"åĵ¦":961,"è¯Ħä»·":962,"ç¬¬äºĮ":963,"ç¨ĭ":964,"Ġå¾Īå¥½":965,"å¼º":966,"æľ¯":967,"åİĨ":968,"çĶµè¯Ŀ":969,"ç¬¬ä¸Ģæ¬¡":970,"ä¹Łæĺ¯":971,"dash":972,"mdash":973,"å¸Ĥ":974,"ãĢĤãĢĤãĢĤ":975,"20":976,"ç»ıåħ¸éĨĩ":977,"æłĩ":978,"åĳĺ":979,"èĮ":980,"ç»ıåħ¸éĨĩç»ıåħ¸éĨĩ":981,"ä»»":982,"çĭ":983,"å¥½çľĭ":984,"é£İ":985,"è®¾":986,"ä¼ł":987,"??":988,"å¸®":989,"éĹ¨":990,"åĽłä¸º":991,"è¿°":992,"æĥł":993,"åĿıäºĨ":994,"è¯·æ³¨æĦı":995,"å§ĭ":996,"çļĦæĹ¶åĢĻ":997,"ãĢĤãĢĤãĢĤãĢĤãĢĤãĢĤãĢĤãĢĤ":998,"å¾Īä¸įéĶĻ":999,"è®¤":1000,"ä»Ĭ":1001,"é©":1002,"æŀģ":1003,"ä½ķ":1004,"æĸŃ":1005,"æ¯ı":1006,"è°¢":1007,"å¾Īå¿«":1008,"å¾Īæ»¡æĦı":1009,"ä¸įä¼ļ":1010,"åĬ²":1011,"åİļ":1012,"åĿĹ":1013,"èĬĤ":1014,"éº":1015,"æ±Ĥ":1016,"å¤į":1017,"çĶ»":1018,"ä¸įä¸Ģæł·":1019,"æĭī":1020,"çļĦä¸Ģ":1021,"åĲĦ":1022,"åıĳçİ°":1023,"æıı":1024,"åĩĨ":1025,"æ®":1026,"ä½łä»¬":1027,"å®Įåħ¨":1028,"åĪ°äºĨ":1029,"æ¬¾å¼ı":1030,"çļĦä¸Ģæ¬¡":1031,"å¦Ī":1032,"åĻ¨":1033,"å¹²":1034,"åį¡":1035,"è®®":1036,"è·¯":1037,"è§īå¾Ĺ":1038,"åĪ¶":1039,"åį°":1040,"çļĦäºº":1041,"åıĳç¥¨":1042,"çĥĤ":1043,"ä¹ħ":1044,"å¤§å°ı":1045,"çľŁå¿ĥ":1046,"ä¸ŃçļĦ":1047,"ä»ĸä»¬":1048,"åĲ¬":1049,"è°ĥ":1050,"åĶ®":1051,"ä¸ŃåĽ½":1052,"åħ¶ä»ĸ":1053,"å¢":1054,"Ġå¤ª":1055,"åį´":1056,"éľĢ":1057,"ä¿®":1058,"æĿĲ":1059,"å¿ħ":1060,"æĸ¯":1061,"éĿŀå¸¸æ»¡æĦı":1062,"çĥŃ":1063,"è®°":1064,"åĿĳ":1065,"çľŁæĺ¯":1066,"å°Ĩ":1067,"åħĥ":1068,"æĥ³è±¡":1069,"åĳµ":1070,"ç®¡":1071,"å®Ŀå®Ŀ":1072,"çĽĴ":1073,"çħ§":1074,"åŀĭ":1075,"æĶ¶åĪ°äºĨ":1076,"å¥¹":1077,"ä¸¥":1078,"éĢĤåĲĪ":1079,"è®¢":1080,"åģı":1081,"èįĲ":1082,"èĳ":1083,"çļĦä¹¦":1084,"Â·":1085,"è½¯":1086,"è¿ĺå¥½":1087,"åĽŀæĿ¥":1088,"ç¦":1089,"æĿ¿":1090,"çľ¼":1091,"æİ¨èįĲ":1092,"èİ":1093,"è¯»ä¹¦":1094,"å¼Ģå§ĭ":1095,"ä¸įåĪ°":1096,"éĩĳ":1097,"ä»ĭ":1098,"åıªèĥ½":1099,"å¤©å°±":1100,"å±ħ":1101,"åŃ¦ä¹ł":1102,"è´´":1103,"åķĨåĵģåĮħè£ħ":1104,"è½»":1105,"ç¡¬":1106,"åľ¨äº¬ä¸ľ":1107,"å¯Ħ":1108,"è¯·æ³¨æĦıåķĨåĵģåĮħè£ħ":1109,"èĽ":1110,"é¥":1111,"çķĮ":1112,"è¨":1113,"è®²":1114,"ä¸¤ä¸ª":1115,"æ·±":1116,"ç¥ŀ":1117,"çĽ®":1118,"åıĮ":1119,"åĪĴ":1120,"è¯·æ³¨æĦıåķĨåĵģåĮħè£ħè¯·æ³¨æĦıåķĨåĵģåĮħè£ħ":1121,"æĴ":1122,"ç¤º":1123,"ä¸įäºĨ":1124,"çº¢":1125,"å®ŀçĶ¨":1126,"åºĹå®¶":1127,"çĲĥ":1128,"æĶ¶åĪ°è´§":1129,"Ġçī©æµģ":1130,"èµł":1131,"Ġä¸įå¥½":1132,"æĮĩ":1133,"æ¥":1134,"çĶ±":1135,"åĬŁ":1136,"çĵ":1137,"è§Ĩ":1138,"è¿Ļä¸ªä»·":1139,"æ¢":1140,"ç¿":1141,"å°º":1142,"æ¶Ī":1143,"çĽ´æİ¥":1144,"è¿Ļæĺ¯":1145,"å¦Ĥæŀľ":1146,"çı":1147,"åĪ©":1148,"éĥ½æ²¡æľī":1149,"èµ°":1150,"å»ºè®®":1151,"è´¨éĩıå¾Īå¥½":1152,"Ġä¸ĢèĪ¬":1153,"3333333333333333":1154,"å¤ĩ":1155,"åĳ¨":1156,"éĿŀå¸¸å¥½":1157,"10":1158,"çĥ¦":1159,"å¾ħ":1160,"ä¸Ģä¸ĭ":1161,"æĪĸ":1162,"è¿ĺä¸į":1163,"åķ¦":1164,"éº»":1165,"è¨Ģ":1166,"æµ·":1167,"æīĵå¼Ģ":1168,"Ġä¹¦":1169,"å¤ªå·®äºĨ":1170,"é¦Ļ":1171,"ç£":1172,"åľº":1173,"å¸ĥ":1174,"ç«Ł":1175,"ç±»":1176,"èĩ³":1177,"æľįåĬ¡æĢģåº¦":1178,"11":1179,"åĺ":1180,"æĪĳçļĦ":1181,"çłĶ":1182,"åı¸":1183,"åĵį":1184,"åı¤":1185,"ä¸ĬçļĦ":1186,"æ²¹":1187,"ç»Ł":1188,"æĶ¯":1189,"è¶ħçº§":1190,"å·®å·®å·®å·®":1191,"Ġå®Ŀè´Ŀ":1192,"ç»´":1193,"Ġå¥½":1194,"ç§ĳ":1195,"èĥ¶":1196,"çľĭçĿĢ":1197,"ç²Ĺ":1198,"åĨ³":1199,"çĽĸ":1200,"ç¤¾":1201,"è¿ĺä¼ļ":1202,"è¯ģ":1203,"çĽĺ":1204,"æĬĢ":1205,"åıªæĺ¯":1206,"æĮģ":1207,"æĹłè¯Ń":1208,"ä¸ºä»Ģä¹Ī":1209,"å¤§äºĨ":1210,"æĶ¿":1211,"æīĢä»¥":1212,"åĤ":1213,"ç¤¼":1214,"å¡ĳ":1215,"ä¹ĭåīį":1216,"è¿Ļç§į":1217,"çľĭèµ·æĿ¥":1218,"æ£Ĵ":1219,"æĵ":1220,"å±±":1221,"å°ıäºĨ":1222,"é©¬":1223,"æķħ":1224,"å¥½å¥½å¥½å¥½":1225,"çĻ¾":1226,"ç»Ń":1227,"ç¬Ķ":1228,"æĿ¯":1229,"å¾ĪèĪĴæľį":1230,"åıªæľī":1231,"å®¹æĺĵ":1232,"è¯ī":1233,"æĬĺ":1234,"åĩºæĿ¥":1235,"å°ģ":1236,"å®īè£ħ":1237,"åıĸ":1238,"å±ħçĦ¶":1239,"å¥½äºĨ":1240,"å®ŀçī©":1241,"ä¹ī":1242,"æĶ¹":1243,"åĲĳ":1244,"åħĭ":1245,"çľĭåĪ°":1246,"ä¼ĺ":1247,"å¾Īå·®":1248,"åįĥ":1249,"éľĢè¦ģ":1250,"éªĮ":1251,"èĻ½":1252,"å¾Īå¤§":1253,"ç±³":1254,"æĹ§":1255,"æīĭæľº":1256,"æĭį":1257,"æ¸©":1258,"æº":1259,"åĶ®åĲİ":1260,"å©":1261,"ç»į":1262,"è£¤åŃĲ":1263,"æĮī":1264,"è®©æĪĳ":1265,"ä»ĭç»į":1266,"åĭ":1267,"å®ŀæĥł":1268,"è¿ĳ":1269,"åĵª":1270,"å®ŀåľ¨":1271,"çļĦå¥½":1272,"å°±ä¸į":1273,"è®¾è®¡":1274,"å¥ĩ":1275,"ç©¶":1276,"åħ¬åı¸":1277,"å¯¼":1278,"éĤ®":1279,"åİĨåı²":1280,"æııè¿°":1281,"ä½İ":1282,"ä¸Ĭå½ĵ":1283,"æ®µ":1284,"çŁ¥è¯Ĩ":1285,"ç»Ŀ":1286,"è¢ĭ":1287,"èĨ":1288,"Ġä¹°":1289,"çĬ":1290,"è§Ĵ":1291,"ç®±":1292,"æĢİä¹Īæł·":1293,"è¡¥":1294,"è¾¾":1295,"å¾Ģ":1296,"çŁŃ":1297,"Ġè¿ĺåı¯ä»¥":1298,"åĬŀ":1299,"è¿Ļæł·çļĦ":1300,"ĠéŀĭåŃĲ":1301,"æľīäºĽ":1302,"éĢı":1303,"ç¬¦":1304,"æįŁ":1305,"åĪ·":1306,"èĹ":1307,"ä¸įå¤ª":1308,"åĵĪåĵĪ":1309,"Ġè¿Ļä¸ª":1310,"åĳĬ":1311,"Ġåŀĥåľ¾":1312,"å½©":1313,"éº»çĥ¦":1314,"å°Ķ":1315,"é¦ĸ":1316,"æ°ĳ":1317,"æ¼ı":1318,"å±ķ":1319,"éĽĨ":1320,"**":1321,"å²":1322,"è¿ľ":1323,"çĶŁæ´»":1324,"æ´»åĬ¨":1325,"ä¸¥éĩį":1326,"æĹ©":1327,"éĿ¢æĸĻ":1328,"éĢģçļĦ":1329,"ãĢĢãĢĢãĢĢãĢĢ":1330,"ä¹Łæ²¡":1331,"è°ģ":1332,"é¢Ĩ":1333,"é¡¾":1334,"ä¸įæ»¡æĦı":1335,"è¶³":1336,"åĩłå¤©":1337,"åŃĺ":1338,"è¯´æĺ¯":1339,"æľ¬æĿ¥":1340,"ä¸Ŀ":1341,"éĥ½æ²¡":1342,"æľīä¸Ģ":1343,"èĭ±":1344,"è´¨éĩıä¸įéĶĻ":1345,"äº²":1346,"æŁ¥":1347,"ç£¨":1348,"å¾Īæ¼Ĥäº®":1349,"è¿Ļæ¬¡":1350,"åĪ°è´§":1351,"åįİ":1352,"ç«ł":1353,"æ¨":1354,"èĦĳ":1355,"åľ°æĸ¹":1356,"è¿ĩæĿ¥":1357,"ï¼Įï¼Įï¼Įï¼Į":1358,"æĻļ":1359,"èĮ¶":1360,"æŃĮ":1361,"æīĭæĦŁ":1362,"èĦı":1363,"åĳ½":1364,"ç©¿ä¸Ĭ":1365,"éĻħ":1366,"Ġæ²¡æľī":1367,"é²":1368,"ä¹Łæ²¡æľī":1369,"ĠæĦŁè§ī":1370,"çľĭçľĭ":1371,"ä¹ĭåĲİ":1372,"ä»ĺ":1373,"å¯Ĥ":1374,"éĤ£ä¸ª":1375,"éĿ¢çļĦ":1376,"çļĦä¸Ģæ¬¡è´Ńçī©":1377,"èĳĹ":1378,"èī²çļĦ":1379,"èĥĮ":1380,"åĿıçļĦ":1381,"æĩĴ":1382,"æ¹":1383,"ä¸įä¸Ĭ":1384,"å¹¿":1385,"æį¢è´§":1386,"èĻ½çĦ¶":1387,"å¤§çļĦ":1388,"åı¯èĥ½":1389,"æļĸ":1390,"è¿ĺè¦ģ":1391,"èµłåĵģ":1392,"åł":1393,"ç½ĳä¸Ĭ":1394,"æģ¯":1395,"äº¤":1396,"å¾®":1397,"ä¸ĢåĪĨ":1398,"å£°éŁ³":1399,"æŃ¥":1400,"æĲŀ":1401,"éļı":1402,"ä»Ĭå¤©":1403,"æĿ¾":1404,"ç´§":1405,"åĪĽ":1406,"ä¸ĭåįķ":1407,"çłĶç©¶":1408,"å£«":1409,"çĵ¶":1410,"èīº":1411,"åĸĿ":1412,"çĹķ":1413,"æķ¢":1414,"19":1415,"èĵ":1416,"ç¼º":1417,"æŃ£çīĪ":1418,"è§Ħ":1419,"èī²å·®":1420,"é¸":1421,"æĻ°":1422,"åŁºæľ¬":1423,"æī£":1424,"æĬ¤":1425,"ç¼ĸ":1426,"æĩĤ":1427,"æĺ¯ä¸Ģ":1428,"è½¬":1429,"çŃĶ":1430,"æĽ²":1431,"é¡µ":1432,"å¤ªæħ¢äºĨ":1433,"åı°":1434,"éĶ®":1435,"èĢĲ":1436,"è®¸":1437,"æİīäºĨ":1438,"ä¸ĸçķĮ":1439,"çª":1440,"å¾·":1441,"ç¬¬ä¸Ģ":1442,"æľĢåĲİ":1443,"çģ«":1444,"å¡ĳæĸĻ":1445,"Ġæ²¡":1446,"ä¸įè¡Į":1447,"èī¯":1448,"Ġå¿«éĢĴ":1449,"å¥½å¤ļ":1450,"ç©¿äºĨ":1451,"æ¸ħæĻ°":1452,"........":1453,"ä»¥ä¸º":1454,"åĳĢ":1455,"ä½ľèĢħ":1456,"æĢ§ä»·":1457,"éĺ²":1458,"ä¸Ģçľĭ":1459,"ç»Ī":1460,"ä¸įå¤ļ":1461,"å¼Ĥ":1462,"éĻ¤":1463,"éĥ¨åĪĨ":1464,"ä¹Łå¾Īå¥½":1465,"æĺİæĺ¾":1466,"å¤ĸè§Ĥ":1467,"æĤĶ":1468,"éĢł":1469,"åķ¥":1470,"èµĦ":1471,"åİĭ":1472,"ç³Ļ":1473,"ç¿»":1474,"åĮº":1475,"Ġè¿ĺä¸įéĶĻ":1476,"å¨":1477,"æĺ¯ä¸įæĺ¯":1478,"çĶ³":1479,"æľª":1480,"åĵģçīĮ":1481,"æĢ§ä»·æ¯Ķ":1482,"ĠéĿŀå¸¸":1483,"åĮĹ":1484,"è®©äºº":1485,"ç®Ģåįķ":1486,"ç»ıåħ¸éĨĩç»ıåħ¸éĨĩç»ıåħ¸éĨĩç»ıåħ¸éĨĩ":1487,"é¼":1488,"ãĢĤ&":1489,"å½ķ":1490,"ç¬¬ä¸ī":1491,"æĿ¥è¯´":1492,"åĴĮåĽ¾çīĩ":1493,"Ġè¿ĺè¡Į":1494,"éĿŀå¸¸æ»¡æĦıéĿŀå¸¸æ»¡æĦı":1495,"èĹı":1496,"çģµ":1497,"åĪĿ":1498,"åĢĴ":1499,"æĭĨ":1500,"æıĴ":1501,"ç«ĭ":1502,"éĶĻäºĨ":1503,"è¦ģæ±Ĥ":1504,"åı¦":1505,"ä»¥åīį":1506,"åĩĳ":1507,"è²":1508,"æĪ·":1509,"ä¸ªæľĪ":1510,"ä¼¼":1511,"è¯´æĺİ":1512,"éĺħ":1513,"åŀ«":1514,"åŁİ":1515,"æ£ī":1516,"æ¥ļ":1517,"ĠåĮħè£ħ":1518,"è¯¦":1519,"å¥½çĶ¨":1520,"æĪ´":1521,"åĲİæĤĶ":1522,"å¯¸":1523,"åĳµåĳµ":1524,"åħ´":1525,"æ¡Ī":1526,"æĬķ":1527,"æģ¶":1528,"ç«ŁçĦ¶":1529,"CD":1530,"åĲ¸":1531,"Ġç»Ļ":1532,"çīĽ":1533,"æĢĢ":1534,"èĩªå·±çļĦ":1535,"æķħäºĭ":1536,"åı«":1537,"å®³":1538,"è¿ĺæ²¡æľī":1539,"ä½ı":1540,"åı¯æĺ¯":1541,"èĦ±":1542,"å±Ĥ":1543,"ç®ĢçĽ´":1544,"èĤ¡":1545,"ç±į":1546,"èĵĿ":1547,"å¥¶":1548,"è´£":1549,"æĪĺ":1550,"æĻº":1551,"ç»§":1552,"ä¸Ĭåİ»":1553,"åĶ±":1554,"å½±åĵį":1555,"æºĲ":1556,"åħŃ":1557,"åĩºçīĪ":1558,"æĹłæ³ķ":1559,"èĽ®":1560,"æĺ¯æŃ£åĵģ":1561,"è£Ĥ":1562,"æ¸¸":1563,"ç²¾èĩ´":1564,"åģĩè´§":1565,"è¯¯":1566,"ä¹Łä¸įéĶĻ":1567,"æĢ»ä½ĵ":1568,"æį®":1569,"åĪ«äºº":1570,"æĭ¿åĪ°":1571,"èĲ¥":1572,"ç¦»":1573,"èĨľ":1574,"ç²Ĺç³Ļ":1575,"12":1576,"çļĦå¾Ī":1577,"éĢĢäºĨ":1578,"èĤ²":1579,"æį¢äºĨ":1580,"è§£åĨ³":1581,"åı¥":1582,"ä½ľåĵģ":1583,"åĪĹ":1584,"æīĶ":1585,"æĩĴå¾Ĺ":1586,"15":1587,"çĮ":1588,"è¯´äºĨ":1589,"ä¸»è¦ģ":1590,"å©Ĩ":1591,"å¼Ħ":1592,"å¤©æīį":1593,"éĴ¢":1594,"éķľ":1595,"ç¤¾ä¼ļ":1596,"è¯į":1597,"åĽŃ":1598,"ä¼¤":1599,"çŃ¾":1600,"æĻ®":1601,"æĸĩåŃ¦":1602,"çº¯":1603,"ä¸Ģèµ·":1604,"åĴĭ":1605,"çĦ¶åĲİ":1606,"éĩįè¦ģ":1607,"ç½ĳè´Ń":1608,"ç¯":1609,"ä¸įåĲĮ":1610,"æĿ¥è¶Ĭ":1611,"è¯´çļĦ":1612,"çİĭ":1613,"ç§¯":1614,"èı":1615,"è´Ł":1616,"~~~~":1617,"çĭ¬":1618,"æĬ¥":1619,"è®¢åįķ":1620,"ä¾Ľ":1621,"å¯¹äºİ":1622,"ç²ī":1623,"è¶ĬæĿ¥è¶Ĭ":1624,"çīĮåŃĲ":1625,"è´§çī©":1626,"å¯Į":1627,"å®ŀéĻħ":1628,"å·¥ä½ľ":1629,"éĺħè¯»":1630,"åĸľæ¬¢çļĦ":1631,"ç®ĹäºĨ":1632,"è´¥":1633,"ä¸°":1634,"å¤ªå·®åĬ²":1635,"çĳ":1636,"åĪĻ":1637,"è¿Ļå®¶":1638,"æ³¡":1639,"æĺ¯æĪĳ":1640,"ä¹°ä¸ľè¥¿":1641,"åĨµ":1642,"ĠåĪļ":1643,"ï¼ģ\\":1644,"åħ±":1645,"è¿Ļæľ¬ä¹¦":1646,"å¼Ģæľ¬":1647,"é£ŀ":1648,"åį·":1649,"æ±ł":1650,"æ¯Ķè¾ĥèĸĦ":1651,"çķĻ":1652,"å¤ĦçĲĨ":1653,"æĺ¾ç¤º":1654,"æ²»":1655,"ç§°":1656,"æĺŁæľŁ":1657,"çħ§çīĩ":1658,"éĩĬ":1659,"ç¡®å®ŀ":1660,"æ¨¡":1661,"äº¬ä¸ľçļĦ":1662,"çģ¯":1663,"çĨ":1664,"æľīçļĦ":1665,"åĩłæ¬¡":1666,"åħ«":1667,"é»Ħ":1668,"éĵ¾":1669,"åıĤ":1670,"åĲ¦":1671,"äºĨä¸Ģä¸ĭ":1672,"æĿĤ":1673,"æł·åŃĲ":1674,"ç²ĺ":1675,"åįĥä¸ĩ":1676,"åĪ»":1677,"åĪĩ":1678,"èĢ³":1679,"ä¹¦çļĦ":1680,"æŀ¶":1681,"æīĵçĶµè¯Ŀ":1682,"ç¨į":1683,"ä¸ĥ":1684,"ä»½":1685,"åĬ©":1686,"çľĭäºĨ":1687,"æ¸ħæ¥ļ":1688,"åħħçĶµ":1689,"ç»Ŀå¯¹":1690,"æĦıæĢĿ":1691,"çĶµæ±ł":1692,"æķĻèĤ²":1693,"ä¸įåĢ¼è¿Ļä¸ªä»·":1694,"å°ļ":1695,"çĶ·":1696,"ä¸ĵä¸ļ":1697,"è¿Ĳè´¹":1698,"ä¸įç¬¦":1699,"éĶĢ":1700,"å¤ļäºĨ":1701,"æĭ©":1702,"åĨįä¹Łä¸į":1703,"å¼ķ":1704,"é¡º":1705,"çĸĳ":1706,"èİ·":1707,"è¯·æ³¨æĦıåķĨåĵģåĮħè£ħè¯·æ³¨æĦıåķĨåĵģåĮħè£ħè¯·æ³¨æĦıåķĨåĵģåĮħè£ħè¯·æ³¨æĦıåķĨåĵģåĮħè£ħ":1708,"ç»§ç»Ń":1709,"Ġä¸įæĺ¯":1710,"å°ıæĹ¶":1711,"ä¸Ģä¸ªæľĪ":1712,"Ġè´¨éĩıå¾Īå¥½":1713,"å¼Ģæľ¬å°ı":1714,"ä¸įæĥ³":1715,"å¤ªå¤§":1716,"ĠçĶ¨":1717,"ä¸Ģå®ļ":1718,"è¯¾":1719,"åĲ¯":1720,"è·Ŀ":1721,"åıĳè´§éĢŁåº¦":1722,"å»ī":1723,"33333333333333333333333333333333":1724,"Ġé¢ľèī²":1725,"åįĹ":1726,"çİ¯":1727,"æŁĶ":1728,"èŀ":1729,"å°½":1730,"Ġè¿ĺæ²¡":1731,"é£Ł":1732,"å°ºçłģ":1733,"æĿ¯åŃĲ":1734,"èľ":1735,"ä¹İ":1736,"æĸ¹æ³ķ":1737,"æīįèĥ½":1738,"æ¬²":1739,"ãĢģãĢĬ":1740,"å¾Īå¥½çľĭ":1741,"çĶµèĦĳ":1742,"ä¸ĢèĪ¬èĪ¬":1743,"åĲĮæĹ¶":1744,"ç¢İ":1745,"çļĦæĦŁè§ī":1746,"å¾Īæľī":1747,"åĦ¿åŃĲ":1748,"åĢ¼å¾Ĺè´Ńä¹°":1749,"è°¢è°¢":1750,"çĶ³è¯·":1751,"ä»ħ":1752,"å·¦":1753,"æķ£":1754,"åĮħåĮħ":1755,"é¢Ĺ":1756,"å·§":1757,"åį³":1758,"éĴĪ":1759,"ä¹Łå°±":1760,"å®ŀä½ĵ":1761,"é¡»":1762,"ï¼ģï¼ģï¼ģï¼ģï¼ģï¼ģï¼ģï¼ģï¼ģï¼ģï¼ģï¼ģï¼ģï¼ģï¼ģï¼ģ":1763,"è¯Ĺ":1764,"æľīéĹ®é¢ĺ":1765,"éĢģåĪ°":1766,"è¶£":1767,"æ±ī":1768,"æİīèī²":1769,"æ¡£":1770,"æ¶Īè´¹":1771,"13":1772,"Ġä¹°äºĨ":1773,"è¿ĻäºĽ":1774,"å·®ä¸įå¤ļ":1775,"åħ¶å®ŀ":1776,"ï½ŀï½ŀ":1777,"çļĦè´§":1778,"è¿½":1779,"æ¦":1780,"çľģ":1781,"æĢķ":1782,"ä¸ĭæĿ¥":1783,"æľīçĤ¹å°ı":1784,"çķ¥":1785,"éĢīæĭ©":1786,"????":1787,"éĿĻ":1788,"åĨĮ":1789,"æµª":1790,"åĨįæĿ¥":1791,"ç½®":1792,"Ġå·®è¯Ħ":1793,"ä»»ä½ķ":1794,"å¤§å°ıåĲĪéĢĤ":1795,"ä¸ĢäºĽ":1796,"åĵ¥":1797,"æİĴ":1798,"åİ»äºĨ":1799,"--":1800,"éŃ":1801,"éĿł":1802,"å¯Ĩ":1803,"æĬĢæľ¯":1804,"å·´":1805,"å¿µ":1806,"æĶ¯æĮģ":1807,"æĹ¢":1808,"åįĪ":1809,"éĴŁ":1810,"ä¸įçŁ¥":1811,"ä¸ĬéĿ¢":1812,"æŀĲ":1813,"å®ŀä½ĵåºĹ":1814,"Ġ\\":1815,"æľ¨":1816,"äºĨä¸Ģä¸ª":1817,"åħ»":1818,"åĩı":1819,"åİĤ":1820,"èµĸ":1821,"åĲİæĿ¥":1822,"åĩºçİ°":1823,"ç¡Ģ":1824,"èĲ½":1825,"å°ºå¯¸":1826,";ï¼Į":1827,"ä»·éĴ±":1828,"æĶ¶è´§":1829,"è´µäºĨ":1830,"çĽ¸ä¿¡":1831,"æī¿":1832,"åıĳå±ķ":1833,"å¾Īå¥½å¾Īå¥½":1834,"æħİ":1835,"å±ŀ":1836,"åŁºç¡Ģ":1837,"Ġåģļå·¥":1838,"åı³":1839,"ç»ĥ":1840,"æł¡":1841,"ä¸ºäºĨ":1842,"çĲĨè§£":1843,"å¦Ĥä½ķ":1844,"æ·¡":1845,"å¾Īä¸į":1846,"æ²¡ä»Ģä¹Ī":1847,"ä¸ªäºº":1848,"è¢ľ":1849,"çº¸å¼ł":1850,"åĿĹéĴ±":1851,"éĶħ":1852,"åģ¥":1853,"éĺ³":1854,"åĬŁèĥ½":1855,"è¯¦ç»Ĩ":1856,"è´¨éĩıå¥½":1857,"åģĩçļĦ":1858,"æµĭ":1859,"ç³»ç»Ł":1860,"Ġä¸ľè¥¿ä¸įéĶĻ":1861,"çĬ¶":1862,"åĵİ":1863,"éĻį":1864,"é¾":1865,"åı¶":1866,"å°±æ²¡":1867,"åĩĢ":1868,"ãĢģãĢģ":1869,"æ»ĳ":1870,"è·ĳ":1871,"Ġè´¨éĩıä¸įéĶĻ":1872,"ä¸įè¦ģä¹°":1873,"Ġä»Ģä¹Ī":1874,"ä¸įè¯´":1875,"å¥½åĥı":1876,"åķĬåķĬ":1877,"Ġä¸ĢèĪ¬èĪ¬":1878,"çļĦå°ı":1879,"ç¬¬äºĮæ¬¡":1880,"æĵį":1881,"æĥħåĨµ":1882,"éªĹåŃĲ":1883,"åĲĦç§į":1884,"å¿ħé¡»":1885,"çĽĴåŃĲ":1886,"īäºĨ":1887,"äººçĶŁ":1888,"è¯Ħè®º":1889,"ç³Ĭ":1890,"ä¿¡æģ¯":1891,"ĠæĮºå¥½çļĦ":1892,"è¯ĳ":1893,"ä¹°æĿ¥":1894,"ä¾ĭ":1895,"200":1896,"æĢª":1897,"ç²¾ç»Ĩ":1898,"14":1899,"16":1900,"éĹ»":1901,"éĢļè¿ĩ":1902,"!!":1903,"å±ı":1904,"å¤±è´¥":1905,"æ£Ģ":1906,"å·®å·®å·®å·®å·®å·®å·®å·®":1907,"äºĨè§£":1908,"æłĳ":1909,"ãĢĭãĢģãĢĬ":1910,"æķ´ä½ĵ":1911,"ä¸¢":1912,"åĵŁ":1913,"èĢģå©Ĩ":1914,"åį°åĪ·":1915,"æ¶Īè´¹èĢħ":1916,"ä¸įå¤Ł":1917,"ä¸Ģæľ¬":1918,"åĪĢ":1919,"æŀĹ":1920,"ä¸ĭçļĦ":1921,"åŃ¦çĶŁ":1922,"è¾ĳ":1923,"æĺİæĺİ":1924,"ç´ł":1925,"Ġæľī":1926,"çļĦä¸Ģæł·":1927,"éĿĴ":1928,"äººåĳĺ":1929,"ä»ĸçļĦ":1930,"ä½ľä¸º":1931,"åĽŀå¤į":1932,"ç½Ĺ":1933,"æĳ¸":1934,"éħįéĢģ":1935,"100":1936,"åĩłä¸ª":1937,"è¯»èĢħ":1938,"èĭ¦":1939,"ĠåķĨåĵģ":1940,"å¥³åĦ¿":1941,"18":1942,"æ²¡æ³ķ":1943,"æĸĩåĮĸ":1944,"æīĢåĢ¼":1945,"çİ©æĦı":1946,"ç©ºéĹ´":1947,"åįļ":1948,"æ¯į":1949,"ä»·å»ī":1950,"å½ĵæĹ¶":1951,"éŁ³ä¹Ĳ":1952,"èģĮ":1953,"ä¸Ģç§į":1954,"æŀĦ":1955,"è¿ĩäºĨ":1956,"è¿ĩç¨ĭ":1957,"çĪ¸":1958,"éŁ³è´¨":1959,"çĽ¸å½ĵ":1960,"äºļ":1961,"ä¸įç»Ļ":1962,"éĻ¢":1963,"æ¼Ķ":1964,"èĤ¯":1965,"æĳĬ":1966,"ç¢Ł":1967,"è¸":1968,"æīĺ":1969,"ä¸įæĺ¯å¾Ī":1970,"çĶµå½±":1971,"å¹´çļĦ":1972,"éĻĲ":1973,"å¦Īå¦Ī":1974,"ä»Ķ":1975,"å¼¹":1976,"æµİ":1977,"æ´ŀ":1978,"å®¢æĪ·":1979,"ç«Ļ":1980,"åĪļå¥½":1981,"æĵ¦":1982,"ç¯ĩ":1983,"æ¿":1984,"åĪº":1985,"å°±åĿıäºĨ":1986,"çľĭçļĦ":1987,"å°ıåŃ©":1988,"ç¤¼çī©":1989,"åĬŀæ³ķ":1990,"ï¼İ":1991,"åıĳäºĨ":1992,"æĮĤ":1993,"çĪ½":1994,"åŀĥåľ¾åŀĥåľ¾":1995,"èģĶç³»å®¢æľį":1996,"èĮĥ":1997,"Ġä»·æł¼":1998,"çļĦè´¨éĩı":1999,"ä»¥åıĬ":2000,"æħ¢æħ¢":2001,"Ġåĳ³éģĵ":2002,"æĪĳå°±":2003,"ä¹°åĽŀæĿ¥":2004,"åº·":2005,"ä¹¦ç±į":2006,"çŁ³":2007,"å¢ĥ":2008,"ä¸įæķ¢":2009,"å¿Ĺ":2010,"åĳĬè¯ī":2011,"é²ľ":2012,"çºª":2013,"ä¸įå¥½çĶ¨":2014,"åĶ¯":2015,"çģ°":2016,"åİŁåĽł":2017,"æĪĸèĢħ":2018,"å²ģ":2019,"ĠéĢģ":2020,"å°¼":2021,"åľĨ":2022,"è¿Ļæ¬¾":2023,"è¦ģçļĦ":2024,"çº¦":2025,"Ġè´§":2026,"å®¤":2027,"ãĢĢãĢĢãĢĢãĢĢãĢĢãĢĢãĢĢãĢĢ":2028,"è´Łè´£":2029,"ä¸°å¯Į":2030,"æĢ¥":2031,"çĽĹ":2032,"ä¸įæĢİä¹Īæł·":2033,"ç»Ħ":2034,"æĿĥ":2035,"åĽº":2036,"éĥ½æľī":2037,"èĥ½åĬĽ":2038,"æĸ°çļĦ":2039,"éĩĮéĿ¢çļĦ":2040,"å¢ŀ":2041,"æ¿Ģ":2042,"æ¬º":2043,"å®¶çļĦ":2044,"æİ§":2045,"åĿĲ":2046,"åĪ«çļĦ":2047,"ç«¥":2048,"æ¶Ĥ":2049,"çĹħ":2050,"æĲŃ":2051,"åĶ±çīĩ":2052,"èĴ":2053,"æĦıä¹ī":2054,"ç©¿èµ·æĿ¥":2055,"è·ŁåĽ¾çīĩ":2056,"åĹ":2057,"éĮ":2058,"Ġäº¬ä¸ľ":2059,"Ġå¸®":2060,"ä¹±":2061,"åĨ²":2062,"ä¼°":2063,"éĵģ":2064,")\\":2065,"çĺ":2066,"ĠçĶ¨äºĨ":2067,"è¯¢":2068,"åıĳçļĦ":2069,"åĸĦ":2070,"çĶŁäº§":2071,"æĻ¯":2072,"å¥½ä¹¦":2073,"åĨ°":2074,"éĹ·":2075,"å¿«çļĦ":2076,"æł·å¼ı":2077,"ä»·åĢ¼":2078,"æĭħ":2079,"ä¹ĲåĽŃ":2080,"éĻ¤äºĨ":2081,"an":2082,"è¯ļ":2083,"å·®çļĦ":2084,"éģĩ":2085,"æĸ¹éĿ¢":2086,"éĺ¿":2087,"éĥģ":2088,"çŃīäºĨ":2089,"èĪĴéĢĤ":2090,"ï¼ī\\":2091,"æŃ»äºĨ":2092,"æĭ¬":2093,"çĪ¶":2094,"åĩĨå¤ĩ":2095,"æĿĲè´¨":2096,"åĪĴç®Ĺ":2097,"åī§":2098,"ä½ľçĶ¨":2099,"ä¿¡èµĸ":2100,"ä¸įå¯¹":2101,"ä¹Ŀ":2102,"æĹħ":2103,"åĨ·":2104,"é¢Ħ":2105,"æĽ¾":2106,"éĮ¯":2107,"å¾ĭ":2108,"åıĳéĶĻ":2109,"æ¯ķ":2110,"èĢģæĿ¿":2111,"åĲĮäºĭ":2112,"åįģåĪĨ":2113,"é±":2114,"é½":2115,"Ġä¸Ģ":2116,"è¡Ģ":2117,"æĥ³åĪ°":2118,"éĿŀå¸¸åĸľæ¬¢":2119,"åľ°æĳĬ":2120,"èĻĳ":2121,"çł´äºĨ":2122,"èµŀä¸Ģä¸ª":2123,"æĪĳæĥ³":2124,"ä¹°åĪ°":2125,"ç»ıæµİ":2126,"ç³»åĪĹ":2127,"éĵ¶":2128,"æ¦Ĥ":2129,"æµªè´¹":2130,"é±¼":2131,"è¿¹":2132,"ç»ľ":2133,"åĨįä¹°":2134,"è¿ĺåı¯ä»¥å°±æĺ¯":2135,"å£³":2136,"ç¼Ŀ":2137,"çıŃ":2138,"çļĦå¿ĥ":2139,"ä¸įåĥı":2140,"åº§":2141,"åĽŀåİ»":2142,"èĤ¥":2143,"èĸĦäºĨ":2144,"æĢĿæĥ³":2145,"æĪĳæĺ¯":2146,"æĹı":2147,"åĨĽ":2148,"èĩªçĦ¶":2149,"ä¸įæĺ¯å¾Īå¥½":2150,"è¿Ļä¸ªä»·æł¼":2151,"åħ¶ä¸Ń":2152,"èĤī":2153,"ä¿Ŀæ¸©":2154,"åĩĳåĲĪ":2155,"ç»¿":2156,"ç»Ĵ":2157,"åĽ´":2158,"éĥ½ä¸įå¥½":2159,"è¿ĩçļĦ":2160,"èĦ¸":2161,"æĮºå¥½å°±æĺ¯":2162,"ãĢĤãĢĤãĢĤãĢĤãĢĤãĢĤãĢĤãĢĤãĢĤãĢĤãĢĤãĢĤãĢĤãĢĤãĢĤãĢĤ":2163,"è¿ĺä¸įå¦Ĥ":2164,"ä»Ķç»Ĩ":2165,"Ġè¯´":2166,"æĪ¿":2167,"è¿Ļä¸Ģ":2168,"ä¸ĬäºĨ":2169,"æĥ¯":2170,"çĿ¡":2171,"æĪĲäºĨ":2172,"ç»ĵå®ŀ":2173,"åĨĻçļĦ":2174,"æĢ»ä¹ĭ":2175,";\\":2176,"ä¸įæĢİä¹Ī":2177,"çĶļ":2178,"è¿ĻéĩĮ":2179,"å¤ªå¤§äºĨ":2180,"éģį":2181,"ï¼īï¼Į":2182,"ä¸įéĮ¯":2183,"åħį":2184,"æľŁå¾ħ":2185,"åıįåºĶ":2186,"æĿĲæĸĻ":2187,"çĨŁ":2188,"æ¬²ä¹ĲåĽŃ":2189,"ä¸ľä¸ľ":2190,"ç¬ĳ":2191,"æħ§":2192,"åĮħè£ħå¤ªå·®åĬ²":2193,"ä¸¤å¤©":2194,"åĨ¬":2195,"çĽĬ":2196,"çī©ç¾İ":2197,"in":2198,"åŃ¦èĢħ":2199,"æ°Ķåĳ³":2200,"ç²¾ç¾İ":2201,"çł´æįŁ":2202,"æļĹ":2203,"æłĩåĩĨ":2204,"ä¼ĺæĥł":2205,"è´§çī©åĮħè£ħå¤ªå·®åĬ²":2206,"æŁĶè½¯":2207,"æĮºå¥½å°±æĺ¯è´§çī©åĮħè£ħå¤ªå·®åĬ²":2208,"çļĦéĹ®é¢ĺ":2209,"æĺ¥":2210,"å¤ªå°ı":2211,"æĥĬ":2212,"æĥľ":2213,"åŁŁ":2214,"æĮºå¥½å°±æĺ¯è´§çī©åĮħè£ħå¤ªå·®åĬ²æĮºå¥½å°±æĺ¯è´§çī©åĮħè£ħå¤ªå·®åĬ²":2215,"ĠæĮº":2216,"æĦ¿":2217,"è®Ń":2218,"æĹ¶å°ļ":2219,"åĪĨæŀĲ":2220,"åĽ¾ä¹¦":2221,"ä¸¤æ¬¡":2222,"ç¾İåĽ½":2223,"æĥ³è±¡ä¸ŃçļĦ":2224,"çıł":2225,"ä¸Ĭå½ĵäºĨ":2226,"èıľ":2227,"åĲī":2228,"...":2229,"æĸĩåŃĹ":2230,"æĶ¾åľ¨":2231,"åĺĽ":2232,"ä¸įèĪĴæľį":2233,"å¿½":2234,"å¿Ļ":2235,"å·®åĬ²":2236,"å®¶éĩĮ":2237,"ç»Ļä¸ª":2238,"æĶ¶èĹı":2239,"éĤ£æł·":2240,"é¡¹":2241,"è¿Ľè¡Į":2242,"å¸®åĬ©":2243,"å¤ı":2244,"çĶ¨çĿĢ":2245,"å¤ªå°ıäºĨ":2246,"æ³¢":2247,"ä½łçļĦ":2248,"åĪ«ä¹°":2249,"ä¹łæĥ¯":2250,"ä¹Łå¾Īå¿«":2251,"è¢ľåŃĲ":2252,"ä¼°è®¡":2253,"50":2254,"Ġåıĳè´§":2255,"å¾Īä¸ĢèĪ¬":2256,"å¾Īç»ĻåĬĽ":2257,"è¿ĺç®Ĺ":2258,"æĭ¥":2259,"åħīé¡¾":2260,"èĢĥè¯ķ":2261,"æ½":2262,"ĠæĶ¶åĪ°":2263,"åįĩ":2264,"åĵ²":2265,"åºı":2266,"åı¯çĪ±":2267,"æīįåĪ°":2268,"éĿŀå¸¸æ»¡æĦıéĿŀå¸¸æ»¡æĦıéĿŀå¸¸æ»¡æĦıéĿŀå¸¸æ»¡æĦı":2269,"é½Ĳ":2270,"ĠåĴĮ":2271,"Ġè£¤åŃĲ":2272,"çļĦè¯Ŀ":2273,"ä¼Ĺ":2274,"å¹ķ":2275,"èĥ½å¤Ł":2276,"å¤ļå°ĳ":2277,"çİĩ":2278,"è°ĵ":2279,"ï¼ļ&":2280,"è¯Ńè¨Ģ":2281,"çľĭèµ·æĿ¥ä¸įéĶĻ":2282,"ä»¤":2283,"åħ°":2284,"å·®è·Ŀ":2285,"å¤§åŃ¦":2286,"å¿ĥçļĦ":2287,"éĤ£ç§į":2288,"æĪĲä¸º":2289,"ä½ĵéªĮ":2290,"èĤ¤":2291,"æ¥¼":2292,"æĹłè¯ŃäºĨ":2293,"èīºæľ¯":2294,"ç¬¬ä¸īæĸ¹":2295,"30":2296,"å¤«":2297,"ä¸Ģèĩ´":2298,"å¸½":2299,"æĭĸ":2300,"æ°¸":2301,"è½®":2302,"éĩįæĸ°":2303,"èĢģåħ¬":2304,"åŁ¹":2305,"ç¢°":2306,"ç©ºå±±":2307,"å¸Ĥåľº":2308,"ç¦ı":2309,"å¯Ĥå¯Ĥ":2310,"åı¦å¤ĸ":2311,"ç©ºå±±å¯Ĥå¯Ĥ":2312,"åľŁ":2313,"åºĵ":2314,"èµ·çĲĥ":2315,"ï¼Łï¼Łï¼Ł":2316,"çĽĹçīĪ":2317,"èª":2318,"çļĦåĳ³éģĵ":2319,"äºī":2320,"æī¹":2321,"æĪĳè¦ģ":2322,"åĪ°çİ°åľ¨":2323,"éĥ½è¶ĬæĿ¥è¶Ĭ":2324,"çľĭä¸į":2325,"è¶ħå¸Ĥ":2326,"æıĲé«ĺ":2327,"æ®µæĹ¶éĹ´":2328,"æĻļä¸Ĭ":2329,"çŃ¾æĶ¶":2330,"èŀº":2331,"åĶ±çīĩéĥ½è¶ĬæĿ¥è¶Ĭ":2332,"åĶ±çīĩéĥ½è¶ĬæĿ¥è¶Ĭè´µ":2333,"·çļĦ":2334,"Ġä¸ĢçĽ´":2335,"ĠéĢģè´§":2336,"ä¸Ģå¤©":2337,"ä¹°å®¶":2338,"å¦¹":2339,"è¢ĸ":2340,"åįĬä¸ªæľĪ":2341,"çĭĹ":2342,"ä¸ĢåĪĨè´§":2343,"ç»ıåħ¸éĨĩç»ıåħ¸éĨĩç»ıåħ¸éĨĩç»ıåħ¸éĨĩç»ıåħ¸éĨĩç»ıåħ¸éĨĩç»ıåħ¸éĨĩç»ıåħ¸éĨĩ":2344,"æĵįä½ľ":2345,"è¿ĺåı¯ä»¥å°±æĺ¯åĶ±çīĩéĥ½è¶ĬæĿ¥è¶Ĭè´µ":2346,"Ġç¬¬ä¸Ģæ¬¡":2347,"æĦī":2348,"å¤ªä¸į":2349,"åĮħæĭ¬":2350,"ç¨Ģ":2351,"èĢĥèĻĳ":2352,"è¿ĺåı¯ä»¥å°±æĺ¯åĶ±çīĩéĥ½è¶ĬæĿ¥è¶Ĭè´µè¿ĺåı¯ä»¥å°±æĺ¯åĶ±çīĩéĥ½è¶ĬæĿ¥è¶Ĭè´µ":2353,"ĠåĨħå®¹":2354,"å¾Īå®ŀçĶ¨":2355,"å°ıè¯´":2356,"æ±Ł":2357,"éĵº":2358,"éĨīäºĨ":2359,"æıĲä¾Ľ":2360,"åħĪçĶŁ":2361,"ç®¡çĲĨ":2362,"çªģ":2363,"å¼Ĥåĳ³":2364,"æĢĢçĸĳ":2365,"ä¸½":2366,"å®½":2367,"çīĻ":2368,"ä¸įéĶĻä¸įéĶĻ":2369,"å¾Īå¥½çĶ¨":2370,"æ´ģ":2371,"éĥ½ä¸įæĥ³":2372,"åıįæŃ£":2373,"çĽ®åīį":2374,"åŃĶ":2375,"ä¹Łå¥½":2376,"å¼Ł":2377,"èĩŃ":2378,"éĤ£äºĽ":2379,"ç«¯":2380,"éĤ£ä¹Īå¥½":2381,"éĤ®è´¹":2382,"èĭ±è¯Ń":2383,"åıĤèĢĥ":2384,"æ¡£æ¬¡":2385,"Ġæ¯Ķ":2386,"çļ±":2387,"çļĦåľ°æĸ¹":2388,"åĪģ":2389,"å¾Īé«ĺ":2390,"æ²¡çĶ¨":2391,"åĲİéĿ¢":2392,"éĽ¨":2393,"åģıå°ı":2394,"å«":2395,"å¥¥":2396,"å¥ĸ":2397,"å¾Īæĸ¹ä¾¿":2398,"å·®åĪ«":2399,"è¦ģæĺ¯":2400,"åĿļ":2401,"å¼ĢäºĨ":2402,"è¿Ļä¸ªåĪģ":2403,"æ´¾":2404,"åħ¨æĺ¯":2405,"å®¢æľįæĢģåº¦":2406,"åĽ½å®¶":2407,"éĽ¶":2408,"å¹²åĩĢ":2409,"ç»Īäºİ":2410,"æĻºæħ§":2411,"40":2412,"äºĳ":2413,"æĺ¯ä»Ģä¹Ī":2414,"åĵģè´¨":2415,"ä¾Ŀ":2416,"quot":2417,"æĸ¹å¼ı":2418,"Ġè´¨éĩıä¸ĢèĪ¬":2419,"çĥĤäºĨ":2420,"æ¹ĸ":2421,"æīĶäºĨ":2422,"è¿Ļä¸ªåĪģåĵŁ":2423,"17":2424,"ä¸įåĴĭ":2425,"åĪ¸":2426,"åĪ°ä½į":2427,"ä¹Łä¸įå¥½":2428,"åºĬ":2429,"åŃĲçļĦ":2430,"è´¨éĩıä¸ĢèĪ¬":2431,"æŃ¦":2432,"ç½ĳç»ľ":2433,"æŁľ":2434,"ç´¢":2435,"åĤħ":2436,"500":2437,"çļĦè¦ģ":2438,"æĺ¨":2439,"æĺ¯åĲ¦":2440,"æķĻå¸Ī":2441,"èĻļ":2442,"äºı":2443,"ä¸įå¾Ĺ":2444,"è¿Ķ":2445,"å¿ĺ":2446,"è§¦":2447,"å¤ªå¤ļ":2448,"äººäºĨ":2449,"æŃ¢":2450,"èĩªèĲ¥":2451,"å¼Ģå¿ĥ":2452,"åĲĪçĲĨ":2453,"åĲĪèº«":2454,"çĲĨæĥ³":2455,"çĥĪ":2456,"ãĢĤãĢĤãĢĤãĢĤãĢĤ":2457,"è¿ĺæĺ¯ä¸įéĶĻçļĦ":2458,"ç¨³":2459,"ä¿ĿæĬ¤":2460,"ä¸įèĥ½çĶ¨":2461,"åİļå®ŀ":2462,"åİĤå®¶":2463,"é¾Ļ":2464,"èĤ¯å®ļ":2465,"éĥģéĹ·":2466,"çļĦäºĭ":2467,"å¿Ĩ":2468,"éĢģäºĨ":2469,"æŃ£å¸¸":2470,"ä¸Ģæł·çļĦ":2471,"åıĺå½¢":2472,"åºĶè¯¥æĺ¯":2473,"é¡¾å®¢":2474,"è¿·":2475,"è¯º":2476,"æ²Ł":2477,"éĶĪ":2478,"åŃ¦æľ¯":2479,"å¤±æľĽäºĨ":2480,"èħ°":2481,"Ġè¿ĺè¡ĮåĲ§":2482,"çĳķ":2483,"åľ°æĳĬè´§":2484,"çī©ç¾İä»·å»ī":2485,";ãĢĤ":2486,"Ġä¸ĢçĤ¹":2487,"å¾Īå¤±æľĽ":2488,"åıĳçĶŁ":2489,"åĽŀäºĭ":2490,"éħĴ":2491,"æĸŃäºĨ":2492,"é¥°":2493,"çļĦå¤§":2494,"ä¸įå¦Ĥ":2495,"æķı":2496,"å¾Īå¥½çļĦ":2497,"æµĵ":2498,"åĩºäºĨ":2499,"åħ¶å®ĥ":2500,"é¡¶":2501,"æĶ¾å¿ĥ":2502,"æĳĦ":2503,"è¿ĺæ²¡çĶ¨":2504,"ä¸ĭæ¬¡è¿ĺä¼ļ":2505,"ĠæľīçĤ¹":2506,"æĪı":2507,"æĪĳåľ¨":2508,"æł¸":2509,"éŀĭåºķ":2510,"æİīæ¯Ľ":2511,"åħīçĽĺ":2512,"æĢ»æĺ¯":2513,"åİŁæĿ¥":2514,"æł¹æľ¬å°±":2515,"å¸ĥæĸĻ":2516,"å®ŀåľ¨æĺ¯":2517,"å®ĺ":2518,"çĶ¨èµ·æĿ¥":2519,"éĿ©":2520,"èµ¶":2521,"åħ¨éĥ¨":2522,"æĸĻåŃĲ":2523,"Ġè¿ĺå¥½":2524,"åĮĹäº¬":2525,"æ¬ºéªĹ":2526,"çŀ":2527,"ä¸Ģä»¶":2528,"åĪ®":2529,"åģľ":2530,"æķĻæĿĲ":2531,"è±Ĩ":2532,"çº¿å¤´":2533,"æĤ¨":2534,"ä¸ĭæ¬¡è¿ĺ":2535,"åĵ²åŃ¦":2536,"Ġä¸įéĶĻçļĦ":2537,"ĠçľŁå¿ĥ":2538,"ä½Ļ":2539,"æĸ½":2540,"æŃ£åľ¨":2541,"å®¢æľįè¯´":2542,"ãĢĭï¼Į":2543,"æĢ§çļĦ":2544,"åĶī":2545,"æİ¥åıĹ":2546,"Ġä¸įæ»¡æĦı":2547,"æī¾åĪ°":2548,"ç¡®è®¤":2549,"ç¨įå¾®":2550,"60":2551,"er":2552,"Ġäº§åĵģ":2553,"ãĢĲ":2554,"ä¸įèµ·":2555,"å°±å¥½äºĨ":2556,"æ¯«":2557,"å°±æĺ¯æľīçĤ¹":2558,"éĽħ":2559,"èįī":2560,"Ġå®Ŀè´ĿæĶ¶åĪ°äºĨ":2561,"æĭ¥æľī":2562,"ä¸Ģæľ¬ä¹¦":2563,"å·¾":2564,"ç»Ļå·®è¯Ħ":2565,"æİĮ":2566,"è´Ńä¹°çļĦ":2567,"çİ°ä»£":2568,"åģļçļĦ":2569,"éĻĦ":2570,"å¦ĤæŃ¤":2571,"è¿ĺåı¯ä»¥åĲ§":2572,"Ġå¾Īä¸įéĶĻ":2573,"çĹĽ":2574,"çİ©åħ·":2575,"***":2576,"æļĸåĴĮ":2577,"æĺ¯åĿıçļĦ":2578,"æ¬§":2579,"è¾ĵ":2580,"æ¼«":2581,"æ¼Ĩ":2582,"å®ĮäºĨ":2583,"è§£éĩĬ":2584,"åħ³éĶ®":2585,"ç¬¬äºĮå¤©å°±":2586,"é²ģ":2587,"æĻ®éĢļ":2588,"Ġæ¬¾å¼ı":2589,"è¿ª":2590,"äºĨçĤ¹":2591,"ç»ĺ":2592,"æŃ£å¥½":2593,"çĥŁ":2594,"å¥½å¥½å¥½":2595,"æ´ĹäºĨ":2596,"åĪĴçĹķ":2597,"æĴŃ":2598,"ç®±åŃĲ":2599,"æ¹¿":2600,"èĿ":2601,"ĠæĮºå¥½":2602,"ä¸įçĶ¨":2603,"å¥½å¤§":2604,"æľīä¸ª":2605,"æľīä¸Ģä¸ª":2606,"çī©æľī":2607,"æµħ":2608,"éĿŀå¸¸çļĦ":2609,"å¿«éĢĴåĳĺ":2610,"åŀĥåľ¾äºĨ":2611,"çķħ":2612,"è¿ĺè¡ĮåĲ§":2613,"è®¸å¤ļ":2614,"Ġåįĸå®¶":2615,"å·¨":2616,"å£¶":2617,"ï¼Įï¼Įï¼Į":2618,"åıĬæĹ¶":2619,"çĸµ":2620,"èĽĭ":2621,"åĮºåĪ«":2622,"æĭĨå¼Ģ":2623,"çĳķçĸµ":2624,"am":2625,"è¯´ä»Ģä¹Ī":2626,"ä¾Ĩ":2627,"å±Ģ":2628,"å¤ĸéĿ¢":2629,"èĬ±äºĨ":2630,"è¿Ľåİ»":2631,"å¡ŀ":2632,"æĬķè¯ī":2633,"ä¸´":2634,"ä¸įåĸľæ¬¢":2635,"æĿĢ":2636,"æĿ¥äºĨ":2637,"æŀķ":2638,"å¦ĩ":2639,"ç»ıå¸¸":2640,"åıªè¦ģ":2641,"ç²¾ç¥ŀ":2642,"èį¯":2643,"èİ«":2644,"åĵªéĩĮ":2645,"å·¦åı³":2646,"åĲ«":2647,"å¿į":2648,"åľ¨ç½ĳä¸Ĭ":2649,"åĩ»":2650,"åİī":2651,"å¹¸":2652,"åĩºçļĦ":2653,"éĻĪ":2654,"æīĢæľī":2655,"çıį":2656,"æģ¶å¿ĥ":2657,"åĩºçīĪç¤¾":2658,"oo":2659,"ä»¿":2660,"åĬ£":2661,"åı¯æĥľ":2662,"ä¸ŃéĹ´":2663,"çľŁå®ŀ":2664,"è°Ī":2665,"æľºåĻ¨":2666,"ç»ĻæĪĳåıĳ":2667,"è¿Ļä¹Īå¤ļ":2668,"èĭı":2669,"ï¼Łï¼Łï¼Łï¼Ł":2670,"å°ģéĿ¢":2671,"æ¤":2672,"ä¸įåı¯":2673,"ä¹°è¿ĩ":2674,"çľĭä¸Ĭåİ»":2675,"èĩªåĬ¨":2676,"åĮħè£ħå¾Ī":2677,"åīª":2678,"çĥ§":2679,"æķĻåŃ¦":2680,"3333333333333333333333333333333333333333333333333333333333333333":2681,"ç³Ĭæ¶Ĥ":2682,"Ġå°±æĺ¯":2683,"å°±è¿Ļæł·":2684,"ä¹Łæľī":2685,"èĥ½çĶ¨":2686,"æı¡":2687,"éļ¾éģĵ":2688,"åħ³ç³»":2689,"é»ĳèī²":2690,"åħ·æľī":2691,"æ£īçļĦ":2692,"çī©æľīæīĢåĢ¼":2693,"AA":2694,"on":2695,"çļĦä¸į":2696,"æľĿ":2697,"å¾Īéļ¾":2698,"éĩİ":2699,"æŃª":2700,"çľŁçļĦæĺ¯":2701,"æĳĨ":2702,"ä¿Ŀæļĸ":2703,"éĤ£ä¹Īå¤ļ":2704,"çī¹åĪ«å¥½":2705,"è®¤ä¸º":2706,"èĢ³æľº":2707,"èŀºä¸Ŀ":2708,"è¤":2709,"å¤ľ":2710,"å®£":2711,"å°¤":2712,"ä½³":2713,"åľĪ":2714,"éĥ½åĿıäºĨ":2715,"æľĭåıĭä¹°çļĦ":2716,"æĭīéĵ¾":2717,"åģ¥åº·":2718,"æ¯ķç«Ł":2719,"Ġä¹°çļĦ":2720,"Ġå®ŀçī©":2721,"çļĦåĮħ":2722,"ä¸ĢæĺŁ":2723,"éĩĩ":2724,"æ²¡äºº":2725,"å¤§å¸Ī":2726,"ç§ĭ":2727,"è¿Ļä¸ªçīĮåŃĲ":2728,"ï¼ģï¼ģï¼ģï¼ģï¼ģ":2729,"åĩłå¤©å°±":2730,"æĪĲåĬŁ":2731,"æīĢè°ĵ":2732,"ä¸ĢçĤ¹éĥ½ä¸į":2733,"éľ²":2734,"å¸ĪåĤħ":2735,"è¿ŀæİ¥":2736,"ä¼łç»Ł":2737,"åĿĳäºĨ":2738,"é¦ĸåħĪ":2739,"åłĤ":2740,"ä¸ĢåĪĨéĴ±":2741,"ä¸įå°ĳ":2742,"å¥ı":2743,"åĽ¢":2744,"åĿĩ":2745,"çĽ¸å·®":2746,"æĳĺ":2747,"ç´¯":2748,"ç¿»è¯ĳ":2749,"é¼»":2750,"è¯·æ³¨æĦıåķĨåĵģåĮħè£ħè¯·æ³¨æĦıåķĨåĵģåĮħè£ħè¯·æ³¨æĦıåķĨåĵģåĮħè£ħè¯·æ³¨æĦıåķĨåĵģåĮħè£ħè¯·æ³¨æĦıåķĨåĵģåĮħè£ħè¯·æ³¨æĦıåķĨåĵģåĮħè£ħè¯·æ³¨æĦıåķĨåĵģåĮħè£ħè¯·æ³¨æĦıåķĨåĵģåĮħè£ħ":2751,"å´":2752,"éī":2753,"å·ŀ":2754,"éĢĶ":2755,"åĪ°æīĭ":2756,"æľ¬èº«":2757,"å¿ĥæĥħ":2758,"åĩºæĿ¥çļĦ":2759,"çĶµè§Ĩ":2760,"ä¿Ŀè¯ģ":2761,"éĨĴ":2762,"ä¸ĸçºª":2763,"å¢¨":2764,"æĶ¿æ²»":2765,"åĤ¬":2766,"ä»ĺæ¬¾":2767,"çĺ¦":2768,"åİīå®³":2769,"35":2770,"ä¸įçĲĨ":2771,"ä¸įæĸŃ":2772,"å®¶äºº":2773,"éĹ²":2774,"æľ¬äºº":2775,"åĿĢ":2776,"çĲ´":2777,"æīĭè¡¨":2778,"è°±":2779,"å®ĮæĪĲ":2780,"ä¸īä¸ª":2781,"åįģä¸Ģ":2782,"éĢŁåº¦å¿«":2783,"åĢ¼å¾Ĺæİ¨èįĲ":2784,"æĤł":2785,"å¹¶ä¸Ķ":2786,"éī´":2787,"ä¸įåľ¨":2788,"ä¸įè¶³":2789,"è¿ħ":2790,"åĪĬ":2791,"æī«":2792,"ä¼ĳ":2793,"ä¹¦ä¸Ń":2794,"åĪĨéĴŁ":2795,"ãĢĤãĢĤãĢĤãĢĤãĢĤãĢĤ":2796,"éļĶ":2797,"æĸĩç«ł":2798,"åĲĮæł·":2799,"æĹ¥æľŁ":2800,"æĥ³è±¡ä¸Ń":2801,"çĽĸåŃĲ":2802,"çĶļèĩ³":2803,"æ²¡æĥ³åĪ°":2804,"ä¹ŁæĮº":2805,"å¿«ä¹Ĳ":2806,"æ»´":2807,"éļľ":2808,"åĥıæĺ¯":2809,"åĬłæ²¹":2810,"è¡¨çİ°":2811,"å®īåħ¨":2812,"é¢ĹæĺŁ":2813,"æ²ŁéĢļ":2814,"æ§":2815,"çĶ²":2816,"æ²ī":2817,"ä¹Łèĥ½":2818,"äººä»¬":2819,"æ¬¡åĵģ":2820,"çº³":2821,"éĩĮçļĦ":2822,"è®©ä½ł":2823,"æĤ²":2824,"é¥Ń":2825,"ä¸įå¤ªå¥½":2826,"èĳĹä½ľ":2827,"DV":2828,"Ġè·Ł":2829,"äº«":2830,"æĪĳä¹Łæĺ¯":2831,"åĪ°çļĦ":2832,"ä¸Ĭæµ·":2833,"è¯´è¯Ŀ":2834,"å°ıçļĦ":2835,"çī©åĵģ":2836,"å¤ļçļĦ":2837,"æĭ¼":2838,"ä¸Ģä¸ªæĺŁæľŁ":2839,"çĲĨè®º":2840,"æ¶¦":2841,"åĽłæŃ¤":2842,"æķ´ä¸ª":2843,"åħħæ»¡":2844,"æ¯ıæ¬¡":2845,"éĢıæ°Ķ":2846,"amp":2847,"ãĢĤãĢĬ":2848,"å¤¹":2849,"ä½Ľ":2850,"èµļ":2851,"æľ¬å¥½ä¹¦":2852,"å½»":2853,"æĦŁåıĹ":2854,"æĢİæł·":2855,"çĪ·":2856,"èĢģå¸Ī":2857,"ç¬¬äºĮå¤©":2858,"æĥ³è±¡çļĦ":2859,"æĭ¿åĪ°æīĭ":2860,"èİ·å¾Ĺ":2861,"Ġæĺ¯":2862,"ĠçľĭçĿĢ":2863,"ä¸įå»ºè®®":2864,"ä¹°ä¸ª":2865,"åºŁ":2866,"å¤§æ°Ķ":2867,"åĮ»":2868,"æµ®":2869,"éĢĢæ¬¾":2870,"ç³ķ":2871,"ä¸İåĽ¾çīĩ":2872,"åĦ¿ç«¥":2873,"éĢĢè´§äºĨ":2874,"çļ®è´¨":2875,"é£İæł¼":2876,"é¥®":2877,"DVD":2878,"å¾Īä¹ħ":2879,"å°±æľī":2880,"éĥ½è¯´":2881,"äººç±»":2882,"èĢĮæĺ¯":2883,"è½½":2884,"æīįæĶ¶åĪ°":2885,"éĺŁ":2886,"äºĮåįģ":2887,"æ¸ħæĻ°çļĦ":2888,"*ï¼Į":2889,"ĠåĮħåĮħ":2890,"å°±ä¼ļ":2891,"é¢ĳ":2892,"ä¾§":2893,"ç©¿çļĦ":2894,"åĶĲ":2895,"æĳ©":2896,"æ¡¶":2897,"æ¢ģ":2898,"ä»¥ä¸ºæĺ¯":2899,"é¼ł":2900,"éŃĶ":2901,"è¯ļä¿¡":2902,"çļĦè´Ńçī©":2903,"è¿ĺè¯´":2904,"åºľ":2905,"è´¨éĩıå·®":2906,"æĮĳ":2907,"åĢŁ":2908,"çĿĽ":2909,"ä»·æł¼å®ŀæĥł":2910,"æķĪæŀľä¸įéĶĻ":2911,"å§Ĳ":2912,"æ¡¥":2913,"Â·Â·":2914,"åıªèĥ½è¯´":2915,"çĶ±äºİ":2916,"ç§ĳåŃ¦":2917,"åŃĺåľ¨":2918,"å¨ģ":2919,"æĺ¨å¤©":2920,"RR":2921,"ha":2922,"çļĦåĨħå®¹":2923,"ä¸įä»ħ":2924,"å¥½è´§":2925,"å°ĺ":2926,"ä¸ĬéĹ¨":2927,"åıĳéĶĻäºĨ":2928,"æĹ¶ä»£":2929,"ä¿Ĺ":2930,"éĴ»":2931,"ä»·æł¼ä¹Ł":2932,"çłģæķ°":2933,"æķ°åŃ¦":2934,"ä¹ĭåīįä¹°çļĦ":2935,"éĥ½ä¸įæĥ³ç»Ļ":2936,"å°¤åħ¶":2937,"80":2938,"çĴ":2939,"ï¼Į&":2940,"å®¡":2941,"å¾ĪèĸĦ":2942,"åĲĲ":2943,"ç§ĺ":2944,"ä¹ĭéĹ´":2945,"è°¨":2946,"åģļå·¥ç²¾ç»Ĩ":2947,"åĢ¼å¾Ĺä¿¡èµĸ":2948,"åı£æĦŁ":2949,"æ®ĭ":2950,"çľ¼çĿĽ":2951,"æĭħå¿ĥ":2952,"Ġå·®":2953,"æĺł":2954,"æĿİ":2955,"éĶĻè¯¯":2956,"å¤ļæ¬¡":2957,"éĢģç»Ļ":2958,"ç§Ģ":2959,"ç»ıåİĨ":2960,"æĻķ":2961,"è¯»çī©":2962,"ä»·æł¼ä¾¿å®ľ":2963,"çĻ»":2964,"çĻ½èī²":2965,"çļĦä¸Ģæľ¬":2966,"æĢ§ä»·æ¯Ķé«ĺ":2967,"ä¸ĢåĪĨéĴ±ä¸ĢåĪĨè´§":2968,"ar":2969,"é¤":2970,"Ġå¾Īåĸľæ¬¢":2971,"ä¸Ģè¾¹":2972,"è¿ĺèĥ½":2973,"åĽ¤":2974,"äººçī©":2975,"è´¨éĩıå¤ªå·®":2976,"åĮħå®¹":2977,"åķĨåŁİ":2978,"å±ģ":2979,"ä¹ĭä¸Ģ":2980,"äºĨä¸ĢçĤ¹":2981,"æŁĲ":2982,"ä¼łå¥ĩ":2983,"åĭĴ":2984,"èĢĲå¿ĥ":2985,"è¯´æĺİä¹¦":2986,"ä¸»è¦ģæĺ¯":2987,"æħİéĩį":2988,"èªī":2989,"Ġå°ı":2990,"äºĨåĲ§":2991,"æĺ¯ä¸ª":2992,"åŃķ":2993,"åľ£":2994,"æĪĳä¹°çļĦ":2995,"ä¹°ä¹¦":2996,"è¿ĩåİ»":2997,"è¡ĮæĶ¿":2998,"çĶŁåĳ½":2999,"æ´²":3000,"åľ°åĿĢ":3001,"å·¥èīº":3002,"å®ļçļĦ":3003,"éħįä»¶":3004,"æ¢¦":3005,"ç§¯åĪĨ":3006,"å±ıå¹ķ":3007,"å¤ıå¤©":3008,"ä¸įä½ı":3009,"æĪĳéĥ½":3010,"çĶ¨è¿ĩ":3011,"æĸĹ":3012,"è´¨éĩıä¹Ł":3013,"èĪŀ":3014,"ä¸ĭåįĪ":3015,"å®ŀè¯Ŀ":3016,"æĭĴ":3017,"æĶ¶åĪ°çļĦ":3018,"çī¹åĪ«æĺ¯":3019,"åįĬå¤©":3020,"çº¢èī²":3021,"æ¼ıæ°´":3022,"éĻįä»·":3023,"ĠçľŁçļĦ":3024,"ä»ĵ":3025,"æĺ¯ä¸Ģä¸ª":3026,"æ²Ļ":3027,"æĿĨ":3028,"å°±åı¯ä»¥":3029,"è¯´å¥½çļĦ":3030,"åĩºåİ»":3031,"çĶŁæĦı":3032,"ä¸ĢèĪ¬çļĦ":3033,"éĺ¶":3034,"æŁĵ":3035,"äº§åĵģåĮħè£ħ":3036,"æĪĳä»¬çļĦ":3037,"éªĹäºĨ":3038,"æĺ¯ä¸Ģç§į":3039,"åħ´è¶£":3040,"å¸ģ":3041,"äººå®¶":3042,"è´¨éĩıä¸įå¥½":3043,"è´¨éĩıéĹ®é¢ĺ":3044,"å°ıå¿ĥ":3045,"è£ħçļĦ":3046,"é¢Ŀ":3047,"å·¥åħ·":3048,"èħ¾":3049,"å¼ºçĥĪ":3050,"åĪ¶ä½ľ":3051,"æĴĴ":3052,"åłĨ":3053,"éģĩåĪ°":3054,"es":3055,"ä»į":3056,"æĪĳèĩªå·±":3057,"åį«":3058,"åĩī":3059,"å¯»":3060,"ä¸ĭåİ»":3061,"æĭľ":3062,"Ġè´¨éĩıå¤ªå·®":3063,"ç¥¥":3064,"å·®å·®å·®":3065,"ç½ĳç«Ļ":3066,"æģŃ":3067,"Ġå¾Īæ¼Ĥäº®":3068,"æľĭåıĭçļĦ":3069,"æĴķ":3070,"åĺ´":3071,"å¥½å¥½å¥½å¥½å¥½å¥½å¥½å¥½":3072,"çĩ":3073,"å¾ĪåĲĪéĢĤ":3074,"æīİ":3075,"è´§äºĨ":3076,"åĩ¤":3077,"åĨľ":3078,"èĪª":3079,"äº¬ä¸ľå®¢æľį":3080,"æĻĴ":3081,"å¤ĸåĮħè£ħ":3082,"ç¼©":3083,"ä¸įçŁ¥éģĵæĺ¯ä¸įæĺ¯":3084,"æĳĶ":3085,"è¿ĲåĬ¨":3086,"èĮ¶åı¶":3087,"è²¨":3088,"æĬķèµĦ":3089,"å¾Īæ£Ĵ":3090,"æĪĳè§īå¾Ĺ":3091,"éģĹ":3092,"æŀľæĸŃ":3093,"è·³":3094,"æ´ĭ":3095,"éĻ©":3096,"ç¾¤":3097,"ç¼ĺ":3098,"æķĪæŀľå¾Īå¥½":3099,"èĭ¥":3100,"å¤Łæ¸ħæĻ°çļĦ":3101,"Ġè¿Ļæľ¬ä¹¦":3102,"çº¸è´¨":3103,"æļĤ":3104,"å½¢å¼ı":3105,"èħ¿":3106,"è¿Ļä¸ªä»·éĴ±":3107,"çĪ¶æ¯į":3108,"é¤Ĳ":3109,"cc":3110,"èļ":3111,"æľ«":3112,"éĶģ":3113,"åıĳè¿ĩæĿ¥":3114,"è¦ģä¹°":3115,"èµı":3116,"åĴ¯":3117,"æ²¡æľīä»»ä½ķ":3118,"å¾ĹåĪ°":3119,"å¿ĥçĲĨ":3120,"æĮºä¸įéĶĻçļĦ":3121,"åħ¨éĿ¢":3122,"åĨįæ¬¡":3123,"çī©æµģä¹Ł":3124,"ç¾Ĭ":3125,"æĪĲéķ¿":3126,"çīĪæľ¬":3127,"å°ĳäºĨ":3128,"ç©¿çĿĢå¾ĪèĪĴæľį":3129,"çļĦä¸Ģæ¬¡ç½ĳè´Ń":3130,"è¿ĺå¥½å¤Łæ¸ħæĻ°çļĦ":3131,"åĪĽä½ľ":3132,"å¿½æĤł":3133,"æĦīå¿«":3134,"22":3135,"Ġå¤§":3136,"Ġéŀĭ":3137,"å¾Īä¸įéĶĻçļĦ":3138,"çĶľ":3139,"å°±åĥı":3140,"å°±æĽ´":3141,"åįı":3142,"çľĭæĿ¥":3143,"çľĭè§ģ":3144,"æ¬¡äºĨ":3145,"å®ŀçĶ¨çļĦ":3146,"çŃĸ":3147,"æľīçĤ¹å¤§":3148,"æľĢå·®":3149,"çī©æµģå¾Īå¿«":3150,"æĺİçĻ½":3151,"å½ĵçĦ¶":3152,"èĥ¸":3153,"éķ¿äºĨ":3154,"éĵľ":3155,"åħ³äºİ":3156,"æŀģå·®":3157,"åģıå¤§":3158,"æııè¿°çļĦä¸Ģæł·":3159,"æĲŀæ´»åĬ¨":3160,"????????":3161,"èĴĻ":3162,"è¿ĺå¥½å¤Łæ¸ħæĻ°çļĦè¿ĺå¥½å¤Łæ¸ħæĻ°çļĦ":3163,"Ġåı¯ä»¥":3164,"Ġå¤ªå·®äºĨ":3165,"ä¸įå¤§":3166,"è¿Ł":3167,"äºĨå¥½":3168,"ä¸ĢæĿ¡":3169,"åĪ¤":3170,"åĪ°åºķ":3171,"è®¨":3172,"åĴĸ":3173,"ç»Ļä½ł":3174,"çº¹":3175,"å°±æĺ¯çī©æµģ":3176,"çľŁæŃ£":3177,"ä¾ł":3178,"åī¯":3179,"éªĳ":3180,"åĿĳäºº":3181,"å°Ĩå°±":3182,"................":3183,"å¾Īå¥½å¾Īå¥½å¾Īå¥½å¾Īå¥½":3184,"æ£ĢæŁ¥":3185,"å·®å·®å·®å·®å·®å·®å·®å·®å·®å·®å·®å·®å·®å·®å·®å·®":3186,"é¬":3187,"ĠéĢŁåº¦":3188,"ĠæĢ»ä½ĵ":3189,"ä¸įç®¡":3190,"ä¹Łè®¸":3191,"éĥ½å¾Īå¥½":3192,"å¤ļä¹ħ":3193,"éĢģäººçļĦ":3194,"éĩĮç³Ĭæ¶Ĥ":3195,"çĲĨçĶ±":3196,"éĹ®å®¢æľį":3197,"ç¾½":3198,"Ġè´¨éĩıå¥½":3199,"å®Įç¾İ":3200,"å®Įæķ´":3201,"çĽ¸åħ³":3202,"åŃ©åŃĲçļĦ":3203,"åħ³æ³¨":3204,"æĹ§çļĦ":3205,"è²Į":3206,"æĩĴå¾ĹéĢĢäºĨ":3207,"å¤©æīįåĪ°":3208,"è¿Ļå®¶åºĹ":3209,"çİ¯å¢ĥ":3210,"ä»¤äºº":3211,"ç¨ĢéĩĮç³Ĭæ¶Ĥ":3212,"åª":3213,"ĠéĿŀå¸¸å¥½":3214,"ä¸ĳ":3215,"æĺ¯åľ¨":3216,"ç»ĩ":3217,"æĪĳè¯´":3218,"è¿Ļæľ¬":3219,"ä¹¦åºĹ":3220,"åĪ«ç¨ĢéĩĮç³Ĭæ¶Ĥ":3221,"ç³Ł":3222,"åĽŀå®¶":3223,"åįĸçļĦ":3224,"åĩłä¹İ":3225,"è¶ħåĢ¼":3226,"é»ĺ":3227,"èº«ä¸Ĭ":3228,"ç»Ĩèĩ´":3229,"å¸¦çĿĢ":3230,"ä»¥åĲİè¯·æ³¨æĦı":3231,"è¡¨éĿ¢":3232,"æ¯ıä¸ª":3233,"èĢĲçĶ¨":3234,"ãĢĢãĢĢãĢĢãĢĢãĢĢãĢĢãĢĢãĢĢãĢĢãĢĢãĢĢãĢĢãĢĢãĢĢãĢĢãĢĢ":3235,"çļĦåĮħäºĨ":3236,"äº§åĵģåĮħè£ħåĪ«ç¨ĢéĩĮç³Ĭæ¶Ĥ":3237,"ä»¥åĲİè¯·æ³¨æĦıäº§åĵģåĮħè£ħåĪ«ç¨ĢéĩĮç³Ĭæ¶Ĥ":3238,"ä»¥åĲİè¯·æ³¨æĦıäº§åĵģåĮħè£ħåĪ«ç¨ĢéĩĮç³Ĭæ¶ĤçļĦåĮħäºĨ":3239,",,":3240,"¨è¯¢":3241,"Ġçľĭ":3242,"çļĦæĢģåº¦":3243,"çļĦæĹ¶éĹ´":3244,"ä¸įæĸ¹ä¾¿":3245,"æľīäºĨ":3246,"æ²³":3247,"åĴ¨è¯¢":3248,"å¯Ł":3249,"æİ¢":3250,"æ³½":3251,"å¦Ĩ":3252,"æ¸Ĳ":3253,"èĬ¯":3254,"å®¹éĩı":3255,"ç¾İè§Ĥ":3256,"éħ¸":3257,"ä»£è¡¨":3258,"åħ·ä½ĵ":3259,"çĥŃæĥħ":3260,"æ¸¸æĪı":3261,"å¸½åŃĲ":3262,"éĥ½åĿıäºĨä»¥åĲİè¯·æ³¨æĦıäº§åĵģåĮħè£ħåĪ«ç¨ĢéĩĮç³Ĭæ¶ĤçļĦåĮħäºĨ":3263,"br":3264,"nb":3265,"nç¬¬":3266,"sp":3267,"Ġå¤ĸè§Ĥ":3268,"å¤ªèĸĦäºĨ":3269,"æ¯Ĵ":3270,"éĹª":3271,"æ²¡æľīèī²å·®":3272,"æİĪ":3273,"çİī":3274,"ä¿ĥ":3275,"ï¼Ł\\":3276,"å¦Ļ":3277,"çĶµåŃĲ":3278,"çĦ¶èĢĮ":3279,"æľīçĤ¹æħ¢":3280,"åħ¨å½©":3281,"æ±¡":3282,"ä¸īå¤©":3283,"æ¶²":3284,"ä»¥åĲİè¿ĺä¼ļ":3285,"æ··":3286,"0000":3287,"çļ®èĤ¤":3288,"éªĹäººçļĦ":3289,"äºĶæĺŁ":3290,"åį´æĺ¯":3291,"é¦Ļåĳ³":3292,"é¸¡":3293,"åĢĴæĺ¯":3294,"éĶĢåĶ®":3295,"å¼¹æĢ§":3296,"åĶ¯ä¸Ģ":3297,"éĥ½åĿıäºĨä»¥åĲİè¯·æ³¨æĦıäº§åĵģåĮħè£ħåĪ«ç¨ĢéĩĮç³Ĭæ¶ĤçļĦåĮħäºĨéĥ½åĿıäºĨä»¥åĲİè¯·æ³¨æĦıäº§åĵģåĮħè£ħåĪ«ç¨ĢéĩĮç³Ĭæ¶ĤçļĦåĮħäºĨ":3298,"the":3299,"Ġå°±":3300,"ĠåŃ©åŃĲ":3301,"ĠæĶ¶åĪ°è´§":3302,"çļĦä¹Łå¾Ī":3303,"ãĢĤï¼Į":3304,"äºĨå¾Īå¤ļ":3305,"å¾Īä¸įå¥½":3306,"åĬª":3307,"åľ¨è¿Ļ":3308,"è¿ĩæĿ¥çļĦ":3309,"æĬ½":3310,"åĽ¾æ¡Ī":3311,"éĢĢæį¢":3312,"ä¹°äºĨä¸¤":3313,"çĻĮ":3314,"åĨĻä½ľ":3315,"åĲĥçļĦ":3316,"åĻª":3317,"æ¯ıå¤©":3318,"çĶ»éĿ¢":3319,"æııè¿°çļĦ":3320,"çĬ¹":3321,"~~~~~~~~":3322,"é¬¼":3323,"Ġä¸ºä»Ģä¹Ī":3324,"ĹçīĽ":3325,"ãĢĳ":3326,"è¿«":3327,"å¾ĪæŃ£":3328,"æĪĳè¿ĺ":3329,"å¾Īå¥½å¾Īä¸įéĶĻ":3330,"ä¸ĭäºĨ":3331,"éĢģäºº":3332,"éĿŀå¸¸å·®":3333,"ç»ıè¿ĩ":3334,"æį·":3335,"æ¸£":3336,"æĢİä¹ĪåĽŀäºĭ":3337,"Ġè´¨éĩıä¸įå¥½":3338,"åıĳè´§å¿«":3339,"èĬ±æł·":3340,"åħ¶ä»ĸçļĦ":3341,"ç»´ä¿®":3342,"æĶ¿åºľ":3343,"è¡¥åıĳ":3344,"ç®ĢçĽ´å°±æĺ¯":3345,"ç»ĥä¹ł":3346,"è´Łè´£ä»»":3347,"å«Į":3348,"ĠéĿ¢æĸĻ":3349,"çļĦå°±æĺ¯":3350,"ä¹Į":3351,"çĶ¨åĲ§":3352,"ä¹Łåı¯ä»¥":3353,"ä»¥æĿ¥":3354,"äººæ°ĳ":3355,"ä¼´":3356,"åķ¡":3357,"ç»ĻäºĨ":3358,"åĸ®":3359,"çľŁçļ®":3360,"åĬĽéĩı":3361,"Ġè¿ĺæ²¡æľī":3362,"å®ĥä»¬":3363,"èħ»":3364,"Ġè¿ĺåı¯ä»¥åĲ§":3365,"æŃĮæĽ²":3366,"ä¸Ģå®ļè¦ģ":3367,"å±ŀäºİ":3368,"éĻĲåĪ¶":3369,"ç¹":3370,"ä¸įéĢĤåĲĪ":3371,"å¾ģ":3372,"æĺ¯æľ¬å¥½ä¹¦":3373,"å®Ĺ":3374,"ä¸ĢåıĮ":3375,"å¾Īå°ı":3376,"ä¼ģ":3377,"åıĳæĿ¥":3378,"æīįçŁ¥éģĵ":3379,"éĢĢæį¢è´§":3380,"åĩłåįģ":3381,"æ±ĩ":3382,"ç®Ĺæĺ¯":3383,"è¿ĺæ²¡çľĭ":3384,"ç§ĳä¹¦":3385,"è¢ĭåŃĲ":3386,"èĳĹåĲį":3387,"è´£ä»»":3388,"åĴĸåķ¡":3389,"næ¬²ä¹ĲåĽŃ":3390,"çļĦäºĨ":3391,"æĸ¤":3392,"åĬ¿":3393,"æĿ¥è¯Ħä»·":3394,"éĥ½èĥ½":3395,"è´¨æĦŁ":3396,"å¤ªåŀĥåľ¾äºĨ":3397,"ä¸Ĭæ¡£æ¬¡":3398,"è¡Ĺ":3399,"èµĽ":3400,"æĦŁè°¢":3401,"ä¹°çļĦæĹ¶åĢĻ":3402,"ä¸įå¥½çľĭ":3403,"çİ°å®ŀ":3404,"æĹłè®º":3405,"èĥľ":3406,"ç»ĵæŀĦ":3407,"éĢļçŁ¥":3408,"ä¸įçŁ¥éģĵæĺ¯":3409,"åħ¬è·¯":3410,"åıĺæĪĲ":3411,"è½¦åŃĲ":3412,"è§ģè¿ĩ":3413,"çħ®":3414,"å¹³æĹ¶":3415,"å¿ħå¤ĩ":3416,"é©¬ä¸Ĭ":3417,"æ½®":3418,"å½»åºķ":3419,"26":3420,"Ġæ¯Ķè¾ĥ":3421,"ç»³":3422,"å°±ç®ĹäºĨ":3423,"å¸Ŀ":3424,"å¹ħ":3425,"æĥ³éĢĢè´§":3426,"éĿŀå¸¸ä¸įéĶĻ":3427,"çĶŁæ°Ķ":3428,"åĲĪä½ľ":3429,"ä½ľå®¶":3430,"æĦŁè§īä¸įéĶĻ":3431,"è¿ĺæĺ¯åı¯ä»¥":3432,"äºİæĺ¯":3433,"çī¹çĤ¹":3434,"ä»İæĿ¥":3435,"æķĻç§ĳä¹¦":3436,"éľī":3437,"çłģçļĦ":3438,"æļ´":3439,"æĶ¹åıĺ":3440,"Ġä¹°æĿ¥":3441,"åĵĪåĵĪåĵĪåĵĪ":3442,"é¢ĨåŁŁ":3443,"ä¼¤å¿ĥ":3444,"åĹ¯":3445,"åĲīç¥¥":3446,"hao":3447,"nbsp":3448,"næ¬²ä¹ĲåĽŃæ¬²ä¹ĲåĽŃ":3449,"Ġåıĳè´§éĢŁåº¦":3450,"çļĩ":3451,"å¾Īç²¾èĩ´":3452,"è¿ĺåľ¨":3453,"æĿŁ":3454,"æĪĳä¹Ł":3455,"æ²¡åĬŀæ³ķ":3456,"èī²å½©":3457,"æŀľçĦ¶":3458,"ç³ĸ":3459,"å¹´åīį":3460,"å·¥ç¨ĭ":3461,"çĪĨ":3462,"èĢģæĺ¯":3463,"è®©æĪĳä»¬":3464,"äº§çĶŁ":3465,"åįĸå®¶æľįåĬ¡":3466,"Ġä¸ľè¥¿å¾Īå¥½":3467,"è¯ķè¯ķ":3468,"ç¢Ĺ":3469,"å¤§å®¶ä¸įè¦ģ":3470,"çļĦå¾Īè¯¦ç»Ĩ":3471,"Ġè¿ĺæ²¡çĶ¨":3472,"èľĹçīĽ":3473,"åĩıèĤ¥":3474,"ä¸ĭçļĦåįķ":3475,"è¿ĩç¨ĭä¸Ń":3476,"æģŃç»´":3477,"24":3478,"ä¸Ľ":3479,"çļĦäº§åĵģ":3480,"ä¸įçĦ¶":3481,"ä¹°è°ģ":3482,"åĬ³":3483,"ä»¥ä¸Ĭ":3484,"å¼ĥ":3485,"èĥ½ä¸įèĥ½":3486,"å¤ļæľĪ":3487,"ä½łå®¶":3488,"ãĢĭï¼Ī":3489,"æ°´å¹³":3490,"ï¼ļ\\":3491,"ä¿¡åı·":3492,"æĳĩ":3493,"åŃ©åŃĲä»¬":3494,"éļ¾çľĭ":3495,"è®²è§£":3496,"Ġä¸įå¥½çĶ¨":3497,"ï¼Įï¼Įï¼Įï¼Įï¼Įï¼Įï¼Įï¼Į":3498,"ç¢İäºĨ":3499,"æĮºå¥½å°±æĺ¯è´§çī©åĮħè£ħå¤ªå·®åĬ²æĮºå¥½å°±æĺ¯è´§çī©åĮħè£ħå¤ªå·®åĬ²æĮºå¥½å°±æĺ¯è´§çī©åĮħè£ħå¤ªå·®åĬ²æĮºå¥½å°±æĺ¯è´§çī©åĮħè£ħå¤ªå·®åĬ²":3500,"è²¨å¿«":3501,"ï¿":3502,"ĠãĢĬ":3503,"Ġæł¹æľ¬":3504,"Ġè¶ħçº§":3505,"æĿ°":3506,"æĪĳå¾Īåĸľæ¬¢":3507,"æ¬£":3508,"åįł":3509,"æĹ¦":3510,"åĬ±":3511,"å¤§æĸ¹":3512,"ä¸ĭåĸ®":3513,"ä¸ľè¥¿ä¸įéĶĻ":3514,"éĢģæĿ¥":3515,"èĩªçĶ±":3516,"çĶµæºĲ":3517,"è´Ńä¹°äºĨ":3518,"çŃĳ":3519,"æĻĵ":3520,"åĪļåĪļå¥½":3521,"åĨĻå¾Ĺ":3522,"çľ¼éķľ":3523,"å²Ľ":3524,"å¹¿åĳĬ":3525,"ï¼ģï¼ģï¼ģï¼ģï¼ģï¼ģï¼ģï¼ģï¼ģï¼ģï¼ģï¼ģï¼ģï¼ģï¼ģï¼ģï¼ģï¼ģï¼ģï¼ģï¼ģï¼ģï¼ģï¼ģï¼ģï¼ģï¼ģï¼ģï¼ģï¼ģï¼ģï¼ģ":3526,"åĨ¬å¤©":3527,"ä¾ĨäºĨ":3528,"æĨ":3529,"èĶ":3530,"ä¸Ģä¼ļ":3531,"ä¸ĢåĪĩ":3532,"æ²¡æĶ¶åĪ°":3533,"éĥ½ä¸įéĶĻ":3534,"åĩ°":3535,"ä¸ĭéĿ¢":3536,"å¤©å¤©":3537,"æĶ¶èİ·":3538,"ç»ıéªĮ":3539,"æ»¡æĦıçļĦ":3540,"æīĵäºĨ":3541,"å¦ĤæĦı":3542,"å¤ĸè¯Ń":3543,"èģļ":3544,"èĻİ":3545,"ç©¿çĿĢèĪĴæľį":3546,"åĲĦä½į":3547,"è§Ĵåº¦":3548,"éļıä¾¿":3549,"å¤ªå·®åĬ²äºĨ":3550,"ç¬¬äºĮå¤©å°±ä¾ĨäºĨ":3551,"æ§½":3552,"è°¨æħİ":3553,"åĬªåĬĽ":3554,"ä¸ĭåĸ®ç¬¬äºĮå¤©å°±ä¾ĨäºĨ":3555,"ºå¾Ĺ":3556,"ä¸įçĪ½":3557,"è¯¸":3558,"å°±æİīäºĨ":3559,"ä¹Łä¸įæĺ¯":3560,"éĥ½è¦ģ":3561,"å¤ªéº»çĥ¦":3562,"åİĮ":3563,"æ²¡æľīä»Ģä¹Ī":3564,"åĸ·":3565,"éĢģè²¨å¿«":3566,"å¿ĥå¾Ĺ":3567,"æĮºåĸľæ¬¢çļĦ":3568,"éĤ£éĩĮ":3569,"è°·":3570,"æħ¢çļĦ":3571,"æ³ķæıı":3572,"éŁµ":3573,"äºĮæīĭ":3574,"èĥŀ":3575,"æİ¥è§¦":3576,"æ¶ī":3577,"ç»ĨèĬĤ":3578,"éĽ·":3579,"æķĪæŀľå¥½":3580,"æĽ´å¥½":3581,"ä½įç½®":3582,"ï¼ģï¼ģï¼ģï¼ģï¼ģï¼ģï¼ģï¼ģï¼ģï¼ģï¼ģï¼ģ":3583,"1111":3584,"è¯īçļĦä¹Łå¾Ī":3585,"ä»ĭç»įçļĦå¾Īè¯¦ç»Ĩ":3586,"äº¤æĺĵ":3587,"é¸Ł":3588,"é¼ĵ":3589,"åĪĿåŃ¦èĢħ":3590,"éĴĪæ³ķæıı":3591,"éĿŀå¸¸æ»¡æĦıéĿŀå¸¸æ»¡æĦıéĿŀå¸¸æ»¡æĦıéĿŀå¸¸æ»¡æĦıéĿŀå¸¸æ»¡æĦıéĿŀå¸¸æ»¡æĦıéĿŀå¸¸æ»¡æĦıéĿŀå¸¸æ»¡æĦı":3592,"çĴĥ":3593,"åĩ¤åĩ°":3594,"èĬ±æł·å¾Īå¤ļ":3595,"ï¿¥":3596,"è¯īçļĦä¹Łå¾ĪåĪ°ä½į":3597,"éĴĪæ³ķæııè¯īçļĦä¹Łå¾ĪåĪ°ä½į":3598,"åıĶ":3599,"ä¸Ģå¼ł":3600,"è´¢":3601,"åĲ¹":3602,"ç»ª":3603,"å·Ŀ":3604,"å¤ªç¡¬":3605,"çĤī":3606,"æĬ±":3607,"æĬĹ":3608,"äº¬ä¸ľèĩªèĲ¥":3609,"çĶŁæĹ¥":3610,"æ±¤":3611,"åĪļåĪļ":3612,"é¦Ĩ":3613,"çļ®å¸¦":3614,"çĪ±æĥħ":3615,"æķ°æį®":3616,"éªĹäºº":3617,"æĲº":3618,"ä¸ĵè¾ĳ":3619,"åŀĭåı·":3620,"åľ¨äº¬ä¸ľä¹°ä¸ľè¥¿":3621,"è°ģä¹°è°ģ":3622,"æī£åŃĲ":3623,"è²·çļĦ":3624,"Ġ1":3625,"ĠæĢİä¹Ī":3626,"Ġæľ¬æĿ¥":3627,"çļĦè¯´":3628,"ä¸įç»ĻåĬĽ":3629,"ä¸įæĩĤ":3630,"æĺ¯ç»Ļ":3631,"å°Ŀ":3632,"åĲĬ":3633,"æĪĳå®¶":3634,"çĶ¨æĿ¥":3635,"åľ¨ä¸Ģèµ·":3636,"éĥ½å¾Ī":3637,"è¦ºå¾Ĺ":3638,"æĹ¶æľŁ":3639,"å¾Ĺå¾Ī":3640,"æĮºèĪĴæľį":3641,"æĮºå¿«çļĦ":3642,"ä¸įæĺ¯æŃ£åĵģ":3643,"åĮħè£ħçĽĴ":3644,"çĥ«":3645,"åħ¨åĽ½":3646,"éĻĨ":3647,"åīįéĿ¢":3648,"åĲĮåŃ¦":3649,"ä»¥åĲİåĨįä¹Łä¸į":3650,"ä¸»ä¹ī":3651,"éħįå¥Ĺ":3652,"è¾¹çļĦ":3653,"éº¦":3654,"è°ĥæķ´":3655,"æľįåĬ¡æĢģåº¦å¾Īå¥½":3656,"ç¬Ķè®°":3657,"ä¼¼çļĦ":3658,"åįĥä¸ĩåĪ«ä¹°":3659,"æ°¸è¿ľ":3660,"ä¸ĭæ¬¡è¿ĺæĿ¥":3661,"å®£ä¼ł":3662,"é¼łæłĩ":3663,"æ¾":3664,"Ġå®Ŀå®Ŀ":3665,"ä¸¾":3666,"äºĪ":3667,"å¾Īè½»":3668,"åį¸":3669,"éĥ½ä¼ļ":3670,"æĥ¨":3671,"å¤ļè¯»ä¹¦":3672,"éģ¥":3673,"æ»¤":3674,"å¿ĥéĩĮ":3675,"éĻ¶":3676,"æīĵç®Ĺ":3677,"èĤ©":3678,"åºĹéĩĮ":3679,"è´µçļĦ":3680,"å·®è¯Ħå·®è¯Ħ":3681,"èº«ä½ĵ":3682,"å¤´åıĳ":3683,"åĨĻäºĨ":3684,"æĤŁ":3685,"é»ĳèī²çļĦ":3686,"çĸı":3687,"çĥĤçļĦ":3688,"èī¯å¿ĥ":3689,"èĵĿèī²":3690,"åķĬåķĬåķĬåķĬ":3691,"è¸ı":3692,"ä¸įæķ¢æģŃç»´":3693,"æĹħæ¸¸":3694,"è¿ĺåı¯ä»¥å°±æĺ¯åĶ±çīĩéĥ½è¶ĬæĿ¥è¶Ĭè´µè¿ĺåı¯ä»¥å°±æĺ¯åĶ±çīĩéĥ½è¶ĬæĿ¥è¶Ĭè´µè¿ĺåı¯ä»¥å°±æĺ¯åĶ±çīĩéĥ½è¶ĬæĿ¥è¶Ĭè´µè¿ĺåı¯ä»¥å°±æĺ¯åĶ±çīĩéĥ½è¶ĬæĿ¥è¶Ĭè´µ":3695,"25":3696,"us":3697,"è¹":3698,"Ġå·²ç»ı":3699,"äºĴ":3700,"ä¸įåĩº":3701,"ä»ª":3702,"ä¸Ģå¥Ĺ":3703,"æĪª":3704,"ä¼ª":3705,"ä¼¯":3706,"åĮ¹":3707,"åİ¿":3708,"çİ»":3709,"æ»ĭ":3710,"äº¬ä¸ľåķĨåŁİ":3711,"èµ·æ¯Ľ":3712,"ï¼ī.":3713,"çł´çļĦ":3714,"è®°å½ķ":3715,"è®°å¿Ĩ":3716,"åľ¨äº¬ä¸ľä¸Ĭ":3717,"Ġçī©æµģå¤ªæħ¢":3718,"åĭī":3719,"åı¯èĥ½æĺ¯":3720,"è§£åĨ³éĹ®é¢ĺ":3721,"ä¸įåĢ¼è¿Ļä¸ªä»·éĴ±":3722,"èŀį":3723,"åı¯çĪ±çļĦ":3724,"ä¼ģä¸ļ":3725,"åĲīç¥¥å¦ĤæĦı":3726,"åĩ¤åĩ°ä¼łå¥ĩ":3727,"squo":3728,"«æľĭåıĭ":3729,"ĠçľŁ":3730,"ä¸ĢèĤ¡":3731,"ä¸Ģåı¥":3732,"ç»¼":3733,"è¿ĺå¾Ĺ":3734,"åŃ£":3735,"çī¢":3736,"æ²¡å¥½è´§":3737,"åºĦ":3738,"å¤§éĩı":3739,"ä¹¦æĺ¯":3740,"å¹«æľĭåıĭ":3741,"è£ħä¸Ĭ":3742,"çºł":3743,"å¤©äºĨ":3744,"å½Ĵ":3745,"ç§»":3746,"åķĨåľº":3747,"å¿«éĢĴåħ¬åı¸":3748,"æľĢè¿ĳ":3749,"ä¸¤å¤©å°±":3750,"æīĵèĦļ":3751,"åĽ½åĨħ":3752,"èĥ¡":3753,"æ¡Ĩ":3754,"è¡¨ç¤º":3755,"åĲĥäºĨ":3756,"Ġä¸įæĢİä¹Īæł·":3757,"å»ºçŃĳ":3758,"æī¾å®¢æľį":3759,"2013":3760,"çļĦäººçĶŁ":3761,"é¥¼":3762,"å¥½å¥½å¥½å¥½å¥½å¥½å¥½":3763,"çĬ¯":3764,"çĹķè¿¹":3765,"éĶ®çĽĺ":3766,"æĿĤå¿Ĺ":3767,"åĳĬè¯īæĪĳ":3768,"ä¸įæĢİä¹Īå¥½":3769,"å°¤åħ¶æĺ¯":3770,"è¦ºå¾Ĺä¸įéĮ¯":3771,"çİ»çĴĥ":3772,"å¹«æľĭåıĭè²·çļĦ":3773,"å®«":3774,"åŃ¤":3775,"æ²¡éĹ®é¢ĺ":3776,"åĽ°":3777,"åĵĴ":3778,"åºŃ":3779,"å¤ªå¤±æľĽäºĨ":3780,"æĥ³ä¹°":3781,"æīįä¹°çļĦ":3782,"æľīçĤ¹è´µ":3783,"èĦĨ":3784,"éĢĤçĶ¨":3785,"éŁ©":3786,"èģĬ":3787,"éĢŁåº¦å¾Īå¿«":3788,"æ¡Į":3789,"åı£åĳ³":3790,"æĹ¥æľ¬":3791,"æĢĿç»´":3792,"è¿Ĳè¾ĵ":3793,"è®¤è¯Ĩ":3794,"ä¸įä¼ļåĨį":3795,"èĩ³å°ĳ":3796,"æĬĺèħ¾":3797,"åıĸæ¶Ī":3798,"æĮīçħ§":3799,"é¸Ń":3800,"å¥¶ç²ī":3801,"èĽ®å¥½çļĦ":3802,"æĥĬåĸľ":3803,"ç»ıåħ¸éĨĩç»ıåħ¸éĨĩç»ıåħ¸éĨĩç»ıåħ¸éĨĩç»ıåħ¸éĨĩç»ıåħ¸éĨĩç»ıåħ¸éĨĩç»ıåħ¸éĨĩç»ıåħ¸éĨĩç»ıåħ¸éĨĩç»ıåħ¸éĨĩç»ıåħ¸éĨĩç»ıåħ¸éĨĩç»ıåħ¸éĨĩç»ıåħ¸éĨĩç»ıåħ¸éĨĩ":3804,"éĵľçīĪ":3805,"è¦ºå¾Ĺä¸įéĮ¯å¹«æľĭåıĭè²·çļĦ":3806,"21":3807,"39":3808,"ti":3809,"ä¸įé«ĺ":3810,"ä¸įè´µ":3811,"ä¸Ģéĥ¨":3812,"å¥½ä¹ħ":3813,"æľīäºº":3814,"æľīä»Ģä¹Ī":3815,"å°±æ²¡æľī":3816,"æĪĳäºĨ":3817,"éĥ½åı¯ä»¥":3818,"å¤ªå¥½":3819,"åĨĴ":3820,"åĳĪ":3821,"éĹŃ":3822,"ä¸Ńåįİ":3823,"è¾Ľ":3824,"æĥ³åĥı":3825,"åŃ¦æł¡":3826,"çŃĴ":3827,"æĻ¶":3828,"æīĵåį°":3829,"éķĩ":3830,"é¡¿":3831,"çīĪçļĦ":3832,"è¶ħæīĢåĢ¼":3833,"å»¶":3834,"éĢļå¿«éĢĴ":3835,"åıĺå¾Ĺ":3836,"çĸ¼":3837,"ä¿®èº«":3838,"åĨ³å®ļ":3839,"è¯ģåĪ¸":3840,"Ġä¹°åĽŀæĿ¥":3841,"éĶĪéĴ¢":3842,"29":3843,"70":3844,"or":3845,"æ©":3846,"é¹":3847,"Ġå¯¹":3848,"Ġä¸įçŁ¥éģĵ":3849,"ĻåŃĲ":3850,"ä¸įåĲĪéĢĤ":3851,"äºĨæĪĳ":3852,"ä¸Ģæ¬¾":3853,"ï¼ģ&":3854,"åľ¨äºİ":3855,"å¤ªèĸĦ":3856,"ä¸Ĭæľī":3857,"è´¨éĩıå¾Īå·®":3858,"çī©è¶ħæīĢåĢ¼":3859,"æĬ¹":3860,"ä¹°çļĦæĺ¯":3861,"åī©":3862,"æĸ¹åĲĳ":3863,"æĶ¶åĪ°åĲİ":3864,"æ³ķå¾ĭ":3865,"å®Įå¥½":3866,"èĥĥ":3867,"ç»Ĩèĥŀ":3868,"æŃ¤ä¹¦":3869,"åıįæĺł":3870,"èĲ¨":3871,"è¿ŀä¸ª":3872,"çĭĤ":3873,"è®¤çľŁ":3874,"æ·±åħ¥":3875,"åĶ®åĲİæľįåĬ¡":3876,"æ°ĳæĹı":3877,"çĮ®":3878,"æĦ¿æĦı":3879,"ç¹ģ":3880,"å¤ĸè¯ŃæķĻç§ĳä¹¦":3881,"éĵľçīĪå¤ĸè¯ŃæķĻç§ĳä¹¦":3882,"28":3883,"hh":3884,"ĠæľįåĬ¡":3885,"ĠæĿ¯åŃĲ":3886,"çļĦæľįåĬ¡":3887,"æĺ¯æľĢ":3888,"å¸ħ":3889,"åıĳå¾Īå¥½":3890,"è£ģ":3891,"æ³¥":3892,"è¾ħ":3893,"è¾ŀ":3894,"æľĢå¥½":3895,"å¹´ä»£":3896,"ä¸Ģæ¬¡å°±":3897,"çī©æµģæħ¢":3898,"è¶ħè¿ĩ":3899,"ç¾İçļĦ":3900,"çŃīçŃī":3901,"ä¹Łä¸įä¼ļ":3902,"éľĩ":3903,"è¯ķçĶ¨":3904,"æł¹æľ¬æ²¡æľī":3905,"æıĲéĨĴ":3906,"åħ¥éĹ¨":3907,"Ġå¾Īå¥½çĶ¨":3908,"æłĩçŃ¾":3909,"Ġå¤ªå°ıäºĨ":3910,"éĩĳå±ŀ":3911,"èµ°äºĨ":3912,"è¿ĺä¸įç»Ļ":3913,"æĶ¹è¿Ľ":3914,"éĢıæĺİ":3915,"çŃĶæ¡Ī":3916,"çļĦè¦ģæŃ»":3917,"å¥½å¤§çļĦä¸Ģæľ¬":3918,"æĪĳä¹Łæĺ¯éĨīäºĨ":3919,"åĻªéŁ³":3920,";ãĢģ":3921,"Ġç¬¬äºĮæ¬¡":3922,"çļĦåİĨåı²":3923,"å¥½åĩł":3924,"å¥½èĸĦ":3925,"è´¨éĩıä¹Łå¾Īå¥½":3926,"è£¹":3927,"è¿ĩæľŁ":3928,"æĦŁåĪ°":3929,"æĥ³è¯´":3930,"å¼Ģåıĳç¥¨":3931,"èĢĮè¨Ģ":3932,"æĽ¿":3933,"åºĹä¸»":3934,"åºĹéĵº":3935,"ä¿¡ä»»":3936,"æł¹æį®":3937,"è¡¨è¾¾":3938,"å¡Ķ":3939,"åĽĽä¸ª":3940,"åľ¨äº¬ä¸ľä¹°":3941,"åı¤åħ¸":3942,"åı¤ä»£":3943,"æĹ¢çĦ¶":3944,"ãĢģãĢģãĢģãĢģ":3945,"è¢ĸåŃĲ":3946,"çļĦäºĭæĥħ":3947,"æ¬ºéªĹæ¶Īè´¹èĢħ":3948,"æļĤæĹ¶":3949,"å¥½å¥½å¥½å¥½å¥½å¥½å¥½åıĳå¾Īå¥½":3950,"ä¸Ģå¦Ĥ":3951,"å°±èĥ½":3952,"åĬĿ":3953,"åĩ¡":3954,"è´¨éĩıè¿ĺåı¯ä»¥":3955,"éĿ¢æľī":3956,"ä¼ļä¸įä¼ļ":3957,"èĢĮå·²":3958,"æīĭå¥Ĺ":3959,"æľĢéĩįè¦ģ":3960,"éĻ·":3961,"Ġè´¨éĩıå·®":3962,"ãĢĭãĢĬ":3963,"èĢħçļĦ":3964,"èĥİ":3965,"çĽ¸ç¬¦":3966,"ç²¾å½©":3967,"ä¸ĢçĤ¹çĤ¹":3968,"åĬłçĥŃ":3969,"èĬ±éĴ±":3970,"Ġè¿Ļæ¬¾":3971,"ä¸ĵå®¶":3972,"åĩĨç¡®":3973,"å®Įåħ¨ä¸įä¸Ģæł·":3974,"è¿Ļä¸ªä»·ä½į":3975,"å©ļ":3976,"å¯¼èĩ´":3977,"ä¸įåĴĭåľ°":3978,"éĿ©åĳ½":3979,"èļĬ":3980,"å¥½å¥½å¥½å¥½å¥½å¥½å¥½åıĳå¾Īå¥½å¥½å¥½å¥½å¥½å¥½å¥½å¥½åıĳå¾Īå¥½":3981,"èŃ":3982,"ä¸įå®¹æĺĵ":3983,"å¥ĭ":3984,"å°ĸ":3985,"çĶ¨ä¸įäºĨ":3986,"æĹĭ":3987,"éĥ½åľ¨":3988,"å¤ªå¤ļäºĨ":3989,"è´¨éĩıå¤ªå·®äºĨ":3990,"å¼Ģèĥ¶":3991,"ä¸Ģä¸ªåŃĹ":3992,"è¡Įä¸º":3993,"æĻĥ":3994,"è¶ħæħ¢":3995,"åı·çłģ":3996,"Ġå¾Īä¸įéĶĻçļĦ":3997,"æĤī":3998,"è¯ķäºĨ":3999,"å¸ĮæľĽèĥ½":4000,"æĺĵæĩĤ":4001,"éĤ®å¯Ħ":4002,"åŁİå¸Ĥ":4003,"ï½ŀï½ŀï½ŀï½ŀ":4004,"åŀĥåľ¾åŀĥåľ¾åŀĥåľ¾åŀĥåľ¾":4005,"æ¦Ĥå¿µ":4006,"æİĮæı¡":4007,"åħ¨å½©éĵľçīĪå¤ĸè¯ŃæķĻç§ĳä¹¦":4008,"åĭīå¼º":4009,"90":4010,"bu":4011,"å³":4012,"ä¸ģ":4013,"çļĦè¡£æľį":4014,"ä¸įåĨį":4015,"ä»Ļ":4016,"ä¸Ģåıª":4017,"ä¸ĢæŃ¥":4018,"å¾Īå®¹æĺĵ":4019,"å¾Īå®ŀæĥł":4020,"æĪĴ":4021,"å¤§åĪ©":4022,"ä¸ĬåįĪ":4023,"æĮ¡":4024,"åģ·":4025,"å¸¸è¯Ĩ":4026,"å¯¹æ¯Ķ":4027,"æľĢç»Ī":4028,"åĨħè¡£":4029,"éªĤ":4030,"éķ¿æĹ¶éĹ´":4031,"åŃĹæķ°":4032,"äºĨä¸Ģå¤©":4033,"ä¾¿å®ľæ²¡å¥½è´§":4034,"æł¹æľ¬ä¸į":4035,"ä¸ĢçĽ´åľ¨":4036,"ä¸ĵæŁľ":4037,"æŀģäºĨ":4038,"åĭĩ":4039,"æīĭæĦŁä¸įéĶĻ":4040,"åĲ¯åıĳ":4041,"è·Ŀç¦»":4042,"----":4043,"èģĮä¸ļ":4044,"and":4045,"çıłåŃĲ":4046,"æĲºå¸¦":4047,"23":4048,"ĠåĽ¾çīĩ":4049,"çļĦæķħäºĭ":4050,"çļĦä½ľåĵģ":4051,"ä¸įå½±åĵį":4052,"å¥Ī":4053,"å¥ī":4054,"ä¸Ģå¤§":4055,"ä¸ĢåįĬ":4056,"å¾Īæħ¢":4057,"æ²Ĵ":4058,"è´§åĪ°":4059,"ä¼Ł":4060,"è´¨éĩıä¹Łä¸įéĶĻ":4061,"è¦ģä¸įæĺ¯":4062,"èī³":4063,"æ³Ľ":4064,"å¿ĥçģµ":4065,"å¼ĢçļĦ":4066,"æ´Ľ":4067,"å¿«éĢĴä¹Ł":4068,"åħ¨çĲĥ":4069,"æľįåĬ¡å¥½":4070,"çŃīå¾ħ":4071,"è·ŁæĪĳ":4072,"åįģå¤ļ":4073,"ç»ĵåĲĪ":4074,"æĤ¦":4075,"å¥Ĺè£ħ":4076,"Ġä¸įæĢİä¹Ī":4077,"Ġè¿Ļæ¬¡":4078,"èħĶ":4079,"æįŁåĿı":4080,"åłª":4081,"æĹ¢å¾Ģ":4082,"!!!!":4083,"ç»Ħç»ĩ":4084,"å¢ŀåĬł":4085,"å°±æĽ´å¥½äºĨ":4086,"ä¸įå¹³":4087,"ä¸įæİ¨èįĲ":4088,"ä¸Ģåĳ¨":4089,"æĪĳå¾Īæ»¡æĦı":4090,"è¿ĻçĤ¹":4091,"è¿Ļå°±æĺ¯":4092,"è¯´å¥½":4093,"å°±æĺ¯å¿«éĢĴ":4094,"æĭĽ":4095,"æ»ļ":4096,"ç§Ĵ":4097,"ä»Ģä¹ĪçļĦ":4098,"åĽŀæĿ¥çļĦ":4099,"çī©æµģå¿«":4100,"åįķä½į":4101,"é«ĺçļĦ":4102,"åıĳè´§å¾Īå¿«":4103,"æ¼Ĥäº®çļĦ":4104,"åıĺåĮĸ":4105,"åºķéĥ¨":4106,"éĢģè´§å¿«":4107,"èµŀèµŀ":4108,"è½¯ä»¶":4109,"æĭįçļĦ":4110,"çĵ¶åŃĲ":4111,"éĺ²æ°´":4112,"åĩĳåįķ":4113,"ä¼¼ä¹İ":4114,"é¡ºä¸°":4115,"åĪºé¼»":4116,"åĽºå®ļ":4117,"ç¨³å®ļ":4118,"ĠèĢģ":4119,"Ġå¥½çľĭ":4120,"çļĦæľĭåıĭ":4121,"ä¸Ģé¢ĹæĺŁ":4122,"æľīå¾Īå¤ļ":4123,"è¿ĺéĢģäºĨ":4124,"æĿĳ":4125,"å°±ä¸įèĥ½":4126,"æī§":4127,"ä¼¦":4128,"ä¼Ĭ":4129,"å®¶åºŃ":4130,"çĽĳ":4131,"æĦıè¯Ĩ":4132,"æĦıå¤§åĪ©":4133,"èĪį":4134,"è¥¿æĸ¹":4135,"æ³³":4136,"ä¼ļæľī":4137,"éģĵçĲĨ":4138,"éģĵè·¯":4139,"ï¼ģï¼ģï¼ģï¼ģï¼ģï¼ģ":4140,"åıªå¥½":4141,"æľĢå¤§":4142,"ä½ĵçİ°":4143,"çīĪåŀĭ":4144,"ä¹Łä¸įçŁ¥éģĵ":4145,"è¢«åŃĲ":4146,"~~~":4147,"çĻ½èī²çļĦ":4148,"åºĶè¯¥æĺ¯æŃ£åĵģ":4149,"èģĶç³»ä¸įä¸Ĭ":4150,"åİļçļĦ":4151,"ä»ĸä»¬çļĦ":4152,"æ¢°":4153,"èĩ³ä»Ĭ":4154,"ç§ĳæĬĢ":4155,"æ£Ĵæ£Ĵ":4156,"å¾Ģå¾Ģ":4157,"æĹ©ä¸Ĭ":4158,"ç£¨æįŁ":4159,"é¸£":4160,"çªĹ":4161,"ç¦»å¼Ģ":4162,"çº¯æ£īçļĦ":4163,"çĶ³è¯·éĢĢè´§":4164,"è¿½æ±Ĥ":4165,"éĿłè°±":4166,"çº¸å¼łåĴĮ":4167,"Ġç©¿":4168,"Ġä½¿çĶ¨":4169,"Ġç©¿çĿĢ":4170,"ĠæĶ¶åĪ°äºĨ":4171,"ä¹³":4172,"å®ģ":4173,"å¾Īä¸įæ»¡æĦı":4174,"çĶ°":4175,"ç»µ":4176,"æī¯":4177,"æĪĳåĴĮ":4178,"æĸĳ":4179,"ä¹Łå¤ª":4180,"èĢ½":4181,"ä¸Ĭæ¬¡":4182,"è¦ģæĪĳ":4183,"æķ¬":4184,"å¹»":4185,"é¢ĸ":4186,"å½¼":4187,"è¾£":4188,"ä»ĸè¯´":4189,"çİ°è±¡":4190,"æīįåıĳçİ°":4191,"ãĢĤãĢĤãĢĤãĢĤãĢĤãĢĤãĢĤ":4192,"æĽ¼":4193,"åĨħéĥ¨":4194,"Ġè´¨éĩıå¤ªå·®äºĨ":4195,"ç¨ĭåºı":4196,"æŀģåħ¶":4197,"æĮĩå¯¼":4198,"å»ºè®®å¤§å®¶":4199,"ç¤¼åĵģ":4200,"å°ıäºĨçĤ¹":4201,"æĹ§ä¹¦":4202,"æ¸©åº¦":4203,"åŁºæľ¬ä¸Ĭ":4204,"èµĦæĸĻ":4205,"çĮ«":4206,"ä¸įåĲĮçļĦ":4207,"åįĥä¸ĩåĪ«":4208,"çĬ¶æĢģ":4209,"Ġä¸ĢçĤ¹éĥ½ä¸įå¥½":4210,"æ¯«æĹł":4211,"æŀķå¤´":4212,"33333333333333333333333333333333333333333333333333333333333333333333333333333333333333333333333333333333333333333333333333333333":4213,"ĠåķĨå®¶":4214,"Ġç©¿äºĨ":4215,"çļĦä¸Ģä¸ª":4216,"çļĦåķĨåĵģ":4217,"ä¸įç®Ĺ":4218,"å®ĭ":4219,"ä¸ĢåĿĹ":4220,"å¾Īæĺ¯":4221,"æīŃ":4222,"æĿ¥çľĭ":4223,"åľ¨çº¿":4224,"å¤ªè´µ":4225,"ä¸ĬéĿ¢çļĦ":4226,"è¡¬":4227,"åıĳè¡¨":4228,"åĲİçļĦ":4229,"å°ıåŃ©åŃĲ":4230,"å°ıå·§":4231,"æ²¡æľīåĽ¾çīĩ":4232,"è¿ĩå¹´":4233,"è¿ĩæķı":4234,"å°±æĺ¯ä¸ª":4235,"èĩªèº«":4236,"åĮħè£ħçļĦ":4237,"åĮħè£ħå¾Īå¥½":4238,"è·µ":4239,"ç½©":4240,"èĤļ":4241,"æĮºå¥½çľĭçļĦ":4242,"äºĨä¸Ģæ®µæĹ¶éĹ´":4243,"è¿Ľåħ¥":4244,"çĸĹ":4245,"ç£ģ":4246,"æĭįæĳĦ":4247,"åĬŀåħ¬":4248,"äº²ä»¬":4249,"éĴ¢åĮĸ":4250,"å¯Ĩå°ģ":4251,"ãĢĤãĢĤãĢĤãĢĤãĢĤãĢĤãĢĤãĢĤãĢĤãĢĤãĢĤãĢĤãĢĤãĢĤãĢĤãĢĤãĢĤãĢĤãĢĤãĢĤãĢĤãĢĤãĢĤãĢĤãĢĤãĢĤãĢĤãĢĤãĢĤãĢĤãĢĤãĢĤ":4252,"åĿļæĮģ":4253,"å¥½å¤§çļĦä¸Ģæľ¬åħ¨å½©éĵľçīĪå¤ĸè¯ŃæķĻç§ĳä¹¦":4254,"ä¸²":4255,"çļĦè¯Ħä»·":4256,"çļĦçłĶç©¶":4257,"æľīæķĪ":4258,"åħļ":4259,"åĪ°å®¶":4260,"è´§å¸ģ":4261,"ä¼Ļ":4262,"ä¹¦æľ¬":4263,"æ²¡æľīæĶ¶åĪ°":4264,"å®ŀçİ°":4265,"æĭ³":4266,"æĥ³çļĦ":4267,"èĩªæĪĳ":4268,"çĦ¦":4269,"åĽ½éĻħ":4270,"éĴ±åĮħ":4271,"èĩªå·±åİ»":4272,"æ°ĶæŃ»":4273,"ç¥Ŀ":4274,"åįĸå®¶æĢģåº¦":4275,"èĸĦçļĦ":4276,"æģ©":4277,"å¸¦ä¸Ĭ":4278,"æĽ´æĺ¯":4279,"åĢ¼å¾Ĺæĭ¥æľī":4280,"èį£":4281,"éļ¾ä»¥":4282,"èĢĥçłĶ":4283,"æĢĿèĢĥ":4284,"éĢīçļĦ":4285,"æ¯ıä¸Ģä¸ª":4286,"æİ¨èįĲçļĦ":4287,"çĵ¦":4288,"æ¢ħ":4289,"èĩ³äºİ":4290,"èĥ¶æ°´":4291,"ä¸Ĭå½ĵåıĹ":4292,"æĹ©å°±":4293,"éĿ¢çļĦåŃĹ":4294,"æŃ£çīĪçļĦ":4295,"æĢ§ä»·æ¯Ķå¾Īé«ĺ":4296,"æģ¶åĬ£":4297,"è£ĤäºĨ":4298,"æľīçĤ¹å°ıè´µ":4299,"ä¸¢äºĨ":4300,"æĳ¸çĿĢ":4301,"åŁ¹è®Ń":4302,"æ¼«çĶ»":4303,"æīĵèĦļæīĵèĦļ":4304,"27":4305,"ho":4306,"âĢ":4307,"çµ":4308,"Ġå®¢æľį":4309,"çļĦå¿«éĢĴ":4310,"ä¸įéĶĪéĴ¢":4311,"åıĻ":4312,"å¾Īéĩį":4313,"å¾ĪåĪĴç®Ĺ":4314,"å°±å¥½":4315,"å¿ł":4316,"åºĨ":4317,"éĥ½éĢı":4318,"åĳ¼":4319,"ç»ĻåŃ©åŃĲ":4320,"ä»·ä½į":4321,"è¾¨":4322,"å¼Ģæľº":4323,"ç²Ĵ":4324,"åħ¨ä¹¦":4325,"åĨįè¯´":4326,"ç½Ĳ":4327,"æĢİä¹Īèĥ½":4328,"æ±½":4329,"è¯Ŀè¯´":4330,"åıĪä¸į":4331,"èĥĸ":4332,"æķĻæİĪ":4333,"è¢«éªĹäºĨ":4334,"æĽ´æį¢":4335,"ä¸ĢçĤ¹éĥ½ä¸įå¥½":4336,"çº¿äºĨ":4337,"ä¸»é¢ĺ":4338,"ä¿Ŀéļľ":4339,"è¿Ļä¹Īä¹ħ":4340,"ç´«":4341,"è¿ĺæ²¡ç©¿":4342,"å¢Ļ":4343,"åħĥçļĦ":4344,"Ġçī©æµģå¾Īå¿«":4345,"èĭ±åĽ½":4346,"éļıçĿĢ":4347,"ç¼ºçĤ¹":4348,"åı«æĪĳ":4349,"è¯¾ç¨ĭ":4350,"åį³ä½¿":4351,"åĵ¥åĵ¥":4352,"æĹħè¡Į":4353,"ĠæĮºä¸įéĶĻçļĦ":4354,"ç¡®è®¤æĶ¶è´§":4355,"ä¸įå»ºè®®è´Ńä¹°":4356,"en":4357,"lo":4358,"vv":4359,"®çļĦ":4360,"ĠæľĢ":4361,"Ġä¸İ":4362,"ï¼Į\\":4363,"ï¼ĮãĢĤ":4364,"æľµ":4365,"ä¸įä¸ĭ":4366,"ä¹¡":4367,"ä¸ĢçĻ¾":4368,"éĢ¼":4369,"ä¸ªåŃĹ":4370,"åį¤":4371,"æĹģ":4372,"å¤§æ¦Ĥ":4373,"å¤ªè´µäºĨ":4374,"ä¼ŀ":4375,"æĮ¤":4376,"æ¯ĶæĪĳ":4377,"åĿ¦":4378,"ä¸ĢèĪ¬åĲ§":4379,"æĹłèī¯":4380,"åģļåĩº":4381,"åľ°åĽ¾":4382,"éĻĭ":4383,"äºĭæĥħ":4384,"è¯·éĹ®":4385,"éĽª":4386,"ä¿ĿæĮģ":4387,"å§Ķ":4388,"......":4389,"åİŁæľ¬":4390,"åİŁè£ħ":4391,"æł¹æľ¬ä¸įæĺ¯":4392,"æĭ¿åĩºæĿ¥":4393,"ï¼Ľ\\":4394,"ä¸ŃåĽ½åİĨåı²":4395,"åıĮåįģä¸Ģ":4396,"æ¢Ń":4397,"åĩºæĿ¥äºĨ":4398,"ç£¨èĦļ":4399,"å£«å°¼":4400,"å¨ĺ":4401,"æ¡Īä¾ĭ":4402,"ing":4403,"é²ģè¿ħ":4404,"è¿ªå£«å°¼":4405,"è¤ª":4406,"CE":4407,"hi":4408,"it":4409,"éĦ":4410,"ĠæŃ£åĵģ":4411,"ĠèĻ½çĦ¶":4412,"çļĦåĲĹ":4413,"æľ±":4414,"æĺ¯æľī":4415,"æĺ¯åģĩçļĦ":4416,"å°¿":4417,"å¾Īå°ĳ":4418,"å¾Īè½¯":4419,"æ²¾":4420,"æ²¡çľĭ":4421,"åį±":4422,"æĦ¤":4423,"ä¸įéĶĻåĵ¦":4424,"åĴ¬":4425,"æĮ¥":4426,"åģ¿":4427,"åĩºèĥĮ":4428,"ä¸Ģä¸ªäºº":4429,"æ´Ĵ":4430,"å¹´æĿ¥":4431,"è¿ĺæĺ¯æľī":4432,"åĽŀçŃĶ":4433,"ç«¿":4434,"æ±Ĺ":4435,"éļĲ":4436,"é«ĺäºĨ":4437,"èĤł":4438,"ç¥ĸ":4439,"æľĪä»½":4440,"å£ģ":4441,"ä¿¡èªī":4442,"æľŁéĹ´":4443,"æģĲ":4444,"ä¸įçŁ¥éģĵæĢİä¹Ī":4445,"æıĲåīį":4446,"æĺ¾å¾Ĺ":4447,"æī¾ä¸įåĪ°":4448,"éĩĮéĿ¢æľī":4449,"å®ĥçļĦ":4450,"ç¨ĭåº¦":4451,"Ġå¾Īå¥½çļĦ":4452,"èĳ¡":4453,"è¯»ä¹¦åı¯ä»¥":4454,"æĶ¯ä»ĺ":4455,"åĤ»":4456,"æĮīéĶ®":4457,"éĤ®æĶ¿":4458,"çĶŁæ´»çļĦ":4459,"èĭ±æĸĩ":4460,"çŃĶåºĶ":4461,"çĪ¸çĪ¸":4462,"æĿĲæĸĻåħ¬è·¯":4463,"ä¹ĭåīįä¹°çļĦæĿĲæĸĻåħ¬è·¯":4464,"éģ¥æİ§":4465,"å¥½èĸĦåķĬ":4466,"ä¸Ģå¦ĤæĹ¢å¾Ģ":4467,"çº¸å¼łåĴĮä¹ĭåīįä¹°çļĦæĿĲæĸĻåħ¬è·¯":4468,"éĥ½éĢıåĩºèĥĮ":4469,"çº¸å¼łåĴĮä¹ĭåīįä¹°çļĦæĿĲæĸĻåħ¬è·¯ä¸įä¸Ģæł·":4470,"éĥ½éĢıåĩºèĥĮéĿ¢çļĦåŃĹ":4471,"300":4472,"ad":4473,"è³":4474,"Ġæķ´ä½ĵ":4475,"ĠéŁ³è´¨":4476,"ï¼ĮãĢĬ":4477,"å¥½åĲĥ":4478,"æľīåħ³":4479,"æĿľ":4480,"å°±è¦ģ":4481,"è¿Ļä¸įæĺ¯":4482,"éĶĭ":4483,"çĶ¨æĪ·":4484,"åĵŃ":4485,"å·®å¼Ĥ":4486,"è£ĻåŃĲ":4487,"éĹ¹":4488,"å¼Ģåıĳ":4489,"ä»ĸå®¶":4490,"çĶµåķĨ":4491,"æĹłå¥Ī":4492,"ä¸īåįģ":4493,"æĢ§èĥ½":4494,"æİ¥åı£":4495,"å¼ıçļĦ":4496,"æģ¨":4497,"æģĭ":4498,"æĽ´åĬł":4499,"çļ®çļĦ":4500,"çĹĺ":4501,"èĲĦ":4502,"çļĦæĹ¶åĢĻä¹°çļĦ":4503,"å¦ĪçļĦ":4504,"å¯ĦæĿ¥":4505,"ä¼ĺç§Ģ":4506,"åĴĮåĽ¾çīĩä¸Ģæł·":4507,"çĭ¬çī¹":4508,"çĳŀ":4509,"èľľ":4510,"çŃ¾æĶ¶äºĨ":4511,"AAAA":4512,"ç³Łç³ķ":4513,"ç¬Ķè®°æľ¬":4514,"èĢ½è¯¯":4515,"éĦĻ":4516,"NI":4517,"Ġåľ¨":4518,"Ġåĸľæ¬¢":4519,"ä¸¹":4520,"çļĦæľĢ":4521,"å®ı":4522,"å¥½ä¸ľè¥¿":4523,"å¾Īç¡¬":4524,"åħĦ":4525,"æ²«":4526,"æĿł":4527,"å°±è¿Ļ":4528,"å°±æĸŃäºĨ":4529,"æĪĳåıª":4530,"åĪ°å¤Ħ":4531,"å¼¯":4532,"å¼±":4533,"è´¨éĩıè¿ĺè¡Į":4534,"æ²¡æľīåıĳç¥¨":4535,"åĴĮæĪĳ":4536,"çº¤":4537,"ï¼Łï¼ģ":4538,"éĴĵ":4539,"ç¬¬ä¸Ģä¸ª":4540,"æĦŁè§īè¿ĺä¸įéĶĻ":4541,"åľ°åĮº":4542,"æ³ķåĽ½":4543,"Ġè´¨éĩıå¾Īå·®":4544,"éĩįçĤ¹":4545,"éª¨":4546,"åįģäºĮ":4547,"æģ°":4548,"ä¸ĢçĤ¹ä¹Łä¸į":4549,"ä»¥åĲİä¸įä¼ļ":4550,"æ¯Ľå·¾":4551,"ä¸ĵéĹ¨":4552,"åħħåĪĨ":4553,"åŀĭçļĦ":4554,"çĽ®çļĦ":4555,"è§Ĩé¢ĳ":4556,"æīĵå¼Ģä¸Ģçľĭ":4557,"æľįåĬ¡æĢģåº¦å¥½":4558,"å°±ä¸įè¯´äºĨ":4559,"æīĭæĦŁå¾Īå¥½":4560,"æ¹¾":4561,"å¡ĳæĸĻè¢ĭ":4562,"Ġè¯´å¥½çļĦ":4563,"åŁ¹åħ»":4564,"çªģçĦ¶":4565,"åħ³éĶ®æĺ¯":4566,"ç»¼åĲĪ":4567,"ç°":4568,"Ġå°ºçłģ":4569,"çļĦæĥħ":4570,"çļĦç¡®":4571,"ä¸įåĩĨ":4572,"äºĨä¸¤":4573,"å®ĩ":4574,"æľīçĶ¨":4575,"æī¬":4576,"å¿§":4577,"åľ¨è¿ĻéĩĮ":4578,"ä¸Ĭèº«":4579,"è´¨éĩıéĿŀå¸¸å¥½":4580,"è¦Ĩ":4581,"å°ıæľĭåıĭ":4582,"æĦıè§ģ":4583,"åĢį":4584,"ä¸Ńæĸĩ":4585,"æĭ§":4586,"æ°ı":4587,"æĶ¶äºĨ":4588,"çľŁçĽ¸":4589,"æĥ³æĥ³":4590,"éĴī":4591,"è¡ĮäºĨ":4592,"çłĤ":4593,"éĹ®äºĨ":4594,"æīĵä¸į":4595,"èĬ¬":4596,"Ġè´¨éĩıè¿ĺåı¯ä»¥":4597,"éĩįéĩı":4598,"é¢ľèī²ä¹Ł":4599,"èĢĮä¸Ķè¿ĺ":4600,"éĽ¾":4601,"éĢŁåº¦æħ¢":4602,"åŃ©åŃĲå¾Īåĸľæ¬¢":4603,"Ġå¾Īæ»¡æĦı":4604,"æ´Ĺå®Į":4605,"ç¡®å®ļ":4606,"äºĶåĪĨ":4607,"å¸®æĪĳ":4608,"åį°è±¡":4609,"éľĢæ±Ĥ":4610,"ä¸¥å®ŀ":4611,"è½»æĿ¾":4612,"å¯Ħè¿ĩæĿ¥":4613,"æĴĳ":4614,"ç¼ĸè¾ĳ":4615,"å¨ĥ":4616,"è¦ģæ±ĤéĢĢè´§":4617,"åĲ¦åĪĻ":4618,"çĶŁäº§æĹ¥æľŁ":4619,"å¿ĺè®°":4620,"éĿŀå¸¸çļĦæ£Ĵ":4621,"èŃ¦":4622,"è¤ªèī²":4623,"èĳ¡èĲĦ":4624,"éĦĻè§Ĩ":4625,"37":4626,"gt":4627,"ĠåĮħ":4628,"ä¸Ģå¹´":4629,"ä¸Ģæ®µæĹ¶éĹ´":4630,"å¥½åĩłå¤©":4631,"æīĩ":4632,"æ²¡åķ¥":4633,"ä¸ªå°ıæĹ¶":4634,"å·®çĤ¹":4635,"çĤ¼":4636,"ç»Ļå¥½è¯Ħ":4637,"ç»Ļå®Ŀå®Ŀ":4638,"å¾ĹäºĨ":4639,"çº·":4640,"éĿ¢å¯¹":4641,"æĥ³è¦ģ":4642,"æ»¡åĪĨ":4643,"æ»¡è¶³":4644,"ä¸įæĺ¯ä¸ĢèĪ¬çļĦ":4645,"å¯¹ä¸įèµ·":4646,"åīĤ":4647,"åīĳ":4648,"å±ĭ":4649,"çĥ¤":4650,"ç«¹":4651,"åĨħåŃĺ":4652,"æĪĲçļĦ":4653,"æľºæ¢°":4654,"éļĨ":4655,"ï¼īãĢĤ":4656,"æ¶µ":4657,"æ¸ħæ´Ĺ":4658,"åģļå·¥å¾Ī":4659,"éļ¾éĹ»":4660,"è¯ķç©¿":4661,"æĭ¿æĿ¥":4662,"è¿Ļä¹Īè´µ":4663,"çĪ±å¥½":4664,"çĹĴ":4665,"è§ĤçĤ¹":4666,"Ġè¿Ļæĺ¯":4667,"è§ģåĪ°":4668,"åºĶè¯¥ä¸įéĶĻ":4669,"åħ¥æīĭ":4670,"å½¢è±¡":4671,"èµ°è·¯":4672,"Ġä¸ĢèĪ¬åĲ§":4673,"è¶ħçº§æħ¢":4674,"åĪĽæĸ°":4675,"è§ĦèĮĥ":4676,"ç¤¾ä¼ļçļĦ":4677,"ç§¯æŀģ":4678,"æī¿è¯º":4679,"èĮĥåĽ´":4680,"æĲŃçĲĨ":4681,"åıĳéĶĻè´§":4682,"é½Ĳåħ¨":4683,"çĽĹçīĪçļĦ":4684,"çŀ¬":4685,"é¥®åĨ°":4686,"RRRR":4687,"//":4688,"66":4689,"cm":4690,"Ġå®Įåħ¨":4691,"ĠéĢģçļĦ":4692,"å¤®":4693,"åı¹":4694,"ä¸Ģå¼Ģå§ĭ":4695,"å¥½å°ı":4696,"å¾ĪåĲĪèº«":4697,"éĢĲ":4698,"åħ¼":4699,"å°±ä¸Ģä¸ª":4700,"éĥ½å¥½":4701,"åĩ¹":4702,"æ¯ģ":4703,"å¯Ĵ":4704,"è£ħé¥°":4705,"å®ŀè·µ":4706,"æĶ¶å½ķ":4707,"éĿ¢åīį":4708,"å¼Ģåħ³":4709,"çĶŁåŃĺ":4710,"æľīçĤ¹å¤±æľĽ":4711,"éŀĭåŀ«":4712,"èĢģäºº":4713,"äºĭä»¶":4714,"åĬ¨çļĦ":4715,"åıĪæĺ¯":4716,"ç¾İæľ¯":4717,"æ¯Ķè¾ĥæ»¡æĦı":4718,"ç¨¿":4719,"æķĪçİĩ":4720,"çģŃ":4721,"ç¼ĵ":4722,"éķ¿çļĦ":4723,"å¸¦çļĦ":4724,"æĽ´å¤ļ":4725,"é©±":4726,"è°ĥèĬĤ":4727,"åĤ³":4728,"è¿Ļæ¬¡è´Ńçī©":4729,"åĪ«äººä¹°çļĦ":4730,"æĩĴå¾Ĺæį¢äºĨ":4731,"åįĥä¸ĩä¸įè¦ģä¹°":4732,"ĠçĶ¨çĿĢ":4733,"äººçĶŁçļĦ":4734,"æĳ¸èµ·æĿ¥":4735,"Ġå¸®æľĭåıĭä¹°çļĦ":4736,"åĲĮäºĭä¹°çļĦ":4737,"æĸ½å·¥":4738,"è¯·æ³¨æĦıåķĨåĵģåĮħè£ħè¯·æ³¨æĦıåķĨåĵģåĮħè£ħè¯·æ³¨æĦıåķĨåĵģåĮħè£ħè¯·æ³¨æĦıåķĨåĵģåĮħè£ħè¯·æ³¨æĦıåķĨåĵģåĮħè£ħè¯·æ³¨æĦıåķĨåĵģåĮħè£ħè¯·æ³¨æĦıåķĨåĵģåĮħè£ħè¯·æ³¨æĦıåķĨåĵģåĮħè£ħè¯·æ³¨æĦıåķĨåĵģåĮħè£ħè¯·æ³¨æĦıåķĨåĵģåĮħè£ħè¯·æ³¨æĦıåķĨåĵģåĮħè£ħè¯·æ³¨æĦıåķĨåĵģåĮħè£ħè¯·æ³¨æĦıåķĨåĵģåĮħè£ħè¯·æ³¨æĦıåķĨåĵģåĮħè£ħè¯·æ³¨æĦıåķĨåĵģåĮħè£ħè¯·æ³¨æĦıåķĨåĵģåĮħè£ħ":4739,"ä¼ĳéĹ²":4740,"æĨ¾":4741,"ou":4742,"Ġè¿ĺæĺ¯":4743,"ä¸įä¹°":4744,"ä¹ı":4745,"å¾ª":4746,"æĺ¯åģĩè´§":4747,"è´¯":4748,"å°¾":4749,"åĪĺ":4750,"æľīéľĢè¦ģ":4751,"éĢĻ":4752,"æĿ¨":4753,"å°±åľ¨":4754,"å¸Ĳ":4755,"å¸Ń":4756,"åĩŃ":4757,"è¯´æĪĳ":4758,"åİĺ":4759,"åĲİéĿ¢çļĦ":4760,"å¹¼":4761,"èĪ¹":4762,"åĴĮçħ§çīĩ":4763,"æĭĶ":4764,"çľŁåģĩ":4765,"æ¯Ķå®ŀä½ĵåºĹ":4766,"ç©¿ä¸įäºĨ":4767,"çĶµäºĨ":4768,"æŃ£æĺ¯":4769,"æŃ£åĲĪéĢĤ":4770,"ï¼ģï¼ģï¼ģï¼ģï¼ģï¼ģï¼ģ":4771,"æľĢå¤ļ":4772,"æīĵæĬĺ":4773,"åĬĽçļĦ":4774,"éĺĲ":4775,"æİīæ¼Ĩ":4776,"æģ¼":4777,"è¿Ļæł·äºĨ":4778,"éĥ½ä¸įä¸Ģæł·":4779,"çľŁçļĦå¾Ī":4780,"å¸ĮæľĽäº¬ä¸ľ":4781,"åįĬå¹´":4782,"çļĦä¸Ģæ¬¾":4783,"ä½łä»¬çļĦ":4784,"Ġå¤ªèĸĦäºĨ":4785,"æ¶Īæģ¯":4786,"è¶ħçº§NI":4787,"ç¬¦åĲĪ":4788,"æĪĺäºī":4789,"ä¹°ä¸ľè¥¿äºĨ":4790,"å¤±è´¥çļĦä¸Ģæ¬¡è´Ńçī©":4791,"åĪºæ¿Ģ":4792,"ä¾ĿçĦ¶":4793,"éģĹæĨ¾":4794,"åĨĻå¾Ĺå¾Īå¥½":4795,"éĿŀå¸¸çļĦæ£Ĵè¶ħçº§NI":4796,"éĿŀå¸¸çļĦæ£Ĵè¶ħçº§NICE":4797,"dd":4798,"le":4799,"li":4800,"Ġåıĳ":4801,"Ġä»İ":4802,"Ġä»Ĭå¤©":4803,"ãĢĮ":4804,"ä¸įæ»¡":4805,"æĺ¯æĢİä¹Ī":4806,"å®Ī":4807,"å¥½ä¸įå¥½":4808,"åĲ´":4809,"æľīæĹ¶":4810,"æĪĳåİ»":4811,"æ²¡è´§":4812,"æ²¡å¾Ĺ":4813,"å¸§":4814,"åŃĲåĳ¢":4815,"å¤ªè¿ľ":4816,"è¡¡":4817,"æľįäºĨ":4818,"åĲİæīį":4819,"åĮħè£¹":4820,"ä¸ĭè·":4821,"æĥ³è¦ģçļĦ":4822,"æĮºå¿«":4823,"è¿Ļä¸ªéĴ±":4824,"ä»Ģä¹ĪæĹ¶åĢĻ":4825,"ä¹ĭä½ľ":4826,"ä¹ĭå¤Ħ":4827,"éĢĢåĽŀ":4828,"æľĢå¤§çļĦ":4829,"èĦī":4830,"ä¸¤æĿ¡":4831,"é«ĺåº¦":4832,"äº§ä¸ļ":4833,"ä¹Łä¸įèĥ½":4834,"ç¨İ":4835,"åºĶçĶ¨":4836,"ä»İèĢĮ":4837,"åįĸå®¶çļĦ":4838,"éħ·":4839,"è´¹åĬ²":4840,"æ¶©":4841,"Ġä¸ľè¥¿æĶ¶åĪ°äºĨ":4842,"ä»¶è¡£æľį":4843,"Ġå¾Īä¸ĢèĪ¬":4844,"æıĲç¤º":4845,"ç®Ģä»ĭ":4846,"å¥³åŃ©":4847,"æĲľ":4848,"å¤įæĿĤ":4849,"æĸ¯åĴĮ":4850,"ä¸¤ä¸ªæľĪ":4851,"æ·±åĪ»":4852,"èµłéĢģ":4853,"ç¿¼":4854,"åĺ¿":4855,"åĲİæĤĶäºĨ":4856,"ä¸Ģä¸ªæľĪäºĨ":4857,"æ£Ģæµĭ":4858,"æİ§åĪ¶":4859,"æĴŃæĶ¾":4860,"å¹¸ç¦ı":4861,"æ¤ħ":4862,"æĤ²åī§":4863,"äº«åıĹ":4864,"ç¾½ç»Ĵ":4865,"è²Įä¼¼":4866,"å¾Īå¥½å¾Īä¸įéĶĻéĿŀå¸¸çļĦæ£Ĵè¶ħçº§NICE":4867,"éĴ¢åĮĸèĨľ":4868,"çŀ¬éĹ´":4869,"at":4870,"»è¾ĳ":4871,"èķ":4872,"Ġéĥ½":4873,"ĠæķĪæŀľ":4874,"Ġå¤§å°ı":4875,"ĠåºĹå®¶":4876,"Ġåģĩè´§":4877,"çļĦé¢ľèī²":4878,"çļĦæĢĿæĥ³":4879,"äº¦":4880,"ä¸įåĢ¼å¾Ĺ":4881,"å¥½åĲ§":4882,"æľīè¶£":4883,"éĢ»è¾ĳ":4884,"å°±å½ĵ":4885,"æĹĹ":4886,"åĽĬ":4887,"ä¹Łä¼ļ":4888,"æĢľ":4889,"ä»¥ä¸ĭ":4890,"å¼Ĺ":4891,"å®¶åħ·":4892,"å°ıåĵ¥":4893,"å¤©ä¸ĭ":4894,"åģ¶":4895,"ä¿©":4896,"ä¾Ħ":4897,"åĸľæ¬¢çľĭ":4898,"åŃ¦ä¼ļ":4899,"ä»Ģä¹Īçİ©æĦı":4900,"ä¹ĭä¸Ń":4901,"æĽ¸":4902,"ä¹°äºĨä¸ª":4903,"æľºä¼ļ":4904,"ä½ĵç³»":4905,"å¤ĸå£³":4906,"æīĢæľīçļĦ":4907,"éĺ´":4908,"äºĮæ¬¡":4909,"éķ¿åº¦":4910,"Ġä¸ľè¥¿ä¸ĢèĪ¬":4911,"åĪļå¼Ģå§ĭ":4912,"æ·»":4913,"å§Ĩ":4914,"åĬłä¸Ĭ":4915,"è¿ĽæŃ¥":4916,"æıĲåįĩ":4917,"ç®ĢéĻĭ":4918,"æĭ¿åĽŀæĿ¥":4919,"çİ°åľ¨çļĦ":4920,"ä¸ļåĬ¡":4921,"åıĬåħ¶":4922,"åģĩäºĨ":4923,"å¥³äºº":4924,"é»ĳæļĹ":4925,"éĢģè´§ä¸ĬéĹ¨":4926,"å½¢å®¹":4927,"2015":4928,"éĹ¨åı£":4929,"è®¢çļĦ":4930,"åĳ¨åĪ°":4931,"é¦Ļæ°´":4932,"æĬĢå·§":4933,"çŁŃä¿¡":4934,"çŃĶå¤į":4935,"è¿ĺæ²¡æľīçĶ¨":4936,"åıĤåĬł":4937,"èģĮåľº":4938,"é²ľèī³":4939,"çģ°å°ĺ":4940,"ä¿¡èµĸäº¬ä¸ľ":4941,"æ½ľ":4942,"ç¢°åĪ°":4943,"äºıäºĨ":4944,"åıĺå½¢äºĨ":4945,"è¤¶":4946,"æĳĺè¦ģ":4947,"è¿ħéĢŁ":4948,"å³°":4949,"èħĶè°ĥ":4950,"å¾Īå¥½å¾Īä¸įéĶĻéĿŀå¸¸çļĦæ£Ĵè¶ħçº§NICEå¾Īå¥½å¾Īä¸įéĶĻéĿŀå¸¸çļĦæ£Ĵè¶ħçº§NICE":4951,"36":4952,"400":4953,"ä¸įåĬ¨":4954,"ä¸įåĩºæĿ¥":4955,"ä¸Ģå±Ĥ":4956,"è¯ŀ":4957,"å°Ĭ":4958,"æľīæ²¡æľī":4959,"æľīæĹ¶åĢĻ":4960,"åŃĻ":4961,"å°±ç®Ĺ":4962,"çĶ¨å¤Ħ":4963,"èĢĹ":4964,"å¤§ä¸Ģ":4965,"å¤ªéĩį":4966,"äººçĲĨ":4967,"æĶ»":4968,"åĳĥ":4969,"è´¨éĩıè¿ĺä¸įéĶĻ":4970,"çĽĽ":4971,"å¿«éĢŁ":4972,"èī°":4973,"éģ¿":4974,"éģŃ":4975,"åĮħè£ħå¥½":4976,"çĶŁéĶĪ":4977,"æīĭåĨĮ":4978,"ä¹ĭå¤ĸ":4979,"éĢĢåĽŀåİ»":4980,"çĲĨå¿µ":4981,"é«ĺç«¯":4982,"èĩªå·±çľĭ":4983,"åĲĮä¸Ģ":4984,"ï¼īãĢĭ":4985,"åı·çļĦ":4986,"åĪļæĶ¶åĪ°":4987,"éĽĦ":4988,"åģļå·¥ç²Ĺç³Ļ":4989,"æĬĬå®ĥ":4990,"ä¿Ŀæ¹¿":4991,"åı£è¢ĭ":4992,"æıĲäº¤":4993,"ä¸ĢçĽ´çĶ¨":4994,"åıĹä¸įäºĨ":4995,"è´´çº¸":4996,"é¥±":4997,"ç±»çļĦ":4998,"Ġå¥½çĶ¨":4999,"ç¤¼æĭľ":5000,"çľĭèµ·æĿ¥ä¸įåĥı":5001,"è¿ĳä»£":5002,"èĨı":5003,"é¢Ĩå¯¼":5004,"åĪĽæĦı":5005,"åĪĽéĢł":5006,"æĬ¤çĲĨ":5007,"å¾·åĽ½":5008,"åĢĴéľī":5009,"æĪ´ä¸Ĭ":5010,"éķľçīĩ":5011,"éĴĪå¯¹":5012,"æĮºèĪĴæľįçļĦ":5013,";ãĢģ&":5014,"Ġèµłåĵģ":5015,"Ġæł·åŃĲ":5016,"ĠåĦ¿åŃĲ":5017,"Ġå¤§å°ıåĲĪéĢĤ":5018,"çļĦéĤ£":5019,"ãĢį":5020,"å°Ħ":5021,"å¾ĪæŁĶè½¯":5022,"åĲĽ":5023,"å°±éĻįä»·":5024,"ä¹Łå¿«":5025,"å¤§å¤ļ":5026,"å¤ªåĿĳäºĨ":5027,"ä¼½":5028,"è¯´è¯´":5029,"çĽĨ":5030,"ç»Ļäºº":5031,"å°±æĺ¯ç¢Ł":5032,"ä¸ºåķ¥":5033,"éĢģåĪ°äºĨ":5034,"åķĨåĬ¡":5035,"åĪ«äººçļĦ":5036,"åĪĨéĩı":5037,"æĦŁè§īæľīçĤ¹":5038,"æĹłæķ°":5039,"åģļçĶŁæĦı":5040,"åĽŀåºĶ":5041,"çĽ´åĪ°":5042,"ç½ª":5043,"åŀĥåľ¾çļĦ":5044,"æĸĩéĽĨ":5045,"çī¹æĦı":5046,"çī¹ä»·":5047,"èĢģå¦Ī":5048,"éĺĶ":5049,"çŃīåĪ°":5050,"æİīä¸ĭæĿ¥":5051,"æĸ°é¢ĸ":5052,"çķª":5053,"æ¶¨":5054,"ç½ĳé¡µ":5055,"äºĨä¸ĢäºĽ":5056,"æķĻè®Ń":5057,"ä»¥åĲİçĶ¨":5058,"éľľ":5059,"è¿ĺæ²¡åĪ°":5060,"å¹¶ä¸į":5061,"åĲĦä¸ª":5062,"çĥŃæ°´":5063,"æĶ¯æŀ¶":5064,"çŁŃäºĨ":5065,"ç£¨èĬ±":5066,"æ¨ª":5067,"é¡µéĿ¢":5068,"åı°æ¹¾":5069,"æıĴåĽ¾":5070,"ä»¥åīįä¹°çļĦ":5071,"æĪ´çĿĢ":5072,"ç®ĢçĽ´æĺ¯":5073,"æ³¡æ²«":5074,"åįļå£«":5075,"çļĦå¿ĥçģµ":5076,"æ¬§æ´²":5077,"èĿ¶":5078,"æŃªçļĦ":5079,"åĲĲæ§½":5080,"åĽ¤è´§":5081,"è¿ĺå¥½å¤Łæ¸ħæĻ°çļĦè¿ĺå¥½å¤Łæ¸ħæĻ°çļĦè¿ĺå¥½å¤Łæ¸ħæĻ°çļĦè¿ĺå¥½å¤Łæ¸ħæĻ°çļĦ":5082,"çĶŁæĹ¥ç¤¼çī©":5083,"é¥¼å¹²":5084,"åŃ¤çĭ¬":5085,"bull":5086,"ac":5087,"of":5088,"re":5089,"åļ":5090,"éĸ":5091,"îĲ":5092,"Ġè¶ħ":5093,"Ġå°ºå¯¸":5094,"ï¼Į*":5095,"çļĦéĥ½":5096,"çļĦæĸ¹æ³ķ":5097,"ä¸įåıĬ":5098,"ä¸įè¿Ľåİ»":5099,"å¾Ħ":5100,"ä¸Ģè¯»":5101,"å¾ĪèĦı":5102,"æ²Ī":5103,"å°±çŁ¥éģĵ":5104,"æ²¡ç©¿":5105,"è¿Ļéĥ¨":5106,"å¤ªæ¬¡äºĨ":5107,"ä¼¸":5108,"åİħ":5109,"åĲİåıĳçİ°":5110,"ç»ĻçļĦ":5111,"å¤ļè¯´":5112,"çº½":5113,"çİ«":5114,"ä¸Ńå¿ĥ":5115,"å°±æĺ¯åĿıçļĦ":5116,"å¸¸è§ģ":5117,"ä¹°çļĦä¸ľè¥¿":5118,"åĲĪèĦļ":5119,"å±İ":5120,"çŃ·":5121,"åĪĨäº«":5122,"æ¸Ĭ":5123,"å¹´è½»":5124,"è¿ĺæĺ¯å¾Ī":5125,"å®¢æľįèģĶç³»":5126,"ä¹°äºĨä¸Ģä¸ª":5127,"çĪ¹":5128,"ï¼īãĢĲ":5129,"çĽ¸æ¯Ķ":5130,"çĽ¸å¯¹":5131,"äº®åº¦":5132,"åı·ä¸ĭåįķ":5133,"åģļå·¥ç²¾èĩ´":5134,"åĢ¼å¾ĹæĶ¶èĹı":5135,"æľĭåıĭä»¬":5136,"è¯ķäºĨä¸Ģä¸ĭ":5137,"ç¢³":5138,"æķ´æķ´":5139,"Ġä¸įåĴĭ":5140,"çĸ¯":5141,"æĿ¡ä»¶":5142,"Ġå¾Īå¥½çľĭ":5143,"2014":5144,"å¸®å¿Ļ":5145,"çľŁå¿ĥä¸įéĶĻ":5146,"ç¦ģ":5147,"è¿Ļæĺ¯æĪĳ":5148,"Ġå®Ŀè´ĿæĶ¶åĪ°":5149,"æĬĢèĥ½":5150,"åŀ«åŃĲ":5151,"æ¨¡ç³Ĭ":5152,"ä¹¦çļĦåĨħå®¹":5153,"åĨįä¹Łä¸įä¼ļ":5154,"é£Łåĵģ":5155,"æĺİæĺİæĺ¯":5156,"åıĳéĶĻè´§äºĨ":5157,"éĵ¶è¡Į":5158,"æµªè´¹éĴ±":5159,"ç»Ļä¸ªå¥½è¯Ħ":5160,"ç½ĳç»ľæĸĩåŃ¦":5161,"çŀİ":5162,"è¿ĺæĺ¯åı¯ä»¥çļĦ":5163,"ä¸Ľä¹¦":5164,"éĿ¢æľīç£¨èĬ±":5165,"å°±æĺ¯ç¢ŁéĿ¢æľīç£¨èĬ±":5166,"32":5167,"360":5168,"ĠçľŁæĺ¯":5169,"ï¼į":5170,"çļĦåĮħè£ħ":5171,"çļĦä»·æł¼":5172,"çļĦçĶŁæ´»":5173,"è´¦":5174,"ç»£":5175,"çľī":5176,"çľł":5177,"æĪĳå·²ç»ı":5178,"ä¹°è¿Ļä¸ª":5179,"æĿ¥ä¹°":5180,"å¤ªéĺ³":5181,"çľĭå®Į":5182,"åı¯è§ģ":5183,"åı¯æĢľ":5184,"å¹½":5185,"é¢ĩ":5186,"æĬĵ":5187,"ä¿±":5188,"åŃ¦çļĦ":5189,"éĴ©":5190,"æ´ª":5191,"ä»ĸäººçļĦ":5192,"æīĭä¸Ĭ":5193,"åĽ¾åĥı":5194,"æīįæĶ¶åĪ°è´§":5195,"åģļå¥½":5196,"åĽŀå¿Ĩ":5197,"çī©æµģéĢŁåº¦":5198,"ç½¢":5199,"åīįåĲİ":5200,"åįķåı·":5201,"éĴ±çļĦ":5202,"èĢģçĪ¸":5203,"éĺµ":5204,"ç¾İä¸½":5205,"åįģåĩł":5206,"èºģ":5207,"æĢ»ç»ĵ":5208,"æľĭåıĭè¯´":5209,"æľĭåıĭå¾Īåĸľæ¬¢":5210,"å¤Ħä¸ĸ":5211,"è§Ĥå¯Ł":5212,"çİ©äºĨ":5213,"è®¡ç®Ĺ":5214,"åĮĸå¦Ĩ":5215,"å¡«":5216,"æī¾äºĨ":5217,"å¼ºå¤§":5218,"è®¾å¤ĩ":5219,"å¾Īæ»¡æĦıçļĦä¸Ģæ¬¡è´Ńçī©":5220,"å®Įåħ¨æĺ¯":5221,"ä¸ŃåĽ½äºº":5222,"åľ¨äº¬ä¸ľè´Ńçī©":5223,"æĴŀ":5224,"èµłéĢģçļĦ":5225,"æĮĩçĶ²":5226,"æīĵå¼ĢåĮħè£ħ":5227,"å©´":5228,"åĭº":5229,"è¾¾åĪ°":5230,"æľ¬æĿ¥æĥ³":5231,"è§Ħå®ļ":5232,"è§ĦåĪĴ":5233,"Ġæ²¡çĶ¨":5234,"ä½ıäºĨ":5235,"åħħçĶµåĻ¨":5236,"æ±īè¯Ń":5237,"æĸĩåĮĸçļĦ":5238,"æĲŃéħį":5239,"æł·å¼ıä¸įéĶĻ":5240,"çĪ¶äº²":5241,"Ġè¯´å®ŀè¯Ŀ":5242,"æĥ³è±¡ä¸ŃçļĦå¥½":5243,"åĮħè£ħå¾Īæĥ¨":5244,"æīĢè°ĵçļĦ":5245,"åĽ¤çĿĢ":5246,"éĥ½åĿıäºĨä»¥åĲİè¯·æ³¨æĦıäº§åĵģåĮħè£ħåĪ«ç¨ĢéĩĮç³Ĭæ¶ĤçļĦåĮħäºĨéĥ½åĿıäºĨä»¥åĲİè¯·æ³¨æĦıäº§åĵģåĮħè£ħåĪ«ç¨ĢéĩĮç³Ĭæ¶ĤçļĦåĮħäºĨéĥ½åĿıäºĨä»¥åĲİè¯·æ³¨æĦıäº§åĵģåĮħè£ħåĪ«ç¨ĢéĩĮç³Ĭæ¶ĤçļĦåĮħäºĨéĥ½åĿıäºĨä»¥åĲİè¯·æ³¨æĦıäº§åĵģåĮħè£ħåĪ«ç¨ĢéĩĮç³Ĭæ¶ĤçļĦåĮħäºĨ":5247,"æ¬£èµı":5248,"æ¶īåıĬ":5249,"åĮ¹éħį":5250,"åħĦå¼Ł":5251,"çľĭèµ·æĿ¥ä¸įåĥıæŃ£çīĪ":5252,"å°±æĺ¯ç¢ŁéĿ¢æľīç£¨èĬ±è¿ĺåı¯ä»¥åĲ§":5253,"ok":5254,"è©":5255,"èŁ":5256,"Ġçī¹åĪ«":5257,"ä¸įæİī":5258,"ä¸įç´§":5259,"ä¸Ģå®¶":5260,"å¾Īåİļå®ŀ":5261,"æľīèī²å·®":5262,"æĪĳä¹°":5263,"æĪĳè¿ĺæĺ¯":5264,"çĶ¨å¿ĥ":5265,"ä¹Łæ¯Ķè¾ĥ":5266,"å·®äºĨ":5267,"åľ¨èº«ä¸Ĭ":5268,"è´¨åľ°":5269,"åİ¨":5270,"å¿«æį·":5271,"åĴĮå®ŀçī©":5272,"ä¸ľè¥¿å¾Īå¥½":5273,"ä¸Ńå¤®":5274,"éĿŀå¸¸ç»ĻåĬĽ":5275,"æĮºåĸľæ¬¢":5276,"äº¬ä¸ľäºĨ":5277,"ä¸įå¥½åĲĥ":5278,"è½¨":5279,"æµģè¡Į":5280,"æµģçķħ":5281,"ç²¹":5282,"æĦŁè§īæĺ¯":5283,"åħ¶æ¬¡":5284,"æĪĲæľ¬":5285,"æĪĲæŀľ":5286,"éĢĤä¸Ń":5287,"åŀĥåľ¾æ¡¶":5288,"ä»·æł¼è¿ĺ":5289,"æį¢ä¸ª":5290,"çŃīçĿĢ":5291,"é¢ľèī²å¾ĪæŃ£":5292,"èģª":5293,"é»Ľ":5294,"åĽ¾çīĩä¸Ĭ":5295,"å¸¦åŃĲ":5296,"è¢«åĿĳäºĨ":5297,"ä¸»åĬ¨":5298,"å§¿":5299,"æĢ»çļĦ":5300,"æĤ£":5301,"éļ¾åĲĥ":5302,"èĢĥçĤ¹":5303,"çĪ±çļĦ":5304,"ä¹Łå¾Īç»ĻåĬĽ":5305,"æķ°éĩı":5306,"Ġä¸įåĢ¼":5307,"å¹¶æ²¡æľī":5308,"è®¾ç½®":5309,"åİļåº¦":5310,"çļĦä¸Ģæľ¬ä¹¦":5311,"æ®Ĭ":5312,"åĪ¶éĢł":5313,"åĲ¬è¯´":5314,"éĩĳçļĦ":5315,"çĵ·":5316,"åĺī":5317,"ä¼ĺçĤ¹":5318,"éªĮè´§":5319,"ä»ĭç»įäºĨ":5320,"åħ¬åı¸çļĦ":5321,"æ¼ıæ°Ķ":5322,"æĻļäºĨ":5323,"ä½ľèĢħçļĦ":5324,"æĺİæĺ¾çļĦ":5325,"èĵĿçīĻ":5326,"æī¿è®¤":5327,"æ·¡æ·¡":5328,"æµĭè¯ķ":5329,"é¾Ł":5330,"è¸ª":5331,"åľĨéĢļ":5332,"éĴ»çŁ³":5333,"æĲŀæ´»åĬ¨çļĦæĹ¶åĢĻä¹°çļĦ":5334,"å·®å·®å·®å·®å·®å·®å·®å·®å·®å·®å·®å·®å·®å·®å·®å·®å·®å·®å·®å·®å·®å·®å·®å·®å·®å·®å·®å·®å·®å·®å·®å·®":5335,"ãĢĭï¼Īï¼Ī":5336,"åĳĪçİ°":5337,"OK":5338,"ed":5339,"ic":5340,"âĳ":5341,"æª":5342,"ĠåĪ°è´§":5343,"Ġåĵİ":5344,"Ġè¢ľåŃĲ":5345,"çļĦéŀĭåŃĲ":5346,"çļĦåŁºç¡Ģ":5347,"çļĦæĸ¹å¼ı":5348,"äº¡":5349,"ä¸įæ¸ħæ¥ļ":5350,"å¤¸":5351,"ä¸ĢçĶŁ":5352,"å¾ĪéĢĤåĲĪ":5353,"å¾Īç»ĵå®ŀ":5354,"è¿ĺéĢģ":5355,"æĪĳåıĪ":5356,"è¿Ļå¥Ĺ":5357,"åį§":5358,"ä¹Łè¦ģ":5359,"æĿ¥åĽŀ":5360,"å¤§äºº":5361,"åıĳåĪ°":5362,"çĤº":5363,"çĤĴ":5364,"èµĶ":5365,"æ²¡æľīå¼Ĥåĳ³":5366,"æŀª":5367,"è£ħå¸§":5368,"å°±æĺ¯ä¸į":5369,"å°±æĺ¯ä¸įçŁ¥éģĵ":5370,"æĶ¶åħ¥":5371,"çľŁé¢ĺ":5372,"æ¯Ķå¦Ĥ":5373,"ä¿Ħ":5374,"åĿł":5375,"ä¸įæĺ¯å¾Īæ»¡æĦı":5376,"ä»ĸäºº":5377,"æŃ£ç¡®":5378,"ä»Ģä¹Īä¸ľè¥¿":5379,"ä¸ĢèĪ¬äºĨ":5380,"å¿«éĢĴçļĦ":5381,"æĢİä¹ĪåĬŀ":5382,"ä½ĵä¼ļ":5383,"å½ĵä»£":5384,"é«ĺçŃī":5385,"é«ĺåħ´":5386,"æľįåĬ¡å¾Īå¥½":5387,"å·²æĶ¶åĪ°":5388,"çĽ¸åĲĮ":5389,"ä½¿äºº":5390,"éĽ»":5391,"æŁĦ":5392,"åħ¬éĩĮ":5393,"çº¿çļĦ":5394,"Ġå¾Īå·®":5395,"åİŁæĿ¥çļĦ":5396,"å¤ŁäºĨ":5397,"éĤ£ä¹Īè´µ":5398,"æķ°åŃĹ":5399,"éĢģè´§éĢŁåº¦":5400,"èĽĽ":5401,"æĴ°":5402,"æ¢³":5403,"åĪ©çĶ¨":5404,"Ġå®Ŀè´Ŀä¸įéĶĻ":5405,"æĶ¹åĸĦ":5406,"åħĭæĸ¯":5407,"ç©¿ä¸Ĭå¾ĪèĪĴæľį":5408,"è§ĦåĪĻ":5409,"å¡ĳæĸĻçļĦ":5410,"å½ķéŁ³":5411,"çĶ·äºº":5412,"è¿½åĬł":5413,"ä¿Ŀæ¸©æķĪæŀľ":5414,"èĦ¸ä¸Ĭ":5415,"åħīé¡¾çļĦ":5416,"ç»ĺçĶ»":5417,"åľ¨ç½ĳä¸Ĭä¹°":5418,"åĬ£è´¨":5419,"å¾Īå¥½å¾Īå¥½å¾Īå¥½å¾Īå¥½å¾Īå¥½å¾Īå¥½å¾Īå¥½å¾Īå¥½":5420,"ãĢĢãĢĢãĢĢãĢĢãĢĢãĢĢãĢĢãĢĢãĢĢãĢĢãĢĢãĢĢãĢĢãĢĢãĢĢãĢĢãĢĢãĢĢãĢĢãĢĢãĢĢãĢĢãĢĢãĢĢãĢĢãĢĢãĢĢãĢĢãĢĢãĢĢãĢĢãĢĢ":5421,"æĹłèī¯åķĨå®¶":5422,"åİĺç±³":5423,"45":5424,"99":5425,"nåĽĽ":5426,"Ġæīĭæľº":5427,"Ġå£°éŁ³":5428,"Ġé¦ĸåħĪ":5429,"ĺèĽĽ":5430,"çļĦåĲ§":5431,"çļĦå£°éŁ³":5432,"çļĦæĻºæħ§":5433,"ä¸įæĪĲ":5434,"ä¸įä¸Ģèĩ´":5435,"ä¹ĥ":5436,"è¿İ":5437,"æĺ¯åı¯ä»¥":5438,"ä¸Ģçĵ¶":5439,"æľīä¸ĢçĤ¹":5440,"æľīçĳķçĸµ":5441,"ç»©":5442,"æĪĳçľĭ":5443,"æĪĳçİ°åľ¨":5444,"éĥ½è¢«":5445,"å¤ªè¿ĩ":5446,"åĩĿ":5447,"åıĳç»ĻæĪĳ":5448,"è´¨éĩıæĮºå¥½çļĦ":5449,"æķĳ":5450,"èĥ½æºĲ":5451,"æŀ¯":5452,"åĮħçļĦ":5453,"åĢ¾":5454,"ä¸ºä½ķ":5455,"åĿĽ":5456,"ç§ģ":5457,"å¯¹æĪĳ":5458,"çĶŁåĬ¨":5459,"æīĭæĮĩ":5460,"æ¸¯":5461,"ä¸¤ä»¶":5462,"çī©æµģå¤ªæħ¢äºĨ":5463,"ç«ŀ":5464,"ä¿¡çĶ¨":5465,"æĸ°é²ľ":5466,"é£ĺ":5467,"ç»Ĩèħ»":5468,"Ġä¸ľè¥¿è¿ĺåı¯ä»¥":5469,"è¢«äºº":5470,"åĨĻçĿĢ":5471,"ä¸»æĿ¿":5472,".....":5473,"èį¡":5474,"çłģåŃĲ":5475,"çĹĩ":5476,"æ¯Ľæ¯Ľ":5477,"å¸ĮæľĽèĩªå·±":5478,"å¤§å®¶éĥ½":5479,"åıĺæĪĲäºĨ":5480,"åıįå¤į":5481,"å¡Į":5482,"ä¸ĭæ¬¡åĨįæĿ¥":5483,"ç»ĻåĬĽäºĨ":5484,"Ġè¡£æľįä¸įéĶĻ":5485,"ä»Ĭå¹´":5486,"å¤įä¹ł":5487,"åĪ¶åº¦":5488,"å¥¹çļĦ":5489,"å¯ĦåĽŀåİ»":5490,"åķ¦åķ¦":5491,"åıªæľīä¸Ģä¸ª":5492,"æŁ¥è¯¢":5493,"äº¤æµģ":5494,"è½¬æį¢":5495,"çģµæ´»":5496,"åı¥è¯Ŀ":5497,"èľĺèĽĽ":5498,"çĶ³è¯·æį¢è´§":5499,"æī¿æĭħ":5500,"éĺ³åħī":5501,"ĠéĢģç»Ļ":5502,"é¡¹çĽ®":5503,"çľĭä¸įæĩĤ":5504,"çıįèĹı":5505,"å½¼å¾Ĺ":5506,"é³":5507,"Ġä¾¿å®ľ":5508,"Ġå®īè£ħ":5509,"çļĦåĲį":5510,"çļĦéĤ£ä¸ª":5511,"ä¸įå¼Ģ":5512,"ä¸įè§ģ":5513,"ä¸įè´Łè´£ä»»":5514,"å¥Ķ":5515,"æĺ¯åĽłä¸º":5516,"ä¸Ģå¤©å°±":5517,"ä¸Ģæ®µ":5518,"æľīçĿĢ":5519,"æľīå¸®åĬ©":5520,"åħµ":5521,"è¿ĺä¸įçŁ¥éģĵ":5522,"æĪĳä¹Łä¸į":5523,"æ²¡ç»Ļ":5524,"æ²¡äºĭ":5525,"çĶ¨çĶ¨":5526,"æĿ¥å¾Ĺ":5527,"å¤§çĪ±":5528,"éĥ½ä¸įæĺ¯":5529,"å¤ªå¤ª":5530,"å¤ªåŀĥåľ¾":5531,"ä¸Ĭè¡£":5532,"çľĭè¿ĩ":5533,"ä¹¦è¯Ħ":5534,"æĹ¶è£ħ":5535,"è¿ĩåİ»äºĨ":5536,"ä¸ľè¥¿äºĨ":5537,"å°±æĺ¯ä»·æł¼":5538,"æĭŁ":5539,"éĢģè¿ĩæĿ¥":5540,"æ¯Ķè¶ħå¸Ĥ":5541,"ç§¦":5542,"åŃ¦éĹ®":5543,"äº¬ä¸ľè´Ńçī©":5544,"æĸ¹éĿ¢çļĦ":5545,"åİ»çļĦ":5546,"å¿«éĢĴè´¹":5547,"å¿«éĢĴéĢŁåº¦":5548,"çī©æµģä¹Łå¾Īå¿«":5549,"æľºåŃĲ":5550,"çī¹èī²":5551,"å¤ĸå½¢":5552,"æ°ĶæĦ¤":5553,"æ¯Ķè¾ĥå¥½":5554,"æİīçļĦ":5555,"æ³¨éĩĬ":5556,"ç»Ĩå¿ĥ":5557,"æ·ĭ":5558,"éĵĥ":5559,"æ¡ĥ":5560,"éĥ½ä¸įä¼ļ":5561,"åħ³æľº":5562,"ç®Ģæ´ģ":5563,"æĭ¿åĪ°è´§":5564,"çļ®åŃĲ":5565,"è¿Ļä¹Īåı¯çĪ±çļĦ":5566,"åĮĸçļĦ":5567,"å»ºç«ĭ":5568,"æĿ¥çļĦæĹ¶åĢĻ":5569,"ä¸ĵåįĸ":5570,"èħĲ":5571,"2016":5572,"é£İæĻ¯":5573,"???":5574,"å¿ħè¦ģ":5575,"åģıæĸ¹":5576,"è´´åĲĪ":5577,"è®²çļĦ":5578,"ç£ķ":5579,"Ġå¥½åĲĥ":5580,"çľĭçĿĢä¸įéĶĻ":5581,"æĬĢæ³ķ":5582,"å±ħçĦ¶æĺ¯":5583,"æĭįçħ§":5584,"åĳĬçŁ¥":5585,"ç¼ºéĻ·":5586,"æĺ¯ä¸Ģæľ¬":5587,"æį®è¯´":5588,"ĠåĪļæĶ¶åĪ°":5589,"æŀ¶åŃĲ":5590,"å®ŀä½ĵåºĹä¹°çļĦ":5591,"æ²¡ä»Ģä¹ĪçĶ¨":5592,"æ²¡æ³ķçĶ¨":5593,"åĨ²çĿĢ":5594,"åħįè´¹":5595,"èĽĭç³ķ":5596,"ä¹Łèĥ½åģļåĩº":5597,"çĩ¥":5598,"åªĴ":5599,"00000000":5600,"æĮºå¥½å°±æĺ¯è´§çī©åĮħè£ħå¤ªå·®åĬ²æĮºå¥½å°±æĺ¯è´§çī©åĮħè£ħå¤ªå·®åĬ²æĮºå¥½å°±æĺ¯è´§çī©åĮħè£ħå¤ªå·®åĬ²æĮºå¥½å°±æĺ¯è´§çī©åĮħè£ħå¤ªå·®åĬ²æĮºå¥½å°±æĺ¯è´§çī©åĮħè£ħå¤ªå·®åĬ²æĮºå¥½å°±æĺ¯è´§çī©åĮħè£ħå¤ªå·®åĬ²æĮºå¥½å°±æĺ¯è´§çī©åĮħè£ħå¤ªå·®åĬ²æĮºå¥½å°±æĺ¯è´§çī©åĮħè£ħå¤ªå·®åĬ²":5601,"å¼Ģèĥ¶äºĨ":5602,"æĢİä¹Īèĥ½è¿Ļæł·":5603,"é¥®åĨ°å®¤":5604,"çŃ·åŃĲ":5605,"åĽ¤çĿĢä»¥åĲİçĶ¨":5606,"å¸ĮæľĽèĩªå·±ä¹Łèĥ½åģļåĩº":5607,"è¿Ļä¹Īåı¯çĪ±çļĦä¸ľä¸ľ":5608,"å¸ĮæľĽèĩªå·±ä¹Łèĥ½åģļåĩºè¿Ļä¹Īåı¯çĪ±çļĦä¸ľä¸ľ":5609,"03":5610,"SB":5611,"jj":5612,"rsquo":5613,"ĠéĿŀå¸¸æ»¡æĦı":5614,"Ġçľĭèµ·æĿ¥":5615,"çļĦåıĳå±ķ":5616,"çļĦéŁ³ä¹Ĳ":5617,"åıł":5618,"ä¸Ģä¸Ģ":5619,"å¾Īèµŀ":5620,"æľīçł´æįŁ":5621,"è¿ĺä¸įèĥ½":5622,"ä½©":5623,"ä¹°å¤§äºĨ":5624,"ä¹°éĶĻäºĨ":5625,"å·®ä»·":5626,"åľ¨æĪĳ":5627,"éĥ½ä¸įçŁ¥éģĵ":5628,"éĥ½ä¸įèĥ½":5629,"è®¿":5630,"ä¸Ĭä¸ĭ":5631,"è¯´æ³ķ":5632,"å¤ļç§į":5633,"æ³°":5634,"ä¼ļåĳĺ":5635,"å¦¥":5636,"è¿Ļä¸ªåĵģçīĮ":5637,"è¡Įä¸ļ":5638,"ä½łæĺ¯":5639,"åĲĪéĽĨ":5640,"æīĭéĩĮ":5641,"åĢ¼çļĦ":5642,"æľīçĤ¹èĸĦ":5643,"æľºç®±":5644,"ä¸İå®ŀçī©":5645,"èĢģåģıæĸ¹":5646,"éħ±":5647,"æĢģåº¦å¾Īå¥½":5648,"åĢ¼å¾Ĺä¹°":5649,"å§ĳ":5650,"è¡¨å¸¦":5651,"ä¹Łå¾ĪèĪĴæľį":5652,"è¿ĺæľīå°±æĺ¯":5653,"é»ĳçļĦ":5654,"èĲĮ":5655,"å¹¶ä¸įæĺ¯":5656,"ä¸įåĢ¼è¿Ļä¸ªä»·æł¼":5657,"å¤§å°ıä¹Ł":5658,"æĥ³è±¡çļĦå¥½":5659,"å®Ŀå®Ŀå¾Īåĸľæ¬¢":5660,"èİ±":5661,"è´´å¿ĥ":5662,"è®²è¿°":5663,"å®ŀçĶ¨æĢ§":5664,"Ġä¹¦ä¸įéĶĻ":5665,"ä¼ĺéĽħ":5666,"å¥ĩæĢª":5667,"Ġåŀĥåľ¾ä¸ľè¥¿":5668,"èĦıçļĦ":5669,"å¹¿å¤§":5670,"198":5671,"åı¦ä¸Ģä¸ª":5672,"åĲ¸å¼ķ":5673,"æĢ»ä½ĵæĿ¥è¯´":5674,"çĮª":5675,"çº¯æ£ī":5676,"äº¬ä¸ľçļĦæľįåĬ¡":5677,"æķĻèĤ²æĦıä¹ī":5678,"åĲ¯è¶ħ":5679,"å¾ĪæľīåĲ¯åıĳ":5680,"éŃĤ":5681,"éŃħ":5682,"æĦīå¿«çļĦ":5683,"æŃ¦ä¾ł":5684,"èµ¶ç´§":5685,"åĬłæ²¹åĬłæ²¹":5686,"æ¢ģåĲ¯è¶ħ":5687,"Â·Â·Â·Â·":5688,"æ®ĭæ¬¡åĵģ":5689,"ä»ĵåºĵ":5690,"ä»įçĦ¶":5691,"cccc":5692,"è®¨è®º":5693,"æ»ĭæ¶¦":5694,"''":5695,"nT":5696,"âĬ":5697,"ç¶":5698,"Ġè·ŁåĽ¾çīĩ":5699,"çļĦæĪĳ":5700,"çļĦè®¾è®¡":5701,"ä¸įå°ıå¿ĥ":5702,"ä»°":5703,"è´ª":5704,"æľīå¤ļ":5705,"æľīç§į":5706,"æľīå¾ħ":5707,"ç»ķ":5708,"è¿ĺæĮº":5709,"å°±è¿Ļä¹Ī":5710,"æī©":5711,"æīģ":5712,"è¿Ļä¸ľè¥¿":5713,"ä¸ªç§¯åĪĨ":5714,"çĶ¨è¿ĩçļĦ":5715,"ä¹Łå°±æĺ¯":5716,"åľ¨æŃ¤":5717,"è´¨çļĦ":5718,"è´¨æľŁ":5719,"åĩ¸":5720,"è¡į":5721,"åıĳè¡Į":5722,"åıĳçļĦæĺ¯":5723,"æĥĳ":5724,"è¦ģä¸į":5725,"å°ıåŃ¦":5726,"æĮ¯":5727,"çº²":5728,"è¾Ī":5729,"å¸¸çĶ¨":5730,"æĬµ":5731,"æĬĽ":5732,"ä»ĸçļĦä¹¦":5733,"æīįç©¿":5734,"æĦŁè§īåĥı":5735,"åĨįæĿ¥çļĦ":5736,"æĻĭ":5737,"æĢİä¹ĪçĶ¨":5738,"åŀĥåľ¾è´§":5739,"æ±ģ":5740,"éļĻ":5741,"å¤ĸè¡¨":5742,"éĥĳ":5743,"ç²¾éĢī":5744,"åŃĹä½ĵ":5745,"æĥħæĦŁ":5746,"æ£®":5747,"åħ¬ä¸»":5748,"ä¿Ŀè´¨æľŁ":5749,"èĬ±èī²":5750,"éħįåĲĪ":5751,"è¾¹ç¼ĺ":5752,"çĻ½çļĦ":5753,"è¿ĺæľīåŃĹæķ°":5754,"Ġè¿Ļæĺ¯æĪĳ":5755,"çĸ¾":5756,"å¹¶éĿŀ":5757,"å¼ºè°ĥ":5758,"æŀģåħ·":5759,"è·¯ä¸Ĭ":5760,"ä¸ŃåĽ½çļĦ":5761,"æĸ¯åĿ¦":5762,"è®°å¾Ĺ":5763,"å¦Ĥæŀľæĺ¯":5764,"æĪĸè®¸":5765,"åĤ¨":5766,"ä»ĭç»įçļĦ":5767,"ä»ĺäºĨ":5768,"ç«ŁçĦ¶æĺ¯":5769,"èĲ¥åħ»":5770,"éĩįè¦ģçļĦ":5771,"çĭ¬ç«ĭ":5772,"æ²»çĸĹ":5773,"ä¸ĥåħ«":5774,"åħħçĶµä¹¦ç±į":5775,"é£Łçī©":5776,"æĽ¾ç»ı":5777,"æī¹åĪ¤":5778,"å¿ĺäºĨ":5779,"æĳĦåĥı":5780,"Ġè¿ĺå¥½åĲ§":5781,"å´©":5782,"èµļä¸ªç§¯åĪĨ":5783,"æĭĴæĶ¶":5784,"æĦīå¿«çļĦä¸Ģæ¬¡è´Ńçī©":5785,"ç»³åŃĲ":5786,"éĿŀå¸¸æ»¡æĦıéĿŀå¸¸æ»¡æĦıéĿŀå¸¸æ»¡æĦıéĿŀå¸¸æ»¡æĦıéĿŀå¸¸æ»¡æĦıéĿŀå¸¸æ»¡æĦıéĿŀå¸¸æ»¡æĦıéĿŀå¸¸æ»¡æĦıéĿŀå¸¸æ»¡æĦıéĿŀå¸¸æ»¡æĦıéĿŀå¸¸æ»¡æĦıéĿŀå¸¸æ»¡æĦıéĿŀå¸¸æ»¡æĦıéĿŀå¸¸æ»¡æĦıéĿŀå¸¸æ»¡æĦıéĿŀå¸¸æ»¡æĦı":5787,"ä¸Ĭå½ĵåıĹéªĹ":5788,"åıĻè¿°":5789,"ä¸ĭè·ª":5790,"èģĮåľºåħħçĶµä¹¦ç±į":5791,"åĳĥåĳĥ":5792,"æĢİä¹Īèĥ½è¿Ļæł·åŃĲåĳ¢":5793,"âĬĻ":5794,"è¿ĺæľīåŃĹæķ°éĻĲåĪ¶":5795,"èµļä¸ªç§¯åĪĨè¿ĺæľīåŃĹæķ°éĻĲåĪ¶":5796,"ag":5797,"mm":5798,"¹æŀľ":5799,"Ġæīĭ":5800,"Ġä»¥åīį":5801,"Ġåĳµåĳµ":5802,"çļĦæĥħåĨµ":5803,"ä¸įäº®":5804,"ä¸įæ¸ħ":5805,"æĺĮ":5806,"æĺ¯ä¸ŃåĽ½":5807,"è´«":5808,"å¥½çĤ¹":5809,"å¥½æŀģäºĨ":5810,"æľīåĪĴçĹķ":5811,"æľīæĶ¶èİ·":5812,"åŃ¸":5813,"æĪĳå¯¹":5814,"ä¹°å®Į":5815,"çĶ¨å®Į":5816,"å¤§éĥ¨åĪĨ":5817,"å¤§åĵģçīĮ":5818,"å¼ĺ":5819,"å¤ªéķ¿":5820,"åĩ¯":5821,"è¦ģçĶ¨":5822,"åĲİè·Ł":5823,"å¯¨":5824,"ç»Ļå®¢æľį":5825,"å¾Ĺèµ·":5826,"çİĦ":5827,"è¿ĩå¾Ĺ":5828,"éģ®":5829,"ä¸ŃåįĪ":5830,"åŃ¦éĻ¢":5831,"åĩºéĹ®é¢ĺ":5832,"åĩºéĹ¨":5833,"äº¬è±Ĩ":5834,"éĤ£è¾¹":5835,"çĶµè·¯":5836,"åī²":5837,"æįķ":5838,"åĪĨåĪ«":5839,"æīįæĿ¥è¯Ħä»·":5840,"æıŃ":5841,"çī©æµģå¤ªæħ¢":5842,"èĥĨ":5843,"åįĸå®¶æľįåĬ¡æĢģåº¦":5844,"èº«ä»½":5845,"éĢļä¿Ĺ":5846,"è±ª":5847,"åĢ¼å¾Ĺä¸Ģçľĭ":5848,"åŃ©åŃĲåĸľæ¬¢":5849,"ä¿Ŀä¿®":5850,"åħīä¸´":5851,"èĭ¹æŀľ":5852,"æ¯ĽçĹħ":5853,"ç¢į":5854,"å¤Łå¤§":5855,"åıĹåĪ°":5856,"æ´Ĺè¿ĩ":5857,"åºķåº§":5858,"é»ĳäºĨ":5859,"é»ĳå¿ĥ":5860,"Ġä¸įéĶĻä¸įéĶĻ":5861,"åħħå®ŀ":5862,"Ġå¤ªåŀĥåľ¾äºĨ":5863,"è½»è½»":5864,"å¦Ĥæŀľä¸įæĺ¯":5865,"åĺ»":5866,"åĺİ":5867,"è¿ĺä¼ļåĨįæĿ¥":5868,"è¯ģæĺİ":5869,"å¡ĳå°ģ":5870,"å¾Īå¤§çļĦ":5871,"å¾Īå¤§æ°Ķ":5872,"åĵĪåĵĪåĵĪ":5873,"æľ¬æĿ¥æĺ¯":5874,"æľīä¸Ģç§į":5875,"åĳ½è¿Ĳ":5876,"èĥĮæĻ¯":5877,"éĢłæĪĲ":5878,"éĢłåŀĭ":5879,"èµĦæł¼":5880,"èĦ±èĥ¶":5881,"æ¨¡å¼ı":5882,"èĢ³æľµ":5883,"ç»Ŀå¯¹çļĦ":5884,"ä¸įç¬¦åĲĪ":5885,"Ġä¸įæĺ¯å¾Īå¥½":5886,"æīįèĥ½åľ¨":5887,"éĿĴæĺ¥":5888,"ä¸įå¾ĹäºĨ":5889,"èħ°å¸¦":5890,"ä¹ĭéĹ´çļĦ":5891,"åŃķå¦ĩ":5892,"????????????????":5893,"å¤ªéº»çĥ¦äºĨ":5894,"éŁµè¾¾":5895,"è¿ĺåı¯ä»¥å°±æĺ¯åĶ±çīĩéĥ½è¶ĬæĿ¥è¶Ĭè´µè¿ĺåı¯ä»¥å°±æĺ¯åĶ±çīĩéĥ½è¶ĬæĿ¥è¶Ĭè´µè¿ĺåı¯ä»¥å°±æĺ¯åĶ±çīĩéĥ½è¶ĬæĿ¥è¶Ĭè´µè¿ĺåı¯ä»¥å°±æĺ¯åĶ±çīĩéĥ½è¶ĬæĿ¥è¶Ĭè´µè¿ĺåı¯ä»¥å°±æĺ¯åĶ±çīĩéĥ½è¶ĬæĿ¥è¶Ĭè´µè¿ĺåı¯ä»¥å°±æĺ¯åĶ±çīĩéĥ½è¶ĬæĿ¥è¶Ĭè´µè¿ĺåı¯ä»¥å°±æĺ¯åĶ±çīĩéĥ½è¶ĬæĿ¥è¶Ĭè´µè¿ĺåı¯ä»¥å°±æĺ¯åĶ±çīĩéĥ½è¶ĬæĿ¥è¶Ĭè´µ":5896,"38":5897,"41":5898,"42":5899,"NP":5900,"nC":5901,"Ġç»ıåħ¸":5902,"ĠéĻ¤äºĨ":5903,"Ġä¸ľä¸ľ":5904,"çļĦéĢŁåº¦":5905,"ä¸įä¹°äºĨ":5906,"ä¸įæĢķ":5907,"äºĨä¸ĭ":5908,"ä»ģ":5909,"ä¸Ģåħ±":5910,"å¥½æħ¢":5911,"å¥½åĩłæ¬¡":5912,"å¾ĪæļĸåĴĮ":5913,"è¿ĺæľīçĤ¹":5914,"å°±ä¹°äºĨ":5915,"æĪĳçĶ¨":5916,"æĪĳä¼ļ":5917,"æ²¡äºĨ":5918,"ä¸ªå¤ļæľĪ":5919,"çĶ¨äºĨä¸Ģ":5920,"æĸľ":5921,"å¤§äºİ":5922,"åľ¨å®¶":5923,"éĥ½éĿŀå¸¸":5924,"çĤ¹èµŀ":5925,"ç»Ļå¤§å®¶":5926,"æŀ£":5927,"è¥¿äºļ":5928,"é¢ł":5929,"å¤©ç©º":5930,"åı¯ä»¥çĶ¨":5931,"æ°§":5932,"æ¯Ķæĥ³è±¡ä¸ŃçļĦ":5933,"éĤĦ":5934,"ç©¿åĲ§":5935,"ä¸Ģä¸ªæĺŁ":5936,"ä¸Ģä¸ªå¤ļæľĪ":5937,"éĿŀå¸¸å¿«":5938,"ä»¬çļĦ":5939,"åķĨæłĩ":5940,"è¡Įè½¦":5941,"è·Į":5942,"ç»ıèĲ¥":5943,"æīĭçļĦ":5944,"ä½ľä¸ļ":5945,"åĪ«å®¶":5946,"ç¬¬åĽĽ":5947,"æīįç»Ļ":5948,"æĦŁè§īè¿ĺåı¯ä»¥":5949,"æĹłèģĬ":5950,"åľ°ä¸Ĭ":5951,"çī©æµģç»ĻåĬĽ":5952,"æĪĲåħ¨":5953,"éĢĤåºĶ":5954,"çī¹æł¹":5955,"åĬ¨çī©":5956,"ä¸īæ¬¡":5957,"æĮºå¥½çĶ¨çļĦ":5958,"ä»İäºĭ":5959,"åı·ä¸ĭçļĦåįķ":5960,"æģĴ":5961,"æ¸ħæĸ°":5962,"æĽ´æĸ°":5963,"å°ĳå¹´":5964,"å°ĳå¥³":5965,"åĨĻçļĦæĺ¯":5966,"çł´çİ©æĦı":5967,"å¤§å®¶ä¸įè¦ģä¹°":5968,"è®¡åĪĴ":5969,"ï¼ģï¼ģï¼ģï¼ģï¼ģï¼ģï¼ģï¼ģï¼ģï¼ģ":5970,"æĲ¬":5971,"ç»ĵæŀľæĺ¯":5972,"ç©¿çĿĢèĪĴéĢĤ":5973,"è¿ĲçĶ¨":5974,"è¿ŀç»Ń":5975,"ä¸įåĢ¼è¿Ļä¸ªéĴ±":5976,"å¼ºçļĦ":5977,"çĭ¼":5978,"çĽ®å½ķ":5979,"è§Ĩè§Ĵ":5980,"ç»´çī¹æł¹":5981,"å±±å¯¨":5982,"å±ķçİ°":5983,"æĩĴçļĦ":5984,"Ġæ²¡ä»Ģä¹Ī":5985,"æĻºèĥ½":5986,"è¯¯å¯¼":5987,"éķľå¤´":5988,"çº¯ç²¹":5989,"é»Ħèī²":5990,"å°½å¿«":5991,"ç¢İçļĦ":5992,"éĿĻéŁ³":5993,"Ġä¸ĢèĪ¬èĪ¬åĲ§":5994,"éĿĴå¹´":5995,"è¸©":5996,"æĿĥå¨ģ":5997,"åĸĦå¾ħ":5998,"ä»Ķç»Ĩçľĭ":5999,"çĨŁæĤī":6000,"ä¼°è®¡æĺ¯":6001,"æł¹æľ¬å°±ä¸įæĺ¯":6002,"è¯´ä»Ģä¹ĪäºĨ":6003,"éī´å®ļ":6004,"çĪ·çĪ·":6005,"æĭĴç»Ŀ":6006,"çī©æµģä¹Łå¿«":6007,"èĥ¸æĢĢ":6008,"äºĶæĺŁå¥½è¯Ħ":6009,"å«Įéº»çĥ¦":6010,"haohao":6011,"åĽ°éļ¾":6012,"è¾Ľèĭ¦":6013,"æĪĳå¾Īæ»¡æĦıåķĬ":6014,"æĢ»çļĦæĿ¥è¯´":6015,"æķĻèĤ²æĦıä¹īåķĬ":6016,"å¾ĪæľīåĲ¯åıĳæķĻèĤ²æĦıä¹īåķĬ":6017,"ç»´çī¹æł¹æĸ¯åĿ¦":6018,"98":6019,"XL":6020,"al":6021,"ap":6022,"nä¸Ģ":6023,"to":6024,"Ġè£ħ":6025,"ĠæŃ¤":6026,"çļĦé«ĺ":6027,"çļĦçŁ¥è¯Ĩ":6028,"çļĦåŁºæľ¬":6029,"çļĦæł·åŃĲ":6030,"çļĦåĲĮæĹ¶":6031,"äºĨä¸ª":6032,"æĺ¯å¥½":6033,"æĺ¯çľŁçļĦ":6034,"ä¸Ģä½į":6035,"å¥½ä¸įå®¹æĺĵ":6036,"åĪ¹":6037,"å¾Īä¾¿å®ľ":6038,"å¾ĪèĪĴéĢĤ":6039,"è¿ĺæħ¢":6040,"å°±ä¸Ģ":6041,"å°±è¯´":6042,"æĪĳä¹°äºĨ":6043,"éĶ»":6044,"å¤§ä½ľçĶ¨":6045,"åıĳæĿ¥çļĦ":6046,"è´¨éĩıåĴĮ":6047,"è´¨éĩıåı¯ä»¥":6048,"æķ·":6049,"èµµ":6050,"æĦıå¤ĸ":6051,"çī©è´¨":6052,"çº±":6053,"èī¾":6054,"ä¸ºäºº":6055,"ç¬Ľ":6056,"éĤ¦":6057,"ï¼Ł&":6058,"åĩºåºĵ":6059,"æħ°":6060,"ä¸įå¥½æĦıæĢĿ":6061,"è½´":6062,"å¹´äºĨ":6063,"åĩłçĻ¾":6064,"å½ĵå¤©":6065,"éŀĭå¸¦":6066,"èĤ¿":6067,"åºĹçļĦ":6068,"åĬ¨äºĨ":6069,"éĺ»":6070,"è¶ħå¿«":6071,"æİ¥çĿĢ":6072,"åı·ä¹°çļĦ":6073,"Ġä¸ľè¥¿è¿ĺè¡Į":6074,"éļ¾åıĹ":6075,"å®īæİĴ":6076,"æĺ¾çĺ¦":6077,"ä¹Łå¾Īä¸įéĶĻ":6078,"çº§çļĦ":6079,"è¿ĺæ²¡æĶ¶åĪ°":6080,"åĽĽäºĶ":6081,"è½»ä¾¿":6082,"ç¡¬çĽĺ":6083,"çĵľ":6084,"çĽ´æİ¥æīĶäºĨ":6085,"è¿Ļæĺ¯ä»Ģä¹Ī":6086,"Ġä¹¦å¾Īå¥½":6087,"å¤§äºĨçĤ¹":6088,"ç±³å¥ĩ":6089,"æĮīæĳ©":6090,"åĭ¤":6091,"Ġä¹°ç»Ļ":6092,"ĠéŀĭåŃĲä¸įéĶĻ":6093,"æ¼ıäºĨ":6094,"æľªæĿ¥":6095,"åĴĮåĽ¾çīĩä¸ĬçļĦ":6096,"æĺ¯æĪĳåĸľæ¬¢çļĦ":6097,"è¯¾å¤ĸ":6098,"å°½ç®¡":6099,"ä¹Łå°±ç®ĹäºĨ":6100,"åģ¥èº«":6101,"è·ĳæŃ¥":6102,"å¤±è´¥çļĦè´Ńçī©":6103,"è½®åŃĲ":6104,"oooo":6105,"è¿Ļä¸ªçīĮåŃĲçļĦ":6106,"å¥½å¥½å¥½å¥½å¥½å¥½å¥½å¥½å¥½çĶ¨":6107,"ï¼ģï¼ģï¼ģï¼ģï¼ģï¼ģï¼ģï¼ģï¼ģï¼ģï¼ģï¼ģï¼ģï¼ģï¼ģï¼ģï¼ģï¼ģï¼ģï¼ģï¼ģï¼ģï¼ģï¼ģï¼ģï¼ģï¼ģï¼ģï¼ģï¼ģï¼ģï¼ģï¼ģï¼ģï¼ģï¼ģï¼ģï¼ģï¼ģï¼ģï¼ģï¼ģï¼ģï¼ģï¼ģï¼ģï¼ģï¼ģï¼ģï¼ģï¼ģï¼ģï¼ģï¼ģï¼ģï¼ģï¼ģï¼ģï¼ģï¼ģï¼ģï¼ģï¼ģï¼ģ":6108,"ç§»åĬ¨":6109,"è¾ħå¯¼":6110,"æ°ĶæŃ»æĪĳäºĨ":6111,"é¥±æ»¡":6112,"éĽ»å½±":6113,"é¥®åĨ°å®¤åĲĪéĽĨ":6114,"Få·±":6115,"ZçļĦæĻºæħ§":6116,"is":6117,"lsquo":6118,"te":6119,"wFå·±":6120,"yåŁºç¡Ģ":6121,"Ġçī©ç¾İä»·å»ī":6122,"ä¸įå¼Ģå¿ĥ":6123,"ä¹ĺ":6124,"æĺ¯çĶ¨":6125,"æĺ¯å¤Ħä¸ĸ":6126,"ä¸Ģå£°":6127,"å¥½å¤Ħ":6128,"åĪł":6129,"å¾ĪæĹ¶å°ļ":6130,"åĲĵ":6131,"åħ¹":6132,"å°±ä¹°":6133,"æĪĳæ²¡":6134,"æĪĳè¿Ļ":6135,"æĪĳåĸľæ¬¢":6136,"è¿Ļä¹¦":6137,"è¿Ļæ®µ":6138,"ä¹ŁéĿŀå¸¸":6139,"ä»¥åįļ":6140,"åľ¨ä¹°":6141,"å¤ªåĿĳ":6142,"åĩĮ":6143,"è¡«":6144,"å®¶éķ¿":6145,"è¯´æľī":6146,"è¯´çļĦæĺ¯":6147,"è´¨éĩıä¸įè¡Į":6148,"è¦ģçļĦæĺ¯":6149,"æ³ª":6150,"åı¯ä»¥è¯´":6151,"ä¸ºyåŁºç¡Ģ":6152,"çĿĢæĢ¥":6153,"åŃ¦å®¶":6154,"èĩªwFå·±":6155,"å¯¹æĸ¹":6156,"å¯¹è±¡":6157,"æīįéĢģåĪ°":6158,"å¿«éĢĴæħ¢":6159,"æĺİå¤©":6160,"åĽ½äº§":6161,"åĨħå¿ĥ":6162,"åĨħè£¤":6163,"ä¸İæııè¿°":6164,"é«ĺå¤§":6165,"èĤĮ":6166,"æ°ĶäºĨ":6167,"æĮºå¥½çľĭ":6168,"ä¹Łä¸įç»Ļ":6169,"çĽ¸æľº":6170,"çģĮ":6171,"Ġä¸ľè¥¿è¿ĺä¸įéĶĻ":6172,"æķĻç¨ĭ":6173,"ä»¥åĲİä¼ļ":6174,"é¦Ī":6175,"ä¸»è§Ĵ":6176,"åİŁè£ħçļĦ":6177,"è¿Ľåı£":6178,"èĻ«":6179,"ä¸ĢçĽ´æ²¡":6180,"çľŁçļĦä¸įéĶĻ":6181,"Ġä¸įå¤ª":6182,"å¥³æĢ§":6183,"æ´Ĺè¡£":6184,"åĲįèĳĹ":6185,"ĠæĪĳä¹°çļĦ":6186,"å½¢æĪĲ":6187,"å½¢æĢģ":6188,"æłĩé¢ĺ":6189,"é£İæīĩ":6190,"å¾Īå¿«å°±":6191,"å®Įåħ¨ä¸Ģèĩ´":6192,"çĥĤçĥĤ":6193,"ä¹ħäºĨ":6194,"è½¯çļĦ":6195,"æİ¨èįĲè´Ńä¹°":6196,"èİ²":6197,"Ġä¸įå¥½åĲĥ":6198,"æ¢¯":6199,"ä¸Ģä¸ĭå°±":6200,"åĤ²":6201,"æķħéļľ":6202,"åıªæľīåĮħå®¹":6203,"ï¼Įï¼Įï¼Įï¼Įï¼Į":6204,"å¤§çļĦèĥ¸æĢĢ":6205,"è¿ĺè¦ģèĩªå·±":6206,"éļıæľº":6207,"ç¼ºå°ĳ":6208,"æŃ£çīĪä¹¦":6209,"èī¯çļĦ":6210,"ä¸Ģçľĭå°±æĺ¯":6211,"è¿Ļæľ¬ä¹¦çļĦ":6212,"åįĥä¸ĩä¸įè¦ģ":6213,"åıĳè´§éĢŁåº¦å¿«":6214,"åĲĮæĹ¶æĪĲåħ¨":6215,"ä»·éĴ±ä¸ĢåĪĨè´§":6216,"å¾Īä¸įèĪĴæľį":6217,"ä»·å»īä»·å»ī":6218,"è¯¢éĹ®":6219,"çĶŁäº§çļĦ":6220,"è®Ńç»ĥ":6221,"ç¬¬ä¸īæĸ¹åįĸå®¶":6222,"æī¹è¯Ħ":6223,"ä¸įéĶĻä¸įéĶĻä¸įéĶĻä¸įéĶĻ":6224,"å¥ĸåĬ±":6225,"åĿļåĨ³":6226,"çļĦå¤§æĻºæħ§":6227,"çĹĽèĭ¦":6228,"æĻ®éĢļçļĦ":6229,"çķħéĶĢ":6230,"æ¤į":6231,"æ¡¥æ¢ģ":6232,"åĮħå®¹æĺ¯å¤Ħä¸ĸ":6233,"æĺ¯ä¸Ģç§įä»¥åįļ":6234,"æĴĴæĹ¦":6235,"æ²¡æľīä»»ä½ķæĦıä¹ī":6236,",,,,":6237,"å¤ªç¡¬äºĨ":6238,"æ©¡":6239,"è´§åĪ°ä»ĺæ¬¾":6240,"èĤļåŃĲ":6241,"ä»ĸäººçļĦåĲĮæĹ¶æĪĲåħ¨":6242,"åİ¨æĪ¿":6243,"æīįèĥ½åľ¨NP":6244,"åĸĦå¾ħä»ĸäººçļĦåĲĮæĹ¶æĪĲåħ¨":6245,"éĶ»çĤ¼":6246,"å¥½å¥½å¥½å¥½å¥½å¥½å¥½å¥½å¥½çĶ¨å¥½å¥½å¥½å¥½å¥½å¥½å¥½å¥½å¥½çĶ¨":6247,"ä¸ºyåŁºç¡ĢZçļĦæĻºæħ§":6248,"å¤§çļĦèĥ¸æĢĢä¸ºyåŁºç¡ĢZçļĦæĻºæħ§":6249,"åĮħå®¹æĺ¯å¤Ħä¸ĸçļĦå¤§æĻºæħ§":6250,"æĺ¯ä¸Ģç§įä»¥åįļå¤§çļĦèĥ¸æĢĢä¸ºyåŁºç¡ĢZçļĦæĻºæħ§":6251,"æīįèĥ½åľ¨NPåĸĦå¾ħä»ĸäººçļĦåĲĮæĹ¶æĪĲåħ¨":6252,"æīįèĥ½åľ¨NPåĸĦå¾ħä»ĸäººçļĦåĲĮæĹ¶æĪĲåħ¨èĩªwFå·±":6253,"120":6254,"hus":6255,"zz":6256,"Ġæľ¬":6257,"Ġæ»¡æĦı":6258,"Ġæīį":6259,"Ġä¸¤":6260,"Ġä¸ī":6261,"Ġå¤ªå·®":6262,"ĠéĢĤåĲĪ":6263,"Ġæĺ¯æŃ£åĵģ":6264,"Ġå¯¹äºİ":6265,"Ġç¡®å®ŀ":6266,"ĠçĶµæ±ł":6267,"ĠåĹ¯":6268,"çļĨ":6269,"çļĦæĸ°":6270,"çļĦç»ıåħ¸":6271,"æľ´":6272,"æĺ¯ä¸į":6273,"ä¸Ģæł¹":6274,"ä¸Ģä»½":6275,"ä¸Ģé¢Ĺ":6276,"å¥½åľ¨":6277,"æľīæĦıæĢĿ":6278,"å°±åıĳçİ°":6279,"æ²¡çļĦè¯´":6280,"è¿Ļè´¨éĩı":6281,"ä¸ªå°ı":6282,"æĹ¨":6283,"è´§çļĦ":6284,"èĢį":6285,"ä¸Ĭç½ĳ":6286,"ä¸ĬçıŃ":6287,"äººéĥ½":6288,"çľĭåĽ¾":6289,"çľĭä¼¼":6290,"çľĭå®ĮäºĨ":6291,"åĳĨ":6292,"çĤ¹äºĨ":6293,"æķĮ":6294,"å°ıæĹ¶åĢĻ":6295,"æ²¡æľīéĢģ":6296,"èĪ°":6297,"æŀĿ":6298,"ç©·":6299,"çİ²":6300,"æµ¸":6301,"å°±æĺ¯æĦŁè§ī":6302,"æĦŁæĥħ":6303,"æ¯Ķè¿Ļ":6304,"å¼Ģæ°´":6305,"å¼Ģåı£":6306,"æĮºæ¼Ĥäº®çļĦ":6307,"è¿Ļä¸ªä¸ľè¥¿":6308,"è·ĥ":6309,"ä¹°çļĦä¹¦":6310,"çĶŁçļĦ":6311,"æµģç¨ĭ":6312,"ä¹ĭä¸ĭ":6313,"æīįåıĳè´§":6314,"éĢĢä¸įäºĨ":6315,"æľīçĤ¹åĦ¿":6316,"åģļå¾Ĺ":6317,"æľĢæĸ°":6318,"æľĢä½³":6319,"èĦĸ":6320,"åľ°ä½į":6321,"è¿ĺæĺ¯æ¯Ķè¾ĥ":6322,"æĺİçļĦ":6323,"é¢ĺçĽ®":6324,"åĩłä¸ªæľĪ":6325,"éĩįçļĦ":6326,"éĩįè§Ĩ":6327,"çī¹å¾ģ":6328,"çī¹æ®Ĭ":6329,"æ°´äºĨ":6330,"æīĢåľ¨":6331,"éª¤":6332,"åĲĮæĦı":6333,"è§£æŀĲ":6334,"è´¹çĶ¨":6335,"åŃĹéĻĲåĪ¶":6336,"åĽ¾çīĩä¸ĬçļĦ":6337,"æ¸ħæ´ģ":6338,"åģļå·¥å¾Īå¥½":6339,"æĶ¾äºĨ":6340,"è±«":6341,"åĨĻåŃĹ":6342,"æ·³":6343,"ä¸»æµģ":6344,"åħīæ³½":6345,"éĥ½ä¸įæķ¢":6346,"ä¹łé¢ĺ":6347,"çĶ¨äºĨåĩłå¤©":6348,"ä½¿çĶ¨æĸ¹ä¾¿":6349,"è¾¹ä¸Ĭ":6350,"æľ¬ä¹¦çļĦ":6351,"æłĩå¿Ĺ":6352,"åĽłä¸ºæĺ¯":6353,"åį°æľ¬":6354,"å¥¹å¾Īåĸľæ¬¢":6355,"èĳ©":6356,"çļĦä¹¦ç±į":6357,"ç¥ŀå¥ĩ":6358,"æĶ¶åĪ°è´§åĲİ":6359,"è§Ĩéĩİ":6360,"æľįåĬ¡æĢģåº¦å·®":6361,"è®¾è®¡çļĦ":6362,"å¥ĩèĳ©":6363,"å²³":6364,"èĦıäºĨ":6365,"çľĭçľĭç»Ŀå¯¹":6366,"196":6367,"æĩĤçļĦ":6368,"ĠéĿŀå¸¸ä¸įéĶĻ":6369,"èĦ±èĲ½":6370,"å©Ĩå©Ĩ":6371,"è¯įæ±ĩ":6372,"éĩįè¦ģçļĦæĺ¯":6373,"ç§¯ç´¯":6374,"èı²":6375,"çĨĬ":6376,"æİĴçīĪ":6377,";ï¼Į&":6378,"ä¸ªäººæĦŁè§ī":6379,"æ²¡æ³ķç©¿":6380,"ç»Ħè£ħ":6381,"ç»ĦåĲĪ":6382,"çĨŁè¯»":6383,"å¦¹å¦¹":6384,"æ±Łèĭı":6385,"å°±è¿Ļæł·åĲ§":6386,"ä¸įæĸŃåľ°":6387,"åĮħå®¹åĮħå®¹æĺ¯å¤Ħä¸ĸçļĦå¤§æĻºæħ§":6388,"æīİå®ŀ":6389,"éŁ©åĽ½":6390,"tim":6391,"é¹ħ":6392,"å¥½å¥½å¥½å¥½å¥½å¥½å¥½åıĳå¾Īå¥½å¥½å¥½å¥½å¥½å¥½å¥½å¥½åıĳå¾Īå¥½å¥½å¥½å¥½å¥½å¥½å¥½å¥½åıĳå¾Īå¥½å¥½å¥½å¥½å¥½å¥½å¥½å¥½åıĳå¾Īå¥½":6393,"éģ¥æİ§åĻ¨":6394,"éĦĻè§Ĩäº¬ä¸ľ":6395,"è¤¶çļ±":6396,"æĿ¥å¾ĹåıĬ":6397,"çľĭçľĭç»Ŀå¯¹æľīæĶ¶èİ·":6398,".\\":6399,"``":6400,"lt":6401,"Ġèĩªå·±":6402,"Ġæīĵå¼Ģ":6403,"ĠæīĭæĦŁ":6404,"ĠåģĩçļĦ":6405,"ĠèĢģå©Ĩ":6406,"çļĦä¿¡":6407,"çļĦåįĸå®¶":6408,"çļĦæķĪæŀľ":6409,"ä¸įéĢģ":6410,"ä¹Ķ":6411,"å¾Ĳ":6412,"å®¾":6413,"ä¸Ģæµģ":6414,"ä¸Ģéģį":6415,"ä¸ĢåłĨ":6416,"å¥½åķĬ":6417,"å¾Īåİļ":6418,"å¾Īæ¸ħæĻ°":6419,"æľīåĽ¾":6420,"æľīä¸¤":6421,"æľīåĳ³éģĵ":6422,"æ²¿":6423,"å°±çĶ¨":6424,"å°±å¼Ģå§ĭ":6425,"å°±éĤ£æł·":6426,"æ¬ł":6427,"æĦ§":6428,"ä¹Łåĸľæ¬¢":6429,"ä¹Łå¥½çľĭ":6430,"æĿ¥èĩª":6431,"æĢĴ":6432,"éĥ½å¿«":6433,"å¤ªå¥½äºĨ":6434,"å¤ªçĥĤäºĨ":6435,"å¤ªéķ¿äºĨ":6436,"äººä¸º":6437,"åĮĢ":6438,"åıĳçļĦè´§":6439,"è¦ģæŃ»":6440,"å°ıè´µ":6441,"æ²¡æľīä¸ĢçĤ¹":6442,"å¤ļå¹´":6443,"åĢº":6444,"å¸¸å¸¸":6445,"çĿĢçĶ¨":6446,"æħķ":6447,"ä¸įæĺ¯æĪĳ":6448,"å¯¹äº¬ä¸ľ":6449,"å¯¹å¾Ĺèµ·":6450,"çĶŁæĢģ":6451,"ä»ĸåľ¨":6452,"å®¢è§Ĥ":6453,"åİ»ä¹°":6454,"æ¸į":6455,"æĹłèī²å·®":6456,"åģļäºĨ":6457,"åľ°çĲĨ":6458,"è¿ĺæĺ¯è¦ģ":6459,"çī©æµģå¾Īç»ĻåĬĽ":6460,"æĺİç¡®":6461,"æ³ķè¯Ń":6462,"çĪ¬":6463,"ä¸İåįĸå®¶":6464,"æ°´çļĦ":6465,"ç¡ķ":6466,"éŁ³åĥı":6467,"æĥħèĬĤ":6468,"ç»Ĩç»Ĩ":6469,"å§ĵ":6470,".......":6471,"éľ¸":6472,"éľĸ":6473,"åİŁçĲĨ":6474,"æł¹æľ¬å°±ä¸į":6475,"æıĲåĩº":6476,"ç®Ģæĺİ":6477,"çĶ¨äºĨä¸Ģæ¬¡":6478,"éĤ£ä¹Īå¤§":6479,"åĲĪéĢĤçļĦ":6480,"çļĦä¸ľè¥¿äºĨ":6481,"å»ºè®¾":6482,"æ´Ĺåıĳ":6483,"éĢģè´§åĳĺ":6484,"å¤įåĪ¶":6485,"è·¯è¾¹":6486,"çľŁå¿ĥçļĦ":6487,"åŃ¦ä¹łçļĦ":6488,"å¯ĦåĽŀ":6489,"ä¸Ģä¸ĭåŃĲ":6490,"Ġä¹¦æĺ¯":6491,"ç±»åŀĭ":6492,"ç»Łä¸Ģ":6493,"è¶ħçº§å·®":6494,"ä¹Łå¾Īå¥½çľĭ":6495,"ĠéĿŀå¸¸ä¸įæ»¡æĦı":6496,"çģµéŃĤ":6497,"ä¸Ģèµ·ä¹°çļĦ":6498,"ä¾Ľè´§":6499,"ç§°ä¸º":6500,"æĿĤéŁ³":6501,"åĲ¯è¿ª":6502,"æ±īä¹¦":6503,"åĿĹéĴ±çļĦ":6504,"ç»¿èī²":6505,"èµ·çĲĥäºĨ":6506,"å®ĺæĸ¹":6507,"åĲĮæł·çļĦ":6508,"éĺ¶æ®µ":6509,"çľŁæŃ£çļĦ":6510,"ä¿ĥéĶĢ":6511,"çĬ¹è±«":6512,"æ·¡æ·¡çļĦ":6513,"æĹ¶è£ħçĶ»":6514,"ra":6515,"éł":6516,"Ġæ°´":6517,"ĠéĩĮéĿ¢":6518,"Ġæ´»åĬ¨":6519,"ĠéªĹåŃĲ":6520,"Ġåį°åĪ·":6521,"Ġè½¦åŃĲ":6522,"çļĦæ°´":6523,"çļĦåķĨå®¶":6524,"çļĦåŃ¦ä¹ł":6525,"çļĦåİŁåĽł":6526,"æľĥ":6527,"ä¸įè®©":6528,"ä¸įæĦ¿æĦı":6529,"å¾Ĵ":6530,"ä¸ĢåĮħ":6531,"ä¸Ģåı£":6532,"åĲµ":6533,"åĲ»":6534,"æľīæīĢ":6535,"è¿ĺåįĸ":6536,"å°±ä¸įè¦ģ":6537,"æī°":6538,"çĶ¨ä¹¦":6539,"æĦĪ":6540,"ä¸įéĶĻäºĨ":6541,"å¤ªéļ¾":6542,"ä¸Ĭæ¥¼":6543,"çľĭä¹¦":6544,"åıĳåĩº":6545,"çĤ¸":6546,"è¦ģæ³¨æĦı":6547,"çĤ¹çĤ¹":6548,"åĵģç§į":6549,"æ²¡æľīçĶ¨":6550,"è£ħä¿®":6551,"é¢Ĥ":6552,"å®ŀéªĮ":6553,"è¿ĩæ»¤":6554,"å¤©æĹł":6555,"æµĳ":6556,"å°±æĺ¯ä¸Ģä¸ª":6557,"æĭ¨":6558,"çľŁä¸įçŁ¥éģĵ":6559,"èī²æ³½":6560,"æĬ¢":6561,"éĢģäººäºĨ":6562,"éĿŀå¸¸ä¸įå¥½":6563,"è¿Ļä¸ªéĹ®é¢ĺ":6564,"å±Ĭ":6565,"åİ»å¹´":6566,"åıªä¸įè¿ĩ":6567,"åĪĨä¸º":6568,"åĽ¾ä¸Ĭ":6569,"æĹłæīĢè°ĵ":6570,"å¿«éĢĴå°ıåĵ¥":6571,"åħ¨æĸ°":6572,"åľ°çļĦ":6573,"åľ°è¯´":6574,"å®¢æľįæľįåĬ¡":6575,"ä¸¤æľ¬":6576,"æĺİäºĨ":6577,"æĢİä¹Īä¼ļ":6578,"ä¹°äºĨä¸¤ä¸ª":6579,"ä½ĵçļĦ":6580,"çī¹æľīçļĦ":6581,"ä»·æł¼ä¹Łä¸į":6582,"ãĢĭãĢĤ":6583,"èĢģåŃĲ":6584,"èĢģé¸Ń":6585,"åĬ¨åĬĽ":6586,"æ°Ķè´¨":6587,"æľĪåŃĲ":6588,"æĸ°è°·":6589,"åįģäºĶ":6590,"è¯Ńæ³ķ":6591,"ç²¾åĵģ":6592,"åı·æīįåĪ°":6593,"èº«è¾¹":6594,"å¤´çļĦ":6595,"åģļå·¥ä¸įéĶĻ":6596,"æĶ¾çĿĢ":6597,"æĬĬæīĭ":6598,"æ·ĺ":6599,"åħīæ»ĳ":6600,"åĬłå¼º":6601,"æĤ¬":6602,"æľĭåıĭæİ¨èįĲ":6603,"è¯ķè¿ĩ":6604,"æĹ¥å¸¸":6605,"éĢĢè´§çļĦ":6606,"è¿Ľä¸ĢæŃ¥":6607,"éĥ½ä¸įç»Ļ":6608,"æł¹æľ¬æ²¡":6609,"è¿Ļä¹Īå¤§":6610,"æķ´çĲĨ":6611,"å¤§å®¶åĪ«":6612,"åı²æĸĻ":6613,"çī¹åĪ«åĸľæ¬¢":6614,"åĻ¢":6615,"çħ²":6616,"å¹³åı°":6617,"ç©¿çĿĢä¸įèĪĴæľį":6618,"Ġè¡£æľįæĶ¶åĪ°äºĨ":6619,"ç¬¬äºĮä¸ª":6620,"ç¬¬ä¸Ģæ¬¡ç»Ļå·®è¯Ħ":6621,"ä¹Łæĺ¯éĨīäºĨ":6622,"æłĩæ³¨":6623,"å¹²åĺĽ":6624,"åĲ¬åĪ°":6625,"Ġå¤ªå¤§äºĨ":6626,"å°Ĩè¿ĳ":6627,"å¥¹è¯´":6628,"èİİ":6629,"å¼Ģå§ĭçĶ¨":6630,"åľ¨äº¬ä¸ľä¹°äºĨ":6631,"æ·±åº¦":6632,"åĬŁå¤«":6633,"å¦Ĥæŀľä½ł":6634,"çľĭåĪ°çļĦ":6635,"éªĮè¯ģ":6636,"é¢ĨåŃĲ":6637,"å¹¿æ³Ľ":6638,"åĸĿäºĨ":6639,"å¥½å¤ļäºĨ":6640,"éĺ²æ»ĳ":6641,"éĺ²ä¼ª":6642,"å¤ĸè§Ĥæ¼Ĥäº®":6643,"åİĭåĬĽ":6644,"åİĭæł¹":6645,"åĳµåĳµäºĨ":6646,"çīĽçļ®":6647,"æĩĴå¾ĹéĢĢ":6648,"éĴ¢çĲ´":6649,"èı©":6650,"æĺ¾ç¤ºåĻ¨":6651,"æİĴçıŃ":6652,"å¾Īä¸įæ»¡":6653,"çĬ¶åĨµ":6654,"å¥³åĦ¿å¾Īåĸľæ¬¢":6655,"æīĺé©¬":6656,"æħ¢æħ¢æħ¢æħ¢":6657,"åŁŁåĲį":6658,"æĪĳè¦ģçļĦæĺ¯":6659,"å¼Łå¼Ł":6660,"æĳĦå½±":6661,"åĪ®çĹķ":6662,"åį«çĶŁ":6663,"å¯»æī¾":6664,"åĬ³åĬ¨":6665,"11111111":6666,"åĲĬçīĮ":6667,"çºłç»ĵ":6668,"ç»ıåħ¸éĨĩç»ıåħ¸éĨĩç»ıåħ¸éĨĩç»ıåħ¸éĨĩç»ıåħ¸éĨĩç»ıåħ¸éĨĩç»ıåħ¸éĨĩç»ıåħ¸éĨĩç»ıåħ¸éĨĩç»ıåħ¸éĨĩç»ıåħ¸éĨĩç»ıåħ¸éĨĩç»ıåħ¸éĨĩç»ıåħ¸éĨĩç»ıåħ¸éĨĩç»ıåħ¸éĨĩç»ıåħ¸éĨĩç»ıåħ¸éĨĩç»ıåħ¸éĨĩç»ıåħ¸éĨĩç»ıåħ¸éĨĩç»ıåħ¸éĨĩç»ıåħ¸éĨĩç»ıåħ¸éĨĩç»ıåħ¸éĨĩç»ıåħ¸éĨĩç»ıåħ¸éĨĩç»ıåħ¸éĨĩç»ıåħ¸éĨĩç»ıåħ¸éĨĩç»ıåħ¸éĨĩç»ıåħ¸éĨĩ":6669,"åĬŀåħ¬å®¤":6670,"times":6671,"09":6672,"be":6673,"nP":6674,"no":6675,"³å¦ĩ":6676,"Ġ&":6677,"Ġè¦ģ":6678,"Ġä½ł":6679,"Ġä¸Ģæ¬¡":6680,"Ġå¥½è¯Ħ":6681,"Ġç©¿ä¸Ĭ":6682,"ĠåĴĮåĽ¾çīĩ":6683,"Ġæĺİæĺİ":6684,"Ġæĺ¨å¤©":6685,"ĠèĮ¶åı¶":6686,"Ġå¸½åŃĲ":6687,"çļĦå¿«":6688,"çļĦèµ·":6689,"çļĦç¾İ":6690,"æľĹ":6691,"ä¸įä½Ĩ":6692,"ä¸įéĢĢ":6693,"ä¸įåĲĪçĲĨ":6694,"ä¸įç¨³":6695,"ãĢĤï¼Ī":6696,"å¾½":6697,"è¯Ī":6698,"éĢĥ":6699,"éĢĹ":6700,"è¿ĺåĩĳåĲĪ":6701,"å°±åĪ°äºĨ":6702,"æĪĳå°±ä¸į":6703,"æ²¡è§ģè¿ĩ":6704,"æ²¡è¯Ŀè¯´":6705,"å¸ķ":6706,"æĸ¼":6707,"å¤§ä¼Ĺ":6708,"ä¸Ĭä¸Ģ":6709,"åĨ»":6710,"çľĭå¾Ĺ":6711,"ä¹¦ä¸ŃçļĦ":6712,"åıĳä¸ª":6713,"åıĳçĥŃ":6714,"è´¨éĩıå¾Īä¸įéĶĻ":6715,"æ¯¯":6716,"ç»ĻäºĪ":6717,"æĦıçļĦ":6718,"æĦıæĸĻ":6719,"å¿«çĤ¹":6720,"æ²¡æľīéĹ®é¢ĺ":6721,"èĥ½åĲ¦":6722,"å¤ļèĬ¬":6723,"åĸ»":6724,"å°±æĺ¯æ²¡æľī":6725,"åı¯ä»¥è®©ä½ł":6726,"éĿ¢èĨľ":6727,"ç©¿è¿ĩ":6728,"èĩªæľī":6729,"èĩªä¸»":6730,"éĴ®":6731,"åĮħè£ħå®Įå¥½":6732,"æ´¥":6733,"éĤ£æĺ¯":6734,"å±ĳ":6735,"çłĸ":6736,"ä»Ģä¹Īéĥ½æ²¡æľī":6737,"è°Ĳ":6738,"æ¸Ĺ":6739,"æĹłçº¿":6740,"æľĢå¤±è´¥":6741,"åľ°çĲĥ":6742,"åĳ³çļĦ":6743,"åĩłå¹´":6744,"æĪĲçĨŁ":6745,"éĩįå¤į":6746,"å½ĵåĪĿ":6747,"ç§įç±»":6748,"åĬ¨æīĭ":6749,"åĬ¨ä½ľ":6750,"åĬ¨çĶ»":6751,"ä¸īæĺŁ":6752,"æľįåĬ¡å·®":6753,"æ°ĶçļĦ":6754,"æ°Ķäºº":6755,"ä¹Łä¸įè¡Į":6756,"ï¼īãĢĤ\\":6757,"åıĳè´§äºĨ":6758,"åŁĥ":6759,"åįģåĩłå¤©":6760,"è§£çŃĶ":6761,"ä»İæŃ¤":6762,"ç²¾åįİ":6763,"é»İ":6764,"æľŁç»´çī¹æł¹æĸ¯åĿ¦":6765,"æĥħç»ª":6766,"æģ¢":6767,"Ġä¸ľè¥¿å¾Īä¸įéĶĻ":6768,"æĽ´å¤ļçļĦ":6769,"åĬłè¥¿äºļ":6770,"èįĴ":6771,"ä¾¿å®ľçļĦ":6772,"ä¾¿å®ľå¥½å¤ļ":6773,"æł¹æľ¬å°±æĺ¯":6774,"éħįçļĦ":6775,"è´Ŀå¤ļèĬ¬":6776,"åıįé¦Ī":6777,"é»ĳçĻ½":6778,"ä¸ĭæ¬¡ä¸įä¼ļ":6779,"èħ¹":6780,"èĬĤå¥ı":6781,"ä¸ŃåĽ½åı¤ä»£":6782,"åħ¶ä»ĸéĥ½":6783,"çĥŃçĪ±":6784,"è¿ĺå¥½åĲ§":6785,"ä¸¤ä¸ªåŃĹ":6786,"Ġçī©æµģå¤ªæħ¢äºĨ":6787,"Ġå¥½ä¹¦":6788,"ç¤¼çĽĴ":6789,"åħĭåĬĽ":6790,"åħ¬åı¸ä¹°çļĦ":6791,"è¡¥åģ¿":6792,"æįŁå¤±":6793,"199":6794,"ç¼ºä¹ı":6795,"ç¼ĸåĨĻ":6796,"çªĿ":6797,"æıĴä¸Ĭ":6798,"ç«ĭåĪ»":6799,"å¯¸çļĦ":6800,"èĵĿèī²çļĦ":6801,"æĪĺçķ¥":6802,"åĩºçīĪçļĦ":6803,"èĽ®å¥½":6804,"è§£åĨ³äºĨ":6805,"ç¯®":6806,"å·¥ä½ľäººåĳĺ":6807,"æ¨¡ä¸Ģæł·":6808,"çľĭäºĨä¸ĭ":6809,"é¡ºæīĭ":6810,"è°¢è°¢åįĸå®¶":6811,"åıĳå±ķçļĦ":6812,"å¾Īä¸įçĪ½":6813,"Ġä»Ģä¹Īçİ©æĦı":6814,"æ£ĢéªĮ":6815,"Ġä»·æł¼ä¾¿å®ľ":6816,"Ġä»·æł¼å®ŀæĥł":6817,"èĴ¸":6818,"åĨ°ç®±":6819,"é¢ĦæľŁ":6820,"çĿ¡è§ī":6821,"èĢģåħ¬å¾Īåĸľæ¬¢":6822,"çĽĹçīĪä¹¦":6823,"èµ¶ä¸Ĭ":6824,"åĶĲèĢģé¸Ń":6825,"arr":6826,"åª³å¦ĩ":6827,"æİ¢ç´¢":6828,"çī¢åĽº":6829,"3333333333333333333333333333333333333333333333333333333333333333333333333333333333333333333333333333333333333333333333333333333333333333333333333333333333333333333333333333333333333333333333333333333333333333333333333333333333333333333333333333333333333333":6830,"æ±½è½¦":6831,"å¹¼åĦ¿":6832,"åĺ¿åĺ¿":6833,"æĹĹèĪ°":6834,"ä¸ĵåįĸåºĹ":6835,"æĦīå¿«çļĦè´Ńçī©":6836,"æķ·è¡į":6837,"01":6838,"44":6839,"USB":6840,"aa":6841,"ay":6842,"ve":6843,"~ï¼ģ":6844,"´èĿ¶":6845,"ĠæĸĻåŃĲ":6846,"Ġçľĭä¸Ĭåİ»":6847,"Ġå·®å·®å·®":6848,"ä¸įèī¯":6849,"æĺ¯ä¸įéĶĻ":6850,"è´¡":6851,"è¯±":6852,"æľīçĽĬ":6853,"éĢĬ":6854,"éĢĿ":6855,"è¿ĺæ¯Ķè¾ĥ":6856,"å°±ç»Ļ":6857,"å°±ä¸įæĺ¯":6858,"å°±åĪ«":6859,"å°±æİī":6860,"å°±çł´äºĨ":6861,"æĪĳä¸į":6862,"æĪĳæĬĬ":6863,"è¿Ļè¡£æľį":6864,"çĶ¨æīĭ":6865,"ä¹Łè¡Į":6866,"ä¹Łå¾Īåĸľæ¬¢":6867,"è§Ī":6868,"åľ¨è¿Ļå®¶":6869,"å¤ªè®©äºº":6870,"çľĭåĲ§":6871,"æľįè£ħ":6872,"åĳĲ":6873,"åĳľ":6874,"åĮĻ":6875,"ä¹¦åĨĻ":6876,"è¦ģä¹°çļĦ":6877,"è¦ģåıĳç¥¨":6878,"åĴ¸":6879,"å°ıç¤¼çī©":6880,"ç»Ļå¥¹":6881,"è£ħäºĨ":6882,"åĴĮåįĸå®¶":6883,"è¿ĩäºİ":6884,"æµ¦":6885,"æµ´":6886,"æĭ¢":6887,"çľŁä¸įéĶĻ":6888,"çľŁåĵģ":6889,"éĢģçļĦä¸ľè¥¿":6890,"æ¯Ķä¾ĭ":6891,"æ¬¢è¿İ":6892,"åĩºä¹İ":6893,"å¼Ģè£Ĥ":6894,"å¼ĢéĺĶ":6895,"éĿŀå¸¸æ£Ĵ":6896,"æĮºå¤§çļĦ":6897,"åķĨä¸ļ":6898,"è¿Ļä¸ªæĺ¯":6899,"åĮħè£ħä¸įéĶĻ":6900,"å¯¹å¾ħ":6901,"æīĭæ®µ":6902,"åĢ¼äºĨ":6903,"è´ŃçļĦ":6904,"æĸ¹æ¡Ī":6905,"æĶ¶åĪ°çļĦè´§":6906,"çł¸":6907,"åĪĨè¾¨":6908,"ç¬¬äºĶ":6909,"çĲĨä¸įçĲĨ":6910,"æľĢé«ĺ":6911,"è¿ĺæĺ¯ä¸įéĶĻ":6912,"ä¸¤åıĮ":6913,"åħ¶ä¸ŃçļĦ":6914,"Ġè´¨éĩıå¾Īä¸įéĶĻ":6915,"æľºåħ³":6916,"åįķèĸĦ":6917,"æĸĩçĮ®":6918,"éĴ±ä¹°":6919,"å¤ĸéĿ¢çļĦ":6920,"æĢ§æĦŁ":6921,"è¶ħåĸľæ¬¢":6922,"åıĳè´§æħ¢":6923,"åįģå¤©":6924,"ä½¿ä½ł":6925,"éĽķ":6926,"åĽłç´ł":6927,"åŃ©åŃĲä¹°çļĦ":6928,"è¡¨çĽĺ":6929,"èĬ±çļĦ":6930,"äº§åĵģçļĦ":6931,"æĭ¿åİ»":6932,"éħįç½®":6933,"ä¹Łå¾Īæ¼Ĥäº®":6934,"æ¯Ľçº¿":6935,"å¸ĮæľĽä»¥åĲİ":6936,"Ġä¸įæĥ³":6937,"èģĶç³»åįĸå®¶":6938,"çĭł":6939,"ä¼łè¯´":6940,"å§ĭç»Ī":6941,"è®¤äºĨ":6942,"é©¾":6943,"ä¸ŃçļĦåŀĥåľ¾":6944,"ä¿®è®¢":6945,"æĸ¯çī¹":6946,"è´´èº«":6947,"æĮĩå®ļ":6948,"æµ·æ´ĭ":6949,"åı¤äºº":6950,"Ġå®Ŀè´Ŀå¾Īå¥½":6951,"æĬĺæī£":6952,"å¯¼èĪª":6953,"åĪ·åŃĲ":6954,"èĹ©":6955,"ä¸įå¤ªæ»¡æĦı":6956,"ä¸įå¤ªä¸Ģæł·":6957,"å½©èī²":6958,"ä¸ĢåĪĨä»·éĴ±ä¸ĢåĪĨè´§":6959,"éļıæĹ¶":6960,"æıĴå¤´":6961,"è£Ĥç¼Ŀ":6962,"å¤©æīįæĶ¶åĪ°":6963,"çĳ°":6964,"é»Ħéĩĳ":6965,"åĦ¿åŃĲå¾Īåĸľæ¬¢":6966,"å·§åħĭåĬĽ":6967,"éŃı":6968,"å·´å·´":6969,"åħ»çĶŁ":6970,"èĢģå©Ĩå¾Īåĸľæ¬¢":6971,"èĴĤ":6972,"ç»¿æŀĹ":6973,"æĺ¥ç§ĭ":6974,"ä¸ĭæ¬¡è¿ĺä¹°":6975,"èįīèįī":6976,"èĿ´èĿ¶":6977,"åĤ¬äºĨ":6978,"æī«æıı":6979,"å±ģèĤ¡":6980,"ä»ĵä½į":6981,"æľĢå·®çļĦä¸Ģæ¬¡":6982,"çľŁçļ®çļĦ":6983,"ä»İæĿ¥æ²¡æľī":6984,"è¯¸å¤ļ":6985,"hhhh":6986,"èĤłèĥĥ":6987,"éĶĭåĪ©":6988,"çĳŀåħ¸":6989,"49":6990,"nèĢĥçĤ¹":6991,"om":6992,"¥åĮĻ":6993,"Ġæĸ°":6994,"Ġå¤§å®¶":6995,"Ġä¹ĭåīį":6996,"Ġå¤ªæħ¢äºĨ":6997,"Ġç¬¬ä¸Ģ":6998,"ĠçľĭäºĨ":6999,"ĠæľīçĤ¹å°ı":7000,"Ġçº¸å¼ł":7001,"ĠéĶħ":7002,"ĠçĽĴåŃĲ":7003,"ĠèĢģæĿ¿":7004,"Ġå¸ĥæĸĻ":7005,"Ġç®±åŃĲ":7006,"Ġæīĭè¡¨":7007,"Ġçī©åĵģ":7008,"Ġåĩĳåįķ":7009,"çļĦåıĳ":7010,"ä¸įåı¯ä»¥":7011,"ä¸įåĲĪ":7012,"ä¸įèµ·æĿ¥":7013,"ä¸įè¯´äºĨ":7014,"ä¸įéĢıæ°Ķ":7015,"ä¸įéĿłè°±":7016,"ä¸ĢæĺŁæľŁ":7017,"ä¸ĢæĹ¦":7018,"å¾ĪåĢ¼å¾Ĺ":7019,"çĶĺ":7020,"æľīæķĪæŀľ":7021,"æľīå·®è·Ŀ":7022,"è¿ĺè¯´æĺ¯":7023,"æ²¡éĤ£ä¹Ī":7024,"æ²¡åıĳçİ°":7025,"ä¹°å°ıäºĨ":7026,"è¿Ļä»·æł¼":7027,"çĶ¨æĸĻ":7028,"çĶ¨ä¸įä¸Ĭ":7029,"èĢĢ":7030,"å¤§éĻĨ":7031,"åľ¨çĶ¨":7032,"éĥ½åĨĻå¾Ĺå¾Īå¥½":7033,"å¤ªè½¯":7034,"çľĭåĪ°äºĨ":7035,"çľĭä¸įåĪ°":7036,"è¯´å®ŀè¯Ŀ":7037,"è´¨éĩıä¹Łå¥½":7038,"çĽ²":7039,"è¦ģå¥½":7040,"åĴ±":7041,"åĴĴ":7042,"å¯¿":7043,"å°ıåĮº":7044,"å¤ļä¹Ī":7045,"å¤ļå¤ļ":7046,"åĴĮå¼ł":7047,"çİĽ":7048,"ä¸ĭæīĭ":7049,"ä¸Ńä¸įè¶³":7050,"è¾ī":7051,"çľŁå·®":7052,"æĬ¬":7053,"æ¯Ķè¿Ļä¸ª":7054,"éģĵçļĦ":7055,"èĩªæıĲ":7056,"éĿŀå¸¸ä¸įæ»¡æĦı":7057,"éĴ¥åĮĻ":7058,"ä¸įå¥½ä¸įå¥½":7059,"æīĭå·¥":7060,"è´Ńä¹¦":7061,"ä½ĨæĪĳ":7062,"éĩĮè¾¹":7063,"è°ĭ":7064,"åıªä¼ļ":7065,"åıªæĥ³è¯´":7066,"åĪĨäºĨ":7067,"æĦŁè§īå¾Īå¥½":7068,"æľīçĤ¹åĥı":7069,"å¿«éĢĴå¾Īç»ĻåĬĽ":7070,"å¹´åº¦":7071,"æĻ¨":7072,"ç½ļ":7073,"æĽ¹":7074,"é«ĺæ¡£":7075,"è¾ĥå¤§":7076,"æľįåĬ¡å¤ªå·®":7077,"è¶ħå¥½":7078,"ç¾İåľ¨":7079,"ä¹Łä¸įæĥ³":7080,"æ¯Ķè¾ĥå¤§":7081,"éŁ³åĵį":7082,"æİ¥è¿ĳ":7083,"éķ¿æľŁ":7084,"é»ı":7085,"ç½ĳä¸ĬçļĦ":7086,"äºĨä¸Ģå¤§":7087,"æĢģåº¦ä¸įå¥½":7088,"æ¸ħé¦Ļ":7089,"åģļå·¥å¥½":7090,"æĬĬæı¡":7091,"ä¿Ŀåģ¥":7092,"ç»ĻæĪĳåıĳè´§":7093,"çĪ±çĲĨä¸įçĲĨ":7094,"çľŁçļĦå¾Īå¥½":7095,"è¾¹è§Ĵ":7096,"è½¦ä¸Ĭ":7097,"å¥³æľĭåıĭ":7098,"åıįèĢĮ":7099,"åĽĽå¤©":7100,"åĲįåŃĹ":7101,"å½¢çĬ¶":7102,"è¯Ħä»·çļĦ":7103,"ç¬¬ä¸Ģæ¬¡ä¹°":7104,"ä¹Łæĺ¯ä¸Ģç§į":7105,"å®Įåħ¨ä¸į":7106,"åħ¶ä»ĸè¿ĺå¥½":7107,"çľ¼åħī":7108,"è´´èĨľ":7109,"æ·±çļĦ":7110,"æ·±æĢĿ":7111,"Ġçī©æµģæħ¢":7112,"éĿŀå¸¸å¥½çĶ¨":7113,"Ġä¹¦çļĦ":7114,"å¸ĥé²ģ":7115,"è¯ģä¹¦":7116,"æĮģç»Ń":7117,"æĶ¹éĿ©":7118,"ç±³çļĦ":7119,"åĵªä¸ª":7120,"éĥ½æ²¡æĶ¶åĪ°":7121,"é²į":7122,"æŃ¥éª¤":7123,"æĿ¾äºĨ":7124,"çªĦ":7125,"æĪĺæĸĹ":7126,"æĻ®éģį":7127,"çİĭæľĿ":7128,"å®ŀéĻħä¸Ĭ":7129,"çķĻçĿĢ":7130,"çķĻè¨Ģ":7131,"éĵ¾åŃĲ":7132,"ĠçĶ¨èµ·æĿ¥":7133,"å»īä»·":7134,"Ġè¿ĺæ²¡çľĭ":7135,"æķ£æĸĩ":7136,"130":7137,"äºĨä¸Ģä¸ªæĺŁæľŁ":7138,"å¼¹åĬĽ":7139,"ä¸°å¯ĮçļĦ":7140,"å¢ŀéķ¿":7141,"ç©¿èµ·æĿ¥å¾ĪèĪĴæľį":7142,"é±¼ç«¿":7143,"æĺ¥èĬĤ":7144,"è¿ĺç®Ĺåı¯ä»¥":7145,"ä¼Ĺå¤ļ":7146,"Ġä¸ĢçĽ´çĶ¨":7147,"å¤ªä¸įç»ĻåĬĽäºĨ":7148,"åºŁè¯Ŀ":7149,"æµ®èºģ":7150,"ä¸İåĽ¾çīĩä¸įç¬¦":7151,"å§Ĳå§Ĳ":7152,"çĩĥ":7153,"åĨľæ°ĳ":7154,"ä¸įçŁ¥éģĵæĺ¯ä¸įæĺ¯æŃ£åĵģ":7155,"ĠæĢ»ä½ĵæĿ¥è¯´":7156,"Ġè¿ĺæ²¡æľīçĶ¨":7157,"åºĦåŃĲ":7158,"æĪĴæĮĩ":7159,"æ¶µçĽĸ":7160,"æ²¡å¾Ĺè¯´":7161,"åĭºåŃĲ":7162,"èģªæĺİ":7163,"åĪ¹è½¦":7164,"æīĺé©¬æĸ¯åĴĮ":7165,"75":7166,"JD":7167,"gh":7168,"nn":7169,"næĪĳ":7170,"näºĶ":7171,"çį":7172,"Ġä¸¥éĩį":7173,"ĠåŁºæľ¬":7174,"Ġå°ıåŃ©":7175,"Ġæł·å¼ı":7176,"ĠæĿĲè´¨":7177,"ĠæŃ£åľ¨":7178,"çļĦçľĭ":7179,"çļĦéĴ±":7180,"ä¸įå¸¦":7181,"ä¸įå®ŀçĶ¨":7182,"ä¸įåı¯èĥ½":7183,"è¿Ī":7184,"ä¸Ģæīĵå¼Ģ":7185,"è´·":7186,"å¥½åĸľæ¬¢":7187,"å¥½æ±ī":7188,"æľīåĬŀæ³ķ":7189,"æĪĪ":7190,"éĢ¸":7191,"åħ®":7192,"è¿ĺè®©æĪĳ":7193,"å°±æĬĬ":7194,"æīĳ":7195,"æ²¡éĶĻ":7196,"è¿Ļä»¶":7197,"åĪ°æŀģ":7198,"ä¹ŁèĪĴæľį":7199,"ä¹Łç®Ĺ":7200,"å·®å¾Īå¤ļ":7201,"è´§åĵģ":7202,"è´§åĪ°äºĨ":7203,"å¼¦":7204,"å¤ªæ¬¡":7205,"å¤ªé«ĺ":7206,"å¤ªå°ĳ":7207,"ä¸Ĭäº¬ä¸ľ":7208,"ä¸Ĭä¼ł":7209,"åĨ¶":7210,"äººæĢ§":7211,"äººå£«":7212,"çľĭåĩº":7213,"è¯´è¿ĩ":7214,"çĤ¹çļĦ":7215,"åĴ½":7216,"ç»Ļä»ĸ":7217,"æĹ¶åħī":7218,"ä»·å®ŀ":7219,"ä¸ĭéĽ¨":7220,"ä¸ĭè½½":7221,"ä¸ŃéĢļ":7222,"çľŁä»·å®ŀ":7223,"éĿ¢ç§¯":7224,"ä¸ºä¸»":7225,"éģĵå¾·":7226,"åŃ¦åĪ°":7227,"ç©¿åľ¨èº«ä¸Ĭ":7228,"éĿŀå¸¸å¤±æľĽ":7229,"æĮºä¸įéĶĻ":7230,"æĮºæ»¡æĦıçļĦ":7231,"äº¬ä¸ľå¿«éĢĴ":7232,"çĶŁçī©":7233,"çĶµç£ģ":7234,"æīĭæ³ķ":7235,"çĦĬ":7236,"çŃĭ":7237,"åĽ¾æĸĩ":7238,"æīįæĺ¯":7239,"æĦŁè§īå¾Ī":7240,"æĹłåĬĽ":7241,"éĹ®éĹ®":7242,"æľĢå¥½çļĦ":7243,"å®¢æľįä¹Ł":7244,"å®¢æľįæ²ŁéĢļ":7245,"ä¸Ģæ¬¡è´Ńçī©":7246,"æĪĲç»©":7247,"å½ĵæĪĳ":7248,"å½ĵåľ°":7249,"äºĭå®ŀ":7250,"æį¢çļĦ":7251,"åıĪè¯´":7252,"è¶ħèµŀ":7253,"ç¾İä¸Ńä¸įè¶³":7254,"æ¯Ķè¾ĥåĸľæ¬¢":7255,"ï¼ī&":7256,"ï¼īï¼Ī":7257,"éŁ³éĩı":7258,"åĶ¤":7259,"åįģä¹Ŀ":7260,"æİ¥åĪ°":7261,"é¢ľèī²å¥½çľĭ":7262,"ä½Ĩæĺ¯æĪĳ":7263,"ç¼Ĩ":7264,"ç¼ļ":7265,"èº«é«ĺ":7266,"æĥħæĢĢ":7267,"èĪĴæľįçļĦ":7268,"åģļå·¥ç»Ĩèĩ´":7269,"æĶ¾å¤§":7270,"åħ¸åŀĭ":7271,"åħ¬éģĵ":7272,"éļ¾å¾Ĺ":7273,"éļ¾åº¦":7274,"ä¾¿å®ľäºĨ":7275,"çİ©çļĦ":7276,"é»ĳåºĹ":7277,"å®ĥæĺ¯":7278,"å¹³å¸¸":7279,"èħ¥":7280,"è£¤èĦļ":7281,"Ġè¡£æľįè¿ĺåı¯ä»¥":7282,"2010":7283,"ä»»åĬ¡":7284,"æĭīæĸ¯":7285,"çĥĤè´§":7286,"ä¸įåĪ°ä¸Ģä¸ªæľĪ":7287,"åıªèĥ½çĶ¨":7288,"ç¡¬çļĦ":7289,"ç¥ŀç»ı":7290,"çĽ®æłĩ":7291,"çº¢èī²çļĦ":7292,"è§Ĩè§ī":7293,"ç¿ĺ":7294,"åĳ¨å¹´":7295,"Ġå¥½ä¸ľè¥¿":7296,"é©¬èĻİ":7297,"å¾Īå·®åĬ²":7298,"æĮīéĴ®":7299,"æľīä¸ĢèĤ¡":7300,"èĭ±éĽĦ":7301,"æŁ¥ä¸įåĪ°":7302,"éļıæĦı":7303,"ä¸ĸçķĮçļĦ":7304,"ç¬¬ä¸Ģéĥ¨":7305,"ĠéĿŀå¸¸å¥½çļĦ":7306,"åĢĴéĹŃ":7307,"æĭĨäºĨ":7308,"æ¥ļè¾ŀ":7309,"åĲ¸æĶ¶":7310,"åĲ¸æ°´":7311,"çīĽå¥¶":7312,"æºĲäºİ":7313,"åı¥åŃĲ":7314,"é£ŀæľº":7315,"ç¡®å®ŀä¸įéĶĻ":7316,"æ¨¡æĭŁ":7317,"èľĤ":7318,"é¢Ĺç²Ĵ":7319,"åĩºçİ°äºĨ":7320,"é¾Ħ":7321,"ç¬¬äºĮæ¬¡ä¹°äºĨ":7322,"2000":7323,"ç¯ĩæĸĩç«ł":7324,"çºªå¿µ":7325,"çģ°èī²":7326,"æĪĳæĥ³è¦ģçļĦ":7327,"åĩĳåĲĪçĿĢ":7328,"åĲīä»ĸ":7329,"ç»Ļä¸ªå·®è¯Ħ":7330,"å·®è·Ŀå¤ªå¤§":7331,"çĭĹå±ģ":7332,"çªģçł´":7333,"éĽ¶ä»¶":7334,"ä¸įåĴĭçļĦ":7335,"ä¸ĢæĺŁéĥ½ä¸įæĥ³ç»Ļ":7336,"æ²¡äººçĲĨ":7337,"å´ĩ":7338,"éĢĶä¸Ń":7339,"å¤§æ°Ķä¸Ĭæ¡£æ¬¡":7340,"åĢŁéī´":7341,"æŀľæĸŃå·®è¯Ħ":7342,"çĬ¹å¦Ĥ":7343,"èĶ¡":7344,"çļĦäººçĶŁéģĵè·¯":7345,"è¯ģåĪ¸çļĦ":7346,"Ġç¬¬äºĮæ¬¡ä¹°äºĨ":7347,"ä¸įå½±åĵįä½¿çĶ¨":7348,"æ´Ľéĺ³":7349,"âĢ¦":7350,"è³ª":7351,"æ·»åĬł":7352,"è®¡ç®Ĺæľº":7353,"é»Ľä¸Ŀ":7354,"éŃħåĬĽ":7355,"ç¶ĵ":7356,"èĦĸåŃĲ":7357,"èı©æıĲ":7358,"ç»¿æŀĹå¥½æ±ī":7359,"æīĺé©¬æĸ¯åĴĮæľĭåıĭ":7360,"04":7361,"chi":7362,"em":7363,"jd":7364,"ly":7365,"näºĮ":7366,"âķ":7367,"ç·":7368,"ç¸":7369,"Ġ2":7370,"Ġçº¿":7371,"Ġè½¦":7372,"ĠæŃ£çīĪ":7373,"Ġèī²å·®":7374,"ĠæĢ§ä»·æ¯Ķ":7375,"Ġåı£æĦŁ":7376,"Ġä¸ĢåĪĨéĴ±ä¸ĢåĪĨè´§":7377,"çļĦä¸įéĶĻ":7378,"çļĦåĳ¢":7379,"çļĦå½±åĵį":7380,"ä¸įä¸Ģ":7381,"ä¹¾":7382,"å¤ķ":7383,"æĺı":7384,"åıī":7385,"ä¸Ģä»£":7386,"å¾Īäº®":7387,"åĲ¾":7388,"æľīåĩł":7389,"æľīæľºä¼ļ":7390,"åħģ":7391,"è¿ĺè´µ":7392,"æĪĳå¾Ī":7393,"æ²¡æĶ¶åĪ°è´§":7394,"ä¹°ä¸Ģä¸ª":7395,"è¿Ļä¸¤":7396,"ä¸ªæĢ§":7397,"çĶ¨åĲİ":7398,"åĵĳ":7399,"èĢ¶":7400,"å¤§åĵ¥":7401,"éĥ½å¾Īåĸľæ¬¢":7402,"éĥ½å¾Īæ»¡æĦı":7403,"ä¹¦å±Ģ":7404,"å°ıåŃ¦çĶŁ":7405,"åĵģåĳ³":7406,"åĴĮæııè¿°çļĦä¸Ģæł·":7407,"åĮħåĲ«":7408,"å°±æĺ¯åĳ³éģĵ":7409,"è¾©":7410,"æ°Ľ":7411,"éĿ¢æĿ¿":7412,"æĦŁåħ´è¶£":7413,"éĿŀè¦ģ":7414,"æĥ³æ³ķ":7415,"åŃ¦èī¯çļĦ":7416,"åĩºå·®":7417,"èĩªè¡Įè½¦":7418,"ä¸Ģä¸ªå°ı":7419,"ä¸Ģä¸ªå¤ļ":7420,"ä¸Ģä¸ªç¤¼æĭľ":7421,"éĿŀå¸¸ä¸į":7422,"äº¬ä¸ľä¸Ĭ":7423,"è¡ĮçļĦ":7424,"å¯¹äºĨ":7425,"ä¹°çļĦå¥½":7426,"çĶŁäºİ":7427,"ä½łè¯´":7428,"ä½łå°±åı¯ä»¥":7429,"çĶµåĻ¨":7430,"åīĶ":7431,"ä½ľéľĸ":7432,"æŃ£è§Ħ":7433,"æħ¢äºĨ":7434,"çĥĺ":7435,"å¿«éĢĴç»ĻåĬĽ":7436,"æľĢå·®çļĦ":7437,"ä¾¿äºİ":7438,"å®¢æľįä¹Łä¸į":7439,"æĻ¾":7440,"éĻª":7441,"çī©æµģä¿¡æģ¯":7442,"æĢİä¹Īçľĭ":7443,"æĢİä¹Īè¿Ļä¹Ī":7444,"Ġè´¨éĩıéĿŀå¸¸å¥½":7445,"æĸĩæĺİ":7446,"é«ĺä»¿":7447,"çī¹æ¢Ń":7448,"æ¬¾çļĦ":7449,"çŃīçļĦ":7450,"äºĮç»´":7451,"ä¹Łä¸įä¸Ģæł·":7452,"è·Łæľ¬":7453,"åķĨåĵģè¯Ħä»·":7454,"èĢĮä¸Ķæĺ¯":7455,"åįĸå®¶è¯´":7456,"æ³¨æĺİ":7457,"æ¶¯":7458,"æľŁæľĽ":7459,"åģļå·¥ä¸ĢèĪ¬":7460,"åģļå·¥å¾Īç²¾èĩ´":7461,"æ£ĭ":7462,"ä»¶å¥Ĺ":7463,"Ġå¾Īå®ŀçĶ¨":7464,"éľīäºĨ":7465,"åĨħå®¹åĮħæĭ¬":7466,"ç»ĻæĪĳåıĳçļĦ":7467,"æĹ¶éĹ´éķ¿":7468,"è¿ĽçļĦ":7469,"æĭ¿çĿĢ":7470,"çļ®äºĨ":7471,"èĭį":7472,"åı²ä¸Ĭ":7473,"Ġä¸įè¡Į":7474,"åĮĸäºĨ":7475,"å¼łä½ľéľĸ":7476,"èģĶç³»äºĨ":7477,"å¹³éĿĻ":7478,"èħĬ":7479,"ä¸įåĢ¼éĤ£ä¸ª":7480,"è¯Ħä»·äºĨ":7481,"åİĨç¨ĭ":7482,"ãĢĤãĢĤãĢĤãĢĤãĢĤãĢĤãĢĤãĢĤãĢĤ":7483,"æ¯ıä¸ªäºº":7484,"çļĦä¸Ģç§į":7485,"å®Įåħ¨æ²¡æľī":7486,"åħĥä»¥ä¸Ĭ":7487,"çº¢æ¥¼":7488,"åĪ©æķĻèĤ²":7489,"æµ·ç»µ":7490,"æ²¹çĥŁ":7491,"ç»Łæ²»":7492,"æĭįäºĨ":7493,"åĭķ":7494,"çļĦå¥½å¤Ħ":7495,"è¡¥æ°´":7496,"å¾Ģä¸ĭ":7497,"æĹ©çŁ¥éģĵ":7498,"æľīä¸Ģå®ļçļĦ":7499,"æŁ¥çľĭ":7500,"ç«łèĬĤ":7501,"æ¨±":7502,"ï¼Įï¼Įï¼Įï¼Įï¼Įï¼Įï¼Į":7503,"èĥĮå¸¦":7504,"åł¡":7505,"æĩĤå¾Ĺ":7506,"ä¸ĸçķĮä¸Ĭ":7507,"èµĦæºĲ":7508,"ç¬¬ä¸īæ¬¡":7509,"ä»¥åīįçļĦ":7510,"ä¸Ĭåİ»çļĦ":7511,"è£ĤçĹķ":7512,"æīĶæİī":7513,"çĮ©":7514,"åħ±åĲĮ":7515,"å¤ĦçĲĨçļĦ":7516,"çģ¯æ³¡":7517,"ç²ĺéĶħ":7518,"ä¸ĢèĪ¬èĪ¬åĲ§":7519,"ä»ħä»ħ":7520,"å·¦åĤ³":7521,"ï½ŀï½ŀï½ŀ":7522,"è¿½è¯Ħ":7523,"æĶ¯æĮģäº¬ä¸ľ":7524,"å¥½åĥıæĺ¯":7525,"ç´łè´¨":7526,"æ¯įäº²":7527,"æ¼Ķå¥ı":7528,"ä¹¦ç±įçļĦ":7529,"å²ģåĦ¿ç«¥":7530,"åľĨéĢļå¿«éĢĴ":7531,"çļĦå¿ĥçĲĨ":7532,"çļĦå¿ĥæĥħ":7533,"æĪ¿éĹ´":7534,"é¡¹éĵ¾":7535,"åħ°æ³¢":7536,"çľĭä¸įæ¸ħ":7537,"ä¸ĭæ¬¡è¿ĺä¼ļåĨįæĿ¥":7538,"éĻĪæ·³":7539,"ood":7540,"æĳĨè®¾":7541,"å¥ıé¸£":7542,"åĮ»åŃ¦":7543,"æĮĳæĪĺ":7544,"å®¡ç¾İ":7545,"å·¥åħ·ä¹¦":7546,"èĪªç©º":7547,"èĴĻçī¹æ¢Ń":7548,"è®¨åİĮ":7549,"æııè¿°çļĦå®Įåħ¨ä¸Ģèĩ´":7550,"æĹłè®ºæĺ¯":7551,"æĿŁç¼ļ":7552,"è°ģä¹°è°ģåĲİæĤĶ":7553,"ä¸Ģåı¥è¯Ŀ":7554,"æľĢéĩįè¦ģçļĦæĺ¯":7555,"èļĬå¸Ĳ":7556,"æĲºå¸¦æĸ¹ä¾¿":7557,"æ£Ĵæ£ĴåĵĴ":7558,"ãĢĤãĢĤãĢĤãĢĤãĢĤãĢĤãĢĤãĢĤãĢĤãĢĤãĢĤãĢĤãĢĤãĢĤãĢĤãĢĤãĢĤãĢĤãĢĤãĢĤãĢĤãĢĤãĢĤãĢĤãĢĤãĢĤãĢĤãĢĤãĢĤãĢĤãĢĤãĢĤãĢĤãĢĤãĢĤãĢĤãĢĤãĢĤãĢĤãĢĤãĢĤãĢĤãĢĤãĢĤãĢĤãĢĤãĢĤãĢĤãĢĤãĢĤãĢĤãĢĤãĢĤãĢĤãĢĤãĢĤãĢĤãĢĤãĢĤãĢĤãĢĤãĢĤãĢĤãĢĤ":7559,"ä¼Ļä¼´":7560,"æīĵèĦļæīĵèĦļæīĵèĦļæīĵèĦļ":7561,"åį±éĻ©":7562,"AAAAAAAA":7563,"çĸ¾çĹħ":7564,"æĳĦåĥıå¤´":7565,"æģ¢å¤į":7566,"åĴĮå¼łåŃ¦èī¯çļĦ":7567,"ç»¿æŀĹå¥½æ±īæķħäºĭ":7568,"äºĮç»´çłģ":7569,"å¼łä½ľéľĸåĴĮå¼łåŃ¦èī¯çļĦ":7570,"å¥ıé¸£æĽ²":7571,"èĴĻçī¹æ¢ŃåĪ©æķĻèĤ²":7572,"å¼łä½ľéľĸåĴĮå¼łåŃ¦èī¯çļĦç»¿æŀĹå¥½æ±īæķħäºĭ":7573,"05":7574,"06":7575,"EM":7576,"ir":7577,"nèĥ½æºĲ":7578,"oz":7579,"you":7580,"Ġè¯¥":7581,"Ġè´§çī©":7582,"Ġè°¢è°¢":7583,"Ġä¸Ģä¸ªåŃĹ":7584,"çļĦåŃ©åŃĲ":7585,"çļĦçĹķè¿¹":7586,"ä¸įåİ»":7587,"ä¸įä¹ħ":7588,"ä¸įæĺİçĻ½":7589,"å¤º":7590,"æĺ§":7591,"ä»ĩ":7592,"æĺ¯æŃ£çīĪ":7593,"å®¿":7594,"å®Ļ":7595,"ä¸Ģå°ı":7596,"ä¸Ģåı°":7597,"å¾Īåŀĥåľ¾":7598,"å¾Īé¦Ļ":7599,"å¾Īç²Ĺç³Ļ":7600,"è¿ĺå·®":7601,"è¿ĺæĿ¥":7602,"è¿ĺæľª":7603,"å°±è·Ł":7604,"çī§":7605,"æī¼":7606,"è¿Ļä»½":7607,"ä¸ªçĶµè¯Ŀ":7608,"æł½":7609,"ä¹Łå·®":7610,"ä¹Łä¸ĢèĪ¬":7611,"å¤§äºĨä¸Ģ":7612,"å¼¥":7613,"åľ¨ä¸ĬéĿ¢":7614,"åľ¨åĵªéĩĮ":7615,"åŃĲä¸Ĭ":7616,"è®¼":7617,"å¤ªçŁŃ":7618,"å¤ªåģĩäºĨ":7619,"åĨł":7620,"ä¼ı":7621,"åıĳè¿ĩæĿ¥çļĦ":7622,"è¦ģæľī":7623,"èĥ½åľ¨":7624,"èĥ½ç©¿":7625,"å¤ļè¯»":7626,"è£ħå¥½":7627,"åĮħéĤ®":7628,"è¿ĩä¸Ģæ¬¡":7629,"éģİ":7630,"å°±æĺ¯åĮħè£ħ":7631,"å°±æĺ¯è¿Ļæł·":7632,"çľŁå¥½":7633,"éĿ¢å¥¶":7634,"æĬĦ":7635,"éĢģæĿ¥çļĦ":7636,"æ¯Ķæĥ³è±¡ä¸Ń":7637,"åĿ¨":7638,"ä¸Ģä¸ªå°ıæĹ¶":7639,"éĿŀå¸¸åĸľæ¬¢çļĦ":7640,"åĮħè£ħä¹Łå¾Ī":7641,"ä½łå°±":7642,"ä¸įå¥½äºĨ":7643,"èĢĮåıĪ":7644,"å±Ī":7645,"æľīçĤ¹å·®":7646,"è¿ĺæĺ¯æĮº":7647,"å®¢æľįçĶµè¯Ŀ":7648,"åĽŀåĪ°":7649,"åĨįçĶ¨":7650,"ä¸¤è¾¹":7651,"å¦Ĥä»Ĭ":7652,"åĽ½å¤ĸ":7653,"æĪĲè¿Ļæł·":7654,"æľºæŀĦ":7655,"åįķè¯į":7656,"å½ĵä»Ĭ":7657,"çī¹ä¹Ī":7658,"ä»·æł¼åĲĪçĲĨ":7659,"å¤ĸå¥Ĺ":7660,"å®ĮæĪĲäºĨ":7661,"æ°´æĻ¶":7662,"è¶ħèĥ½åĬĽ":7663,"å¥½å¥½çļĦ":7664,"å£®":7665,"æ¯Ķè¾ĥå¿«":7666,"åįģåħ«":7667,"ä»İæĸĩ":7668,"åŃĹæ¯į":7669,"æĢģåº¦å¥½":7670,"è¢«éªĹ":7671,"æĶ¾åĪ°":7672,"çº¿æĿ¡":7673,"åĳ³éģĵå¾Īå¥½":7674,"ä¸»äºº":7675,"Ġå¾Īæ£Ĵ":7676,"ä¸įèĥ½åĨį":7677,"æ¡Ĥ":7678,"åĬłåĽº":7679,"åİŁåĪĻ":7680,"ç»ĻæĪĳå¯Ħ":7681,"ç»ĻæĪĳåıĳäºĨ":7682,"éĥ½ä¸įè¦ģ":7683,"èĢĥåı¤":7684,"æ¯Ľé¢Ĩ":7685,"æİ¨åį¸":7686,"å¸ĮæľĽå¤§å®¶":7687,"Ġè¿Ļå¥Ĺ":7688,"æ´ĹéĿ¢å¥¶":7689,"ä¸įè¦ģä¹°äºĨ":7690,"ä¸ĵçĶ¨":7691,"ä¼łæĴŃ":7692,"ãĢĤãĢĤãĢĤãĢĤãĢĤãĢĤãĢĤãĢĤãĢĤãĢĤãĢĤ":7693,"çļĦä¸ĢäºĽ":7694,"åĲĦèĩª":7695,"å¹²çļĦ":7696,"å¹²äºĨ":7697,"å¯ĦåĪ°":7698,"ç¥ŀç§ĺ":7699,"æĮĩåįĹ":7700,"æ¶Īå¤±":7701,"å¤ĩæ³¨":7702,"åĳ¨åĽ´":7703,"åķ¦åĴ¯":7704,"é¦Ļæ¸¯":7705,"çĻ¾æĲŃ":7706,"è¯īè®¼":7707,"æº¢":7708,"å®ŀæĥłçļĦ":7709,"å¾Ģäºĭ":7710,"è¿Ļæł·çļĦåķĨå®¶":7711,"å±ķç¤º":7712,"çĶŁæ´»ä¸ŃçļĦ":7713,"ä¸¥éĩįçļĦ":7714,"ä¹Łæ²¡äºº":7715,"è¶³è¶³":7716,"ĠæĦŁè§īä¸įéĶĻ":7717,"èĥĮéĿ¢":7718,"èĥĮçĿĢ":7719,"å¹¿å·ŀ":7720,"ç®ĢåįķçļĦ":7721,"çģµæķı":7722,"ç«ĭåį³":7723,"åħ´å¥ĭ":7724,"ç¦»è°±":7725,"æīĶæİīäºĨ":7726,"çİĭåŃĲ":7727,"çĳľ":7728,"æŀ¶äºĨ":7729,"Ġåĳ³éģĵä¸įéĶĻ":7730,"ä¹°åĽŀæĿ¥å°±":7731,"å¢ĥçķĮ":7732,"æ¿Ģåħī":7733,"Ġå¸®åĲĮäºĭä¹°çļĦ":7734,"çĺ¾":7735,"ä¸įå¯¹çīĪ":7736,"ç»¿éĩİ":7737,"èĩŃåĳ³":7738,"å«©":7739,"è¿Ķä¿®":7740,"è¾ĵåħ¥":7741,"åºŁäºĨ":7742,"åĢŁåı£":7743,"èĪŀè¹":7744,"ä»¥åĲİè¿ĺä¼ļä¹°":7745,"å®ĹæķĻ":7746,"äºĮæīĭçļĦ":7747,"æĹ¶æľŁçļĦ":7748,"ä¸įä¼ļåĨįä¹°äºĨ":7749,"æĬ¹å¸ĥ":7750,"è¯ķäºĨä¸ĭ":7751,"åŀĥåľ¾åŀĥåľ¾åŀĥåľ¾åŀĥåľ¾åŀĥåľ¾åŀĥåľ¾åŀĥåľ¾åŀĥåľ¾":7752,"ä¼Łå¤§":7753,"Ġä¸įæĢİä¹Īå¥½":7754,"æ»ļæ»ļ":7755,"å¿łå®ŀ":7756,"çº¤ç»´":7757,"RRRRRRRR":7758,"å©´åĦ¿":7759,"æł·å¼ıä¸įéĶĻæł·å¼ıä¸įéĶĻ":7760,"æŀ¯çĩ¥":7761,"é¢łè¦Ĩ":7762,"æ©¡èĥ¶":7763,"æĹĹèĪ°åºĹ":7764,"å²ģåĦ¿ç«¥èĴĻçī¹æ¢ŃåĪ©æķĻèĤ²":7765,"èĪŀè¹Ī":7766,";ãĢĬ":7767,"nç¬¬ä¸ī":7768,"ow":7769,"ta":7770,"ver":7771,"Ġæīĵ":7772,"Ġè®¾è®¡":7773,"Ġä¸ĭåįķ":7774,"Ġåķ¥":7775,"çļĦæľ¬":7776,"çļĦçī©æµģ":7777,"çļĦåį¡":7778,"ä¸įåģľ":7779,"è¿ģ":7780,"äºĨä¸Ģæ¬¡":7781,"æĺ¯å¯¹":7782,"æĺ¯çł´çļĦ":7783,"ä¸Ģå¯¹":7784,"å¥½åĿı":7785,"å¥½è¯»çī©":7786,"å¾ĪæĹ§":7787,"å¾Īå¼Ģå¿ĥ":7788,"ç»ĳ":7789,"éĢĽ":7790,"åħľ":7791,"è¿ĺä¸įéĶĻçļĦ":7792,"è¿ĺä»¥ä¸º":7793,"å°±åĪ°":7794,"å°±çľĭ":7795,"å°±æĸŃ":7796,"æ²¡åĪ°":7797,"æ²¡åĩłå¤©å°±":7798,"ä¹°è¿Ļ":7799,"ä¸ªèµŀ":7800,"ä¹ŁæĮºå¥½":7801,"æĿ¥åĪ°":7802,"åľ¨å®ŀä½ĵåºĹ":7803,"éĥ½å·²ç»ı":7804,"è®¯":7805,"å¤ªä¸ĢèĪ¬äºĨ":7806,"éĩıçļĦ":7807,"è´¨éĩıä¸įæĺ¯å¾Īå¥½":7808,"è¦ģä¹Ī":7809,"çĤ¹åĩ»":7810,"éĹº":7811,"å°ıä¸Ģ":7812,"å¿«äºĨ":7813,"å¾Īå¥½åĲĥ":7814,"æľ¬çļĦ":7815,"æ²¡æľīäºĨ":7816,"èĥ½è£ħ":7817,"å¾ĹåĪ°äºĨ":7818,"åĴĮåĽ¾":7819,"åĴĮåķĨå®¶":7820,"çºµ":7821,"æİı":7822,"å¤©æ°Ķ":7823,"æµĨ":7824,"æµĻ":7825,"å°±æĺ¯åľ¨":7826,"æ³ī":7827,"æĶ¶çļĦ":7828,"æĶ¶éŁ³":7829,"æĦŁæĤŁ":7830,"æ¯ĶåĽ¾çīĩ":7831,"çŁ£":7832,"æĥ³èµ·":7833,"æĥ³éĢĢ":7834,"åĩºåİĤ":7835,"å¼Ģçº¿äºĨ":7836,"éĿŀå¸¸æħ¢":7837,"éĿŀå¸¸æ¼Ĥäº®":7838,"å¯¹ä¸įä¸Ĭ":7839,"ä¸įå¥½çļĦ":7840,"èĢĮä¸į":7841,"è½§":7842,"èµ·çļĦ":7843,"æįī":7844,"æŃ£éĿ¢":7845,"ä»Ģä¹Īéĥ½":7846,"ä»Ģä¹ĪæĦıæĢĿ":7847,"æµģä¼ł":7848,"æīįåı¯":7849,"æĹłçĸĳ":7850,"çĲĨäºĨ":7851,"å¿«éĢĴå¤ªæħ¢":7852,"å¿«éĢĴå¾Īå¿«":7853,"å¹´åĲİ":7854,"è¿ĺæĺ¯ä¹°":7855,"è¿ĺæĺ¯åĿıçļĦ":7856,"åĳ³åĦ¿":7857,"å®¢æľįçļĦ":7858,"ä¸¤å¼ł":7859,"æĺİæĻº":7860,"åīįçļĦ":7861,"Ġè´¨éĩıè¿ĺè¡Į":7862,"Ġè´¨éĩıè¿ĺä¸įéĶĻ":7863,"Ġè´¨éĩıå¾Īä¸ĢèĪ¬":7864,"æĸĩèīº":7865,"ä»·æł¼ä¸įè´µ":7866,"å®ĮåĸĦ":7867,"åĬ¨äºº":7868,"ä¸īä¸ªæľĪ":7869,"è®©ä»ĸ":7870,"åıĪæľī":7871,"æ°Ķæ³¡":7872,"åįģä¸ī":7873,"å®ļäºĨ":7874,"éĥ¨ä»¶":7875,"ç½ĳåºĹ":7876,"åĪļåĪ°":7877,"æŁ´":7878,"æ£ķ":7879,"æĽ´æľī":7880,"åŃ©åŃĲçļĦå¿ĥçģµ":7881,"åĬłåİļ":7882,"æĹ¥åŃĲ":7883,"å®īéĿĻ":7884,"éĥ½ä¸įå¦Ĥ":7885,"éĥ½æĺ¯åĿıçļĦ":7886,"æĭ¿åľ¨":7887,"èĭĹ":7888,"å·²ç»ıæĺ¯":7889,"è¿ĺä¸įéĶĻåĲ§":7890,"ä½¿çĶ¨ä¸Ń":7891,"ç¢ĳ":7892,"ï¼ģï¼ģï¼ģ\\":7893,"æķ°çłģ":7894,"çī¹åĪ«æħ¢":7895,"æŃ»æİīäºĨ":7896,"å½±çīĩ":7897,"éĢģè´§ä¹Łå¾Īå¿«":7898,"ä¸ĭæ¬¡åĨį":7899,"ĠæĪĳæĺ¯":7900,"ç»ĻåĬĽçļĦ":7901,"è¿ŀçİ¯":7902,"ç¬¬ä¸Ģæ¬¡å·®è¯Ħ":7903,"åĳĺå·¥":7904,"å¥½çľĭçļĦ":7905,"ãĢĤãĢĤãĢĤãĢĤãĢĤãĢĤãĢĤãĢĤãĢĤãĢĤ":7906,"åĲĦæĸ¹éĿ¢":7907,"æııåĨĻ":7908,"æ¬¾å¼ıä¸įéĶĻ":7909,"Ġå¤ªå°ı":7910,"å¥¹ä»¬":7911,"èĽ¾":7912,"æ¶Īæ¯Ĵ":7913,"åĪ©çĽĬ":7914,"èµ°åĲĳ":7915,"åĳ¨æľ«":7916,"æīĵå¼ĢäºĨ":7917,"èĥ¶å¸¦":7918,"ä¸ºä»Ģä¹Īä¸į":7919,"æĶ¿çŃĸ":7920,"æķħæĦı":7921,"åıĸå¾Ĺ":7922,"ç±³å¦":7923,"æºĥ":7924,"é¦ĸéĢī":7925,"éĿ¢æĸĻå¾Īå¥½":7926,"è¶³å¤Ł":7927,"åįİä¸½":7928,"å¹¿ä¸ľ":7929,"åłµ":7930,"æĲŀçļĦ":7931,"æĺ¯ä¸Ģéĥ¨":7932,"æľĢåĲİè¿ĺæĺ¯":7933,"Ġå¿«éĢĴå¤ªæħ¢äºĨ":7934,"æĭĨå°ģ":7935,"ç«ĭé©¬":7936,"è²·":7937,"èĵĿåħī":7938,"æ¸¸æ³³":7939,"è¯įåħ¸":7940,"æĸĩåŃ¦åı²":7941,"è¿Ļå®¶çļĦ":7942,"çĶ·å£«":7943,"ä¸Ģå®ļæľīåĬŀæ³ķ":7944,"æķ£çĥŃ":7945,"ï¼ģï¼ģï¼ģï¼ģï¼ģï¼ģï¼ģï¼ģï¼ģï¼ģï¼ģï¼ģï¼ģï¼ģï¼ģï¼ģï¼ģï¼ģï¼ģï¼ģï¼ģï¼ģï¼ģï¼ģï¼ģï¼ģï¼ģï¼ģ":7946,"åĿĹéĴ±çļĦä¸ľè¥¿":7947,"Ġä»Ģä¹Īçł´":7948,"!!!":7949,"èĭ¦éļ¾":7950,"å¥³åĦ¿éĿŀå¸¸åĸľæ¬¢çļĦ":7951,"ç¢Łçīĩ":7952,"ĠéĢģäººçļĦ":7953,"æ¬ºè¯Ī":7954,"æ¯ķä¸ļ":7955,"åº§æ¤ħ":7956,"è¿Ľè¡ĮäºĨ":7957,"çľĭä¸įåĩº":7958,"è¢ĸåı£":7959,"æıĲä¾ĽäºĨ":7960,"èĤ¯å®ļæĺ¯":7961,"æģ¶å¿ĥäºĨ":7962,"ï¼Łï¼Łï¼Łï¼Łï¼Łï¼Łï¼Łï¼Ł":7963,"ä¼łç»ŁçļĦ":7964,"ä¼ĳæģ¯":7965,"èµļéĴ±":7966,"å®¡æł¸":7967,"çĩķ":7968,"å¿ĥçĲĨåŃ¦":7969,"åįıåķĨ":7970,"æľĢå·®çļĦä¸Ģæ¬¡è´Ńçī©":7971,"è¿«ä¸įåıĬ":7972,"éĿŀå¸¸å·®éĿŀå¸¸å·®":7973,"äºĮæīĭè´§":7974,"åĭĩæķ¢":7975,"å¥īåĬĿ":7976,"æ²Ĵæľī":7977,"æľīæķĪçļĦ":7978,"vvvv":7979,"å§Ķåĳĺ":7980,"ä¸ŃåĽ½åİĨåı²å¸¸è¯Ĩ":7981,"æĪĳåıªä¿¡èµĸäº¬ä¸ľ":7982,"æľºæ¢°æľºæ¢°":7983,"åģļå·¥å¾Īç²¾ç»Ĩ":7984,"çĪ±å¥½èĢħ":7985,"éĺĲè¿°":7986,"å¤©ä¸ĭçĶµåķĨ":7987,"å°Ĭéĩį":7988,"å¤§å¤ļæķ°":7989,"æ²Īä»İæĸĩ":7990,"çİ«çĳ°":7991,"å¹½é»ĺ":7992,"è¿ĩå¾Ĺåİ»":7993,"åĺİåĺİ":7994,"hush":7995,"çĨŁè¯»æ·±æĢĿ":7996,"åĲ¯è¿ªåŃ©åŃĲçļĦå¿ĥçģµ":7997,"æĸ°è°·å¼ĺ":7998,"èĶ¡çĲ´":7999,"çº¢æ¥¼æ¢¦":8000,"çĳľä¼½":8001,"å¥½è¯»çī©åĲ¯è¿ªåŃ©åŃĲçļĦå¿ĥçģµ":8002,"å¥³åĦ¿éĿŀå¸¸åĸľæ¬¢çļĦè¯»çī©":8003,"è¿«ä¸įåıĬå¾ħ":8004,"34":8005,"\\\\":8006,"ml":8007,"nä¸ī":8008,"ri":8009,"rarr":8010,"Ġåģļ":8011,"Ġåīį":8012,"Ġè´Ńä¹°":8013,"ĠåħĪ":8014,"ĠèĮ¶":8015,"Ġäº¬ä¸ľçļĦ":8016,"Ġåħ¶å®ŀ":8017,"ĠéħįéĢģ":8018,"Ġå®¢æľįæĢģåº¦":8019,"ĠçľŁçļĦæĺ¯":8020,"Ġçļ®è´¨":8021,"ä¸Ī":8022,"çļĦçĥŃ":8023,"çļĦä¸ĸçķĮ":8024,"çļĦéĩįè¦ģ":8025,"çļĦæĶ¯æĮģ":8026,"çļĦæĸĩç«ł":8027,"çļĦèĳĹä½ľ":8028,"äº¿":8029,"ä¸įåĽŀ":8030,"ä¸įä¹łæĥ¯":8031,"è¿Ŀ":8032,"äºĨåĩł":8033,"åı®":8034,"æĺ¯æ²¡æľī":8035,"ä¸Ģåľº":8036,"å¾Īä¸¥éĩį":8037,"å¾Īåı¯çĪ±":8038,"å¾Īå¸ħ":8039,"åĲŀ":8040,"æľīä¸¤ä¸ª":8041,"å·¢":8042,"åľĭ":8043,"å°±è¡Į":8044,"å°±çĽ´æİ¥":8045,"çīµ":8046,"æĪĳä¸Ģ":8047,"æ²¡åıįåºĶ":8048,"è¿Ļä»·":8049,"è¿Ļè¾¹":8050,"å¿Ĵ":8051,"éĶĻçļĦ":8052,"æĦļ":8053,"å¸ĺ":8054,"ä¹Łæĸ¹ä¾¿":8055,"èĢ»":8056,"å¤§å¤§":8057,"å¤ªåİļ":8058,"ä¸Ĭå¸Ĥ":8059,"åĨ¯":8060,"çľĭä¸ĭ":8061,"çľĭå¾ħ":8062,"çľĭæ¸ħæ¥ļ":8063,"è¡°":8064,"åĳ¸":8065,"è¯´åĳ¢":8066,"è´¨éĩıéĥ½":8067,"è´¨éĩıåıĪ":8068,"è´¨éĩıçľŁçļĦ":8069,"çĽ¼":8070,"çĽĲ":8071,"è¦ģåĳ½":8072,"èµĭ":8073,"åĲİå°±":8074,"åĲİçĽĸ":8075,"å¯¥":8076,"ç»Ļä¸ĢæĺŁ":8077,"çī©çļĦ":8078,"å¤ļå¤§":8079,"æĹ¶ä¸į":8080,"åĴĮäº¬ä¸ľ":8081,"åĢĭ":8082,"æİª":8083,"åĸĬ":8084,"åĸĶ":8085,"å°±æĺ¯æ²¡":8086,"çĿ£":8087,"ä¸ºæŃ¢":8088,"éĢģè¾¾":8089,"è¯ĦåĪĨ":8090,"éĿŀå¾Ĺ":8091,"éĤ»":8092,"åŃ¦ç§ĳ":8093,"ç©¿èµ·":8094,"åĩºåħ¥":8095,"è¶ģ":8096,"è¶ĭ":8097,"åĮħè£ħç²¾ç¾İ":8098,"è¡ĮåĬ¨":8099,"è·¨":8100,"èĢĮä¸įæĺ¯":8101,"èµ·çłģ":8102,"ä»Ģä¹Īçł´":8103,"ç²¥":8104,"ä¸ĢèĪ¬ä¸ĢèĪ¬":8105,"æĦŁè§īä¸įæĺ¯":8106,"æľīçĤ¹ç¡¬":8107,"åģļè¶Ĭ":8108,"å¿«éĢĴä¹Łå¾Īå¿«":8109,"åħ¨éĽĨ":8110,"åľ°çĤ¹":8111,"ä¸¤åıª":8112,"ä¸¤æĺŁ":8113,"æĺİå¹´":8114,"èĬ³":8115,"èĬĿ":8116,"åĨħçļĦ":8117,"åĨħè¡¬":8118,"åĨħèĥĨ":8119,"Ġè´¨éĩıæĮºå¥½çļĦ":8120,"æĪĲå°±":8121,"æľºæ²¹":8122,"åįķçĭ¬":8123,"é«ĺéĢŁ":8124,"ï¼ļãĢĬ":8125,"è®©èĩªå·±":8126,"çīĪæĿĥ":8127,"æĢ§åĴĮ":8128,"æĢ§æł¼":8129,"åıĪè´µ":8130,"è¶ħåĩº":8131,"è¶ħè¶Ĭ":8132,"ç¾İå¥½":8133,"çŃīäºİ":8134,"ä¹Łä¸įæĢİä¹Īæł·":8135,"éĹ®é¢ĺæĺ¯":8136,"ä½¿çĶ¨äºĨ":8137,"åķĨåĵģåıĳè¡¨":8138,"èºº":8139,"æİ¥çĶµè¯Ŀ":8140,"ä½Ĩæĺ¯è´¨éĩı":8141,"èµ·æĿ¥äºĨ":8142,"ä»İä¸Ń":8143,"åı·æīįæĶ¶åĪ°":8144,"åŃĹå¿ĥå¾Ĺ":8145,"äºĨä¸Ģåĳ¨":8146,"å¸¦æĿ¥":8147,"æķĪæŀľä¸ĢèĪ¬":8148,"åĳ³éģĵä¸įéĶĻ":8149,"åĨħå®¹ä¹Łå¾Ī":8150,"åİŁçīĪ":8151,"å¤Ħäºİ":8152,"ç»ĻæĪĳä»¬":8153,"æĺ¾çĦ¶":8154,"ãĢĢãĢĢãĢĢ":8155,"Ġè¿Ļè¡£æľį":8156,"è¶Ĭåģļè¶Ĭ":8157,"å¾Īå¤ļä¸ľè¥¿":8158,"ä¸įè¦ģè´Ńä¹°":8159,"åıįæĬĹ":8160,"æŃ»äºº":8161,"ä¸ĵé¢ĺ":8162,"åºĶè¯¥åı¯ä»¥":8163,"å¹³è¡¡":8164,"ä¸ĭæ¬¡åĨįä¹°":8165,"éĢīäºĨ":8166,"ä¸ĩåį·":8167,"ä¸ĩåĨĮ":8168,"ç¬¬ä¸Ģæ¬¡åľ¨äº¬ä¸ľ":8169,"2011":8170,"èĮ«":8171,"åĽłä¸ºæĪĳ":8172,"æĸ¯åį¡":8173,"åģıé«ĺ":8174,"ç¥ŀéĢŁ":8175,"æĶ¶åĪ°è´§äºĨ":8176,"Ġçī©æµģéĢŁåº¦":8177,"ç¿Ķ":8178,"å»ºè®®ä¸įè¦ģä¹°":8179,"æīĵå¼Ģçľĭ":8180,"è¿ĺä¼ļåĨįæĿ¥çļĦ":8181,"å¡ĳèĥ¶":8182,"çĻ¾å¤ļ":8183,"æĬĺçĹķ":8184,"åĵªäºĽ":8185,"çŁ¥è¯ĨçļĦ":8186,"èĨĢ":8187,"è§Ĵèī²":8188,"éĢıäºĨ":8189,"å°ĶçļĦ":8190,"è°ģçŁ¥éģĵ":8191,"åĩłå¤©äºĨ":8192,"ï¼Įï¼Įï¼Įï¼Įï¼Įï¼Į":8193,"æ¹ĺ":8194,"æĿ¾åĬ¨":8195,"è§Ħå¾ĭ":8196,"åŁºæľ¬çļĦ":8197,"å¨±":8198,"å¨´":8199,"æĺ¯ä¸įæĺ¯æŃ£åĵģ":8200,"çĶ³éĢļå¿«éĢĴ":8201,"åĵģçīĮçļĦ":8202,"æĪ´äºĨ":8203,"åĲİæĤĶä¹°äºĨ":8204,"åĳµåĳµåĳµåĳµ":8205,"åĲ¸çĽĺ":8206,"Ġç»Ļæľĭåıĭä¹°çļĦ":8207,"å®³å¾Ĺ":8208,"æĹłæ³ķä½¿çĶ¨":8209,"è£Ĥå¼ĢäºĨ":8210,"ç²¾èĩ´çļĦ":8211,"æĩĴå¾Ĺæį¢":8212,"éĴ¢éĵģ":8213,"åĴĭæł·":8214,"ç²īèī²":8215,"æĺ¯æĪĳæĥ³è¦ģçļĦ":8216,"çķĻä¸ĭ":8217,"çģ¯åħī":8218,"éĶĢéĩı":8219,"åĨįä¹Łä¸įä¹°äºĨ":8220,"ç»§ç»Ńè´Ńä¹°":8221,"è¯¾åłĤ":8222,"çİ¯ä¿Ŀ":8223,"çİ¯èĬĤ":8224,"åĲĮæĹ¶ä¹Ł":8225,"æ¦ľ":8226,"çĽ¸ä¿¡äº¬ä¸ľ":8227,"Ġåģļå·¥ç²Ĺç³Ļ":8228,"è¯¦ç»ĨçļĦ":8229,"å°±æ²¡çĶµäºĨ":8230,"ãĢģãĢģãĢģ":8231,"è¸¢":8232,"åĶ¯è¯Ĩ":8233,"åĿĲçĿĢ":8234,"Ġå¸®åĪ«äººä¹°çļĦ":8235,"åįĩçº§":8236,"åħ°åħĭ":8237,"æł¹æľ¬å°±æ²¡æľī":8238,"ĠæĮºå¥½çĶ¨çļĦ":8239,"ĠæĮºå¥½çľĭçļĦ":8240,"åĲ«ä¹ī":8241,"å¿įäºĨ":8242,"å°±è¿Ļæł·äºĨ":8243,"æ¯ķç«Łæĺ¯":8244,"Ġä¹°çļĦæĹ¶åĢĻ":8245,"çĽ¸å·®å¤ªå¤§":8246,"èİ·å¾Ĺå¥ĸåĬ±":8247,"ä¸įå»ºè®®ä¹°":8248,"åŃķæľŁ":8249,"çĶŁåĳ½çļĦ":8250,"ç§¯åĪĨè§ĦåĪĻ":8251,"å¤ıå¤©ç©¿":8252,"ç¾Ĭæ¯Ľ":8253,"ãĢĳãĢĲ":8254,"åĹ¯åĹ¯":8255,"è°ģä¹°è°ģä¸Ĭå½ĵ":8256,"è°ĥæķ´åķ¦":8257,"è¸ıæĿ¿":8258,"æĬĺèħ¾äºĨ":8259,"åıĸæ¶Īè®¢åįķ":8260,"æĹĭè½¬":8261,"ä¸Ģé¢ĹæĺŁéĥ½ä¸įæĥ³ç»Ļ":8262,"çļĦè¯Ħä»·æīįåı¯":8263,"æĹģè¾¹":8264,"æĿłæĿł":8265,"å¾Īå¥½å¾Īä¸įéĶĻéĿŀå¸¸çļĦæ£Ĵè¶ħçº§NICEå¾Īå¥½å¾Īä¸įéĶĻéĿŀå¸¸çļĦæ£Ĵè¶ħçº§NICEå¾Īå¥½å¾Īä¸įéĶĻéĿŀå¸¸çļĦæ£Ĵè¶ħçº§NICEå¾Īå¥½å¾Īä¸įéĶĻéĿŀå¸¸çļĦæ£Ĵè¶ħçº§NICE":8266,"åļ¼":8267,"å¡Įç³Ĭæ¶Ĥ":8268,"é³ŀ":8269,"å¤§å°ıä¹ŁåĲĪéĢĤ":8270,"éĢļä¿ĹæĺĵæĩĤ":8271,"éŁ³åĥıåķĨåĵģè¯Ħä»·":8272,"å¤©æĹłçĲĨçĶ±":8273,"æīĺé©¬æĸ¯åĴĮæľĭåıĭä¸Ģå®ļæľīåĬŀæ³ķ":8274,"åħĥä»¥ä¸ĬåķĨåĵģåıĳè¡¨":8275,"åŃĹå¿ĥå¾ĹçļĦè¯Ħä»·æīįåı¯":8276,"ç§¯åĪĨè§ĦåĪĻè°ĥæķ´åķ¦":8277,"éŁ³åĥıåķĨåĵģè¯Ħä»·ç§¯åĪĨè§ĦåĪĻè°ĥæķ´åķ¦":8278,"åħĥä»¥ä¸ĬåķĨåĵģåıĳè¡¨å¤§äºİ":8279,"åŃĹå¿ĥå¾ĹçļĦè¯Ħä»·æīįåı¯èİ·å¾Ĺå¥ĸåĬ±":8280,"02":8281,"31":8282,"51":8283,"59":8284,"78":8285,"89":8286,"Wi":8287,"||":8288,"Ġ*":8289,"ĠæĹł":8290,"Ġæľĭåıĭ":8291,"Ġçº¸":8292,"Ġæĭ¿åĪ°":8293,"Ġä¸ºäºĨ":8294,"ĠçĽ¸å½ĵ":8295,"ĠéĩĮéĿ¢çļĦ":8296,"ĠçŃīäºĨ":8297,"ĠèĢ³æľº":8298,"çļĦä½ľçĶ¨":8299,"çļĦç²¾ç¥ŀ":8300,"ä¸įåıĳè´§":8301,"ä¸įè®²":8302,"ä¸įæĺİæĺ¾":8303,"ä¸įæŃ¢":8304,"å¾Į":8305,"æĺ¯éĿŀå¸¸":8306,"ä¸Ģçķª":8307,"å¥½åĩłä¸ª":8308,"åĪĥ":8309,"å¾ĪåĢ¼":8310,"å¾Īç®Ģåįķ":8311,"æľīçĶ¨çļĦ":8312,"æľīéĻĲ":8313,"å°±åıĺ":8314,"å°±çĥĤäºĨ":8315,"æĪĳè¦ģçļĦ":8316,"ä¹°äºıäºĨ":8317,"è¿Ļä¸ĢçĤ¹":8318,"éĶĲ":8319,"æĦģ":8320,"å¸ĸ":8321,"ä¹ŁæĮºå¥½çļĦ":8322,"åĵĢ":8323,"åĵĩ":8324,"éĿĵ":8325,"åľ¨éĤ£":8326,"éĥ½è§īå¾Ĺ":8327,"è®Ģ":8328,"ä¸ĬæĿ¥":8329,"çĽ¾":8330,"çĽĪ":8331,"æŃī":8332,"ç»Ļäº¬ä¸ľ":8333,"æĹ¶çļĦ":8334,"æĹ¶åĪ»":8335,"æł·çļĦ":8336,"è¥¿èĹı":8337,"ä¸ĭè®¢åįķ":8338,"å®ŀä¾ĭ":8339,"è¿ĩåĲİ":8340,"ä¸ľè¥¿è¿ĺä¸įéĶĻ":8341,"å°±æĺ¯é¢ľèī²":8342,"åı¯ä»¥æĶ¾":8343,"æĶ¶è´¹":8344,"çľŁè¯ļ":8345,"æĦŁåı¹":8346,"å¿ĥä¸Ń":8347,"æĥ³çĿĢ":8348,"éĤª":8349,"åĩºè´§":8350,"åĩºåıĳ":8351,"èĩªä»İ":8352,"å¼Ģä¸įäºĨ":8353,"éĿŀå¸¸èĪĴæľį":8354,"æĮºæ»¡æĦı":8355,"åķĨåºĹ":8356,"åĮħè£ħéĥ½æ²¡æľī":8357,"åĮħè£ħè¢ĭ":8358,"éĤ£å°±":8359,"æŃ£å®Ĺ":8360,"è°¦":8361,"æīįåĪ°è´§":8362,"æĦŁè§īè¿ĺè¡Į":8363,"æĹłäºº":8364,"æľīçĤ¹ç´§":8365,"åģļäºĭ":8366,"åħ¨äºĶåĪĨ":8367,"æľĢä¸įæ»¡æĦı":8368,"åľ°éģĵ":8369,"å®¢æľįäººåĳĺ":8370,"ä¸Ģæ¬¡æĢ§":8371,"è¡£è¡£":8372,"æīĵåĮħ":8373,"æīĵæ°Ķ":8374,"åĩłåĪĨéĴŁ":8375,"è¯»è¿ĩ":8376,"æ³ķçļĦ":8377,"ä¸İå®ŀéĻħ":8378,"æ±ª":8379,"æĸĩç¬Ķ":8380,"éŀĭéĿ¢":8381,"èĢģå®¶":8382,"æ°´æŀľ":8383,"äºĭä¸ļ":8384,"ä¸īéģį":8385,"è®©åŃ©åŃĲ":8386,"åıĪæħ¢":8387,"éªĦ":8388,"ç¾İå®¹":8389,"ç¾İå¥½çļĦ":8390,"çŃīæĪĳ":8391,"ï¼īãĢģ":8392,"è·ŁæĪĳè¯´":8393,"éŁ³èī²":8394,"å¾Īåĸľæ¬¢çļĦ":8395,"æĸ°çĶŁ":8396,"ç»ĵæĿŁ":8397,"è§£è¯»":8398,"æ³¨éĩį":8399,"éĥ¨ä½į":8400,"éĥ¨éĹ¨":8401,"åŃĹçļĦ":8402,"æĥħè¶£":8403,"åĽ¾çīĩçļĦ":8404,"Ġä¸ľè¥¿æĶ¶åĪ°":8405,"ä¸ĢçĤ¹ä¹Łä¸įå¥½":8406,"åħ¬åħ±":8407,"ä»¥åĲİåĨį":8408,"æĬĬè´§":8409,"ä¿ĿéĻ©":8410,"Ġå¾ĪèĸĦ":8411,"Ġå¾Īä¸įæ»¡æĦı":8412,"ä¸įèĥ½ç©¿":8413,"åı£åŃĲ":8414,"åĨħå®¹ä¸°å¯Į":8415,"åĨħå®¹ç®Ģä»ĭ":8416,"ç»ĻæĪĳçļĦ":8417,"ä¸įè¿ĩè¿ĺæĺ¯":8418,"åķĨå®¶è¯´":8419,"è¿Ļä¹Īå¥½çļĦ":8420,"çĹ´":8421,"æİ¨å¹¿":8422,"ä¹Ĳè¶£":8423,"Ġä¸įçŁ¥":8424,"çī¹åĪ«çļĦ":8425,"çī¹åĪ«å·®":8426,"æŃ¤å¤ĸ":8427,"Ġè¿Ļä¹¦":8428,"è½¦éĩĮ":8429,"è§ģè¯Ĩ":8430,"éĢģè´§å¾Īå¿«":8431,"èµŀç¾İ":8432,"ĠæĪĳçļĦ":8433,"ĠæĪĳä¹°çļĦæĺ¯":8434,"è¿Ĳè¡Į":8435,"Ġè¡£æľįè´¨éĩı":8436,"ä¸įä¼ļæľī":8437,"åİļéģĵ":8438,"ä¿®æĶ¹":8439,"è¯»ä¹¦èĥ½":8440,"è´´çļĦ":8441,"è´´ä¸Ĭ":8442,"çķĮçļĦ":8443,"æĮĩçº¹":8444,"å»ºè®®ä¹°":8445,"å¸ĥçļĦ":8446,"ç²Ĺå¿ĥ":8447,"é©¬å°Ķ":8448,"å°ģåı£":8449,"åĭ¾":8450,"åİĨåı²çļĦ":8451,"åİĨåı²çľŁçĽ¸":8452,"é¦ĸæ¬¡":8453,"æ°ĳåĽ½":8454,"å²¸":8455,"ä¸¥éĩįä¸įç¬¦":8456,"æĹ©å·²":8457,"æľīä¸Ģå®ļ":8458,"è¿Ļæ¬¡ä¹°çļĦ":8459,"æĲŀç¬ĳ":8460,"ç´§å¯Ĩ":8461,"ç¬¬ä¸Ģå¤©":8462,"æľĢåĲİä¸Ģæ¬¡":8463,"Ġæ²¡æĥ³åĪ°":8464,"èī¯å¥½":8465,"å¼Ĥå¸¸":8466,"è¦ģæ±Ĥæį¢è´§":8467,"ĠåĮħè£ħä¸įéĶĻ":8468,"è¯¦è§£":8469,"çīĽèĤī":8470,"å±ĤçļĦ":8471,"çĮĽ":8472,"å¤©æīįæĶ¶åĪ°è´§":8473,"éķľåŃĲ":8474,"æĬ¥éĶĢ":8475,"å¯Įæľī":8476,"éĺħè¯»çļĦ":8477,"çĨı":8478,"é»Ħèī²çļĦ":8479,"å¼ķå¯¼":8480,"é¡ºåĪ©":8481,"ä¸įæĥ³è¯´":8482,"Ġè¿ĺæ²¡ç©¿":8483,"è·ĳäºĨ":8484,"160":8485,"æłĳæľ¨":8486,"180":8487,"çĪ¸å¦Ī":8488,"éĻ¢æł¡":8489,"åĿĲåŀ«":8490,"æµªè´¹äºĨ":8491,"åĨĽäºĭ":8492,"æ¥¼ä¸ĭ":8493,"åºĵåŃĺ":8494,"ĠéĢģè´§å¿«":8495,"åįĬä¸ªæľĪäºĨ":8496,"å·®åĪ«å¤ªå¤§":8497,"ä¾Ŀæį®":8498,"ä¸įåĴĭæł·":8499,"åºĬåįķ":8500,"çİ°ä»£æ±īè¯Ń":8501,"å¹¸å¥½":8502,"ä»¿ä½Ľ":8503,"åĿĩåĮĢ":8504,"æĥ³è±¡ä¸Ńå¥½":8505,"ä¾§éĿ¢":8506,"æĳ©æĭī":8507,"ä¹°ä¹¦äºĨ":8508,"ç¼©æ°´":8509,"åĪ¤æĸŃ":8510,"ä¿ĥè¿Ľ":8511,"èģļæĭ¢":8512,"çĥ«æīĭ":8513,"ä»¥åĲİåĨįä¹Łä¸įä¼ļ":8514,"éĻ¶åĨ¶":8515,"åķĬåķĬåķĬåķĬåķĬåķĬåķĬåķĬ":8516,"æĪªåĽ¾":8517,"ä¸Ńåįİä¹¦å±Ģ":8518,"è¿ĩæľŁäºĨ":8519,"èļĬåŃĲ":8520,"æĹĭå¾ĭ":8521,"ç°§":8522,"è¯·æ³¨æĦıåķĨåĵģåĮħè£ħè¯·æ³¨æĦıåķĨåĵģåĮħè£ħè¯·æ³¨æĦıåķĨåĵģåĮħè£ħè¯·æ³¨æĦıåķĨåĵģåĮħè£ħè¯·æ³¨æĦıåķĨåĵģåĮħè£ħè¯·æ³¨æĦıåķĨåĵģåĮħè£ħè¯·æ³¨æĦıåķĨåĵģåĮħè£ħè¯·æ³¨æĦıåķĨåĵģåĮħè£ħè¯·æ³¨æĦıåķĨåĵģåĮħè£ħè¯·æ³¨æĦıåķĨåĵģåĮħè£ħè¯·æ³¨æĦıåķĨåĵģåĮħè£ħè¯·æ³¨æĦıåķĨåĵģåĮħè£ħè¯·æ³¨æĦıåķĨåĵģåĮħè£ħè¯·æ³¨æĦıåķĨåĵģåĮħè£ħè¯·æ³¨æĦıåķĨåĵģåĮħè£ħè¯·æ³¨æĦıåķĨåĵģåĮħè£ħè¯·æ³¨æĦıåķĨåĵģåĮħè£ħè¯·æ³¨æĦıåķĨåĵģåĮħè£ħè¯·æ³¨æĦıåķĨåĵģåĮħè£ħè¯·æ³¨æĦıåķĨåĵģåĮħè£ħè¯·æ³¨æĦıåķĨåĵģåĮħè£ħè¯·æ³¨æĦıåķĨåĵģåĮħè£ħè¯·æ³¨æĦıåķĨåĵģåĮħè£ħè¯·æ³¨æĦıåķĨåĵģåĮħè£ħè¯·æ³¨æĦıåķĨåĵģåĮħè£ħè¯·æ³¨æĦıåķĨåĵģåĮħè£ħè¯·æ³¨æĦıåķĨåĵģåĮħè£ħè¯·æ³¨æĦıåķĨåĵģåĮħè£ħè¯·æ³¨æĦıåķĨåĵģåĮħè£ħè¯·æ³¨æĦıåķĨåĵģåĮħè£ħè¯·æ³¨æĦıåķĨåĵģåĮħè£ħè¯·æ³¨æĦıåķĨåĵģåĮħè£ħ":8523,"ç¾½ç»Ĵæľį":8524,"èķ¾":8525,"åģ¶å°Ķ":8526,"å¤ªéĩįäºĨ":8527,"éģ¿åħį":8528,"é«ĺç«¯å¤§æ°Ķä¸Ĭæ¡£æ¬¡":8529,"çĥŃæ°´åĻ¨":8530,"è¿ĺå¥½å¤Łæ¸ħæĻ°çļĦè¿ĺå¥½å¤Łæ¸ħæĻ°çļĦè¿ĺå¥½å¤Łæ¸ħæĻ°çļĦè¿ĺå¥½å¤Łæ¸ħæĻ°çļĦè¿ĺå¥½å¤Łæ¸ħæĻ°çļĦè¿ĺå¥½å¤Łæ¸ħæĻ°çļĦè¿ĺå¥½å¤Łæ¸ħæĻ°çļĦè¿ĺå¥½å¤Łæ¸ħæĻ°çļĦ":8531,"ç½¢äºĨ":8532,"é¾ŁéĢŁ":8533,"nåĽĽå·Ŀ":8534,"çıįèĹıæľ¬":8535,"å§ĳå¨ĺ":8536,"å´©æºĥ":8537,"æ´Ĺåıĳæ°´":8538,"EMS":8539,"è¿ŀçİ¯çĶ»":8540,"èĽ¾æĳ©æĭī":8541,")ï¼Į":8542,"48":8543,"95":8544,";ï¼ģ":8545,"PS":8546,"bb":8547,"ec":8548,"nä¸ŃåĽ½":8549,"nå¿«ä¹Ĳ":8550,"wj":8551,"ww":8552,"yy":8553,"zwj":8554,"âĹ":8555,"ĠçĶ¨çļĦ":8556,"Ġåıĳç¥¨":8557,"ĠæĹłè¯Ń":8558,"Ġæĭį":8559,"Ġè¯´æĺ¯":8560,"Ġç»Ŀå¯¹":8561,"Ġå¦Īå¦Ī":8562,"Ġå¥½å¥½å¥½":8563,"Ġæĭ¿åĪ°æīĭ":8564,"Ġåıªèĥ½è¯´":8565,"Ġå¤ªå·®åĬ²äºĨ":8566,"Ġè¢«åŃĲ":8567,"Ġè£ĻåŃĲ":8568,"çļĦæľī":8569,"çļĦéĤ£ç§į":8570,"ä¸įæĺĵ":8571,"ä¸įéĩĬ":8572,"ä¸įæĶ¯æĮģ":8573,"ä¸įå¹²åĩĢ":8574,"ä¸įåłª":8575,"äºĨå¯¹":8576,"å¥İ":8577,"æĺ¯çļĦ":8578,"æĺ¯ä»İ":8579,"ä¸Ģä½ĵ":8580,"å¥½å¥ĩ":8581,"åĪĳ":8582,"å¾Īéķ¿":8583,"å¾Īä¸Ĭæ¡£æ¬¡":8584,"å¾ĪåĲĪèĦļ":8585,"åĲ±":8586,"æľīèĤ¡":8587,"ç»İ":8588,"è¿ĺçľŁæĺ¯":8589,"å°±æĿ¥":8590,"å°±è¢«":8591,"æ²¡çľĭåĪ°":8592,"ä¹°ç»Ļ":8593,"çĶ¨è¿Ļä¸ª":8594,"çĶ¨åĬĽ":8595,"çĶ¨å®ĮäºĨ":8596,"åĪ°æĪĳ":8597,"ä¹Łåı¯":8598,"ä¸įéĶĻåķĬ":8599,"æĿ¥è®²":8600,"å¤§çĤ¹":8601,"å¤§åı·":8602,"å¤§ä¸ĢçĤ¹":8603,"å¤§çº²":8604,"ä»¥æŃ¤":8605,"åľ¨åĵª":8606,"éĥ½æİīäºĨ":8607,"å¤ªè½»":8608,"ä¸Ĭçģ«":8609,"äººåľ¨":8610,"æĶĢ":8611,"åıĳäºĨä¸Ģ":8612,"è´¨éĩıçľŁå¿ĥ":8613,"åı¯è¯»":8614,"çĤ«":8615,"å¤ļå½©":8616,"è£ħä¸Ĭåİ»":8617,"åĸĤ":8618,"åĸĩ":8619,"æĭ¾":8620,"æ¯ĶèľĹçīĽ":8621,"æ¯ĶåĪ«å®¶":8622,"æĥ³éĹ®":8623,"åĸľæ¬¢è¿Ļä¸ª":8624,"ç©¿ç©¿":8625,"æ»¡æ»¡":8626,"æ»¡åĩı":8627,"å¼Ģç®±":8628,"éĿŀå¸¸å¥½çļĦ":8629,"ä¸įæĺ¯ä¸Ģä¸ª":8630,"åĮħè£ħä»Ķç»Ĩ":8631,"å¯¹è¯Ŀ":8632,"å¯¹çħ§":8633,"åŀ®":8634,"çĶµéĩı":8635,"åĢ¼è¿Ļä¸ªä»·":8636,"åīĸ":8637,"ä½ĨæĦ¿":8638,"æĶ¶åĪ°çļĦæĺ¯":8639,"åĪ«æīŃ":8640,"æīįæľī":8641,"æĦŁè§īåĪ°":8642,"æĦŁè§īä¸įåĢ¼":8643,"éĢĢçļĦ":8644,"éĢĢéĴ±":8645,"æĹłéĻĲ":8646,"åģļåĪ°":8647,"åħ¨æĸ°çļĦ":8648,"è¿ĺæĺ¯æľīçĤ¹":8649,"åĽŀå¤´":8650,"æīĵåĩ»":8651,"çĽ´å¾Ĺ":8652,"å¦Ĥæľī":8653,"å¦ĤåĲĮ":8654,"ä¹°äºĨä¸ī":8655,"éĩįåĲ¯":8656,"å½ĵä¸Ń":8657,"å½ĵå¹´":8658,"å½ĵæĪĲ":8659,"æĸĩæĳĺ":8660,"ä¸īæĢĿ":8661,"æ°ĶæŃ»äºĨ":8662,"æ¯Ķè¾ĥæħ¢":8663,"è·ŁçĿĢ":8664,"è·Łåįĸå®¶":8665,"ä½¿æĪĳä»¬":8666,"ä½Ĩæĺ¯æ²¡æľī":8667,"å¤±åİ»":8668,"æ³¨çĸı":8669,"è¯·å¤§å®¶":8670,"äºĨä¸Ģåı¥":8671,"æŁ³":8672,"è¿Ļæł·çļĦä¹¦":8673,"æĬĬæĪĳ":8674,"æĬĬæĪĳçļĦ":8675,"å§»":8676,"æ¡ĳ":8677,"åĬłç»Ĵ":8678,"æĢ»åħ±":8679,"æł¹æľ¬ä¸įåĢ¼è¿Ļä¸ªä»·":8680,"æł¹æľ¬å°±æ²¡":8681,"èĢĥå¯Ł":8682,"ä¸ĢçĽ´éĥ½":8683,"ä¸ĢçĽ´æ²¡æľī":8684,"çľŁçļĦå¥½":8685,"èģĶæĥ³":8686,"å¸ĮæľĽåįĸå®¶":8687,"åıĺçļĦ":8688,"è½¦è´¹":8689,"ç©ºçļĦ":8690,"å¤±æľĽçļĦ":8691,"åĵĪåĵ¦":8692,"æĸ¹ä¾¿çļĦ":8693,"çº¸ç®±":8694,"å¼łå°ı":8695,"éĢģè´§éĢŁåº¦å¿«":8696,"åĽĽå¤§":8697,"Ġä¸įéĶĻåĵ¦":8698,"äºĶå¤©":8699,"åħ¥äºĨ":8700,"èģĶç³»æĪĳ":8701,"å¸ĪèĮĥ":8702,"å¹¶å¯¹":8703,"ç¬¬ä¸Ģæ¬¡éģĩåĪ°":8704,"é©°":8705,"åĿĹçļĦ":8706,"çļĦä¸ĢåĪĩ":8707,"ä½łä»¬å®¶":8708,"æ¬¾å¼ıå¥½çľĭ":8709,"çļĦäººçī©":8710,"å¤§å°ıæŃ£åĲĪéĢĤ":8711,"å¿ħçĦ¶":8712,"çľŁæĺ¯æĹłè¯Ń":8713,"å°Ĩåħ¶":8714,"éĢĤåĲĪåĪĿåŃ¦èĢħ":8715,"åĽŀæĿ¥äºĨ":8716,"çº¢çļĦ":8717,"æĪĸæĺ¯":8718,"ç§ĳæĻ®":8719,"å¡ĳéĢł":8720,"ä¹ĭåīįçļĦ":8721,"çĻ¾å¹´":8722,"å®¹æĺĵæİī":8723,"æĬĺäºĨ":8724,"ä¼ĺè´¨":8725,"è®©æĪĳå¤±æľĽ":8726,"çļĦå¥½ä¹¦":8727,"å°±ä¸įè¡ĮäºĨ":8728,"ç©¶ç«Ł":8729,"å¯¼è¯»":8730,"ä½İéŁ³":8731,"ä½İç¢³":8732,"è§ĴèĲ½":8733,"èĹī":8734,"å±ķå¼Ģ":8735,"éĽĨè§£":8736,"æľīä¸ĢäºĽ":8737,"äº²èº«":8738,"çľĭçľĭåĲ§":8739,"èĥĮåĲİ":8740,"æĲŀå¾Ĺ":8741,"æĿ¾ç´§":8742,"ç´§äºĨ":8743,"ĠéĿŀå¸¸åĸľæ¬¢":8744,"åĴĮåĽ¾çīĩä¸įä¸Ģæł·":8745,"åĲ¸åĬĽ":8746,"å®³çļĦ":8747,"èĤ¡ç¥¨":8748,"è¯¯å·®":8749,"æį¢äºĨä¸Ģæ¬¡":8750,"è¿Ļæľ¬ä¹¦è¿ĺä¸įéĶĻ":8751,"ä¸Ģå®ļä¼ļ":8752,"æŁĶåĴĮ":8753,"æİīèī²åģĩçļĦ":8754,"åĨĮåŃĲ":8755,"åĩıå°ĳ":8756,"åı¶åŃĲ":8757,"æĢªçļĦ":8758,"éĢļè¿ĩå¯¹":8759,"ä»·å»īçī©ç¾İ":8760,"å½ĵæĹ¶çļĦ":8761,"æĿĥåĬĽ":8762,"è·ŁåĽ¾çīĩä¸Ģæł·":8763,"ang":8764,"ç¼ĿéļĻ":8765,"åĩĳåĲĪåĲ§":8766,"åĽ´å·¾":8767,"åĨ¬åŃ£":8768,"æĭĸéŀĭ":8769,"æĭĸæĬĬ":8770,"Ġç¬¬ä¸Ģæ¬¡ä¹°":8771,"æ±Łæ¹ĸ":8772,"èĻļåģĩ":8773,"è¿·ä½ł":8774,"è¯ºæĸ¯":8775,"åıĳçĶŁçļĦ":8776,"åıĳçĶŁäºĨ":8777,"Ġä¸įéĶĻçļĦä¹¦":8778,"æ¯«ä¸į":8779,"èĿī":8780,"èİ«åĲį":8781,"çıįçıł":8782,"æŃªäºĨ":8783,"æĹ¶ä»£çļĦ":8784,"åľ£è¯ŀ":8785,"æ¢¦æĥ³":8786,"åĨľæĿĳ":8787,"åįıè°ĥ":8788,"åĪ°åºķæĺ¯":8789,"ĠæĶ¶åĪ°è´§äºĨ":8790,"æ¸£æ¸£":8791,"ä½ľå®¶æĸĩæĳĺ":8792,"åıĶåıĶ":8793,"æķ°æį®çº¿":8794,"å°Ŀè¯ķ":8795,"æ¾Ħ":8796,"çºłçº·":8797,"æĥ³åĥıä¸Ń":8798,"æīĵåį°æľº":8799,"ä¸Ĭæ¬¡ä¹°çļĦ":8800,"å¹»æĥ³":8801,"åĳ¼åĲ¸":8802,"åĵ¥åĵ¥åĵ¥åĵ¥":8803,"æĶ¯ä»ĺå®Ŀ":8804,"ç¬Ķè®°æľ¬çĶµèĦĳ":8805,"ä¸Ĭèº«æķĪæŀľ":8806,"å¿ĺè®°äºĨ":8807,"////":8808,"éĢĲæ¸Ĳ":8809,"å¤ªè¿ľäºĨ":8810,"éĥ½åĿıäºĨä»¥åĲİè¯·æ³¨æĦıäº§åĵģåĮħè£ħåĪ«ç¨ĢéĩĮç³Ĭæ¶ĤçļĦåĮħäºĨéĥ½åĿıäºĨä»¥åĲİè¯·æ³¨æĦıäº§åĵģåĮħè£ħåĪ«ç¨ĢéĩĮç³Ĭæ¶ĤçļĦåĮħäºĨéĥ½åĿıäºĨä»¥åĲİè¯·æ³¨æĦıäº§åĵģåĮħè£ħåĪ«ç¨ĢéĩĮç³Ĭæ¶ĤçļĦåĮħäºĨéĥ½åĿıäºĨä»¥åĲİè¯·æ³¨æĦıäº§åĵģåĮħè£ħåĪ«ç¨ĢéĩĮç³Ĭæ¶ĤçļĦåĮħäºĨéĥ½åĿıäºĨä»¥åĲİè¯·æ³¨æĦıäº§åĵģåĮħè£ħåĪ«ç¨ĢéĩĮç³Ĭæ¶ĤçļĦåĮħäºĨéĥ½åĿıäºĨä»¥åĲİè¯·æ³¨æĦıäº§åĵģåĮħè£ħåĪ«ç¨ĢéĩĮç³Ĭæ¶ĤçļĦåĮħäºĨéĥ½åĿıäºĨä»¥åĲİè¯·æ³¨æĦıäº§åĵģåĮħè£ħåĪ«ç¨ĢéĩĮç³Ĭæ¶ĤçļĦåĮħäºĨéĥ½åĿıäºĨä»¥åĲİè¯·æ³¨æĦıäº§åĵģåĮħè£ħåĪ«ç¨ĢéĩĮç³Ĭæ¶ĤçļĦåĮħäºĨ":8811,"okok":8812,"é«ĺçŃīæķĻèĤ²":8813,"åĺ»åĺ»":8814,"æ´Ĺè¡£æľº":8815,"åĳ¨å¹´çıįèĹıæľ¬":8816,"è³ªéĩı":8817,"ä¹¾éļĨ":8818,"oze":8819,"å¤ļè¯»åĩłæ¬¡":8820,"æĶ¶éŁ³æľº":8821,"85":8822,"88":8823,";ï¼Ī":8824,"MM":8825,"XX":8826,"_&":8827,"au":8828,"all":8829,"ld":8830,"nA":8831,"os":8832,"un":8833,"Ġ3":8834,"Ġ5":8835,"ĠåıĪ":8836,"Ġå¥½å¥½":8837,"ĠèĬ±":8838,"Ġå¸ĮæľĽ":8839,"ĠåıĮ":8840,"Ġå¦Ĥæŀľ":8841,"Ġå±ħçĦ¶":8842,"Ġå®ŀåľ¨":8843,"Ġåħ¬åı¸":8844,"Ġæīĭå¥Ĺ":8845,"ĽçĽ¾":8846,"çļĦè¿ĺæĺ¯":8847,"çļĦå®¢æľį":8848,"çļĦå·¥ä½ľ":8849,"çļĦç¤¼çī©":8850,"çļĦæĸĩåŃĹ":8851,"äºķ":8852,"ä¸įä¸į":8853,"ä¸įåİĮ":8854,"äºĨäºĨ":8855,"åı¬":8856,"æĺ¯æĮĩ":8857,"æĺ¯çº¯æ£īçļĦ":8858,"ä¸ĢæĶ¯":8859,"ä¸Ģè¾Ī":8860,"è´¾":8861,"å¥½å·®":8862,"å¥½äºĽ":8863,"å¾Īå¼º":8864,"å¾Īæĺİæĺ¾":8865,"å¾Īå¹²åĩĢ":8866,"å¾ĪçĶŁæ°Ķ":8867,"å¾Īè´´å¿ĥ":8868,"æľīè´§":8869,"æľīå°ı":8870,"æľīè¿Ļä¹Ī":8871,"æľīè®¸å¤ļ":8872,"æľīä¿Ŀè¯ģ":8873,"æĪļ":8874,"è¿ĺè¢«":8875,"è¿ĺçľģ":8876,"å°±è¡ĮäºĨ":8877,"æĪĳç»Ļ":8878,"æĪĳéĹ®":8879,"æĪĳè®¤ä¸º":8880,"æ²¡åıĳ":8881,"æ²¡éĢģ":8882,"æ²¡æĹ¶éĹ´":8883,"è¿Ļä¹Ł":8884,"çĶ¨åĵģ":8885,"æĹº":8886,"åĪ°è¾¾":8887,"å¸Ĩ":8888,"å¤§èĩ´":8889,"å¤ªå°ĳäºĨ":8890,"ä¸ĬåįĬå¹´":8891,"ä¼į":8892,"ä¼Ĳ":8893,"ä¹¦åĲį":8894,"è¯´ä¸į":8895,"è¯´ç»Ļ":8896,"åı¯éĿł":8897,"åı¯è½¬æį¢":8898,"æķ¦":8899,"æķ²":8900,"åĲİç»Ń":8901,"åĲİè½®":8902,"å°ıçĤ¹":8903,"å°ıå°ıçļĦ":8904,"æ²¡æľīæĥ³è±¡çļĦ":8905,"å¤ļå¤©":8906,"èĪĮ":8907,"èĩ£":8908,"è£ħçĿĢ":8909,"è£ħè®¢":8910,"åĴĮæııè¿°":8911,"åĴĮè°Ĳ":8912,"åĢ¡":8913,"ä¸ĭéĿ¢çļĦ":8914,"å¤©é¹ħ":8915,"éģµ":8916,"ä¸ŃæīĢ":8917,"è¾°":8918,"çľŁåŀĥåľ¾":8919,"éĿ¢åĮħ":8920,"ä¼ļè¯´è¯Ŀ":8921,"ä¸ºæĪĳä»¬":8922,"éĢģä¸Ģ":8923,"çŁ©":8924,"çŁĽçĽ¾":8925,"éĤĵ":8926,"çĿĢçļĦ":8927,"å¼Ģè½¦":8928,"ä¸Ģä¸ªå¤§":8929,"éĿŀå¸¸ä¾¿å®ľ":8930,"åĮħè£ħä¹Łå¾Īå¥½":8931,"ä¹°çļĦä¸Ģæł·":8932,"ä½łä¼ļ":8933,"ä½łèĩªå·±":8934,"ä»ĸæĺ¯":8935,"çĶµç¼Ĩ":8936,"èĢĮæĪĳä»¬":8937,"è´Ńåħ¥":8938,"ä½Ĩè¿ĺæĺ¯":8939,"åĪ«ä¹°äºĨ":8940,"æŃ£å¼ı":8941,"ä»Ģä¹ĪåİŁåĽł":8942,"ä¹ĭç±»çļĦ":8943,"ä¹ĭæī¹åĪ¤":8944,"åİ»å®ŀä½ĵåºĹ":8945,"è°ħ":8946,"åĪĨæķ°":8947,"æĹłæįŁ":8948,"åħ¨å®¶":8949,"æľĢä¸»è¦ģ":8950,"èĦ¾":8951,"è¿ĺæĺ¯æ²¡æľī":8952,"è¿ĺæĺ¯å¾Īå¥½çļĦ":8953,"ä¸¤æł·":8954,"ä¸¤å¹´":8955,"ä¸¤åĳ¨":8956,"æīĵåŃĶ":8957,"åĬĽæ±Ĥ":8958,"Ġè´¨éĩıçľŁå¿ĥ":8959,"è¿ĺåı¯ä»¥çļĦ":8960,"æĸĩä»¶":8961,"é«ĺä¸Ń":8962,"éĴ±åħĪçĶŁ":8963,"éŀĭçļĦ":8964,"éŀĭçłģ":8965,"ä»·æł¼åĲĪéĢĤ":8966,"èĤĭ":8967,"è¡£æľįè´¨éĩı":8968,"åıĪä¸įæĺ¯":8969,"åıĪä¹°äºĨ":8970,"éĺģ":8971,"éĥİ":8972,"æľĪçļĦ":8973,"åĲĮç±»":8974,"å·²çŃ¾æĶ¶":8975,"ä¹Łä¸įæĢİä¹Ī":8976,"æ¯Ķè¾ĥå°ı":8977,"æİīé¢ľèī²":8978,"è·Łå®¢æľį":8979,"éŁ³ç®±":8980,"éĢŁåĨĻ":8981,"èĢĮä¸Ķè¿ĺæľī":8982,"Ġè¿ĺä¸įéĶĻçļĦ":8983,"çģ¼":8984,"ç²¾å¿ĥ":8985,"ç¼ł":8986,"æ¶¤":8987,"äºĨä¸Ģç§į":8988,"å¸¦äºĨ":8989,"æĢģåº¦å·®":8990,"æ¸ħåįķ":8991,"æ¸ħçĪ½":8992,"æŁ±":8993,"ä¸įçŁ¥éģĵæķĪæŀľ":8994,"ä¸įçŁ¥éģĵæĢİä¹Īæł·":8995,"ä¸įçŁ¥éģĵæĺ¯ä»Ģä¹Ī":8996,"åĢ¼å¾Ĺä¸Ģ":8997,"å§¬":8998,"ä¸įèĥ½ä¹°":8999,"éĵŃ":9000,"æĢ»ç»Ł":9001,"åĲĥèµ·æĿ¥":9002,"åİŁä»·":9003,"åİŁåİĤ":9004,"è¿ĽæĿ¥":9005,"äº§åĵģè´¨éĩı":9006,"éĥ½ä¸įåĢ¼":9007,"å¸ĮèħĬ":9008,"å¥Ĺé¤Ĳ":9009,"ä½¿çĶ¨çļĦ":9010,"çĻ½å®ī":9011,"æİ¨çĲĨ":9012,"éĤ£ä¹Īå·®":9013,"åı²åŃ¦":9014,"å¾Īå¤ļäºº":9015,"ç©ºæ°Ķ":9016,"å¥³ç¥ŀ":9017,"çĶ¨çļĦæĹ¶åĢĻ":9018,"åĽĽåįģ":9019,"äºĶéĩĳ":9020,"åħĪåĲİ":9021,"è¿ĲéĢģ":9022,"èĮĤ":9023,"åİļéĩį":9024,"åıĳçİ°èĩªå·±":9025,"æ®¿":9026,"åį¡äºĨ":9027,"åħ¶ä»ĸäºº":9028,"çĥŃçļĦ":9029,"åģıå·®":9030,"è¯»ä¹¦æĺ¯ä¸Ģç§į":9031,"éĩĳçīĮ":9032,"åıªèĥ½ç»Ļ":9033,"å¯ĦäºĨ":9034,"å»ºè®®è´Ńä¹°":9035,"Ġä¹¦çļĦåĨħå®¹":9036,"ç±»ä¼¼":9037,"çľĭçĿĢè¿ĺè¡Į":9038,"è¿Ļç§įæĥħåĨµ":9039,"çĻ¾åĪĨ":9040,"æĿ¯çĽĸ":9041,"æĬĺåıł":9042,"åıĸä»¶":9043,"æº¶":9044,"çļĦå¥½çĶ¨":9045,"ä¸Ĭå½ĵçļĦæĦŁè§ī":9046,"è¡¥åħħ":9047,"æľīäºĽå°ı":9048,"Ġåŀĥåľ¾è´§":9049,"ä¹Łæ²¡çĶ¨":9050,"é¢Ĩåı£":9051,"äº²åĪĩ":9052,"åĪ°è´§äºĨ":9053,"åĪ°è´§åĲİ":9054,"ç©¿ä¸Ĭåİ»":9055,"åı¯èĥ½ä¼ļ":9056,"æĿ¾çļĦ":9057,"åĪĽä¸ļ":9058,"195":9059,"éĻ¤éĿŀ":9060,"èµĦäº§":9061,"çĶ³éĢļ":9062,"ĠéĿŀå¸¸ä¸įéĶĻçļĦ":9063,"æĿ¥è¯´è¯´":9064,"åħ´éļĨ":9065,"æĢĢåŃķ":9066,"è¯´çļĦéĤ£ä¹Īå¥½":9067,"éĺħè¯»äºĨä¸Ģä¸ĭ":9068,"ç²ĺè´´":9069,"æķĻèĤ²åĵ²åŃ¦":9070,"çĶ·å¥³":9071,"åį³åı¯":9072,"Ġä¹°äºĨä¸¤ä¸ª":9073,"å¯Ĩçłģ":9074,"å·´ä¹Į":9075,"ä¾ĭå¦Ĥ":9076,"èĢģå©Ĩä¹°çļĦ":9077,"1000":9078,"åįļçī©":9079,"ç«Ļåľ¨":9080,"é¢Ħæµĭ":9081,"æµªè´¹æĪĳ":9082,"å¿½çĦ¶":9083,"Ġåıĳè´§å¿«":9084,"ĠæĶ¶åĪ°çļĦ":9085,"å¤ªä¸įè´Łè´£ä»»":9086,"æĻºæħ§çļĦ":9087,"ä¾ĿæĹ§":9088,"åŃ¦æľ¯èĳĹä½ľ":9089,"æµĵçļĦ":9090,"æµĵéĥģ":9091,"èµ¶å¿«":9092,"ä¸Ģæľ¬ä¹¦å¤ļè¯»åĩłæ¬¡":9093,"æŀķå¥Ĺ":9094,"æķĻåŃ¦ä¸İ":9095,"one":9096,"å¾Īéļ¾çľĭ":9097,"Ġå®ŀçī©ä¸İåĽ¾çīĩ":9098,"éĩĩçĶ¨":9099,"ä¸įçĲĨäºº":9100,"ä¹ŁæĮºå¿«çļĦ":9101,"éĢıæ°ĶæĢ§":9102,"æĮĳåīĶ":9103,"å§Ĳå¦¹":9104,"çĶŁæĦıåħ´éļĨ":9105,"åĩīå¿«":9106,"Ġå¾Īæ¼Ĥäº®çļĦ":9107,"å®ŀçĶ¨çļĦä¹¦":9108,"å®Įæķ´çļĦ":9109,"åĶ¯ä¸ĢçļĦ":9110,"ä¹°äºĨä¸¤ä»¶":9111,"~~~~~~~~~~~~~~~~":9112,"æĶ¿åºľè¿ĩç¨ĭ":9113,"èĳĹåĲįçļĦ":9114,"è¡Ĺä¸Ĭ":9115,"haochi":9116,"çļĩå¸Ŀ":9117,"ä¸Ģä¼ļåĦ¿":9118,"è°¨æħİè´Ńä¹°":9119,"ï¼ģï¼ģï¼ģï¼ģï¼ģï¼ģï¼ģï¼ģï¼ģï¼ģï¼ģï¼ģï¼ģï¼ģï¼ģ":9120,"è´¢å¯Į":9121,"ç»ĨèĥŀçĻĮ":9122,"ãĢģãĢģãĢģãĢģãĢģãĢģãĢģãĢģ":9123,"ä»Ļè¸ª":9124,"ä¸ĢçĽ´åľ¨çĶ¨":9125,"--------":9126,"!!!!!!!!":9127,"èµŀèµŀèµŀ":9128,"æ£Ĵæ£ĴçļĦ":9129,"ä¸Ĭå½ĵåıĹéªĹäºĨ":9130,"æĿľæ¯Ķ":9131,"çĹĺçĹĺ":9132,"éĴĵé±¼":9133,"æĶ¶å½ķäºĨ":9134,"ä¾Ħå¥³":9135,"è¯ŀçĶŁ":9136,"ä¼¸ç¼©":9137,"å¾Īå¥½å¾Īå¥½å¾Īå¥½å¾Īå¥½å¾Īå¥½å¾Īå¥½å¾Īå¥½å¾Īå¥½å¾Īå¥½å¾Īå¥½å¾Īå¥½å¾Īå¥½å¾Īå¥½å¾Īå¥½å¾Īå¥½å¾Īå¥½":9138,"ä¹ĥèĩ³":9139,"é«ĺå¤§ä¸Ĭ":9140,"æľīåĽ¾æľī":9141,"è´¡çĮ®":9142,"åĩºä¹İæĦıæĸĻ":9143,"åĪĨè¾¨çİĩ":9144,"å¸ĥé²ģæīĺ":9145,"èľĤèľľ":9146,"èı©æıĲæłĳ":9147,"èĢĥåı¤ç¼ĸ":9148,"ç»¿éĩİä»Ļè¸ª":9149,"ç±³å¦®çļĦ":9150,"åĨħå®¹ä¹Łå¾Īä¸°å¯Į":9151,"åİĨåı²çľŁçĽ¸ä½ľå®¶æĸĩæĳĺ":9152,"nå¿«ä¹Ĳä½ľä¸ļ":9153,"ä½İç¢³ç»ıæµİ":9154,"æİīèī²åģĩçļĦæİīèī²åģĩçļĦ":9155,"åı¯è½¬æį¢è¯ģåĪ¸çļĦ":9156,"43":9157,"65":9158,";ãĢĤ\\":9159,"==":9160,"AD":9161,"PU":9162,"SS":9163,"hy":9164,"ia":9165,"ie":9166,"nF":9167,"xx":9168,"âĶ":9169,"Ġ8":9170,"Ġï¼Į":9171,"Ġå¤ļ":9172,"Ġä¸Ģä¸ª":9173,"Ġåħ¨":9174,"Ġå¤´":9175,"Ġæ´Ĺ":9176,"Ġè§īå¾Ĺ":9177,"Ġçģ¯":9178,"ĠåħħçĶµ":9179,"ĠåĪĢ":9180,"Ġä¸Ĭå½ĵäºĨ":9181,"Ġæĭīéĵ¾":9182,"ĠçĽĸåŃĲ":9183,"Ġçļ®å¸¦":9184,"ĠèĽ®å¥½çļĦ":9185,"Ġå¦ĪçļĦ":9186,"çļĦå¤´":9187,"çļĦè´¨éĩıå¾Īå¥½":9188,"çļĦéĥ¨åĪĨ":9189,"çļĦèĥ½åĬĽ":9190,"çļĦåħ³ç³»":9191,"ä¸įä¿¡":9192,"ä¸įè¯¥":9193,"ä¸įè®º":9194,"ä¸įæ¸ħæĻ°":9195,"ä¸įåĽŀå¤į":9196,"ä¸įè´Łè´£":9197,"ä¸įç»ĵå®ŀ":9198,"äºĨä¸įå°ĳ":9199,"åıŃ":9200,"æĺ¯å¾Ī":9201,"æĺ¯æĹ§çļĦ":9202,"æĺ¯æĢİä¹ĪåĽŀäºĭ":9203,"ä¸Ģçīĩ":9204,"ä¸Ģçº§":9205,"å¥½åĲĹ":9206,"å¥½å¤±æľĽ":9207,"å°¸":9208,"å¾Īè¯¦ç»Ĩ":9209,"å¾Īä¿®èº«":9210,"å¾ĪåĵĪåĵ¦":9211,"æľīå¼Ĥåĳ³":9212,"å·ħ":9213,"è¿ĺéĢģè´§":9214,"æĿ±":9215,"å°±æĥ³":9216,"å°±æľīçĤ¹":9217,"å°±åĿı":9218,"æĪĳæ²¡æľī":9219,"æĪĳä¸įæĺ¯":9220,"æĪĳæĦŁè§ī":9221,"æĪĳçľŁçļĦ":9222,"æĪĳä»¥ä¸º":9223,"æĪĳçľĭçļĦ":9224,"æ²¡ç»ĻæĪĳ":9225,"æ²¡åıĳç¥¨":9226,"ä¹°åĲ§":9227,"ä¹°ä¹ĭåīį":9228,"ä¹°ä¾¿å®ľå¥½å¤ļ":9229,"è¿Ļä¸¤ä¸ª":9230,"åį¢":9231,"åĪ°åĵª":9232,"åĵ¼":9233,"åº¸":9234,"ä»¥å¤ĸ":9235,"åľ¨ä¹Łä¸į":9236,"éĥ½è¿Ļæł·":9237,"éĥ½çł´äºĨ":9238,"å¤ªå¹³":9239,"å¤ªç²Ĺç³Ļ":9240,"ä¸Ĭæ²¡æľī":9241,"å®¶çĶ¨":9242,"ä¹¦äºĨ":9243,"ä¹¦åĨħå®¹":9244,"è¯´æ²¡æľī":9245,"è¯´ä¸īéģį":9246,"è´¨éĩıä¸ĢèĪ¬èĪ¬":9247,"åı¯æĢķ":9248,"çĤİ":9249,"è¦ģäºĨ":9250,"è¦ģç´ł":9251,"èµ«":9252,"åĲİåĨį":9253,"åĲİæľŁ":9254,"å°ıç±³":9255,"å°ıè¯´çļĦ":9256,"ç»Ļèĩªå·±":9257,"ç»Ļæľĭåıĭ":9258,"èĥ½è®©":9259,"æĹ¶åıĳçİ°":9260,"æł·åĵģ":9261,"å°±æĺ¯è¿Ļä¸ª":9262,"å°±æĺ¯åŀĥåľ¾":9263,"æĶ¶ä»¶":9264,"æĶ¶ä¸įåĪ°":9265,"çľŁè´§":9266,"çľŁæĥ³":9267,"éĿ¢ä¸Ĭ":9268,"æĦŁåĬ¨":9269,"æĬ«":9270,"ç¬¨":9271,"æ¯Ķæĥ³è±¡":9272,"æ¯Ķä»¥åīį":9273,"åĸľæĤ¦":9274,"çŁ¿":9275,"æĥ³ä¹°çļĦ":9276,"éĤ¹":9277,"çĿĢæīĭ":9278,"åĮħè£ħå¤ª":9279,"ä»ĸå®¶çļĦ":9280,"èĢĮæĪĳ":9281,"èĢĮæĿ¥":9282,"æīĭæŁĦ":9283,"å®¢åİħ":9284,"æĸ¹çļĦ":9285,"æį§":9286,"çĦ¡":9287,"æĶ¶åĪ°çļĦæĹ¶åĢĻ":9288,"ä»Ģä¹Īæĺ¯":9289,"ä¹ĭåŁİ":9290,"ç²®":9291,"åİ»æĭ¿":9292,"æĹłæ¯Ķ":9293,"æĹłåħ³":9294,"çĲĨæĢ§":9295,"æľīçĤ¹çŁŃ":9296,"æľīçĤ¹èĦı":9297,"æľĢæĹ©":9298,"å¹´çº§":9299,"æł¼å¼ı":9300,"è¿ĺæĺ¯éĿŀå¸¸":9301,"è¿ĺæĺ¯èĽ®":9302,"çīĩåŃĲ":9303,"å·¥ä¸ļ":9304,"åĨįåĪ°":9305,"åĨįçİ°":9306,"ä¸¤å¥Ĺ":9307,"æīĵåŃĹ":9308,"åĩłæľ¬":9309,"è¯»å®Į":9310,"æ³ķè§Ħ":9311,"Ġè´¨éĩıä¸įè¡Į":9312,"æĪĲåĪĨ":9313,"æĸĩçļĦ":9314,"ä»·æł¼è´µ":9315,"ä»·æł¼ä¼ĺæĥł":9316,"éķ¯":9317,"èĤĸ":9318,"èĢģé¼ł":9319,"æ°´å£¶":9320,"æĢ§å¼º":9321,"åıĪè¦ģ":9322,"éªļ":9323,"ç¥¸":9324,"ç¾İåŃ¦":9325,"åĲĮä¸Ģä¸ª":9326,"æ¯Ķè¾ĥå·®":9327,"åıĳè´§ä¹Łå¾Īå¿«":9328,"æĸ°æ¬¾":9329,"ç»ĵå©ļ":9330,"é¢ľèī²æŃ£":9331,"é¢ľèī²æ¼Ĥäº®":9332,"é¢ľèī²ä¹Łå¾Ī":9333,"èĢĮä¸Ķå¿«éĢĴ":9334,"åįĸå®¶æľįåĬ¡æĢģåº¦å¾Īå¥½":9335,"æ³¨è§£":9336,"æĥħäºº":9337,"åĪļä¹°":9338,"è¢«æĪĳ":9339,"è¢«å¥Ĺ":9340,"æķĪæŀľéĥ½æ²¡æľī":9341,"æŁ¯":9342,"ä¸įçŁ¥éģĵä¸ºä»Ģä¹Ī":9343,"æĬĬä¸ľè¥¿":9344,"ä¸»ä½ĵ":9345,"éĵħ":9346,"åĬłå·¥":9347,"æĢ»èĥ½":9348,"ä¾¿å®ľå¤ļäºĨ":9349,"éĨī":9350,"æĹ¥ä¸ĭåįķ":9351,"æĹ¶éĹ´éķ¿äºĨ":9352,"ä¸įè¿ĩæĺ¯":9353,"æıĲçĲ´":9354,"åķĨå®¶çļĦ":9355,"æĺ¾åį¡":9356,"ä»£çĲĨ":9357,"èĢĥè¯ģ":9358,"ä¹Łå¾Īæĸ¹ä¾¿":9359,"å¤ŁçĶ¨":9360,"å¸ĮæľĽåķĨå®¶":9361,"å¤§å®¶è´Ńä¹°":9362,"éĤ£ä¹Īå¥½çľĭ":9363,"è§ĤæĦŁ":9364,"è§Ĥä¼Ĺ":9365,"Ġä¸įå¤ªå¥½":9366,"çī¹åĪ«å¤§":9367,"Ġè¿Ļæľ¬":9368,"ç©ºè°ĥ":9369,"å¥³åıĭ":9370,"åĮĸåŃ¦":9371,"å»ºéĢł":9372,"æĸ¹ä¾¿å¿«æį·":9373,"åħħæ°Ķ":9374,"äºĶä¸ª":9375,"äºĶåħŃ":9376,"èģĶç³»åķĨå®¶":9377,"å¹³æĿ¿":9378,"ĠæĪĳè§īå¾Ĺ":9379,"ĠæĪĳåıªæĥ³è¯´":9380,"åįĬçĵ¶":9381,"Ġè¡£æľįè¿ĺè¡Į":9382,"è¯Ħä»·æĻļäºĨ":9383,"ç¬¬äºĮèĬĤ":9384,"Ġå¾Īå¥½åĲĥ":9385,"é£İéĻ©":9386,"è®¤çŁ¥":9387,"æ¬¾å¼ıæĸ°é¢ĸ":9388,"ä¹ħçļĦ":9389,"ä¸ŃåĽ½è¿ĳä»£":9390,"åĿĳäººçļĦ":9391,"çľŁæĺ¯æĹłè¯ŃäºĨ":9392,"åħĥéĴ±":9393,"ç®¡çĶ¨":9394,"ä¸¥æł¼":9395,"åģıè´µ":9396,"èĳ¬":9397,"çľ¼åīį":9398,"è´´åľ¨":9399,"è½»å¾®":9400,"ç¡¬åº¦":9401,"åľ¨äº¬ä¸ľèĬ±":9402,"Ġçī©æµģå¿«":9403,"åĬŁçİĩ":9404,"Ġä¹¦çļĦè´¨éĩı":9405,"æľįåĬ¡æĢģåº¦ä¸įå¥½":9406,"æľįåĬ¡æĢģåº¦ä¹Łå¾Īå¥½":9407,"åı¤ç±į":9408,"æ²¹èħ»":9409,"Ġå®Ŀè´Ŀè´¨éĩıå¾Īå¥½":9410,"åħĭéĩĮ":9411,"æīĭæľºå£³":9412,"å¯¼å¸Ī":9413,"çŁ¥è¯ĨçĤ¹":9414,"èĨĿ":9415,"ĠéŀĭåŃĲæĶ¶åĪ°äºĨ":9416,"Ġè¿Ļä¸ªä»·æł¼":9417,"ä¹Łæ²¡ç»Ļ":9418,"å£°éŁ³å¤§":9419,"ä¸ĭåįķåĲİ":9420,"çłĶç©¶çļĦ":9421,"çĵ¶çĽĸ":9422,"åĸĿçļĦ":9423,"æĬ¤å£«":9424,"çģ«æľº":9425,"æ¸ħæĻ°åº¦":9426,"ĠéĿŀå¸¸å·®":9427,"ç®Ģåįķå¤§æĸ¹":9428,"åĴĮåĽ¾çīĩä¸Ĭ":9429,"ç«ĭä½ĵ":9430,"æĪ´èµ·æĿ¥":9431,"å®³æĪĳ":9432,"ç»§æī¿":9433,"æīĶåŀĥåľ¾æ¡¶":9434,"150":9435,"æĬ¥çº¸":9436,"æĬ¥åĳĬ":9437,"çīĮåŃĲçļĦ":9438,"æ³¡äºĨ":9439,"ĠåĪļå¼Ģå§ĭ":9440,"é£ŀè¡Į":9441,"éĵ¾æİ¥":9442,"åıĤæķ°":9443,"ä¸ĥå¤©":9444,"ç»Ŀå¯¹ä¸įæĺ¯":9445,"ç»§ç»Ńåħ³æ³¨":9446,"åıĳè´§éĢŁåº¦å¾Īå¿«":9447,"å°½éĩı":9448,"è¶£åĳ³":9449,"åĲİæĿ¥å°±":9450,"ä¸ªäººè§īå¾Ĺ":9451,"ä¾ĭåŃĲ":9452,"2003":9453,"ä¸ĭçļĦè®¢åįķ":9454,"ç½Ĺæĸ¯":9455,"ĠåķĨåĵģä¸įéĶĻ":9456,"éŁ³è´¨ä¸įéĶĻ":9457,"ç¢ŁéĿ¢":9458,"æĵ¦äº®":9459,"ĠéĢģæľĭåıĭçļĦ":9460,"å°¼éĩĩ":9461,"å¢ŀå¼º":9462,"åĿĲåľ¨":9463,"åįģåĪĨéĴŁ":9464,"èĩªçĦ¶çļĦ":9465,"ä¸¤å¤©äºĨ":9466,"å¿½çķ¥":9467,"è¿ĺç®Ĺä¸įéĶĻ":9468,"å¤ªä¸įè´Łè´£":9469,"æıĲä¾ĽçļĦ":9470,"æĢĢçĸĳæĺ¯":9471,"åıĤèĢĥä¹¦":9472,"ä¸įåĴĭæ»´":9473,"æł¸æ¡ĥ":9474,"åİŁæĿ¥æĺ¯":9475,"ç»ĺæľ¬":9476,"è¿Ļä¹Īå¤ļéĴ±":9477,"åĽ¢éĺŁ":9478,"ä¸įåľ¨çº¿":9479,"ä¹¦ä¸Ńèĩªæľī":9480,"åħħæ»¡äºĨ":9481,"å¤¹åŃĲ":9482,"ĠçľĭçĿĢä¸įéĶĻ":9483,"åĮ»çĶŁ":9484,"æĻķæŃ»":9485,"è¿Łè¿Ł":9486,"äºĨå¥½ä¹ħ":9487,"................................":9488,"ĠåŃ©åŃĲå¾Īåĸľæ¬¢":9489,"ä¼¤å¿ĥäºĨ":9490,"äºĴçĽ¸":9491,"éĢıæĺİçļĦ":9492,"å¥ĭæĸĹ":9493,"éªĤäºº":9494,"ä¸įæİ¨èįĲè´Ńä¹°":9495,"å»ºè®®å¤§å®¶ä¸įè¦ģä¹°":9496,"çµ¦":9497,"ä¸įéĶĪéĴ¢çļĦ":9498,"æģ°æģ°":9499,"ç°¿":9500,"å¨ĥå¨ĥ":9501,"é©±åĬ¨":9502,"çĶŁéĶĪäºĨ":9503,"æİīä¸ĭæĿ¥äºĨ":9504,"æ¶¨ä»·":9505,"åĽ¤è´§ä¸Ń":9506,"Ġä¸įåĴĭåľ°":9507,"èŁ¹":9508,"ç£ķç¢°":9509,"åªĴä½ĵ":9510,"æĮºå¥½å°±æĺ¯è´§çī©åĮħè£ħå¤ªå·®åĬ²æĮºå¥½å°±æĺ¯è´§çī©åĮħè£ħå¤ªå·®åĬ²æĮºå¥½å°±æĺ¯è´§çī©åĮħè£ħå¤ªå·®åĬ²æĮºå¥½å°±æĺ¯è´§çī©åĮħè£ħå¤ªå·®åĬ²æĮºå¥½å°±æĺ¯è´§çī©åĮħè£ħå¤ªå·®åĬ²æĮºå¥½å°±æĺ¯è´§çī©åĮħè£ħå¤ªå·®åĬ²æĮºå¥½å°±æĺ¯è´§çī©åĮħè£ħå¤ªå·®åĬ²æĮºå¥½å°±æĺ¯è´§çī©åĮħè£ħå¤ªå·®åĬ²æĮºå¥½å°±æĺ¯è´§çī©åĮħè£ħå¤ªå·®åĬ²æĮºå¥½å°±æĺ¯è´§çī©åĮħè£ħå¤ªå·®åĬ²æĮºå¥½å°±æĺ¯è´§çī©åĮħè£ħå¤ªå·®åĬ²æĮºå¥½å°±æĺ¯è´§çī©åĮħè£ħå¤ªå·®åĬ²æĮºå¥½å°±æĺ¯è´§çī©åĮħè£ħå¤ªå·®åĬ²æĮºå¥½å°±æĺ¯è´§çī©åĮħè£ħå¤ªå·®åĬ²æĮºå¥½å°±æĺ¯è´§çī©åĮħè£ħå¤ªå·®åĬ²æĮºå¥½å°±æĺ¯è´§çī©åĮħè£ħå¤ªå·®åĬ²":9511,"cccccccc":9512,"çļĦæĥħåĨµä¸ĭ":9513,"è½»è½»ä¸Ģ":9514,"èĦ±èĥ¶äºĨ":9515,"èµµç¿¼":9516,"æ¤įçī©":9517,"ä¸İåįĸå®¶æııè¿°çļĦå®Įåħ¨ä¸Ģèĩ´":9518,"åĳľåĳľ":9519,"å·´å·´çļĦ":9520,"å¾ĪåĢ¼å¾Ĺçľĭ":9521,"åħģè®¸":9522,"æİ¨åį¸è´£ä»»":9523,"å¨±ä¹Ĳ":9524,"é³ŀçĬ¶":9525,"éªĦåĤ²":9526,"åı¯è¯»æĢ§":9527,"åįļçī©é¦Ĩ":9528,"haochihaochi":9529,"ä¹°ä¾¿å®ľå¥½å¤ļè¿ĺçľģ":9530,"%,":9531,"%ï¼Į":9532,"?\\":9533,"de":9534,"gf":9535,"nB":9536,"nåįģä¸Ģ":9537,"vb":9538,"âĺ":9539,"ãĥ":9540,"çĢ":9541,"Ġå¤ĸ":9542,"Ġç»ĻæĪĳ":9543,"Ġçļ®":9544,"Ġçİ°åľ¨":9545,"ĠåĽłä¸º":9546,"Ġæ¯ı":9547,"ĠçľĭåĪ°":9548,"Ġå®ŀéĻħ":9549,"Ġä¸ĵä¸ļ":9550,"Ġä»·éĴ±":9551,"Ġç©¿èµ·æĿ¥":9552,"Ġæ°Ķåĳ³":9553,"Ġéŀĭåºķ":9554,"ĠåĶī":9555,"Ġçī©æľīæīĢåĢ¼":9556,"Ġç®ĢçĽ´å°±æĺ¯":9557,"çļĦçļĦ":9558,"çļĦäº¬ä¸ľ":9559,"çļĦè¡Į":9560,"çļĦåķĬ":9561,"çļĦåŃĹ":9562,"çļĦçº¿":9563,"çļĦåİŁ":9564,"çļĦä¸»è¦ģ":9565,"çļĦè¯Ĺ":9566,"çļĦé£İæł¼":9567,"çļĦè§Ĵåº¦":9568,"çļĦæĸ½å·¥":9569,"äºŀ":9570,"ä¸įæĿ¥":9571,"ä¸įè¿Ļä¹Ī":9572,"ä¸įä¸¥":9573,"ä¸įéĢĢäºĨ":9574,"ä¸įæİīèī²":9575,"ä¸įèĤ¯":9576,"ä¸įçĲĨæĥ³":9577,"ä¸įèĢĲçĶ¨":9578,"äºĨåĽĽ":9579,"å¥´":9580,"æĺ¯ä¸įéĶĻçļĦ":9581,"æĺ¯è¿Ļæł·çļĦ":9582,"æĺ¯æŃªçļĦ":9583,"å®ħ":9584,"å¾ĪçĥĤ":9585,"å¾ĪæĿ¾":9586,"å¾ĪåĲİæĤĶ":9587,"çĶ©":9588,"æľīå¿ĥ":9589,"æľīå¾Īå¤§":9590,"æľīç£¨æįŁ":9591,"éĢ¢":9592,"åħ®çļĦ":9593,"è¿ĺä¸įæĺ¯":9594,"è¿ĺä¸įå¥½":9595,"è¿ĺè¿Ļä¹Ī":9596,"åľ³":9597,"å°±çŃī":9598,"å°±å·²ç»ı":9599,"å°±ä¸įä¼ļ":9600,"å°±éĻį":9601,"å°±åĥıæĺ¯":9602,"æ²¡å¤ļä¹ħ":9603,"è¿Ļç±»":9604,"ä¸ªåĪ«":9605,"ä¸ªä½ĵ":9606,"çĶ¨å¾Ĺ":9607,"ä¹Łè¯´":9608,"ä¸ľåĮĹ":9609,"å¤§åħ¬åı¸":9610,"å¤§éªĹåŃĲ":9611,"å¤§çº¦":9612,"åľ¨çļĦ":9613,"åľ¨æĿ¥":9614,"åľ¨å®¶éĩĮ":9615,"åľ¨è¶ħå¸Ĥ":9616,"éĥ½æĶ¾":9617,"éĥ½çĥĤäºĨ":9618,"éĥ½ç¢İäºĨ":9619,"å¤ªä¸įåĢ¼":9620,"å¤ªçŁŃäºĨ":9621,"å¤ªæģ¶å¿ĥäºĨ":9622,"åĩ¶":9623,"ä¸ĬåĲİ":9624,"ä¸Ĭè¿ĺæľī":9625,"å®¶å±ħ":9626,"åĮª":9627,"ä¹¦çĶŁ":9628,"åıĳç»Ļ":9629,"åıĳéŁ³":9630,"åıĳä¿¡æģ¯":9631,"åıĳæĮ¥":9632,"åı¯æ°Ķ":9633,"çĤĸ":9634,"æĥ§":9635,"è£¸":9636,"è¦ģä¸įè¦ģ":9637,"çĤ¹å¿ĥ":9638,"çĤ¹å°±å¥½äºĨ":9639,"åĴ³":9640,"å°ıä¸ľè¥¿":9641,"ç»Ļåĩº":9642,"ç»ĻåĪ«äºº":9643,"æĦıåĳ³":9644,"çī©ä»¶":9645,"å¾Īå¥½å¾Īåĸľæ¬¢":9646,"æľ¬è´¨":9647,"æ²¡æľīæĥ³è±¡ä¸ŃçļĦå¥½":9648,"å¤ļå¹´çļĦ":9649,"å¤ļå¹´æĿ¥":9650,"èĪĩ":9651,"è£ħä¸įä¸Ĭ":9652,"åĴĮå°ı":9653,"åĴĮåıĳå±ķ":9654,"ä¸ĭæ°´":9655,"å®ŀæĸ½":9656,"å¤©åľ°":9657,"ä¸ŃæľĢ":9658,"å°±æĺ¯åıĳè´§":9659,"æĭ±":9660,"æ³¼":9661,"åı¯ä»¥çļĦ":9662,"åı¯ä»¥è¯´æĺ¯":9663,"åı¯ä»¥çľĭçľĭ":9664,"æĶ¶çº³":9665,"éĿ¢å¡ĳ":9666,"ä¼ļè®¡":9667,"çĿ¬":9668,"çĿ¹":9669,"ä¸ºè¯ģ":9670,"æ¯Ķèµ·":9671,"æ¯Ķåħ¶ä»ĸ":9672,"åĸľåī§":9673,"æĥ³ä¸įåĪ°":9674,"ä¾µ":9675,"åĸľæ¬¢äºĨ":9676,"åŃ¦äºº":9677,"åĩºæ°´":9678,"å¦®":9679,"èĩªåŃ¦":9680,"èĩªä¿¡":9681,"éĿŀå¸¸å¥½çľĭ":9682,"æĮºå¤§":9683,"æĮºæ¼Ĥäº®":9684,"ä¸įæĺ¯å¤ª":9685,"å¯¹èĩªå·±":9686,"çĶŁæ¶¯":9687,"ä½Ĩè¿Ļ":9688,"èµ·äºĨ":9689,"çİ°çĬ¶":9690,"æį¡":9691,"æįı":9692,"ä½ľæĸĩ":9693,"ä»Ģä¹ĪéĹ®é¢ĺ":9694,"åĪĨæķ£":9695,"æħ¢äºĨçĤ¹":9696,"æħ¢çļĦè¦ģæŃ»":9697,"æĦŁè§īå¥½":9698,"æĦŁè§īä¸ĢèĪ¬":9699,"æ¸Ķ":9700,"æĹłçŁ¥":9701,"æľĢçĪ±çļĦ":9702,"åľ°æĿ¿":9703,"è¿ĺæĺ¯å¾Īä¸įéĶĻçļĦ":9704,"ä¸¤ç§į":9705,"çī©æµģä¹Łå¾Īç»ĻåĬĽ":9706,"æĺİæĺŁ":9707,"åįĸäºĨ":9708,"åĬĽåº¦":9709,"èĬ¦":9710,"èĬĴ":9711,"æĽ°":9712,"é¢ĺæĿĲ":9713,"åĽ½è´§":9714,"æĪĲéĥ½":9715,"ä½ĵéĩį":9716,"åŀĥåľ¾ä¸ľè¥¿":9717,"è¾ĥå¥½":9718,"è¾ĥå·®":9719,"çī¹åľ°":9720,"ãĢĭ\\":9721,"å¤ĸéĥ¨":9722,"èĢģçļĦ":9723,"æį¢ä¸Ģä¸ª":9724,"åıĪå°ı":9725,"æ°ĶåĢĻ":9726,"è¶ħå·®":9727,"çĻ¼":9728,"è·ŁåĽ¾":9729,"æĸ°ä¹¦":9730,"æĸ°æīĭ":9731,"çĽ¸äºĴ":9732,"åįģå¹´":9733,"åįģè¶³":9734,"åįģä¸ªåŃĹ":9735,"ç»ĵæĻ¶":9736,"èĢĮä¸Ķæ²¡æľī":9737,"Ġè¿ĺç®Ĺ":9738,"çķ«":9739,"éķ¿çŁŃ":9740,"èº«å¿ĥ":9741,"æľŁçļĦ":9742,"å¸¦æľī":9743,"å¸¦æĿ¥çļĦ":9744,"å¤´çļ®":9745,"æĢģåº¦æŀģå·®":9746,"æķĻä¼ļ":9747,"éĢļå¸¸":9748,"æĶ¾å¼ĥ":9749,"æĽ´å·®":9750,"å°ĳçļĦ":9751,"ä¸ĢçĤ¹åĦ¿":9752,"åħ¬å¹³":9753,"ä»¥åĲİè¿ĺæĺ¯":9754,"åĢ¼å¾Ĺä¸Ģè¯»":9755,"ä¸»ä»»":9756,"ä¿ĿçķĻ":9757,"éĵİ":9758,"éľį":9759,"è¯ķç©¿äºĨ":9760,"æĹ¥çĽĬ":9761,"åħ³éĹ¨":9762,"çľŁçļĦå¾Īä¸įéĶĻ":9763,"ç¢§":9764,"æ³¨æĦıäºĨ":9765,"çĻ½çĻ½":9766,"çĻ½æĿ¡":9767,"æİ¨èĦ±":9768,"å¤§å®¶åĪ«ä¹°":9769,"éĤ£ä¹ĪåĽŀäºĭ":9770,"è§Ĥå¿µ":9771,"è®¡è¾ĥ":9772,"åıįå¯¹":9773,"çº¸çĽĴ":9774,"è¯ĨåĪ«":9775,"æĲģ":9776,"åĽĽéĥ¨":9777,"åĽĽå·Ŀ":9778,"åħ·å¤ĩ":9779,"ä¸ĭæ¬¡ä¸įä¹°äºĨ":9780,"åħĪä¸įè¯´":9781,"èµŀä¸Ģä¸ĭ":9782,"å½¢æĦı":9783,"èħº":9784,"èħķ":9785,"éĢīè´Ń":9786,"éĢīé¡¹":9787,"Ġè¡£æľįå¾Īå¥½":9788,"Ġè¡£æľįè´¨éĩıå¾Īå¥½":9789,"2012":9790,"å¸®æľĭåıĭä¹°çļĦ":9791,"ãĢĤãĢĤãĢĤãĢĤãĢĤãĢĤãĢĤãĢĤãĢĤãĢĤãĢĤãĢĤãĢĤ":9792,"æŀģä¸º":9793,"æĸŃçļĦ":9794,"çĶ»è´¨":9795,"çĶ»å®¶":9796,"åĲĦç±»":9797,"å¹²èĦĨ":9798,"å¤§å°ıåĪļå¥½":9799,"åĲ¬åķĬ":9800,"åĲ¬åĬĽ":9801,"éĢĤåĲĪçĪ¶æ¯į":9802,"èİī":9803,"å¤©å°±åĪ°äºĨ":9804,"è½»å·§":9805,"åıĮéŀĭ":9806,"åºĹå®¶çļĦ":9807,"Ġçī©æµģå¾Īç»ĻåĬĽ":9808,"Ġä¸įå¥½æĦıæĢĿ":9809,"æĮĩéĴĪ":9810,"åľºæĻ¯":9811,"å¸ĥéĽ·":9812,"åı¤é¾Ļ":9813,"æ²¹æ¼Ĩ":9814,"Ġå¥½åĥı":9815,"è¿ĺä¼ļæĿ¥çļĦ":9816,"å°ģçļ®":9817,"å®īè£ħæĸ¹ä¾¿":9818,"æĹ§è´§":9819,"æīĭæľºä¸Ĭ":9820,"å®ŀåľ¨ä¸įæķ¢æģŃç»´":9821,"æ®µèĲ½":9822,"åĬŀäºĭ":9823,"Ġåŀĥåľ¾ä¸ŃçļĦåŀĥåľ¾":9824,"æ°ĳéĹ´":9825,"è¿ľäºĨ":9826,"çĶŁæ´»ä¸Ń":9827,"éĿ¢æĸĻä¸įéĶĻ":9828,"æľ¬æĿ¥æĥ³éĢĢè´§":9829,"ä¸Ŀè¢ľ":9830,"èĦıåħ®":9831,"åĳ½é¢ĺ":9832,"ĠæĦŁè§īè¿ĺä¸įéĶĻ":9833,"ç½ĳä¸Ĭè´Ńçī©":9834,"å¾®ä¿¡":9835,"åĸĿæ°´":9836,"æŃ£çīĪçļĦä¸ľè¥¿":9837,"è§Ħæł¼":9838,"æĺ¯ä¸Ģä»¶":9839,"èĢĲç£¨":9840,"Ġå¿«éĢĴåĳĺ":9841,"å¥½å¤ļæ¬¡":9842,"åĮºåŁŁ":9843,"åı¦ä¸Ģ":9844,"ĠåĮħè£ħå¾Īå¥½":9845,"èĵĿè®°":9846,"å¥¶çĵ¶":9847,"å¥¶å¥¶":9848,"è£Ĥçº¹":9849,"å¼ĦçļĦ":9850,"ĠåĪļæĶ¶åĪ°è´§":9851,"çķĻä¸ĭäºĨ":9852,"ç²ĺçļĦ":9853,"åĪ»åŃĹ":9854,"å°ļåı¯":9855,"ç»§ç»ŃæĶ¯æĮģ":9856,"ä¸įæĥ³å¤ļè¯´":9857,"æĿ¯åŃĲèĽĭç³ķ":9858,"å¾Īæľīå¸®åĬ©":9859,"åĦ¿åŃĲä¹°çļĦ":9860,"çĶ³è¯·äºĨ":9861,"æİīèī²ä¸¥éĩį":9862,"åħ¶å®ŀæĺ¯":9863,"æĹ¢æľī":9864,"ç³»ç»ŁçļĦ":9865,"ç¬¬äºĮæ¬¡è´Ńä¹°äºĨ":9866,"æĥħåĨµä¸ĭ":9867,"æŀĦæĪĲ":9868,"çĽ¸å½ĵä¸įéĶĻ":9869,"æ¼Ķåĩº":9870,"æ¼Ķç»İ":9871,"åĶ¯æľī":9872,"Ġè´§æĶ¶åĪ°äºĨ":9873,"æĢ¥çĶ¨":9874,"ç«¥å¹´":9875,"ä¸įå¯¹æĿ¿":9876,"ç³»åĪĹçļĦ":9877,"åĩĳåĲĪçĶ¨åĲ§":9878,"ä¼ĺæĥłåĪ¸":9879,"ç»Ļä¸ªèµŀ":9880,"æ³¢è¥¿":9881,"ä¹łæĥ¯å¥½è¯Ħ":9882,"Ġåıĳè´§å¾Īå¿«":9883,"å¤ļå°ĳéĴ±":9884,"å¤«å¦ĩ":9885,"æ°¸æģĴ":9886,"ĠéĢģè´§å¾Īå¿«":9887,"å¾Īé«ĺåħ´":9888,"æ¹ĸåįĹ":9889,"ä¸įå¾Ĺä¸į":9890,"è¿ĶåĽŀ":9891,"æŃ£å¸¸çļĦ":9892,"ä¸ĭæ¬¡è¿ĺä¼ļæĿ¥":9893,"éĻĦå½ķ":9894,"æµħæĺ¾":9895,"å·¨å¤§":9896,"ä¸´åºĬ":9897,"å¿įä¸įä½ı":9898,"è¿Ļä¹Īå¤ļå¹´":9899,"éľ²åĩº":9900,"æĳ©æĵ¦":9901,"ä¸įä»ħä»ħ":9902,"è¡ĮæĶ¿è¯īè®¼":9903,"éĺ¶æ¢¯":9904,"å¼ºçĥĪçļĦ":9905,"å¯»æ±Ĥ":9906,"å¥½å¥½å¥½å¥½å¥½å¥½å¥½å¥½å¥½å¥½å¥½å¥½å¥½å¥½å¥½å¥½":9907,"çŃĸçķ¥":9908,"ä¸įç®¡æĺ¯":9909,"ä¹Łè®¸æĺ¯":9910,"å®¹éĩıå¤§":9911,"ä»£è¡¨ä½ľ":9912,"Ġå¤ĸè§Ĥä¸įéĶĻ":9913,"æĪĳè¿ĺä»¥ä¸º":9914,"ä»¥æĿ¥æľĢ":9915,"æŃĮæĽ²éĥ½éĿŀå¸¸":9916,"é¢ĨåŁŁçļĦ":9917,"å·¥ç¨ĭå¸Ī":9918,"åįĸå®¶æľįåĬ¡å¾Īå¥½":9919,"å¤©å¤©å¿«éĢĴ":9920,"é¼ĵåĬ±":9921,"åĲĬåĿł":9922,"æ¾³":9923,"å¤ļè¯»ä¹¦åı¯ä»¥":9924,"è®°å½ķä»ª":9925,"å»ºçŃĳå·¥ç¨ĭ":9926,"æĥ³åĥıä¸ŃçļĦ":9927,"æ·±åħ¥æµħ":9928,"è¿ĩæľŁçļĦ":9929,"æĦıè¯Ĩå½¢æĢģ":9930,"çªĹå¸ĺ":9931,"åįĥä¸ĩåĪ«ä¸Ĭå½ĵ":9932,"ç´«çłĤ":9933,"çļĦæĥħç»ª":9934,"å®ĩå®Ļ":9935,"æīĵä¸įéĢļ":9936,"çĽĹçīĪçļĦéĴ±ä¹°":9937,"æ¯Ķå®ŀä½ĵåºĹä¹°ä¾¿å®ľå¥½å¤ļè¿ĺçľģ":9938,"èĦīç»ľ":9939,"æĲľç´¢":9940,"å°±éĻįä»·äºĨ":9941,"ä¼½èĵĿè®°":9942,"éĸĭ":9943,"çº½çº¦":9944,"ä¿±ä½³":9945,"è½¨è¿¹":9946,"å·®å·®å·®å·®å·®å·®å·®å·®å·®å·®å·®å·®å·®å·®å·®å·®å·®å·®å·®å·®å·®å·®å·®å·®å·®å·®å·®å·®å·®å·®å·®å·®å·®å·®å·®å·®å·®å·®å·®å·®å·®å·®å·®å·®å·®å·®å·®å·®å·®å·®å·®å·®å·®å·®å·®å·®å·®å·®å·®å·®å·®å·®å·®å·®":9947,"ice":9948,"ãĢĢãĢĢãĢĢãĢĢãĢĢãĢĢãĢĢãĢĢãĢĢãĢĢãĢĢãĢĢãĢĢãĢĢãĢĢãĢĢãĢĢãĢĢãĢĢãĢĢãĢĢãĢĢãĢĢãĢĢãĢĢãĢĢãĢĢãĢĢãĢĢãĢĢãĢĢãĢĢãĢĢãĢĢãĢĢãĢĢãĢĢãĢĢãĢĢãĢĢãĢĢãĢĢãĢĢãĢĢãĢĢãĢĢãĢĢãĢĢãĢĢãĢĢãĢĢãĢĢãĢĢãĢĢãĢĢãĢĢãĢĢãĢĢãĢĢãĢĢãĢĢãĢĢãĢĢãĢĢ":9949,"æĪĳçİ°åľ¨æĿ¥è¯´è¯´":9950,"æ¯Ķè¶ħå¸Ĥä¾¿å®ľ":9951,"jjjj":9952,"æĮ¯å®ĩ":9953,"éĿŀå¸¸æ»¡æĦıéĿŀå¸¸æ»¡æĦıéĿŀå¸¸æ»¡æĦıéĿŀå¸¸æ»¡æĦıéĿŀå¸¸æ»¡æĦıéĿŀå¸¸æ»¡æĦıéĿŀå¸¸æ»¡æĦıéĿŀå¸¸æ»¡æĦıéĿŀå¸¸æ»¡æĦıéĿŀå¸¸æ»¡æĦıéĿŀå¸¸æ»¡æĦıéĿŀå¸¸æ»¡æĦıéĿŀå¸¸æ»¡æĦıéĿŀå¸¸æ»¡æĦıéĿŀå¸¸æ»¡æĦıéĿŀå¸¸æ»¡æĦıéĿŀå¸¸æ»¡æĦıéĿŀå¸¸æ»¡æĦıéĿŀå¸¸æ»¡æĦıéĿŀå¸¸æ»¡æĦıéĿŀå¸¸æ»¡æĦıéĿŀå¸¸æ»¡æĦıéĿŀå¸¸æ»¡æĦıéĿŀå¸¸æ»¡æĦıéĿŀå¸¸æ»¡æĦıéĿŀå¸¸æ»¡æĦıéĿŀå¸¸æ»¡æĦıéĿŀå¸¸æ»¡æĦıéĿŀå¸¸æ»¡æĦıéĿŀå¸¸æ»¡æĦıéĿŀå¸¸æ»¡æĦıéĿŀå¸¸æ»¡æĦı":9954,"age":9955,"è¿ĺåı¯ä»¥å°±æĺ¯åĶ±çīĩéĥ½è¶ĬæĿ¥è¶Ĭè´µè¿ĺåı¯ä»¥å°±æĺ¯åĶ±çīĩéĥ½è¶ĬæĿ¥è¶Ĭè´µè¿ĺåı¯ä»¥å°±æĺ¯åĶ±çīĩéĥ½è¶ĬæĿ¥è¶Ĭè´µè¿ĺåı¯ä»¥å°±æĺ¯åĶ±çīĩéĥ½è¶ĬæĿ¥è¶Ĭè´µè¿ĺåı¯ä»¥å°±æĺ¯åĶ±çīĩéĥ½è¶ĬæĿ¥è¶Ĭè´µè¿ĺåı¯ä»¥å°±æĺ¯åĶ±çīĩéĥ½è¶ĬæĿ¥è¶Ĭè´µè¿ĺåı¯ä»¥å°±æĺ¯åĶ±çīĩéĥ½è¶ĬæĿ¥è¶Ĭè´µè¿ĺåı¯ä»¥å°±æĺ¯åĶ±çīĩéĥ½è¶ĬæĿ¥è¶Ĭè´µè¿ĺåı¯ä»¥å°±æĺ¯åĶ±çīĩéĥ½è¶ĬæĿ¥è¶Ĭè´µè¿ĺåı¯ä»¥å°±æĺ¯åĶ±çīĩéĥ½è¶ĬæĿ¥è¶Ĭè´µè¿ĺåı¯ä»¥å°±æĺ¯åĶ±çīĩéĥ½è¶ĬæĿ¥è¶Ĭè´µè¿ĺåı¯ä»¥å°±æĺ¯åĶ±çīĩéĥ½è¶ĬæĿ¥è¶Ĭè´µè¿ĺåı¯ä»¥å°±æĺ¯åĶ±çīĩéĥ½è¶ĬæĿ¥è¶Ĭè´µè¿ĺåı¯ä»¥å°±æĺ¯åĶ±çīĩéĥ½è¶ĬæĿ¥è¶Ĭè´µè¿ĺåı¯ä»¥å°±æĺ¯åĶ±çīĩéĥ½è¶ĬæĿ¥è¶Ĭè´µè¿ĺåı¯ä»¥å°±æĺ¯åĶ±çīĩéĥ½è¶ĬæĿ¥è¶Ĭè´µ":9956,"è¿Ļæľ¬ä¹¦çļĦè§ĤæĦŁ":9957,"åĢºåĬ¡":9958,"å¤ªè®©äººå¤±æľĽäºĨ":9959,"æ¶µçĽĸäºĨ":9960,"çį²":9961,"è´·æ¬¾":9962,"æ´Ľéĺ³ä¼½èĵĿè®°":9963,"åķ¦åĴ¯åķ¦åĴ¯":9964,"æĭ¿åľ¨æīĭéĩĮ":9965,"åĳ¸åĳ¸":9966,"å¼łå°ıå¨´":9967,"åľ¨äº¬ä¸ľèĬ±çĽĹçīĪçļĦéĴ±ä¹°":9968,"çļĦæĸ½å·¥å·¥èīº":9969,"éĢĤåĲĪçĪ¶æ¯įåĲ¬åķĬ":9970,"èĦıåħ®åħ®çļĦ":9971,"æŃĮæĽ²éĥ½éĿŀå¸¸éĢĤåĲĪçĪ¶æ¯įåĲ¬åķĬ":9972,"æĪĳçİ°åľ¨æĿ¥è¯´è¯´è¿Ļæľ¬ä¹¦çļĦè§ĤæĦŁ":9973,"åľ¨äº¬ä¸ľèĬ±çĽĹçīĪçļĦéĴ±ä¹°æŃ£çīĪçļĦä¸ľè¥¿":9974,"æĪĳçİ°åľ¨æĿ¥è¯´è¯´è¿Ļæľ¬ä¹¦çļĦè§ĤæĦŁåĲ§":9975,"(âĬĻ":9976,"08":9977,";_&":9978,"På·¨":9979,"ab":9980,"af":9981,"io":9982,"ke":9983,"nåľ¨":9984,"näº¬ä¸ľ":9985,"ps":9986,"ter":9987,"uæĿ°":9988,"´å°":9989,"åµ":9990,"ĉĉ":9991,"Ġ6":9992,"Ġå¿«":9993,"Ġèĥ½":9994,"Ġä¸Ń":9995,"Ġå·²":9996,"Ġä½łä»¬":9997,"ĠåĲ¬":9998,"Ġäº²":9999,"Ġå¥³åĦ¿":10000,"Ġæľ¬äºº":10001,"Ġçľ¼éķľ":10002,"ĠåĨħè¡£":10003,"ĠçıłåŃĲ":10004,"ĠåıĮåįģä¸Ģ":10005,"ä¸§":10006,"ä¸«":10007,"ï¼Į?":10008,"çļĦæ²¡":10009,"çļĦå·®":10010,"çļĦèĢģ":10011,"çļĦä¸įä¸Ģæł·":10012,"çļĦç½ĳè´Ń":10013,"çļĦåĬĽéĩı":10014,"ãĢī":10015,"ä¸įè§ī":10016,"ä¸įéķ¿":10017,"ä¸įéĢļ":10018,"ä¸įä¾¿å®ľ":10019,"ä¸įç»ĻæĪĳ":10020,"ä¸įåĪĴç®Ĺ":10021,"ä¸įå¿į":10022,"ä¸įçĽ¸ç¬¦":10023,"ãĢĤ|":10024,"å¥¢":10025,"æĺ¯è¦ģ":10026,"æĺ¯å¥½çļĦ":10027,"æĺ¯æŃ£çīĪçļĦ":10028,"ä¸ĢéĿ¢":10029,"ä¸ĢæĿ¯":10030,"ä¸Ģé¡µ":10031,"ä¸Ģåī¯":10032,"å°´å°":10033,"ï¼ģï¼Ł":10034,"å¾Īè¿ľ":10035,"æľīå·®åĪ«":10036,"æľīä¿Ŀéļľ":10037,"åħĶ":10038,"è¿ĺéľĢè¦ģ":10039,"è¿ĺéĤ£ä¹Īè´µ":10040,"åľĸ":10041,"æĿı":10042,"å°±æĪĲ":10043,"æĪĳæľī":10044,"æĪĳä¹Łæ²¡":10045,"æĪĳåĸľæ¬¢çļĦ":10046,"æ²¡éĢĢ":10047,"ä¹°ä¸įåĪ°":10048,"è¿ĻéŀĭåŃĲ":10049,"è¿Ļå¼ł":10050,"è¿Ļé¦ĸ":10051,"è¿Ļçİ©æĦı":10052,"éĶ¡":10053,"çĶ¨èĩªå·±çļĦ":10054,"çĶ¨äºĨä¸Ģæ®µæĹ¶éĹ´":10055,"ä¹Łä¸Ģæł·":10056,"ä¹Łä¸įæĺ¯å¾Ī":10057,"åºŀ":10058,"æĿ¥å½¢å®¹":10059,"å¤§æĪĺ":10060,"å¼ĵ":10061,"åľ¨ä»ĸ":10062,"åľ¨éĺħè¯»":10063,"åľ¨æŁĲ":10064,"å¤ªä¹ħ":10065,"å¤ªæ·±":10066,"å¤ªä¸¥éĩį":10067,"åĩīäºĨ":10068,"ä¸Ĭå°±":10069,"äººå¾Īå¥½":10070,"äººåİ»":10071,"äººä½ĵ":10072,"äººä¸İ":10073,"çľĭåľ¨":10074,"çľĭæ¸ħ":10075,"ä¹¦é¡µ":10076,"ä¹¦åį·":10077,"åķĥ":10078,"åıĳä¸Ģä¸ª":10079,"åıĳåŀĭ":10080,"åıĳäºĨä¸Ģä¸ª":10081,"è´¨éĩıæľīéĹ®é¢ĺ":10082,"è´¨éĩıå¾Īä¸ĢèĪ¬":10083,"è´¨éĩıä¿±ä½³":10084,"çĽŁ":10085,"çĤ¹åĦ¿":10086,"åĲİåıĪ":10087,"å¯ŀ":10088,"å°ıåĮħ":10089,"ç»Ļä½łä»¬":10090,"æĦıå¿Ĺ":10091,"çī©çĲĨ":10092,"æľ¬ä»¥ä¸º":10093,"æ²¡æľīåĳ³éģĵ":10094,"èĩĤ":10095,"å¾Ĺä»¥":10096,"åĴĮä»ĭç»į":10097,"åĴĮç½ĳä¸Ĭ":10098,"æİ°":10099,"æİĺ":10100,"è¿ĩåħ³":10101,"å½Ŀ":10102,"ä¸ŃåĮ»":10103,"å°±æĺ¯ä¸Ģ":10104,"å°±æĺ¯å¤ª":10105,"æĭĵ":10106,"æĭĺ":10107,"åı¯ä»¥çľĭåĪ°":10108,"åı¯ä»¥çĲĨè§£":10109,"è¾Ł":10110,"æ»¥":10111,"æĬł":10112,"æ¯ĶåķĨåľº":10113,"åĸľçĪ±":10114,"ä¾į":10115,"åĩºäºİ":10116,"å¦¨":10117,"å¦»":10118,"å¼ĢæĶ¾":10119,"éĿŀå¸¸åĲĪéĢĤ":10120,"çĲĲ":10121,"her":10122,"æħĪ":10123,"ä¸įæĺ¯å¾Īåĸľæ¬¢":10124,"ä¸įæĺ¯çī¹åĪ«":10125,"ä¸įæĺ¯å¤ªå¥½":10126,"ä¸įæĺ¯æĪĳæĥ³è¦ģçļĦ":10127,"åĮħè£ħä¹Ł":10128,"ä½łäºĨ":10129,"åŀĤ":10130,"åĲĪæł¼":10131,"çŁ¥åĲį":10132,"éĤ£æ¬¾":10133,"æīĭåĬ¨":10134,"æīĭæıĲ":10135,"è½©":10136,"ä½ĨåıĪ":10137,"å±¯":10138,"æµģåĬ¨":10139,"ä¹ĭè·¯":10140,"ä¹ĭæīĢä»¥":10141,"è°£":10142,"è°Ľ":10143,"åĪĨæĺİ":10144,"åĪĨç±»":10145,"æ¸ł":10146,"çĥ¹":10147,"éĹ®æĪĳ":10148,"æľīçĤ¹å¤§äºĨ":10149,"å¿«éĢĴä¹Łå¾Īç»ĻåĬĽ":10150,"èĦĤ":10151,"è¿ĺæĺ¯æĮºå¥½çļĦ":10152,"å®¢æľįå¾Ī":10153,"å®¢æľįçļĦæĢģåº¦":10154,"åĨįçľĭ":10155,"åĨįä¸ī":10156,"æĻĤ":10157,"ä¸Ģæ¬¡æĢ§çļĦ":10158,"çī©æµģæľīçĤ¹æħ¢":10159,"æīĵç£¨":10160,"åįĸåģĩè´§":10161,"æ¼ł":10162,"æĢİä¹Īè¯Ħä»·":10163,"ç¾¡":10164,"åĽ½æ°ĳ":10165,"ä¹°äºĨå¾Īå¤ļ":10166,"Ġè´¨éĩıè¿ĺå¥½":10167,"Ġè´¨éĩıä¸ĢèĪ¬èĪ¬":10168,"çĪ·çļĦ":10169,"ä»·æł¼é«ĺ":10170,"å¤ĸçļĦ":10171,"æ°´è´§":10172,"äºĭäºĨ":10173,"è¡£æľįäºĨ":10174,"æīĢæľª":10175,"åĬ¨éĿĻ":10176,"åıĪç»Ļ":10177,"åıĪèĸĦ":10178,"æ°ĶçĲĥ":10179,"ç¥Ń":10180,"ç¾İé£Ł":10181,"äºĮæĺ¯":10182,"ä¿¡ä»°":10183,"éŁ³é¢ĳ":10184,"åįģåŃĹ":10185,"ä½¿å¾Ĺ":10186,"ä½¿èĩªå·±":10187,"æİ¥å¤´":10188,"æİ¥åĲ¬":10189,"é¢ľèī²ä¸įä¸Ģæł·":10190,"èĢĮä¸Ķè¿ĺæĺ¯":10191,"èĢĮä¸Ķéĥ½æĺ¯":10192,"ä½Ĩæĺ¯æĦŁè§ī":10193,"å¤±è¯¯":10194,"ä»İå®¹":10195,"ä»İå¤´":10196,"è´¹åĬĽ":10197,"åı·æīį":10198,"å¸¦é¢Ĩ":10199,"è¢«åĿĳ":10200,"æĽ´å¥½çļĦ":10201,"Ġå¾Īä¸įå¥½":10202,"åĬłäºĨ":10203,"åĬłä»¥":10204,"åĬłåħ¥":10205,"æĺŁéĥ½ä¸įæĥ³ç»Ļ":10206,"æĢ»ç®Ĺ":10207,"è´Ńä¹°æĹ¶":10208,"è¯ķè¯»":10209,"è¯ķåį·":10210,"åĲĥçĿĢ":10211,"åĲĥå®Į":10212,"åĨħå®¹å¾Ī":10213,"åİŁå§ĭ":10214,"æĹ¥è¯Ń":10215,"ç»ĻæĪĳéĢģ":10216,"éĥ½ä¸įè¡Į":10217,"åħ³éĹŃ":10218,"æł¹æľ¬ä¸įä¸Ģæł·":10219,"æıĲåĪ°":10220,"è¿Ļä¹Īå¤§çļĦ":10221,"ä¸įéĶĻçļĦåĵ¦":10222,"è´Ńçī©ä½ĵéªĮ":10223,"ä»£æĽ¿":10224,"è±¡å¾ģ":10225,"çł´çĥĤ":10226,"çĪ±ä¸įéĩĬ":10227,"ä½¿çĶ¨åĲİ":10228,"æķ´é½Ĳ":10229,"æİ¨åĩº":10230,"å¸ĮæľĽå¤§å®¶ä¸įè¦ģ":10231,"ä¹ĲæĽ²":10232,"Ġè¿Ļæĺ¯ä»Ģä¹Ī":10233,"åıĹçĽĬ":10234,"ä¸įè¦ģäºĨ":10235,"è¿ĺæ²¡ä½¿çĶ¨":10236,"è¿ĺæ²¡æĿ¥å¾ĹåıĬ":10237,"åºķä¸ĭ":10238,"åĲįç§°":10239,"æĿ¡è£¤åŃĲ":10240,"èģĶç³»ä¸įåĪ°":10241,"åįĬå°ıæĹ¶":10242,"éĹ¨åį«":10243,"ãĢĤãĢĤãĢĤãĢĤãĢĤãĢĤãĢĤãĢĤãĢĤãĢĤãĢĤãĢĤãĢĤãĢĤ":10244,"èĬĤçĽ®":10245,"æııç»ĺ":10246,"æ¬¾å¼ıæ¼Ĥäº®":10247,"è§īå¾Ĺå¾Ī":10248,"åĪ¶åĵģ":10249,"åį°èĬ±":10250,"åıĳç¥¨ä¹Łæ²¡æľī":10251,"ä»ĸä»¬å®¶":10252,"åį´æ²¡æľī":10253,"èĳµ":10254,"èİĵ":10255,"çĽ®çļĦæĺ¯":10256,"åĪĴä¼¤":10257,"çĶ±æŃ¤":10258,"èµ°è¿Ľ":10259,"è¿ĺä¸įè®©":10260,"æīĵå¼ĢåĲİ":10261,"åı¤æ¨":10262,"ç§ĳçłĶ":10263,"çľĭèµ·æĿ¥å¾Ī":10264,"å±±ä¸ľ":10265,"ç¬ĶèĬ¯":10266,"å®¹æĺĵèĦı":10267,"åıĸè´§":10268,"å±ħçĦ¶æ²¡æľī":10269,"å®ŀçī©ä¸İ":10270,"åħĭæľį":10271,"æ¸©åĴĮ":10272,"åĭĥ":10273,"å°±ä¸įçĶ¨":10274,"çŁ¥è¯ĨåĴĮ":10275,"æľīäºĽäºº":10276,"éĢıå½»":10277,"èĹ¤":10278,"ä¸įå¤ªåĸľæ¬¢":10279,"éĽĨä¸Ń":10280,"æĹ©çĤ¹":10281,"æīĭæĦŁå¥½":10282,"èĦıä¸ľè¥¿":10283,"ç©¿ä¸ĬäºĨ":10284,"ĠæĦŁè§īè¿ĺåı¯ä»¥":10285,"ç´§å¼ł":10286,"ç¼ºåı£":10287,"è§Ħæ¨¡":10288,"çª¥":10289,"ç¬¬ä¸ĢæĹ¶éĹ´":10290,"ç¬¬ä¸Ģç«ł":10291,"Ġå¿«éĢĴéĢŁåº¦":10292,"ç©¿äºĨä¸Ģæ¬¡":10293,"ç»Īèº«":10294,"ç¿»ç¿»":10295,"Ġè¿ĺä¸įéĶĻåĲ§":10296,"å¨ľ":10297,"æĢ§ä»·æ¯Ķä¸įé«ĺ":10298,"ç®ĢåįķæĺĵæĩĤ":10299,"åŀ«ä»ĺ":10300,"è¯¦å°½":10301,"è¿ĺæ²¡æľīæĶ¶åĪ°":10302,"åı¯æĺ¯æĪĳ":10303,"çĮİ":10304,"çĮľ":10305,"çº¯æŃ£":10306,"è´ŁåĪĨ":10307,"ĠåĪļä¹°":10308,"ç§°èµŀ":10309,"ç¡®å®ŀæĺ¯":10310,"åıĤä¸İ":10311,"ä»½éĩı":10312,"åħħçĶµå®Ŀ":10313,"é¡ºçķħ":10314,"èľ¡":10315,"æķ£æŀ¶äºĨ":10316,"è¯Ĺè¯į":10317,"æ¦¨":10318,"éĢīæĭ©äºĨ":10319,"æµªæ¼«":10320,"è´µäºĨçĤ¹":10321,"éĶħçĽĸ":10322,"éĺ³å¸Ĥ":10323,"éĻįä½İ":10324,"Ġä»Ģä¹Īä¸ľè¥¿":10325,"å¿ħé¡»è¦ģ":10326,"è¯ĳæĸĩ":10327,"åŃ¦çĶŁçļĦ":10328,"ä¸įç»ĻéĢĢ":10329,"å¦Īå¦Īä¹°çļĦ":10330,"å°ıåŃ©åĸľæ¬¢":10331,"åıĳäºĨä¸ª":10332,"åĳĬè¯īä½ł":10333,"çģ°å¸¸":10334,"çĺª":10335,"æĿĲè´¨ä¸įéĶĻ":10336,"åī§æĥħ":10337,"é½¿":10338,"è¡Ģç®¡":10339,"éĵ¶çļĦ":10340,"çļĦå¿ĥæĢģ":10341,"ç»¿èī²çļĦ":10342,"æĪ¿åŃĲ":10343,"è¿Ļä¸ĢåĪĩ":10344,"inthe":10345,"æĥ³è±¡ä¸ŃçļĦéĤ£ä¹Īå¥½":10346,"Ġåıĳè´§æħ¢":10347,"åºıæ¸Ĳ":10348,"è½®èĥİ":10349,"èĢģåħ¬è¯´":10350,"èªª":10351,"èªĵ":10352,"çªģåĩº":10353,"å®½å®¹":10354,"çīĻèĨı":10355,"æ´¾éĢģ":10356,"è¿Ķçİ°":10357,"åİļå®ŀçļĦ":10358,"Ġä¸ĢçĤ¹éĥ½ä¸į":10359,"éħĴç¥ŀ":10360,"å°±æĺ¯æľīçĤ¹èĸĦ":10361,"***ï¼Į":10362,"æĭĨå¼ĢåĮħè£ħ":10363,"æľºåĻ¨äºº":10364,"Ġå®ŀçī©ä¸İ":10365,"ç¿»è¯ĳçļĦ":10366,"æĭ¼éŁ³":10367,"é¥®é£Ł":10368,"å¾Īä¹ħäºĨ":10369,"éŃĶæ³ķ":10370,"ä»·æł¼ä¹ŁéĿŀå¸¸ä¾¿å®ľ":10371,"ç§ĺå¯Ĩ":10372,"åľ£ç»ı":10373,"æĪĳä¹°çļĦæĺ¯":10374,"æĬķèµĦèĢħ":10375,"æ´ĭæ°Ķ":10376,"çĪ¶æ¯įçļĦ":10377,"å¿½æĤłäºº":10378,"åįıä¼ļ":10379,"çŃĸåĪĴ":10380,"äºĨå¥½åĩł":10381,"ĠæĢ»ä½ĵä¸įéĶĻ":10382,"ç¾½æ¯Ľ":10383,"çĽ¸åħ³çļĦ":10384,"é»ĺé»ĺ":10385,"æ¸Ĳæ¸Ĳ":10386,"éħ¸å¥¶":10387,"æ··ä¹±":10388,"é¸¡èĤĭ":10389,"åĩłåįģåĿĹéĴ±":10390,"è§ģè¿ĩè¿Ļä¹Ī":10391,"ï¼Įï¼Įï¼Įï¼Įï¼Įï¼Įï¼Įï¼Įï¼Įï¼Įï¼Įï¼Įï¼Įï¼Įï¼Įï¼Į":10392,"å²ĽçĶ°":10393,"æĪĳå®¶å°ıåŃ©":10394,"æ¾¡":10395,"å¤§éĩıçļĦ":10396,"éĢĤçĶ¨äºİ":10397,"èģĬå¤©":10398,"è¯ķäºĨè¯ķ":10399,"åĭĩæ°Ķ":10400,"ä¼Łå¤§çļĦ":10401,"ç§ĴæĿĢ":10402,"ç¡®è®¤æĶ¶è´§äºĨ":10403,"low":10404,"æĭ¿åĩºæĿ¥åįĸ":10405,"æ¢Ńç½Ĺ":10406,"ä¸įæĺ¯ä¸ĢèĪ¬çļĦå·®":10407,"åĨħåŃĺåį¡":10408,"åħ¼å®¹":10409,"æ¯ģçģŃ":10410,"åĤ³åı¤æ¨":10411,"å¾ªçİ¯":10412,"å¾ªåºıæ¸Ĳ":10413,"éĢĻéĥ¨":10414,"èķ´":10415,"å¼Ĺåħ°åħĭ":10416,"å°±çŁ¥éģĵäºĨ":10417,"çº½æī£":10418,"ç«ŀäºī":10419,"0000000000000000":10420,"è®¿éĹ®":10421,"âĬĻ)":10422,"å¥½åĩłæ¬¡äºĨ":10423,"ç»Ļå¤§å®¶ä»ĭç»į":10424,"æħ°èĹī":10425,"ç¡ķå£«":10426,"åĲ»åĲĪ":10427,"çĶµç£ģçĤī":10428,"åĽ¾æĸĩå¹¶":10429,"æĹłåĬĽåĲĲæ§½":10430,"âĢ¦âĢ¦":10431,"æµĻæ±Ł":10432,"æĺİæĻºçļĦ":10433,"æİªæĸ½":10434,"é©¬å°Ķåħĭæĸ¯":10435,"åĸĩåıŃ":10436,"æķĻåŃ¦ä¸İçłĶç©¶":10437,"æľīåĽ¾æľīçľŁçĽ¸":10438,"å°´å°¬":10439,"è´¨éĩıä¿±ä½³åĢ¼å¾Ĺæİ¨èįĲ":10440,"åĤ³åı¤æ¨ĵ":10441,"07":10442,";;":10443,";ï¼Ľ":10444,"AèĤ¡":10445,"GO":10446,"GçļĦ":10447,"Zç¥ŀ":10448,"eä¹ĭ":10449,"iP":10450,"if":10451,"kg":10452,"«æ¯Ľ":10453,"âĸ":10454,"Ġä¼ļ":10455,"ĠçŃī":10456,"ĠåŃĹ":10457,"Ġæ¼Ĥäº®":10458,"ĠçĽ´æİ¥":10459,"Ġæľīä¸Ģ":10460,"ĠèĽ®":10461,"Ġçħ§çīĩ":10462,"ĠæĢ§ä»·æ¯Ķé«ĺ":10463,"Ġå±ıå¹ķ":10464,"ĠçīĪåŀĭ":10465,"ĦçļĦ":10466,"ä¸¶":10467,"çļĤ":10468,"çļĦæīĭ":10469,"çļĦæħ¢":10470,"çļĦåı£":10471,"çļĦåĲĦç§į":10472,"çļĦå½¢å¼ı":10473,"çļĦæŃĮæĽ²":10474,"çļĦçĪ±æĥħ":10475,"çļĦåıĺåĮĸ":10476,"ãĢĪ":10477,"ä¸įç»ı":10478,"ä¸įè¿Ľ":10479,"ä¸įåĪ°äºĨ":10480,"ä¸įéħįå¥Ĺ":10481,"ä¸įæĦ§":10482,"ä¹Ļ":10483,"ãĢĤ[":10484,"äºĨçļĦ":10485,"äºĨåĲĹ":10486,"äºĨåĩłå¤©":10487,"äºĨåĩłæ¬¡":10488,"äºĨç©ºéĹ´":10489,"æĺ¯å¤§":10490,"æĺ¯èĩªå·±":10491,"ä¸Ģä¸¤":10492,"ä¸ĢæĬĬ":10493,"ä¸Ģé¦ĸ":10494,"ä¸Ģç¢°":10495,"ä¸Ģæ¨¡ä¸Ģæł·":10496,"å¥½åıĭ":10497,"å¥½ä¸ĢçĤ¹":10498,"å¥½è¯´çļĦ":10499,"ï¼ģï¼Į":10500,"å¾Īéº»çĥ¦":10501,"çĶ«":10502,"æľīåŀĭ":10503,"æľīèµłåĵģ":10504,"æľīä¸įåĲĮ":10505,"æľīè´¨éĩıéĹ®é¢ĺ":10506,"è¿ĺçľŁ":10507,"è¿ĺæĥ³":10508,"è¿ĺåħį":10509,"å°±è¿Ļä¸ª":10510,"å°±ä¸įä¸Ģæł·":10511,"å°±èĦ±":10512,"å°±ç¢İäºĨ":10513,"æĪĳä»İ":10514,"æĪĳä¸ĢçĽ´":10515,"æĪĳä¸įæĥ³":10516,"æ²¡çļĦ":10517,"æ²¡æķĪæŀľ":10518,"æ²¡å£°éŁ³":10519,"è¿Ļè´§":10520,"è¿Ļæīį":10521,"ä¸ªå¤´":10522,"ä¸ªæ´ŀ":10523,"åįµ":10524,"åįī":10525,"åįĳ":10526,"çĶ¨åķĬ":10527,"éĶĻåĪ«":10528,"åĪ°ä»Ĭå¤©":10529,"å·®å¥½å¤ļ":10530,"å·®å¤ļäºĨ":10531,"å·®å¤ªå¤ļ":10532,"éĿ´":10533,"ä¸ľæĸ¹":10534,"å¤§èĦĳ":10535,"å¤§å¤§çļĦ":10536,"åľ¨è¿Ļä¸ª":10537,"åľ¨ä¸İ":10538,"éĥ½åıĳ":10539,"éĥ½ä¸Ģæł·":10540,"éĥ½å¾Īä¸įéĶĻ":10541,"éĥ½ä¸įå¥½çĶ¨":10542,"å¤ªä½İ":10543,"å¤ªåİīå®³":10544,"å¤ªé«ĺäºĨ":10545,"ä¸ĬèĦļ":10546,"ä¸Ĭè¯¾":10547,"çľĭä¸Ń":10548,"çľĭåĽ¾çīĩ":10549,"çľĭäºĨä¸Ģä¸ĭ":10550,"åĳĽ":10551,"è¯´æ²¡":10552,"è¯´è¦ģ":10553,"è¯´åı¯ä»¥":10554,"åı¯æģ¶":10555,"çĤ®":10556,"çĽĶ":10557,"è£ķ":10558,"æ¯ħ":10559,"å°ıå§Ĳ":10560,"æĮ£":10561,"æ²¡æľīç»Ļ":10562,"å¤ļä½Ļ":10563,"èĪľ":10564,"ä¸ĭç¬Ķ":10565,"å®ŀçļĦ":10566,"å¤©æĹ¶éĹ´":10567,"å°±æĺ¯æľīçĤ¹å°ı":10568,"å°±æĺ¯ä¹°å¤§äºĨ":10569,"æ³Ĭ":10570,"ä¼ļçĶ¨":10571,"çĿ«æ¯Ľ":10572,"ä¸ºæŃ¤":10573,"èī²äºĨ":10574,"éĢģä¸Ģä¸ª":10575,"éĢģç¤¼":10576,"æ¬¢ä¹Ĳ":10577,"ä¾¯":10578,"ç©¿å¾Ĺ":10579,"ç©¿è¶Ĭ":10580,"æ»¡äºĨ":10581,"åĩºçĶŁ":10582,"åĩºè¿Ĳè´¹":10583,"èĩªçŁ¥":10584,"èĩªåıĸ":10585,"è¶¾":10586,"æĮºæľī":10587,"äº¬ä¸ľéħįéĢģ":10588,"æħ¨":10589,"ä¸įæĺ¯çº¯æ£īçļĦ":10590,"åĮħè£ħéĿŀå¸¸":10591,"å¯¹æīĭ":10592,"ä»ĸèĩªå·±":10593,"çĶµæ°Ķ":10594,"èĢĮéĿŀ":10595,"æīĭç»Ń":10596,"æĶ¶åĪ°æĹ¶":10597,"åĪ«è¯´":10598,"ä»Ģä¹ĪæĥħåĨµ":10599,"åİ»æī¾":10600,"åİ»åĵª":10601,"åĪĨå¼Ģ":10602,"åĪĨç¦»":10603,"åĽ¾çĶ»":10604,"æĦŁè§īå°±æĺ¯":10605,"éĢĢè¿ĺ":10606,"æĹłæĦı":10607,"æľīçĤ¹é«ĺ":10608,"æľīçĤ¹éķ¿":10609,"æľīçĤ¹åĳ³éģĵ":10610,"å¿«éĢĴå¤ªæħ¢äºĨ":10611,"å¿«éĢĴåįķåı·":10612,"åħ¨ä¸ĸçķĮ":10613,"åħ¨æ£ī":10614,"æľĢä¸º":10615,"åľ°äºĨè§£":10616,"å·¥åĩı":10617,"åĽŀåĳ³":10618,"åĨįä¹°äºĨ":10619,"çī©æµģè¶ħæħ¢":10620,"æīĵçļĦ":10621,"æīĵæŀ¶":10622,"åīįéĿ¢çļĦ":10623,"åħ¶å¦Ļ":10624,"é¢ĺåŀĭ":10625,"æĢİä¹Īç©¿":10626,"åĩłåı¥":10627,"åĽ½èĹ©":10628,"æľºçļĦ":10629,"æľºèº«":10630,"çĪµ":10631,"åįķåħĥ":10632,"åįķçº¯":10633,"å½ĵä½ł":10634,"é«ĺåİĭ":10635,"è¾ĥä¸º":10636,"çī¹è´¨":10637,"éķĢ":10638,"å¤ĸåĽ½":10639,"å®ĮåĲİ":10640,"åºĹéĩĮçļĦ":10641,"æ°´æ´Ĺ":10642,"è¡£æľįçļĦ":10643,"æį¢æĪĲ":10644,"ä¸īéĥ¨":10645,"è®©ä»ĸä»¬":10646,"è®©åĪ«äºº":10647,"ç¾İäºº":10648,"ç¾İåĳ³":10649,"ç¾İåħĥ":10650,"åĲĮæŃ¥":10651,"æ¯Ķè¾ĥå¤ļ":10652,"ä¿¡å¿ĥ":10653,"ä¿¡å¿µ":10654,"è·ŁæĪĳåľ¨":10655,"åĥıç´ł":10656,"å·®è¯Ħæĺ¯ç»Ļ":10657,"çĽ¸å¯¹äºİ":10658,"åįģå¤§":10659,"é¢ľèī²åĴĮ":10660,"é¢ľèī²å¾Īå¥½çľĭ":10661,"äº®çĤ¹":10662,"åįĸå®¶åıĳè´§":10663,"åįĸå®¶çļĦæľįåĬ¡":10664,"çģ¾":10665,"ç²¾åĩĨ":10666,"ç²¾èī¯":10667,"æ¶Į":10668,"ç½ĳåıĭ":10669,"åĪļçĶ¨":10670,"è¢«åİĭ":10671,"æķĪæŀľä¸įå¥½":10672,"åģļå·¥ä¹Ł":10673,"éĢļè¯Ŀ":10674,"æĶ¾æĿ¾":10675,"åĽłèĢĮ":10676,"åĳ³éģĵå¾Ī":10677,"ä¸»ç¼ĸ":10678,"ä¿ĿåŃĺ":10679,"Ġå¾Īå·®åĬ²":10680,"ä¸įèĥ½éĢĢ":10681,"éĵĿ":10682,"æ¡©":10683,"åħīçļĦ":10684,"æĺŁåĲ§":10685,"æĺŁæĺŁ":10686,"èĬ±çº¹":10687,"èĬ±åįī":10688,"ä¾¿å®ľå¾Īå¤ļ":10689,"è¯¥ä¹¦":10690,"è¯ķé¢ĺ":10691,"å®īå¾½":10692,"éĥ½ä¸įè¯´äºĨ":10693,"éĥ½ä¸įè¦ģä¹°":10694,"æĪĳä»¬åºĶè¯¥":10695,"éħįéĢģçļĦ":10696,"ä»£ä»·":10697,"èĢĥéªĮ":10698,"çł´ä¸ĩåį·":10699,"å·²ç»ıæĶ¶åĪ°äºĨ":10700,"çĻ½å¤©":10701,"æĢĿè·¯":10702,"æŃ¤æ¬¡":10703,"Ġè¿Ļå®¶":10704,"Ġè¿Ļä¸ľè¥¿":10705,"ç©ºçĻ½":10706,"è¿ĺæ²¡æĶ¶åĪ°è´§":10707,"è§ģçļĦ":10708,"è§ģäºĨ":10709,"ç»ĵæŀľè¿ĺæĺ¯":10710,"æī¾åĶ®åĲİ":10711,"ass":10712,"èĦļåĲİè·Ł":10713,"åŁºéĩĳ":10714,"å¹³åĿĩ":10715,"ĠæĪĳè¦ģçļĦæĺ¯":10716,"è¿Ĳæ°Ķ":10717,"ç¥¨æĪ¿":10718,"åįĬä¸ªå°ıæĹ¶":10719,"åĵ¦åĵ¦":10720,"çĭ®":10721,"é£İåĬĽ":10722,"è®¤åĢĴéľī":10723,"é©»":10724,"æĸŃè£Ĥ":10725,"è°¢äºĨ":10726,"çļĦä¸Ģèĩ´":10727,"å®Įåħ¨ä¸įåĲĮ":10728,"åıĳç¥¨åĳ¢":10729,"å¤§å°ıæŃ£å¥½":10730,"åĲ¬åĲ¬":10731,"è°ĥæŁ¥":10732,"Ġå¤ªè´µäºĨ":10733,"å¿ħè¯»":10734,"æĸ¯å¹´":10735,"åĿĳåķĬ":10736,"çľŁæĺ¯å¤ª":10737,"å®Ŀå®Ŀåĸľæ¬¢":10738,"è½¯è½¯çļĦ":10739,"è®²å¾Ĺ":10740,"è®²åº§":10741,"ä¸¤ä¸ªæĺŁæľŁ":10742,"æ·±åľ³":10743,"Ġä¸įå¥½çľĭ":10744,"ç¿ģ":10745,"åĪ©äºİ":10746,"å»ºè®®ä¸įè¦ģè´Ńä¹°":10747,"åľºéĿ¢":10748,"æĶ¯æĴĳ":10749,"çľĭçĿĢè¿ĺä¸įéĶĻ":10750,"è¿Ļç§įä¸ľè¥¿":10751,"æ£ĴäºĨ":10752,"æĵħ":10753,"ä¼ĺåĬ¿":10754,"åįĥéĩĮ":10755,"éªĮæĶ¶":10756,"Ġä¹°éĶĻäºĨ":10757,"è¡¥æ³¨":10758,"è¿Ļæł·çļĦåįĸå®¶":10759,"éĿ¢æĸĻå¥½":10760,"ä¹Łæ²¡äººçĲĨ":10761,"éĥ½æ²¡çĶ¨":10762,"ç£¨çł´äºĨ":10763,"æŃĮæīĭ":10764,"èĻ½çĦ¶æĺ¯":10765,"ä¸ĭåįķåĪ°":10766,"çłĶç©¶çĶŁ":10767,"å£«å¾·":10768,"ç¼ºè´§":10769,"èĢĲç©¿":10770,"èĢĲå¿ĥçļĦ":10771,"çģ«çģ«":10772,"Ġæ²¡æĶ¶åĪ°è´§":10773,"ç¿»å¼Ģ":10774,"æľªæĶ¶åĪ°":10775,"æľªæĿ¥çļĦ":10776,"æĢ§ä»·æ¯Ķä¸įéĶĻ":10777,"åĪĿåŃ¦":10778,"æıĴçĶµ":10779,"ĠåĮħè£ħç²¾ç¾İ":10780,"Ġç»ĻåŃ©åŃĲä¹°çļĦ":10781,"èĤ¡å¸Ĥ":10782,"æĪĺèĥľ":10783,"æĢ»ä½ĵä¸įéĶĻ":10784,"æį¢äºĨä¸Ģä¸ª":10785,"ä½ľåĵģçļĦ":10786,"æĩĴå¾ĹéĢĢè´§":10787,"çĮ¿":10788,"ä¸»è¦ģåĨħå®¹åĮħæĭ¬":10789,"å¤©æīįåĪ°è´§":10790,"è¯įè¯Ń":10791,"æĸĩåŃ¦æī¹è¯Ħ":10792,"ä¾Ľç»Ļ":10793,"å·¥ä½ľå®¤":10794,"æľīçļĦåľ°æĸ¹":10795,"åĨįä¹Łä¸įä¹°":10796,"çĸĳéĹ®":10797,"ç»§ç»Ńä¹°":10798,"Ġä¸įæĺ¯æŃ£åĵģ":10799,"Ġä¸įæĺ¯å¾Īæ»¡æĦı":10800,"ĠçĶ¨è¿ĩ":10801,"ĠçĶ¨äºĨä¸Ģæ®µæĹ¶éĹ´":10802,"æ¬²æľĽ":10803,"çĶ³è¯·åĶ®åĲİ":10804,"è¯Ĺæĸĩ":10805,"è¿½å¿Ĩ":10806,"çľģäºĭ":10807,"æİĴåĪĹ":10808,"---":10809,"èĲ½åĲİ":10810,"æī¿åıĹ":10811,"åı³èĦļ":10812,"çĲĨè§£èĥ½åĬĽ":10813,"çļĦå°ıè¯´":10814,"è¯Ħè®ºå®¶":10815,"æĢªæĢªçļĦ":10816,"ç½ĹåĪĹ":10817,"ä¸įæĺ¯å¾ĪçĲĨæĥ³":10818,"å¦Īå¦ĪçļĦ":10819,"å®¢æĪ·çļĦ":10820,"æĮĤéĴ©":10821,"æĪĸèĢħæĺ¯":10822,"Ġè´§åĵģ":10823,"æ¿ĢåĬ±":10824,"è·ŁåĽ¾çīĩä¸Ĭ":10825,"åĹĵ":10826,"é¢Ħæĥ³":10827,"æĽ¾åĽ½èĹ©":10828,"ç»ıæµİå®ŀæĥł":10829,"ä¸įåĥıæĺ¯":10830,"çĶļè¿ľ":10831,"Ġåıĳè´§å¤ªæħ¢":10832,"çľĭä¸įåĩºæĿ¥":10833,"ĠéĢģè´§éĢŁåº¦":10834,"çĭĹèĤī":10835,"Ġæ¯Ķæĥ³è±¡ä¸Ń":10836,"æ²¡çĶ¨è¿ĩ":10837,"å«ģ":10838,"äºĳåįĹ":10839,"åħ¶å®ĥçļĦ":10840,"ä¸ĭæ¬¡è¿ĺä¼ļåħīé¡¾":10841,"åĪ®èĬ±":10842,"çº¿å¤´å¤ļ":10843,"æļĸåĴĮçļĦ":10844,"Ġæ¬¾å¼ıä¸įéĶĻ":10845,"åĲ«éĩı":10846,"å¹¸äºı":10847,"çľŁå®ŀçļĦ":10848,"èĩªåĬ¨åħ³æľº":10849,"å¤ľåħī":10850,"Ġä¹°çļĦæĺ¯":10851,"ä¸įè¶³ä¹ĭå¤Ħ":10852,"æµ®çİ°":10853,"æĿİå®ģ":10854,"æĬķèµĦä»·åĢ¼":10855,"é¤Ĳåħ·":10856,"ç¾Ĭå¤´":10857,"æĺİçĻ½äºĨ":10858,"ĠéĿŀå¸¸å¥½çĶ¨":10859,"ç¾İè§Ĥå¤§æĸ¹":10860,"æ±¡æ¸į":10861,"ĠæĶ¶åĪ°è´§åĲİ":10862,"Ġè¿ĺæ²¡æľīä½¿çĶ¨":10863,"åĩłåįģåĿĹ":10864,"è´£ä»»å¿ĥ":10865,"Ġåıĳè´§éĢŁåº¦å¾Īå¿«":10866,"äº§çĶŁäºĨ":10867,"ĠæĢİä¹Īè¯´åĳ¢":10868,"èĤ©å¸¦":10869,"åºĹéĩĮä¹°çļĦ":10870,"äºĴåĬ¨":10871,"èµ·æ¯ĽçĲĥ":10872,"èĥ¡éĢĤ":10873,"åī©ä¸ĭçļĦ":10874,"è¾ħåĬ©":10875,"èĬ±éĴ±ä¹°":10876,"å©ļå§»":10877,"åģ·å·¥åĩı":10878,"å¿«éĢĴä¹Łç»ĻåĬĽ":10879,"åįģå¤ļå¤©":10880,"æĤ¦åĦ¿":10881,"Ġè¿Ļæ¬¡ä¹°çļĦ":10882,"æī§è¡Į":10883,"æ³³å¸½":10884,"æľĢå¤§çļĦå¥½å¤Ħ":10885,"ç§ĳæĬĢäº§ä¸ļ":10886,"Ġä½¿çĶ¨æĸ¹ä¾¿":10887,"æī¯æ·¡":10888,"å¾Īæĺ¯åĸľæ¬¢":10889,"åĮħè£ħçļĦå¾Īå¥½":10890,"åį¤èıľ":10891,"æģĲæĥ§":10892,"ä¸Ģå¦ĤæĹ¢å¾ĢçļĦå¥½":10893,"çĭ¬çī¹çļĦ":10894,"çļĦæľĢä½³":10895,"å¥½åĩłå¤©äºĨ":10896,"æĳ¸èµ·æĿ¥å¾ĪèĪĴæľį":10897,"éĢĢåĽŀåİ»äºĨ":10898,"å¤įæĿĤçļĦ":10899,"å®¶åħ·åĪ¶éĢł":10900,"ä¸ļåĬ¡åĳĺ":10901,"èī°éļ¾":10902,"éģŃéģĩ":10903,"åĲĽåŃĲ":10904,"å¹´è½»äºº":10905,"çĸ¯çĭĤ":10906,"ä¹¦çļĦåĨħå®¹çĽ´å¾Ĺ":10907,"æ´ªåĲ¯":10908,"å¡«åħħ":10909,"æĤ£èĢħ":10910,"èµĶåģ¿":10911,"èħĲè´¥":10912,"è®²è¿°äºĨ":10913,"ä»ĸçļĦä¹¦äºĨ":10914,"è´«è¡Ģ":10915,"è¯¾å¤ĸçŁ¥è¯Ĩ":10916,"oooooooo":10917,"å¤ªåĿĳäººäºĨ":10918,"ä»·å»īä»·å»īä»·å»īä»·å»ī":10919,"å¥½å¥½å¥½å¥½å¥½å¥½å¥½å¥½å¥½çĶ¨å¥½å¥½å¥½å¥½å¥½å¥½å¥½å¥½å¥½çĶ¨å¥½å¥½å¥½å¥½å¥½å¥½å¥½å¥½å¥½çĶ¨å¥½å¥½å¥½å¥½å¥½å¥½å¥½å¥½å¥½çĶ¨":10920,"å¥½å¥½å¥½å¥½å¥½å¥½å¥½åıĳå¾Īå¥½å¥½å¥½å¥½å¥½å¥½å¥½å¥½åıĳå¾Īå¥½å¥½å¥½å¥½å¥½å¥½å¥½å¥½åıĳå¾Īå¥½å¥½å¥½å¥½å¥½å¥½å¥½å¥½åıĳå¾Īå¥½å¥½å¥½å¥½å¥½å¥½å¥½å¥½åıĳå¾Īå¥½å¥½å¥½å¥½å¥½å¥½å¥½å¥½åıĳå¾Īå¥½å¥½å¥½å¥½å¥½å¥½å¥½å¥½åıĳå¾Īå¥½å¥½å¥½å¥½å¥½å¥½å¥½å¥½åıĳå¾Īå¥½":10921,"ä¸Ģåı£æ°Ķ":10922,"ä»·æł¼ä¹Łä¸įè´µ":10923,"æľĭåıĭæİ¨èįĲæĪĳçľĭçļĦ":10924,"æľĢå¤±è´¥çļĦä¸Ģæ¬¡":10925,"å¤ªè½¯äºĨ":10926,"çİĭæľĿä¸ĭè·ª":10927,"åĬ¨äººå¿ĥçļĦ":10928,"åı®å½ĵ":10929,"æĿłæĿłçļĦ":10930,"èķ¾ä¸Ŀ":10931,"èİ«åĲįåħ¶å¦Ļ":10932,"âĶĢ":10933,"è¿ĺéĢģè´§ä¸Ĭæ¥¼":10934,"ä¹¦åĨħå®¹è´¨éĩıä¿±ä½³åĢ¼å¾Ĺæİ¨èįĲ":10935,"å½¢æĦıæĭ³":10936,"æ¯Ķå®ŀä½ĵåºĹä¹°ä¾¿å®ľå¥½å¤ļè¿ĺçľģè½¦è´¹":10937,"åµĮ":10938,"çĪ±ä¸įéĩĬæīĭ":10939,"åģ·å·¥åĩıæĸĻ":10940,"ä¹¦çļĦåĨħå®¹çĽ´å¾Ĺä¸Ģè¯»":10941,")ãĢĭ":10942,"450":10943,"55":10944,"?&":10945,"?ï¼Į":10946,"MP":10947,"PP":10948,"The":10949,"ch":10950,"go":10951,"ms":10952,"nåħŃ":10953,"nåľ¨äº¬ä¸ľèĬ±çĽĹçīĪçļĦéĴ±ä¹°æŃ£çīĪçļĦä¸ľè¥¿":10954,"tle":10955,"~\\":10956,"§åħī":10957,"«èĬ¦":10958,"âħ":10959,"Ġæĥ³":10960,"Ġåıª":10961,"Ġåı·":10962,"Ġè¡¨":10963,"Ġéĥ½æĺ¯":10964,"Ġè¿ŀ":10965,"Ġåıªèĥ½":10966,"Ġæµ·":10967,"ĠæľįåĬ¡æĢģåº¦":10968,"Ġé©¬":10969,"ĠåĶ®åĲİ":10970,"Ġè®¢åįķ":10971,"Ġåĵģè´¨":10972,"Ġè¿Ļä¸ªä»·ä½į":10973,"ĠæīĭæĦŁä¸įéĶĻ":10974,"ĠåıĳéĶĻè´§äºĨ":10975,"çļĦè¿Ļ":10976,"çļĦåı¯ä»¥":10977,"çļĦèĩª":10978,"çļĦåĨħ":10979,"çļĦä¸ī":10980,"çļĦéĥ½æĺ¯":10981,"çļĦåĵ¦":10982,"çļĦç¬¬ä¸Ģ":10983,"çļĦåĵģè´¨":10984,"çļĦæĹ¶ä»£":10985,"çļĦèī²å½©":10986,"çļĦä½įç½®":10987,"çļĦè¡Įä¸º":10988,"ä¸įçĿĢ":10989,"ä¸įåħ¨":10990,"ä¸įçĪ±":10991,"ä¸įéľĢè¦ģ":10992,"ä¸įåĢ¼å¾Ĺè´Ńä¹°":10993,"è¿¦":10994,"äºĨåįĬå¤©":10995,"æĺ¯æĪĳä»¬":10996,"æĺ¯ä¸ºäºĨ":10997,"ä¸Ģçľ¼":10998,"è´¤":10999,"è´º":11000,"å¾Īè´µ":11001,"å¾Īç»Ĩ":11002,"å¾Īç²¾ç¾İ":11003,"å¾ĪåıĬæĹ¶":11004,"å¾Īéħ·":11005,"å¾Īå¼ºå¤§":11006,"åĲŁ":11007,"çĶ¥":11008,"æľīéĤ£ä¹Ī":11009,"æľīåı²":11010,"éĢĨ":11011,"åħ½":11012,"è¿ĺå°ĳ":11013,"è¿ĺæķ¢":11014,"è¿ĺä»¥ä¸ºæĺ¯":11015,"ä½Ĳ":11016,"æ²ģ":11017,"å°±å¾Ī":11018,"æĪĳæĢİä¹Ī":11019,"æĪĳåıªæĺ¯":11020,"æĪĳå½ĵæĹ¶":11021,"æĪĳä¹Łä¸įçŁ¥éģĵ":11022,"æ²¡åĩłå¤©":11023,"è¿ĻéĴ±":11024,"åįľ":11025,"çĶ¨äºĨä¸Ģä¸ĭ":11026,"çĶ¨ä¸ĬäºĨ":11027,"æłı":11028,"éĶĻåŃĹ":11029,"åĪ°åĵªéĩĮ":11030,"æĸĭ":11031,"ä¹Łåľ¨":11032,"ä¹Łè¿ĺè¡Į":11033,"ä¹Łå¤ªæħ¢äºĨ":11034,"æĿ¥ä¹°äºĨ":11035,"æĢ¨":11036,"æĢĸ":11037,"å¤§éĿ©åĳ½":11038,"åľ¨ä¹¦åºĹ":11039,"åŃĲéĥ½":11040,"åŃĲåĴĮ":11041,"éĥ½çľĭ":11042,"éĥ½ç»Ļ":11043,"éĥ½åİĭ":11044,"è®¶":11045,"å¤ªç»Ĩ":11046,"å¤ªç²Ĺ":11047,"å¤ªæĹ§":11048,"å¤ªèĤ¥":11049,"ä¸ĬåĽ¾":11050,"åĨ¤":11051,"äººæł¼":11052,"åĳ±":11053,"åıĳåĬ¨":11054,"è´¨éĩıä¹Łä¸įå¥½":11055,"ãĢģ&":11056,"æĥŁ":11057,"è¦ģéĢĢè´§":11058,"éĹ¸":11059,"æ¬¡çļĦ":11060,"å¿«ä¸Ģä¸ªæľĪäºĨ":11061,"åĵģå°Ŀ":11062,"æ²¡æľīäºº":11063,"æ²¡æľīæĥ³è±¡çļĦå¥½":11064,"èĥ½ä¹°åĪ°":11065,"å¤ļä¸ª":11066,"æĹ¶ä¹°çļĦ":11067,"åĴĮä¸ŃåĽ½":11068,"åĴĮåħ¶ä»ĸ":11069,"åĴĮç¤¾ä¼ļ":11070,"çºº":11071,"åĸ½":11072,"è¿ĩåĩłå¤©":11073,"å½¹":11074,"å°±æĺ¯å¥½":11075,"å°±æĺ¯ä¸ºäºĨ":11076,"å°±æĺ¯å°ıäºĨçĤ¹":11077,"åı¯ä»¥è£ħ":11078,"è¾ľ":11079,"æĶ¶éĽĨ":11080,"ä¼ļè®®":11081,"ä¼ļåĨįæĿ¥":11082,"éĢģæľĭåıĭçļĦ":11083,"æ¯ĶèµĽ":11084,"è¯Ħä¼°":11085,"åĿ¡":11086,"ä¾£":11087,"åĸľæ¬¢åĸľæ¬¢":11088,"åŃ¦äºĨ":11089,"ç©¿ä¸Ģæ¬¡":11090,"åĩºäºĨä¸Ģ":11091,"èĩªå·²":11092,"å¼ĢåĲ¯":11093,"ä¸Ģä¸ªæĦıå¤§åĪ©":11094,"äº¬ä¸ľéĢģè´§":11095,"ä¸įæĺ¯ä¸ĢèĪ¬":11096,"ä¸įæĺ¯å¾ĪèĪĴæľį":11097,"ä¸įæĺ¯å¾Īå¤§":11098,"è¿Ļä¸ªé¢ľèī²":11099,"è¡Įä¹ĭ":11100,"ä½łä¸į":11101,"ä½łå¥½":11102,"ä½łè¿Ļ":11103,"æ´±":11104,"ä»ĸå¾Īåĸľæ¬¢":11105,"åĲĪä¸Ģ":11106,"éĤ£æĹ¶":11107,"éĤ£å°±æĺ¯":11108,"çĶµçº¿":11109,"èĢĮæĹł":11110,"æīĭéĵ¾":11111,"åīĩ":11112,"ä½Ĩä¸į":11113,"ä½Ĩåľ¨":11114,"å±¡":11115,"éĩĮæľī":11116,"æŃ£æĸĩ":11117,"ä¹ĭéģĵ":11118,"åĪĨå¥½è¯Ħ":11119,"çĦ¶å¹¶":11120,"æħ¢çĤ¹":11121,"æīįå¥½":11122,"æīįçĶ¨äºĨ":11123,"éĢĢå·®ä»·":11124,"æ¸´":11125,"æĹłè¯Ŀ":11126,"æĹłèĢ»":11127,"éĹ®ä»ĸ":11128,"æľīçĤ¹éĩį":11129,"å¿«éĢĴéĢģè´§ä¹Łå¾Īå¿«":11130,"æľĢåĪĿ":11131,"æľĢå·®åĬ²":11132,"åĨįåĬłä¸Ĭ":11133,"ä¸¤çĵ¶":11134,"çī©æµģçļĦ":11135,"çī©æµģå¾Īæħ¢":11136,"æīĵåºķ":11137,"æīĵéĢł":11138,"å¦ĤåĽ¾":11139,"åĽ½çļĦ":11140,"åįķä¸Ģ":11141,"é«ĵ":11142,"æĸĩäºº":11143,"é«ĺå°ļ":11144,"éĴ±äºĨ":11145,"éŀĭè·Ł":11146,"çī¹æķĪ":11147,"èĩªå·±æī¾":11148,"ä»·æł¼æ¯Ķ":11149,"èĤĥ":11150,"å®Įæ¯ķ":11151,"ç§įç§į":11152,"åºĹå¤§":11153,"èĢģæłĳ":11154,"éŁ§":11155,"æĢ§æĥħ":11156,"åıĪæ²¡":11157,"ç¾İçĶ²":11158,"çŃīäºº":11159,"ä¹Łä¸įçĲĨ":11160,"æİīçº¿":11161,"åıĳè´§çļĦ":11162,"åŁĭ":11163,"è·Łå®¢æľįèģĶç³»":11164,"ä½¿åĬ²":11165,"å¤ªå·®å¤ªå·®":11166,"åķĨåĵģè´¨éĩı":11167,"é¢ľèī²ä¸įéĶĻ":11168,"è§£è¯´":11169,"è¯Ńæĸĩ":11170,"èĢĮä¸ĶæĪĳ":11171,"å®ļä½į":11172,"å®ļä¹ī":11173,"åįĸå®¶æľįåĬ¡æĢģåº¦å¥½":11174,"ç¼ª":11175,"æ¶Ľ":11176,"èº«çļĦ":11177,"èº«ä¸ĬçļĦ":11178,"èĸĦèĸĦçļĦ":11179,"äºĨä¸ĢåįĬ":11180,"æģį":11181,"å¤´ä¸Ĭ":11182,"å¤´æĻķ":11183,"æĢģåº¦æģ¶åĬ£":11184,"æ¸ħä»£":11185,"åģļå·¥ä¸į":11186,"æŁı":11187,"æĶ¾ä¸įä¸ĭ":11188,"æ£µ":11189,"æĳ¹":11190,"ä¸ĢçĤ¹ä¸į":11191,"ä¸ĢçĤ¹çĶ¨":11192,"åħ¬åĽŃ":11193,"ä»¥åĲİè¿ĺ":11194,"ä»¶äºĨ":11195,"æ·«":11196,"åĳ³éģĵå¥½":11197,"é¦¨":11198,"ä¸»æĮģ":11199,"Ġå¾Īå¤±æľĽ":11200,"éĵ²":11201,"åħīçº¿":11202,"èį§åħī":11203,"éļ¾çĤ¹":11204,"éļ¾æĢª":11205,"åİŁè½¦":11206,"åİŁèĳĹ":11207,"æĹ¶éĹ´çļĦ":11208,"å®īå¿ĥ":11209,"æł¹æľ¬ä¸įèĥ½çĶ¨":11210,"çļ®åħĭæĸ¯":11211,"è¿Ļä¹Īå·®":11212,"è¿Ļä¹Īå°ı":11213,"ä¸įéĶĻçļĦéĢīæĭ©":11214,"èĢĥçĶŁ":11215,"çł´æ´ŀ":11216,"è¿ĺæľīä¸Ģä¸ª":11217,"è¿ĺæľīå¾Īå¤ļ":11218,"æŃ¤åķĨåĵģ":11219,"Ġè¿Ļç§į":11220,"å»ºç¯":11221,"æĺĵåŃ¦":11222,"æĺĵäºİ":11223,"æ´ĹçļĦæĹ¶åĢĻ":11224,"æ´Ĺä¸įæİī":11225,"åıįé»ĳ":11226,"åºķäººçĶŁ":11227,"æŃ»æľº":11228,"çĸ²":11229,"çĸĨ":11230,"éĩĮéĿ¢éĥ½æĺ¯":11231,"åĽĽå¹´":11232,"åĲįä¸º":11233,"å®ĥäºĨ":11234,"ï¼Łï¼Łï¼Łï¼Łï¼Ł":11235,"åŁºéĩĳçļĦ":11236,"ä¸ĭæ¬¡è¿ĺè¦ģ":11237,"åįĬå¤©æīį":11238,"è£¤èħ¿":11239,"å¼ºåĮĸ":11240,"ç¬¬ä¸Ģæ¬¡çĶ¨":11241,"æłĩè¯Ĩ":11242,"æłĩç¤º":11243,"é£İåº¦":11244,"è®¾æĸ½":11245,"æŀģåº¦":11246,"ä¸įä¼ļä¹°":11247,"åıĳçİ°æľī":11248,"åĩĨæĹ¶":11249,"æ¬¾å¼ıå¾Īå¥½çľĭ":11250,"åį¡çīĩ":11251,"åĪ¶çļĦ":11252,"å¤§å°ıåĪļåĪļå¥½":11253,"åĲ¬äºĨ":11254,"åĲ¬è§ģ":11255,"è°ĥè¯ķ":11256,"æĸ¯åŁº":11257,"æĸ¯é¡¿":11258,"è®°èĢħ":11259,"è®°ä½ı":11260,"è®°èĢħçļĦ":11261,"å°Ĩä¼ļ":11262,"ä¸¥è°¨":11263,"è®¢çļĦè´§":11264,"èĳĽ":11265,"èĳ«èĬ¦":11266,"è¿ĺå¥½è¿ĺå¥½":11267,"ç¡¬ä»¶":11268,"åľ¨äº¬ä¸ľä¹°çļĦ":11269,"ä¸¤ä¸ªäºº":11270,"æ·±å¤Ħ":11271,"åıĮéĿ¢":11272,"çº¢æ¨±":11273,"åºĹå®¶æľįåĬ¡":11274,"Ġçī©æµģç»ĻåĬĽ":11275,"æĮĩå¼ķ":11276,"ç¿ħ":11277,"ç¿ł":11278,"çı¾":11279,"èµ°çļĦ":11280,"èµ°æĹ¶":11281,"å¤ĩçĶ¨çļĦ":11282,"105":11283,"çĥ¦æģ¼":11284,"ä¸Ģä¸ĭåĲ§":11285,"ç»´æĬ¤":11286,"èĥ¶åĳ³":11287,"åıªæĺ¯ä¸Ģä¸ª":11288,"ä¸ºä»Ģä¹Īè¦ģ":11289,"ç¬Ķä¸ĭçļĦ":11290,"æĿ¯åı£":11291,"å°ģå»º":11292,"å®īè£ħçļĦ":11293,"å®īè£ħå¸ĪåĤħ":11294,"æĶ¹æŃ£":11295,"åĲĳå¾Ģ":11296,"æĭįä¸ĭ":11297,"æºľ":11298,"è¿ĳè·Ŀç¦»":11299,"åĵªåİ»äºĨ":11300,"åİĨåı²ä¸Ĭ":11301,"åİĨåı²åŃ¦å®¶":11302,"æııè¿°ä¸Ģæł·":11303,"è¡¥åıĳçļĦ":11304,"è¡¥éĤ®è´¹":11305,"ĠéŀĭåŃĲå¾Īå¥½":11306,"ä¸įå¤ªå¥½çĶ¨":11307,"å°ĶéĽħ":11308,"æ°ĳä¸»":11309,"æ¼ıåıĳ":11310,"å²©":11311,"èĦĳæµ·":11312,"èĦĳæ®ĭ":11313,"èĮ¶å£¶":11314,"ç½ĳä¸Ĭä¹°":11315,"å¾®ç¬ĳ":11316,"æĲŀå®ļ":11317,"1939":11318,"ç¼ºå¤±":11319,"æĬ¤èĤ¤":11320,"å¡ĳæĸĻåĳ³":11321,"Ġæ²¡æĶ¶åĪ°":11322,"ä¸įè¡ĮäºĨ":11323,"ä¸įè¡ĮåķĬ":11324,"èī¯å¥½çļĦ":11325,"Ġå¿«éĢĴæħ¢":11326,"Ġå¿«éĢĴå¾Īå¿«":11327,"éĢłå°±":11328,"åİĭè¿«":11329,"æľªå¿ħ":11330,"æıĴåľ¨":11331,"åı«äºº":11332,"åĶ±æŃĮ":11333,"çİĭæ°¸":11334,"èıĮ":11335,"åĩłæ¬¡äºĨ":11336,"ç²ĺä¸įä½ı":11337,"ä¸ĵä¸ļçļĦ":11338,"å¼ķäºº":11339,"å¼ķèµ·":11340,"é¡ºåºı":11341,"ç»§ç»Ńåħīé¡¾":11342,"åĲ¯åĬ¨":11343,"å¾Īæľīæ¡£æ¬¡":11344,"æķ£äºĨ":11345,"åį³å°Ĩ":11346,"ä¹Łå°±éĤ£æł·":11347,"è¯ĹæŃĮ":11348,"å·´é»İ":11349,"åĩºçİ°éĹ®é¢ĺ":11350,"æī¿è½½":11351,"æħİä¹°":11352,"åı³è¾¹":11353,"å¾Īä¸įå¼Ģå¿ĥ":11354,"éªĹåŃĲéªĹåŃĲ":11355,"å¿ħé¡»å·®è¯Ħ":11356,"ç³Ĭå¼Ħ":11357,"æĢªèĩªå·±":11358,"æłĳåı¶":11359,"æķ´ä½ĵæĿ¥è¯´":11360,"ä¸¢å¤±":11361,"åĪĢçīĩ":11362,"åĪĢå¤´":11363,"æĳ¸ä¸Ĭåİ»":11364,"åĩłä¸ªå°ıæĹ¶":11365,"è¯»èĢħåľ¨éĺħè¯»":11366,"æ¼Ķä¹ī":11367,"å®¤åĨħ":11368,"æĢ¥çĿĢçĶ¨":11369,"èĥ½åĬĽçļĦ":11370,"éĵģè·¯":11371,"åĸĦèī¯":11372,"éĻ¤äºĨä»ĸçļĦä¹¦":11373,"æ¦Ĥè¿°":11374,"åħ¶ä¸Ńä¸Ģä¸ª":11375,"åĨĻçļĦçļĦä¹¦":11376,"ç¬ĳäºĨ":11377,"æłĩåĩĨçļĦ":11378,"æĥĬè®¶":11379,"åħīé¡¾äºĨ":11380,"å·®è·Ŀå¾Īå¤§":11381,"äºīåıĸ":11382,"å®½åº¦":11383,"å®½æĿ¾":11384,"å¥¥åħ¹":11385,"170":11386,"åĤħæĸ¯å¹´":11387,"çļĦè¦ģåĳ½":11388,"æĺ¨æĻļ":11389,"æĺ¯åĲ¦ç»ĻåĬĽ":11390,"Ġä¸ĢçĤ¹ä¹Łä¸įå¥½":11391,"æķıæĦŁ":11392,"æ´ĹäºĨä¸Ģæ¬¡":11393,"æľīä¸ªå°ı":11394,"è®¸å¤ļäºº":11395,"éĻĪå¸ĥéĽ·":11396,"åīªåĪĢ":11397,"æĳĨçĿĢ":11398,"è¿ŀæİ¥å¤Ħ":11399,"çĽ¸å·®å¤ªè¿ľ":11400,"ä»ĺæ¬¾äºĨ":11401,"è¡¨çİ°äºĨ":11402,"æ§¿":11403,"æ¯ıæ¬¡éĥ½":11404,"æ¯ıæ¬¡éĥ½æĺ¯":11405,"æĦŁåıĹåĪ°":11406,"æµ®å£«å¾·":11407,"éĥ½è¯´å¥½":11408,"éĺŁä¼į":11409,"ä»·æł¼ä¹Łä¾¿å®ľ":11410,"å®¡åĪ¤":11411,"éĻįä»·äºĨ":11412,"æĿĨåŃĲ":11413,"éĺ¶çº§":11414,"æĻĴåįķ":11415,"çī©æµģä¹Łç»ĻåĬĽ":11416,"Ġå¤§åĵģçīĮ":11417,"å°Ĩå°±çĿĢ":11418,"nç¬¬åħŃ":11419,"çĶµåŃĲåķĨåĬ¡":11420,"æ±¡æŁĵ":11421,"çĻĮç»Ĩèĥŀ":11422,"çĬ¹å¤ª":11423,"ä¹Įé¾Ł":11424,"åĵĪåĵĪåĵĪåĵĪåĵĪåĵĪåĵĪåĵĪ":11425,"éļ¾çľĭæŃ»äºĨ":11426,"Ġæł¹æľ¬ä¸įæĺ¯":11427,"çĶµæºĲçº¿":11428,"æĻĵå¾Ĺ":11429,"å¿ĥå¾ĹåĲ§":11430,"æĬ±æŃī":11431,"åľ¨äº¬ä¸ľä¹°ä¸ľè¥¿äºĨ":11432,"è°ģä¹°è°ģçŁ¥éģĵ":11433,"å®£ä¼łçļĦ":11434,"ä¼¯çī¹":11435,"èŀįåħ¥":11436,"åºĦåı¸":11437,"ï½ŀï½ŀï½ŀï½ŀï½ŀï½ŀï½ŀï½ŀ":11438,"çĽĳæµĭ":11439,"æĦıå¤§åĪ©çĭĤ":11440,"ä½ĵçİ°äºĨ":11441,"ä¸ĢçĤ¹éĥ½ä¸įå¥½çľĭ":11442,"ç¼ºçĤ¹æĺ¯":11443,"éĹ¹å¿ĥ":11444,"åĪ°å¤Ħéĥ½æĺ¯":11445,"å¼¯çļĦ":11446,"è¦ĨçĽĸ":11447,"æĿ¨çº¢æ¨±":11448,"æģ¼çģ«":11449,"dddd":11450,"åĽĬæĭ¬":11451,"ä¾ĦåŃĲ":11452,"äºĮæ¬¡éĶĢåĶ®":11453,"å¤§ä¸Ģçłģ":11454,"åĪĨäº«ä½łçļĦ":11455,"è´¦åı·":11456,"éĴ»çŁ³ä¼ļåĳĺ":11457,"æªĲ":11458,"å¤¸å¼ł":11459,"åį§åºķäººçĶŁ":11460,"''''":11461,"æīģäºĨ":11462,"åĳĥåĳĥåĳĥåĳĥ":11463,"é»ĳå¿ĥåķĨå®¶":11464,"æĺ¯å¥½äºĭ":11465,"ï¼ģï¼ģï¼ģï¼ģï¼ģï¼ģï¼ģï¼ģï¼ģï¼ģï¼ģï¼ģï¼ģï¼ģï¼ģï¼ģï¼ģï¼ģï¼ģï¼ģï¼ģï¼ģï¼ģï¼ģï¼ģï¼ģï¼ģï¼ģï¼ģï¼ģï¼ģï¼ģï¼ģï¼ģï¼ģï¼ģï¼ģï¼ģï¼ģï¼ģï¼ģï¼ģï¼ģï¼ģï¼ģï¼ģï¼ģï¼ģï¼ģï¼ģï¼ģï¼ģï¼ģï¼ģï¼ģï¼ģï¼ģï¼ģï¼ģï¼ģï¼ģï¼ģï¼ģï¼ģï¼ģï¼ģï¼ģï¼ģï¼ģï¼ģï¼ģï¼ģï¼ģï¼ģï¼ģï¼ģï¼ģï¼ģï¼ģï¼ģï¼ģï¼ģï¼ģï¼ģï¼ģï¼ģï¼ģï¼ģï¼ģï¼ģï¼ģï¼ģï¼ģï¼ģï¼ģï¼ģï¼ģï¼ģï¼ģï¼ģï¼ģï¼ģï¼ģï¼ģï¼ģï¼ģï¼ģï¼ģï¼ģï¼ģï¼ģï¼ģï¼ģï¼ģï¼ģï¼ģï¼ģï¼ģï¼ģï¼ģï¼ģï¼ģï¼ģï¼ģï¼ģï¼ģï¼ģï¼ģ":11466,"è¿Ļæ®µè¯Ŀ":11467,"è·¯è¾¹æĳĬ":11468,"æµĳèº«":11469,"éĢĬä¸İ":11470,"éĽķåĪ»":11471,"çĦĬæİ¥":11472,"é©¬èĻİèĻİ":11473,"ç¸½":11474,"å¼¥æ¼«":11475,"é¢łè¦ĨæĢ§":11476,"å¾Īå¸ħæ°Ķ":11477,"åīĸæŀĲ":11478,"å¦Ĥæľīç¥ŀ":11479,"ä½İç¢³ç»ıæµİçłĶç©¶":11480,"æĥħäººèĬĤ":11481,"é³ŀçĬ¶ç»ĨèĥŀçĻĮ":11482,"åı¯æ°ĶçļĦæĺ¯":11483,"æĮ¯å®ĩèĭ±è¯Ń":11484,"å²ĽçĶ°åºĦåı¸":11485,"å¾ªåºıæ¸Ĳè¿Ľ":11486,"éĢĻéĥ¨éĽ»å½±":11487,"éĶĻåĪ«åŃĹ":11488,"ä¸ĭç¬Ķå¦Ĥæľīç¥ŀ":11489,"ä¹¦åĨħå®¹è´¨éĩıä¿±ä½³åĢ¼å¾Ĺæİ¨èįĲä¹¦åĨħå®¹è´¨éĩıä¿±ä½³åĢ¼å¾Ĺæİ¨èįĲ":11490,"ä¸Ģä¸ªæĦıå¤§åĪ©åıįé»ĳ":11491,"å»ºç¯ī":11492,"è®°èĢħçļĦåį§åºķäººçĶŁ":11493,"å¥¥åħ¹åĽ½":11494,"ä¸Ģä¸ªæĦıå¤§åĪ©åıįé»ĳè®°èĢħçļĦåį§åºķäººçĶŁ":11495,"315":11496,"46":11497,"47":11498,"77":11499,"800":11500,"IT":11501,"LE":11502,"LO":11503,"ML":11504,"bps":11505,"cd":11506,"id":11507,"oT":11508,"tm":11509,"Ġ9":11510,"Ġéĩı":11511,"ĠåĢ¼å¾Ĺ":11512,"Ġçł´":11513,"Ġæĸ¹ä¾¿":11514,"Ġé»ĳ":11515,"ĠåŃ¦ä¹ł":11516,"Ġåľ¨äº¬ä¸ľ":11517,"ĠçĲĥ":11518,"Ġ10":11519,"Ġå¥½å¥½å¥½å¥½":11520,"ĠçĶµèĦĳ":11521,"Ġè¦ģçļĦ":11522,"ĠçĽ®åīį":11523,"Ġç»Īäºİ":11524,"Ġå®ŀåľ¨æĺ¯":11525,"ĠæķĪæŀľä¸įéĶĻ":11526,"Ġç©¿çĿĢå¾ĪèĪĴæľį":11527,"ĠæŃ¤ä¹¦":11528,"Ġä¾¿å®ľæ²¡å¥½è´§":11529,"Ġäº®åº¦":11530,"Ġåŀ«åŃĲ":11531,"çļĦéŀĭ":11532,"çļĦä½¿çĶ¨":11533,"çļĦéĩĳ":11534,"çļĦçĲĥ":11535,"çļĦæ´»åĬ¨":11536,"çļĦç¤¾ä¼ļ":11537,"çļĦçħ§çīĩ":11538,"çļĦè¿Ĳè´¹":11539,"çļĦå·®ä¸įå¤ļ":11540,"çļĦåĬŀæ³ķ":11541,"çļĦèīºæľ¯":11542,"çļĦçĶŁåĳ½":11543,"çļĦçĶ»éĿ¢":11544,"ä¸įæŃ£":11545,"ä¸įå¼º":11546,"ä¸įä¸ĭæĿ¥":11547,"ä¸įè§£éĩĬ":11548,"ä¸įç¨³å®ļ":11549,"ä¸įæĦīå¿«çļĦä¸Ģæ¬¡è´Ńçī©":11550,"æĺ¯è¿Ļæł·":11551,"æĺ¯å¹²":11552,"æĺ¯ä¸Ģæł·çļĦ":11553,"å®°":11554,"ä¸Ģæĺ¯":11555,"ä¸Ģéģĵ":11556,"ä¸Ģæīĭ":11557,"ä¸ĢæĹł":11558,"ä¸ĢåĽŀ":11559,"ä¸ĢçĽĴ":11560,"ä¸Ģç®±":11561,"ä¸Ģéĥ¨åĪĨ":11562,"ä¸ĢåľĪ":11563,"è¯¡":11564,"å¾Īæ¬¡":11565,"å¾ĪæĹłè¯Ń":11566,"å¾Īå®ŀçĶ¨çļĦ":11567,"åĲķ":11568,"æľīä¸Ģæ¬¡":11569,"æľīæĺİæĺ¾":11570,"åħĨ":11571,"è¿ĺå¤§":11572,"è¿ĺæĶ¶":11573,"è¿ĺåĸľæ¬¢çľĭ":11574,"å°±èµ·":11575,"å°±è§īå¾Ĺ":11576,"æī¶":11577,"æĪĳåı¯ä»¥":11578,"æĪĳæīį":11579,"æ²¡æ³¨æĦı":11580,"ä¹°ä¸Ģ":11581,"ä¹°åĪ°äºĨ":11582,"ä¹°ä¸¤ä¸ª":11583,"è¿Ļåĩł":11584,"è¿Ļä¹Łæĺ¯":11585,"ä¸ªå·®è¯Ħ":11586,"çĶ¨åĳ¢":11587,"çĶ¨çļĦä¸ľè¥¿":11588,"åĪ°æĺ¯":11589,"åĪ°æĹ¶":11590,"åĪ°èĦļ":11591,"åĪ°æľĢåĲİ":11592,"ä¹ŁæĩĴå¾ĹéĢĢäºĨ":11593,"å·®å¾Ĺ":11594,"æĿ¥äº¬ä¸ľåķĨåŁİ":11595,"éĿ¡":11596,"è´§çľŁä»·å®ŀ":11597,"è´§ä¸įå¯¹çīĪ":11598,"å¤§äºĭ":11599,"åľ¨æĦı":11600,"åľ¨ä¸Ģä¸ª":11601,"åľ¨æĪĳä»¬":11602,"åľ¨ä¸ŃåĽ½":11603,"åľ¨ç¾İåĽ½":11604,"åŃĲäºĨ":11605,"éĥ½åĸľæ¬¢":11606,"ä¸Ĭåįĩ":11607,"äººä¹°çļĦ":11608,"äººæīį":11609,"äººéĹ´":11610,"å®¶çĶµ":11611,"å®¶ä¼Ļ":11612,"åĳ¦":11613,"ä¹¦éĥ½":11614,"åıĳåĩºæĿ¥":11615,"è´¨éĩıçļĦ":11616,"è´¨éĩıæĮºå¥½":11617,"è´¨éĩıä¹Łä¸į":11618,"è´¨éĩıå·®çļĦ":11619,"åı¯è¯´":11620,"åı¯æĥ³":11621,"åı¯è°ĵ":11622,"è¦ģä¸įçĦ¶":11623,"çĤ¹ä¸ªèµŀ":11624,"å¯ĵ":11625,"æŃ¹":11626,"å°ıæ¡¥":11627,"ç»Ļä»ĸä»¬":11628,"å¿«ä»¶":11629,"å¿«åĪĨäº«ä½łçļĦ":11630,"åĵģçĽ¸":11631,"æľ¬æĥ³":11632,"æ²¡æľīçľĭ":11633,"æ²¡æľīä¸Ģä¸ª":11634,"å¤ļæķ°":11635,"å¤ļåħĥ":11636,"å¤ļè¯´äºĨ":11637,"å¤ļå°ıæĹ¶":11638,"è£ħå¤ĩ":11639,"å¾Ĺå¥½":11640,"å¾Ĺä¸Ĭ":11641,"åĴĮå®¢æľįèģĶç³»":11642,"è¥Ł":11643,"è¥¿çıŃ":11644,"åĢĳ":11645,"æİ©":11646,"ä¸ĭéĻį":11647,"å®ŀåĬ¡":11648,"å®ŀæĪĺ":11649,"å¤©ç©¿":11650,"å¤©çĦ¶":11651,"æµı":11652,"ä¸ľè¥¿éĥ½":11653,"ä¸Ńè¯Ħ":11654,"ä¸Ńåħ±":11655,"ä¸ŃéĢļå¿«éĢĴ":11656,"å°±æĺ¯æľī":11657,"å°±æĺ¯æľīçĤ¹å°ıè´µ":11658,"è¾±":11659,"çľŁè®©äºº":11660,"éĿ¢ä¸´":11661,"æĦŁçļĦ":11662,"æĦŁè§¦":11663,"ä¼ļæĽ´å¥½":11664,"éĢģæĪĳ":11665,"æ¯Ķæĥ³è±¡çļĦ":11666,"éĿŀéĿŀå¸¸åĸľæ¬¢":11667,"åº¦çļĦ":11668,"æĥ³åĲĲ":11669,"åŃ¦çķĮ":11670,"åĩºæīĭ":11671,"ç®Ń":11672,"èĩªåľ¨":11673,"èĩªå¦Ĥ":11674,"å¼Ģçº¿":11675,"éĿŀå¸¸çļĦå¥½":11676,"åķĨéĩı":11677,"è¿Ļä¸ªä¹¦":11678,"å¯¹æŃ¤":11679,"çĶŁçĲĨ":11680,"çĶŁå¯¼å¸Ī":11681,"ä½łåı¯ä»¥":11682,"ä½łå®¶çļĦ":11683,"ä¸įå¥½ç©¿":11684,"åī¥":11685,"ä½Ĩè´¨éĩı":11686,"æĸ¹æ´²":11687,"ä½ľæĽ²":11688,"ä»Ģä¹Īé¬¼":11689,"çŃĲ":11690,"è°¬":11691,"åıªè¦ģæĺ¯":11692,"åĪĨéħį":11693,"æīįæĿ¥":11694,"æīįè¡Į":11695,"æĦŁè§īæ¯Ķ":11696,"æĹłæķĮ":11697,"æľīçĤ¹è¿ĩ":11698,"æľīçĤ¹ç²Ĺç³Ļ":11699,"åģļæ´»åĬ¨":11700,"å¿«éĢĴæľįåĬ¡":11701,"å¿«éĢĴäººåĳĺ":11702,"åħ¨èº«":11703,"åħ¨éĿ¢çļĦ":11704,"æľĢå¤±è´¥çļĦä¸Ģæ¬¡è´Ńçī©":11705,"å¹´åºķ":11706,"è¿ĺæĺ¯æľĭåıĭæİ¨èįĲæĪĳçľĭçļĦ":11707,"åĽŀäºĨ":11708,"ä¸¤ä¸ĭ":11709,"çī©æµģåħ¬åı¸":11710,"åįĸçĭĹèĤī":11711,"åĬĽåĴĮ":11712,"åħ¶éĹ´":11713,"åħ¶éĵİ":11714,"æĢİä¹Īå°±":11715,"æĢİä¹Īæ²¡æľī":11716,"åĩłç§į":11717,"æ³ķæĴĴæĹ¦":11718,"ä¹°äºĨå°±":11719,"ä¹°äºĨå¥½å¤ļ":11720,"Ġè´¨éĩıä¸įæĺ¯å¾Īå¥½":11721,"æĪĲä¸Ģ":11722,"ä½ĵåĪ¶":11723,"ä½ĵç§¯":11724,"åįķåŃĲ":11725,"åŀĥåľ¾äº§åĵģ":11726,"å½ĵå¤©å°±":11727,"é«ĺçº§":11728,"ä»·æł¼æľīçĤ¹è´µ":11729,"ä»·æł¼å¾Īå®ŀæĥł":11730,"éķ·":11731,"èĢģäººå®¶":11732,"æį¢æĿ¥":11733,"æīĢè¯´çļĦ":11734,"ç¡ħ":11735,"äº§çļĦ":11736,"æ¯Ķè¾ĥé«ĺ":11737,"ï¼Īï¼īãĢĤ\\":11738,"åĶĩ":11739,"æĸ°çīĪ":11740,"åºĶå¯¹":11741,"çĽ¸åºĶ":11742,"çĽ¸åıį":11743,"ä½¿æĪĳ":11744,"äº®äºĨ":11745,"è¯ŃéŁ³":11746,"ä½Ĩæĺ¯è¿Ļä¸ª":11747,"ä»İæľª":11748,"è´¹äºĨ":11749,"ç²¾è£ħ":11750,"éķ¿è¾¾":11751,"åı·äºĨ":11752,"èº«æĿĲ":11753,"æľŁè´§":11754,"äºĨä¸Ģä¼ļ":11755,"äºĨä¸Ģåı£":11756,"äºĨä¸ĢåĿĹ":11757,"Ġä¸ľè¥¿åı¯ä»¥":11758,"æ¸ħåįİ":11759,"æķĪæŀľè¿ĺåı¯ä»¥":11760,"æķĪæŀľè¿ĺä¸įéĶĻ":11761,"æĶ¾è¿Ľåİ»":11762,"ä¸įçŁ¥éģĵä¼ļä¸įä¼ļ":11763,"ä¸įçŁ¥éģĵå¥½ä¸įå¥½":11764,"éĢŁåº¦è¿ĺçľŁæĺ¯":11765,"åĨĻæĸĩç«ł":11766,"æĬĬåħ³":11767,"æ·Ģ":11768,"ä¸»æľº":11769,"ä¿Ŀåħ»":11770,"Ġå¾Īå¿«":11771,"å§¨":11772,"æ´»äºĨ":11773,"æ´»æ³¼":11774,"åħīé©±":11775,"è´Ńä¹°å¿ĥå¾ĹåĲ§":11776,"åĲĥäºı":11777,"éĢĢè´§éº»çĥ¦":11778,"è¿Ľç¨ĭ":11779,"éĥ½ä¸įåĪ°":11780,"æł¹æľ¬æĹłæ³ķ":11781,"æĪĳä»¬åľ¨":11782,"çļ®éŀĭ":11783,"è¿Ļä¹Īè´µçļĦ":11784,"çĶ¨äºĨä¸¤æ¬¡":11785,"çİ°åľ¨ç»Ļå¤§å®¶ä»ĭç»į":11786,"ä¸ļèµĦæł¼":11787,"å·²ç»ıä¸į":11788,"å·²ç»ıæĶ¶åĪ°":11789,"å¥Ĺä¹¦":11790,"æ¯ĽåĪº":11791,"å¥½è¯ĦåĲ§":11792,"çĻ½ä¹°äºĨ":11793,"å¤§å®¶åı¯ä»¥":11794,"å¤§å®¶è¿ĺæĺ¯":11795,"å¤§å®¶åįĥä¸ĩä¸įè¦ģä¹°":11796,"ä¹ĲåĻ¨":11797,"è§Ĥçľĭ":11798,"è´Ŀå°Ķ":11799,"å¾Īå¤ļæĹ¶åĢĻ":11800,"å¥³çĶŁ":11801,"å¥³å£«":11802,"æ´Ĺæ¾¡":11803,"åºķæľ¬":11804,"çº¸å·¾":11805,"æŃ»çļĦ":11806,"æŃ»äº¡":11807,"è§ģè¯ģ":11808,"èĲİ":11809,"éĩĮéĿ¢æĺ¯":11810,"åĲįå®¶":11811,"çħ¤":11812,"çħĮ":11813,"èĦļæĦŁ":11814,"èĦļåŀ«":11815,"å¹³åĩ¡":11816,"ĠæĪĳåıªèĥ½è¯´":11817,"åįĬä¸ªå¤ļæľĪ":11818,"è¿ŀä¸įä¸Ĭ":11819,"ä¸įåĢ¼è¿Ļä»·":11820,"ä¸ĩèĥ½":11821,"ç¬¬ä¸Ģæ¬¡åľ¨äº¬ä¸ľä¹°ä¸ľè¥¿":11822,"è®¾å®ļ":11823,"ä¼łè¾ĵ":11824,"ãĢĤãĢĤãĢĤãĢĤãĢĤãĢĤãĢĤãĢĤãĢĤãĢĤãĢĤãĢĤ":11825,"æŀģæħ¢":11826,"ä¸įä¼ļåĨįä¹°":11827,"ä¸įä¸Ģæł·çļĦ":11828,"çļĦä¸Ģä»¶":11829,"çļĦäººæĸĩ":11830,"åıĳç¥¨çļĦ":11831,"çĥĤä¸ľè¥¿":11832,"ä¸ŃçļĦæĪĺæĸĹ":11833,"ä»ĸä»¬çļĦä¹¦":11834,"è°ĥæį¢":11835,"Ġå¤ªåģĩäºĨ":11836,"åį´è¯´":11837,"éľĢè°¨æħİ":11838,"ä¿®å¤į":11839,"å¿ħè¦ģçļĦ":11840,"çĥŃçĤ¹":11841,"åĿĳäººäºĨ":11842,"åħĥç´ł":11843,"ç®¡äºĨ":11844,"çħ§æĺİ":11845,"è®¢çļĦæĺ¯":11846,"è¯»ä¹¦çļĦ":11847,"è¯»ä¹¦çł´ä¸ĩåį·":11848,"è´´äºĨ":11849,"èĽĻ":11850,"æĴ¼":11851,"åºĹå®¶è¯´":11852,"æĮĩåĩº":11853,"æĮĩæľĽ":11854,"æĮĩæĮ¥":11855,"æ¶Īæŀģ":11856,"çĽ´æİ¥ä¸¢":11857,"è¿Ļæĺ¯ä¸Ģä¸ª":11858,"åĪ©çļĦ":11859,"éĥ½æ²¡æľīæĶ¶åĪ°":11860,"å¤ĩçĶ¨":11861,"åĳ¨äºĶ":11862,"Ġä¹¦æľ¬":11863,"æĪĳçļĦæīĭæľº":11864,"åı¸æ³ķ":11865,"è¶ħçº§åĸľæ¬¢":11866,"è¯ģæį®":11867,"æīĢä»¥æĪĳ":11868,"çĻ¾ç§ĳ":11869,"çĻ¾å§ĵ":11870,"æ¸©æļĸ":11871,"è®¾è®¡å¸Ī":11872,"è®¾è®¡ä¸įåĲĪçĲĨ":11873,"å¥ĩå¦Ļ":11874,"åİĨåı²ç³»":11875,"çŁŃçļĦ":11876,"æľīäºĽåľ°æĸ¹":11877,"Ġè¿Ļä¸ªä¸ľè¥¿":11878,"åĳĬåĪ«":11879,"Ġåŀĥåľ¾äº§åĵģ":11880,"éº»çĥ¦çļĦ":11881,"å²Ĺ":11882,"è¿ľè¿ľ":11883,"æ´»åĬ¨ä¹°çļĦ":11884,"ä¹Łæ²¡ä»Ģä¹Ī":11885,"æľ¬æĿ¥å°±æĺ¯":11886,"éĥ½æ²¡çľĭåĪ°":11887,"äº²æĪļ":11888,"è¿Ļæ¬¡æĺ¯":11889,"Ġæ²¡æľīæĶ¶åĪ°":11890,"å¯Ĥå¯ŀ":11891,"åı¯èĥ½æĺ¯æĪĳ":11892,"äº¤éĢļ":11893,"æĲŀéĶĻäºĨ":11894,"é¸¿":11895,"æĽ²æĬĺ":11896,"ç¬¬ä¸Ģæľ¬":11897,"ç¬¬ä¸ĢèĬĤ":11898,"ç¬¬ä¸Ģåį°è±¡":11899,"çģ«è½¦":11900,"Ġå¿«éĢĴå¤ªæħ¢":11901,"éĺ²å°ĺ":11902,"å½ķåĥı":11903,"åĪĿä¸Ń":11904,"æıĴçĶ»":11905,"æıĴåº§":11906,"æĬķåħ¥":11907,"åĲ¸æ±Ĺ":11908,"èĩªå·±çļĦçŁ¥è¯Ĩ":11909,"èĦ±æ¯Ľ":11910,"è£ĤçļĦ":11911,"æĭ¿åĪ°åĲİ":11912,"çĮ´":11913,"å¼Ħå¾Ĺ":11914,"å¤©æīįåıĳè´§":11915,"ä¼¤å®³":11916,"èıĬ":11917,"å¯¹äºİæĪĳ":11918,"åĪĻæĺ¯":11919,"æĺ¾ç¤ºçļĦ":11920,"çħ§çīĩä¸ĬçļĦ":11921,"æ¨¡çī¹":11922,"æ¨¡ä»¿":11923,"åĩłæ¬¡å°±":11924,"é»ĦæĻĵ":11925,"èĢ³éĴī":11926,"å°ļæľª":11927,"ĠçĶ¨æĿ¥":11928,"è¯¾æľ¬":11929,"Ġé¢ľèī²å¾ĪæŃ£":11930,"é£ŁçĶ¨":11931,"å°ºçłģåģıå°ı":11932,"éĴĪçº¿":11933,"éĢģåĪ°å®¶":11934,"ä¸įçŁ¥æĺ¯åĲ¦":11935,"ä¸ĬéĿ¢æľī":11936,"æľ¨å¤´":11937,"æ²¡ä»Ģä¹ĪéĹ®é¢ĺ":11938,"æ²¡ä»Ģä¹ĪæķĪæŀľ":11939,"éĺ³åı°":11940,"æµĭéĩı":11941,"åĵİåĵİ":11942,"å°±æ²¡äºĨ":11943,"2008":11944,"2009":11945,"ä¸¢åľ¨":11946,"æŀĹè¾¾":11947,"ç´łæıı":11948,"ä½ľä¸ºä¸Ģä¸ª":11949,"ĠåķĨåĵģè¿ĺåı¯ä»¥":11950,"æ²¡æ³ķæ¯Ķ":11951,"å½ĵæĹ¶ç¤¾ä¼ļçļĦ":11952,"ä¸įç»Ļå·®è¯Ħ":11953,"éĻ¢éķ¿":11954,"å¦Īå¦Īå¾Īåĸľæ¬¢":11955,"å¼¹ç°§":11956,"æ´ŀæĤī":11957,"åŀĥåľ¾åŀĥåľ¾åŀĥåľ¾":11958,"çģ°èī²çļĦ":11959,"åİŁåĽłæĺ¯":11960,"Ġè´§æĶ¶åĪ°":11961,"åĪ«çļĦåľ°æĸ¹":11962,"åĹ·":11963,"Ġäº¬ä¸ľèĩªèĲ¥":11964,"ä¹±ä¸ĥåħ«":11965,"é¢Ħçº¦":11966,"æĪĳæĥ³éĹ®":11967,"ä¹°åĪ°çļĦ":11968,"ä¹°åĪ°åģĩè´§":11969,"ç»ĵå®ŀçļĦ":11970,"æľŁå¾ħæķĪæŀľ":11971,"ç»Ļä¸ªè¯´æ³ķ":11972,"Ġåıĳè´§å¤ªæħ¢äºĨ":11973,"å·®è·Ŀå¤ªå¤§äºĨ":11974,"èµ·çĲĥçĲĥ":11975,"æĵįä½ľç®Ģåįķ":11976,"ĠåĨħå®¹å¾Ī":11977,"å·®åĪ«å¾Īå¤§":11978,"è¦ģæĺ¯æľī":11979,"åºĬä¸Ĭ":11980,"åºĬåŀ«":11981,"æŃ¦æ±ī":11982,"æŃ£å¸¸ä½¿çĶ¨":11983,"åŃ¦æľ¯ä»·åĢ¼":11984,"æķıæį·":11985,"æĶ¾å¿ĥè´Ńä¹°":11986,"æĪıåī§":11987,"æł¸å¿ĥ":11988,"æĸĻåŃĲå¾Īå·®":11989,"ç»ĺåĽ¾":11990,"ä¸įçĶ¨æĭħå¿ĥ":11991,"åĮħè£ħå¾Īç²¾ç¾İ":11992,"åħ·æľīå¾Īå¥½çļĦ":11993,"ä¿ĿæļĸæĢ§":11994,"åĩłå¤©å°±åĿıäºĨ":11995,"æĪĲåĬŁçļĦ":11996,"ä¸ĢçĤ¹éĥ½ä¸įä¸Ģæł·":11997,"åĿĩçłģ":11998,"ç¿»è¯ĳæĪĲ":11999}